#version: 0.2
Ġ t
Ġ a
h e
i n
o u
Ġ .
Ġ s
Ġt he
r e
Ġ o
Ġ y
Ġy ou
Ġ c
Ġ w
e r
Ġ ,
Ġ b
Ġ f
a t
Ġ p
Ġt o
Ġ i
n d
in g
Ġ m
o n
Ġ d
l e
o r
a n
e s
e n
l l
i t
Ġ in
Ġyou r
Ġa nd
Ġ h
a r
Ġt h
Ġo f
Ġ n
e d
Ġ l
o m
s t
Ġ e
i c
o t
Ġ g
a l
v e
s e
Ġb e
i on
Ġ re
Ġ u
a c
Ġo n
o w
i s
e t
Ġo r
Ġi s
a y
Ġf or
k e
Ġi t
Ġs t
Ġh a
en t
i ll
l y
r o
Ġa re
i d
Ġth at
i g
it h
Ġw ith
Ġi f
c t
o o
Ġc an
l d
Ġn ot
Ġw ill
u t
Ġd o
Ġa s
Ġa n
a s
v er
ou t
he r
i m
a m
i r
Ġ -
c h
a d
Ġs u
c e
Ġs h
Ġ r
Ġw h
a ll
i l
Ġs e
a ke
Ġn e
Ġ le
Ġ he
Ġha ve
ig h
at ion
Ġf r
p e
Ġc on
Ġm o
t er
at e
Ġth is
Ġl i
u r
Ġc h
Ġe x
an t
g e
a in
p p
igh t
b le
er s
Ġc om
Ġa t
Ġt r
Ġp ro
s s
Ġa l
Ġs o
u l
n t
ou ld
Ġd e
Ġw he
Ġp l
Ġc o
om e
q u
i ve
p le
es s
Ġw e
ar t
es t
Ġ v
Ġm ake
u m
i f
Ġ j
u s
i e
Ġc l
u re
a p
Ġ out
Ġa d
Ġfr om
e l
Ġm ay
Ġu p
Ġp o
Ġa b
k ing
or t
f e
in d
Ġthe m
all y
id e
t her
Ġf e
ar d
Ġin t
Ġthe y
Ġu se
Ġ k
e m
e p
Ġg et
oo d
in e
Ġw or
Ġb ut
ic k
r ou
g h
u st
Ġa ll
t h
ac k
Ġwhe n
o re
Ġs ome
a re
Ġne ed
on e
i st
Ġp re
r a
Ġt im
ac e
u n
s o
Ġli ke
Ġb y
i p
Ġu s
m ent
Ġsh ould
Ġo ther
i es
oo k
Ġg o
Ġmo re
Ġs p
ac t
Ġab out
a st
i le
Ġt e
Ġ 1
c k
a ble
ic e
ou r
l o
i re
Ġan y
ion s
u d
ac h
Ġw ant
Ġon e
Ġ en
Ġl o
a ge
Ġhe l
Ġtim e
Ġhel p
a nd
at er
Ġal so
Ġp r
Ġcon t
ow n
p t
Ġa pp
Ġad d
a b
Ġint o
i v
Ġb o
Ġs c
i z
Ġ ke
a g
Ġh ow
Ġa c
Ġi m
c i
Ġd r
it y
on g
Ġm e
ver y
Ġf o
Ġin c
Ġp e
ing s
Ġb r
it e
Ġwh at
Ġtr y
Ġthe n
a k
am e
Ġk n
re at
Ġof f
Ġe v
nd s
Ġo ver
a u
Ġre m
Ġsu re
p er
a il
l f
Ġwor k
a se
Ġthe ir
Ġke ep
Ġt ake
Ġ qu
ou gh
Ġd is
Ġs pe
o l
t ing
Ġs m
Ġp art
Ġthe re
c ess
Ġu n
Ġcom p
Ġd own
as s
Ġa f
h ing
Ġf l
u e
Ġw ater
i ld
Ġm an
Ġf ind
b er
or m
f ore
Ġ 2
a v
Ġc he
re ss
Ġ ro
ic h
Ġw ay
Ġfe el
in k
Ġin st
an ce
e ct
Ġbe c
Ġl ook
ation s
ou nt
Ġthe se
rou nd
o ple
Ġbe fore
Ġb ack
Ġp ers
Ġre s
o s
Ġpe ople
ul t
se lf
Ġp er
d u
Ġg r
le s
nd er
re e
Ġj ust
re d
Ġt w
Ġcon s
Ġwh ich
Ġg ood
Ġth an
Ġha s
Ġb ot
an s
ou s
Ġim p
Ġb l
Ġpers on
f t
w ay
it ion
Ġc le
Ġs k
Ġse e
Ġst art
au se
Ġco l
Ġp h
Ġa r
Ġev en
Ġd ay
ig n
Ġat t
Ġe m
Ġe ach
Ġs et
Ġwh o
Ġb u
p l
Ġkn ow
Ġh o
g et
le ct
Ġex am
Ġa ct
Ġw r
Ġd if
i al
p en
a king
Ġyour self
Ġa g
in t
Ġne w
x t
Ġpl ace
an g
ent s
Ġbe t
Ġa v
Ġaf ter
ur n
at ed
om et
c o
or s
Ġmo st
he s
Ġs l
o se
a ve
Ġf ir
Ġus ing
Ġe very
Ġle t
Ġst r
ar y
rou gh
Ġm in
Ġr ight
Ġm ight
c es
Ġ her
u b
Ġs omet
Ġfr ie
fe re
Ġ 3
fe ct
Ġwh ile
Ġth rough
w e
u ll
Ġs he
f orm
d e
is h
Ġt y
i ly
o ve
Ġa m
ic al
Ġre l
Ġto p
Ġu nder
r y
Ġwe ll
i b
l ud
Ġexam ple
Ġas k
Ġs er
Ġch ild
Ġon ly
Ġtw o
Ġha ir
t e
Ġsu ch
Ġinc lud
v ing
Ġa round
t en
Ġac c
Ġm u
Ġl ong
Ġfir st
Ġn o
Ġcom m
or d
oo l
iz e
Ġs im
w n
le d
Ġc re
Ġbec ause
Ġon ce
Ġcl ick
id er
er t
i ble
Ġm ed
Ġsm all
Ġha nd
Ġto o
Ġre ad
at ing
Ġfor m
f ul
en ce
Ġu nt
Ġpl ay
u ally
d y
Ġp ut
Ġwhe re
l ic
ar n
ar k
Ġman y
ul ar
u p
t le
Ġin s
Ġf ood
ow s
oo se
Ġg ive
al k
Ġw ould
Ġunt il
Ġc ut
Ġdo g
an ge
Ġdif fere
Ġmu ch
Ġli st
o id
i se
Ġd es
Ġe as
Ġo pen
Ġcle an
b s
Ġs y
Ġdo es
Ġre c
o p
Ġlo c
ar s
0 0
Ġs ay
w ard
Ġsomet hing
ou nd
Ġb est
ll ow
en s
Ġre qu
or n
al s
Ġde c
if ic
y s
ow er
Ġc r
Ġw as
Ġc ould
t s
Ġ 5
ot her
Ġo pt
er m
Ġche ck
Ġ ent
re ad
ment s
f f
on s
Ġs ide
i x
Ġth ings
Ġo wn
Ġdiffere nt
Ġc are
Ġav oid
Ġcons ider
Ġs a
Ġc ar
Ġre g
Ġs it
d er
ver s
Ġimp ort
Ġmin ut
Ġe y
ci al
o d
Ġn um
Ġj o
g g
Ġin ter
it s
Ġc at
Ġh ome
Ġe nd
Ġf in
Ġd et
Ġin form
Ġ ve
us h
Ġbo dy
ad e
ap er
Ġsu pp
Ġ very
Ġc al
Ġp ain
Ġhe al
ct ion
Ġcom ple
l ine
Ġdr y
Ġimport ant
Ġch oose
n g
Ġa p
Ġs ign
ar ch
e ver
at es
Ġd i
u al
Ġse lect
Ġg u
Ġs ame
Ġpro v
Ġfe w
Ġall ow
Ġth ink
Ġbe ing
Ġfo llow
g r
Ġsk in
Ġpo ss
i ous
Ġb re
a x
Ġg l
ar m
Ġinform ation
j ect
e ad
Ġl it
Ġp ay
Ġrem ove
Ġh igh
Ġ 4
i er
ur ing
or y
Ġag ain
Ġsu r
re en
Ġf ile
Ġpo s
Ġpro du
Ġ ed
Ġheal th
Ġt urn
Ġb as
Ġa ble
Ġrequ ire
pe ct
Ġminut es
Ġr un
Ġan other
he d
Ġl ar
Ġfrie nds
v es
Ġl ight
ro p
Ġhe ad
Ġin v
Ġp ur
at ive
Ġd ra
Ġsome one
Ġare a
g in
Ġt reat
i a
Ġint e
at her
ot h
Ġpre ss
Ġy e
Ġof ten
Ġp ie
Ġa way
Ġg en
Ġm at
Ġex per
Ġapp ly
Ġho ld
Ġpl an
Ġhow ever
Ġc ard
Ġinclud e
Ġcre ate
Ġm et
Ġus ed
Ġle arn
h ip
Ġh im
Ġinst ead
it ies
en c
ic t
Ġgo ing
ak es
i ed
t on
Ġbot h
Ġsu b
Ġmo ve
Ġpo int
Ġit s
Ġst ore
Ġpro cess
we en
a ir
a w
get her
Ġbet ween
Ġf ree
Ġre p
Ġp at
Ġt alk
th ing
Ġo il
Ġp aper
way s
Ġd ire
Ġnum ber
nd ing
Ġle ft
Ġty pe
m e
n er
ic es
ie w
i ate
Ġf am
n ot
Ġto gether
Ġc ur
Ġbet ter
em ber
in ess
re st
e k
Ġh ard
Ġposs ible
Ġin d
Ġst ep
Ġre st
Ġb us
Ġp ot
Ġsh ow
Ġn ame
Ġen ough
ic ally
Ġpre v
on t
n ess
Ġd uring
Ġdis c
Ġi de
Ġcol or
Ġle ss
r act
Ġl ot
Ġe l
Ġbot t
Ġs ch
re n
Ġw ind
re s
Ġf ace
v ed
as h
Ġst ud
a pe
Ġlit tle
Ġth ough
Ġwith out
Ġn ow
m s
Ġm ust
Ġm on
Ġle g
Ġbe en
ou se
Ġal ways
g er
Ġcomple te
Ġam ount
Ġm us
t y
is s
Ġm aking
ve l
em s
Ġne xt
at ure
p s
Ġbe gin
Ġwe ar
it ing
Ġo b
Ġt est
Ġspe c
Ġcan not
Ġg reat
Ġh is
Ġch ar
Ġh our
Ġst ill
Ġte ll
Ġc our
Ġ es
r u
f er
Ġbu y
Ġc ert
Ġex t
b o
Ġs w
Ġcon f
in es
Ġsch ool
v ice
Ġty p
Ġgen er
p o
n e
Ġv is
Ġqu est
Ġcont act
Ġinte rest
Ġli fe
ain ing
r ic
Ġf un
Ġbott om
n ing
il ity
f ort
Ġl oo
Ġp ass
Ġch ange
Ġacc ount
Ġch o
Ġlike ly
Ġbe l
an k
Ġpro ble
Ġcom e
Ġle vel
Ġfrie nd
Ġb at
Ġwe ek
ar i
Ġus ually
Ġl ine
f fect
Ġdo ing
i ence
Ġpro f
Ġpr ot
Ġap pe
ct or
Ġwor d
if y
ter n
Ġm ix
Ġon line
Ġother s
Ġor der
st and
Ġpro per
Ġst ate
Ġe ffect
ant s
Ġprodu ct
Ġ1 0
ent ly
Ġsp r
ou n
Ġget ting
Ġbut ton
Ġbe h
Ġ 6
Ġpr act
Ġha pp
are nt
Ġse co
Ġro om
Ġc all
ion al
Ġcont ain
Ġst re
b e
Ġbo x
Ġpre s
Ġm ind
Ġcl ass
Ġc a
Ġle ast
Ġc ent
Ġlar ge
one y
Ġl ay
n ect
c us
Ġco nd
Ġst and
l ing
Ġex p
Ġt em
er g
et s
ci ally
Ġdire ct
Ġrem ember
Ġst ay
Ġtr ans
Ġle ave
Ġth ree
Ġco ver
Ġbus iness
Ġt ap
Ġb ook
Ġw a
Ġex er
Ġfam ily
Ġre t
Ġd ist
Ġs al
ent ion
ce pt
y le
Ġas s
Ġf ull
Ġtim es
ag es
Ġs le
Ġwr ite
Ġha ving
Ġspec ific
Ġwhe ther
Ġc up
Ġsh o
Ġa ir
Ġth ose
Ġfo ld
Ġbr ing
et y
Ġp arent
id es
it her
le ss
Ġst ra
i ents
Ġm ain
g ar
Ġm ark
i or
Ġdo ctor
Ġm en
Ġg iv
c r
Ġv al
Ġso l
ter s
Ġpre p
gr am
pe cially
or k
Ġs n
Ġsc reen
Ġsupp ort
Ġqu ick
Ġcl ose
Ġb ow
at ch
Ġes pecially
Ġem p
Ġc ook
i ent
Ġcon nect
t o
am p
r ow
Ġse arch
Ġre ally
ab ly
e ll
Ġre f
at ur
f ic
Ġg rou
Ġunder stand
Ġcomp an
Ġdra w
Ġo ld
Ġd one
Ġfo cus
Ġde pe
Ġhe at
Ġe ither
Ġwe bs
w are
u g
Ġprov ide
pp ing
Ġbre ak
Ġp an
Ġcont in
en e
ot s
Ġinc re
xt ure
a le
g an
ail s
Ġcomp ut
Ġpro gram
Ġact iv
it ive
Ġloc al
ip s
ng th
Ġa ut
Ġb lo
Ġe at
Ġc ase
Ġf ill
Ġh ot
able s
Ġb all
Ġse c
en se
ic s
Ġst ick
Ġ 8
Ġbu ild
Ġc orn
as on
Ġpart ic
c ed
Ġcont ro
Ġm ade
Ġm oney
lo ad
i o
Ġl aw
c um
Ġi d
Ġsh ort
Ġh al
Ġne cess
u es
b r
Ġcl ot
Ġav ail
Ġey e
Ġcomm on
Ġc ir
c le
Ġoff er
in s
t ed
Ġrel ations
as es
Ġo pp
Ġadd ition
Ġc or
Ġcle ar
Ġs qu
Ġsle ep
Ġp ast
Ġf ing
s ure
Ġpur ch
Ġre du
g n
Ġs in
Ġwe ight
Ġent er
Ġrelations hip
Ġprev ent
Ġavail able
Ġp ick
el s
pl ay
ci se
Ġl ow
Ġph one
Ġperson al
o y
Ġcert ain
Ġde p
Ġp age
Ġmon th
Ġcom fort
Ġsm o
Ġc reat
v en
c hes
Ġreg ular
Ġph ot
Ġb it
Ġre al
Ġhour s
is k
ve lo
Ġha nds
Ġme et
Ġins ide
Ġneed s
s ide
id s
Ġopt ion
Ġe ar
c c
Ġres ult
Ġday s
Ġso ft
p ly
Ġf il
Ġsy m
Ġle ad
lo y
Ġsy st
Ġe qu
Ġn atur
Ġar t
Ġpos ition
Ġbec ome
Ġl ast
m on
om s
Ġw arm
Ġchild ren
Ġpo st
Ġwh ite
Ġit ems
Ġm em
Ġfr ont
Ġsim ply
c on
t he
Ġt erm
Ġ 7
ac es
Ġb ar
Ġim m
Ġcom b
ir t
Ġsit u
Ġst op
Ġpract ice
Ġh ouse
Ġdet erm
Ġme ans
Ġb ig
ent ial
Ġi r
Ġb ed
Ġp ull
p h
Ġcomput er
Ġt aking
Ġsp ace
Ġ x
Ġpro b
Ġad v
pp er
Ġbow l
Ġapp lic
Ġb ab
Ġg ame
Ġde f
Ġac cess
Ġd am
Ġre d
Ġre pe
Ġco st
Ġl im
Ġquest ions
Ġke y
Ġse ver
Ġs we
Ġcontro l
Ġemp loy
Ġnot e
Ġhal f
Ġany thing
b ers
Ġmed ic
Ġsin ce
fic ult
Ġ z
ro ss
Ġc ool
Ġappe ar
Ġal ong
av or
Ġor gan
Ġprep are
Ġb ag
Ġ1 2
iz ed
ure s
Ġco p
Ġne ver
Ġdif ficult
im es
r ap
Ġpie ce
v iew
Ġch ang
Ġprof ess
Ġs ize
Ġey es
Ġdes ign
Ġph ys
at or
Ġgr ow
um p
Ġc ount
Ġmet h
Ġsl ow
Ġre ce
Ġsur f
it ch
w he
Ġjo b
Ġexper ience
read y
Ġf act
Ġopt ions
Ġm ater
Ġadd ress
Ġal ready
Ġde velo
Ġb le
i xture
Ġpain t
Ġexer cise
al king
Ġcon c
Ġm ess
ct ions
Ġth in
Ġme an
Ġnecess ary
ut ion
Ġen g
t c
Ġme as
Ġmater ial
Ġmeth od
Ġsever al
Ġf it
i um
as k
Ġp et
Ġf lo
Ġen j
Ġ ing
Ġprot ect
Ġloo king
Ġb reat
Ġre se
ac ter
Ġqu al
Ġfollow ing
Ġst ress
Ġis s
ou ch
ill s
Ġwe re
Ġst e
Ġf ound
at s
Ġspe cial
is hed
Ġw atch
Ġatt ention
Ġmen u
Ġm ot
w ork
Ġen sure
Ġk ind
Ġex pl
Ġhe re
Ġseco nd
Ġon to
ward s
ut e
Ġcomm un
Ġr u
Ġm ixture
Ġsyst em
Ġne g
Ġc red
Ġenj oy
ou ble
Ġpo p
Ġn ight
Ġne ar
am es
ull y
Ġwor king
Ġl ower
Ġbl ack
at h
Ġdevelo p
Ġso cial
ast ic
Ġan t
Ġhealth y
Ġid ent
Ġext ra
Ġcontin ue
t ain
Ġb ene
Ġeas ier
g es
Ġeas y
Ġm akes
i an
Ġread y
Ġlo ve
f ully
Ġfood s
ap s
Ġd ate
Ġprob ably
Ġsa fe
Ġto ol
Ġcent er
Ġ2 0
n s
Ġwebs ite
Ġc ust
Ġide a
Ġsu gar
lo g
Ġout side
Ġimp ro
Ġte xt
Ġapp ro
enc y
Ġbl ood
e e
ar r
o g
Ġparent s
Ġe gg
Ġcon vers
id d
Ġm y
Ġwa it
Ġd rop
Ġp ower
Ġn orm
Ġwas h
ir d
Ġs ave
Ġnot ice
or ies
Ġrec om
Ġdo cum
Ġlong er
re nt
Ġrecom me
Ġ 9
Ġin f
i qu
Ġpo l
Ġsomet imes
um e
Ġstra ight
Ġing red
Ġdog s
Ġpie ces
Ġr isk
Ġbr ush
ar ing
Ġbeh av
ire d
Ġfo ot
m o
Ġv ari
Ġp ack
Ġe tc
Ġinst all
Ġdr ink
Ġres p
Ġp ub
Ġ1 5
nd ed
Ġgrou p
Ġlist en
in al
Ġtry ing
Ġel se
Ġway s
Ġrec ord
ie ve
Ġ ver
Ġm ult
Ġw alk
Ġse ction
u se
Ġdepe nding
g le
Ġv ide
Ġpartic ular
Ġ3 0
s w
Ġsim ple
Ġdeterm ine
Ġsym pt
Ġcomplete ly
Ġfe et
Ġab ove
Ġmus ic
Ġrem o
Ġw all
ie ld
Ġpr om
Ġdec ide
ight ly
Ġcomfort able
u it
Ġwh y
Ġnatur al
Ġ est
Ġb ad
Ġo cc
Ġsc r
Ġword s
Ġb ase
Ġp ict
an ces
c ing
Ġd ress
Ġro ll
Ġinter n
Ġf our
le t
v ices
Ġper form
Ġn on
Ġs ing
Ġle ngth
Ġle av
Ġeas ily
Ġr ub
Ġquick ly
Ġagain st
Ġcompan y
Ġto w
Ġc oun
Ġdown load
Ġevery thing
Ġt ouch
Ġcre am
Ġc ause
Ġs our
Ġwr iting
Ġn ut
Ġl ab
Ġpl ant
Ġfe ed
Ġrepe at
p ar
Ġve get
Ġem ot
Ġcred it
a z
Ġf ab
il k
Ġan sw
Ġgl ass
Ġb ra
Ġf ast
Ġstr ong
Ġc ap
iv id
Ġsurf ace
l i
Ġredu ce
Ġproble m
Ġg round
Ġp le
Ġca us
b ook
Ġr ather
Ġwith in
Ġd id
il ar
Ġbo ard
Ġfab ric
Ġye ar
Ġingred ients
Ġbas ed
i od
h y
Ġde ep
Ġde g
Ġtem per
Ġh y
re ct
Ġsh are
Ġsympt oms
Ġare as
u ck
Ġpos itive
Ġcust om
it ions
Ġen c
Ġan im
Ġh um
u ss
Ġw ood
Ġg ra
it ed
Ġset t
Ġdi et
Ġd ark
Ġproble ms
ed iate
out h
Ġper iod
on es
Ġsim ilar
Ġspr ay
Ġde al
ac ing
n ce
Ġsc he
c he
Ġf re
Ġmeas ure
res h
Ġ 0
rop r
Ġpurch ase
un ch
Ġwind ow
pp ed
Ġpart ner
ate ly
Ġre le
se l
Ġp our
Ġinclud ing
Ġf all
ropr iate
Ġp ar
Ġcour t
Ġimm ediate
Ġp ort
Ġem ail
Ġb al
Ġwork s
Ġspe nd
o ck
Ġac cept
Ġn et
Ġco ld
Ġh or
Ġse ll
in ation
Ġex pect
Ġincre ase
Ġmo d
Ġsitu ation
Ġbab y
Ġcorn er
Ġwho le
Ġrel ax
Ġproduct s
Ġfl at
Ġre ach
Ġg ently
j ust
Ġret urn
bo ard
Ġsh ape
i pe
Ġg re
Ġfeel ing
Ġse lf
Ġe lect
Ġent ire
Ġb ro
Ġ ess
Ġre co
Ġd a
Ġhe art
ain s
Â ł
Ġh ang
Ġmo ist
Ġevery one
iv es
Ġte ch
u ct
Ġth ing
Ġinst ru
Ġpress ure
Ġprofess ional
Ġsal t
Ġse par
Ġtemper ature
Ġcur rent
Ġpl astic
Ġser vice
Ġob ject
Ġv iew
u ff
Ġt able
Ġsett ings
Ġpres ent
Ġpart y
Ġcond ition
Ġc ell
ast e
Ġeffect ive
Ġconvers ation
Ġr out
id ent
Ġwind ows
Ġt ape
ip t
Ġhelp s
Ġin ch
Ġcop y
Ġg ir
Ġst ir
Ġv ol
Ġl ater
Ġst yle
m er
Ġtyp es
Ġh ig
idd le
Ġg reen
Ġte am
Ġloc ation
Ġc ra
Ġrese arch
Ġth ick
d o
Ġsu c
Ġact ually
Ġcor rect
Ġw ire
at o
Ġapp ropriate
Ġspe ak
Ġbut ter
Ġtech n
Ġev ent
Ġfeel ings
Ġin fect
Ġs ides
Ġsche du
Ġapplic ation
pen s
Ġli ve
Ġre ason
ro om
Ġal tern
Ġ vers
Ġf at
Ġcon st
Ġe ating
Ġf resh
Ġse nd
Ġm a
Ġad just
Ġar r
Ġinv ol
is ion
Ġm ilk
Ġtreat ment
Ġdisc uss
Ġcom es
Ġre pl
Ġphys ical
Ġdirect ly
f fe
ed s
Ġf ur
Ġtyp ically
Ġbel ow
Ġm iddle
Ġblo ck
Ġl ink
Ġmed ical
Ġphot o
Ġye ars
os ed
Ġlet ter
ic king
Ġj u
Ġcol ors
Ġm outh
Ġimpro ve
Ġtr aining
Ġfl ow
y ou
Ġgener ally
Ġsu n
in ed
o c
Ġf avor
Ġj e
Ġgener al
Ġk it
Ġs ound
Ġdr ive
so l
st er
Ġaf fect
d r
Ġda ily
id ence
Ġind ivid
it es
Ġvis it
Ġsl ightly
Ġbehav ior
Ġi ce
ore d
Ġc oo
Ġsp read
Ġf ish
im e
Ġpro ject
h ol
Ġflo or
l s
ic le
re es
Ġdam age
c les
Ġclot hes
y ing
Ġb and
Ġinv est
ou ra
Ġinc hes
Ġj ud
Ġp ow
Ġser ve
r it
ist s
Ġsc re
Ġwor ld
orn e
Ġansw er
Ġm ic
Ġpre fer
Ġm om
Ġvide o
m it
Ġl ines
Ġim age
b it
Ġimmediate ly
Ġlay er
ang u
Ġbr own
u c
Ġneg ative
Ġha d
Ġgl ue
Ġoff ice
Ġb aking
Ġf ire
Ġi con
Ġf ield
Ġthe rap
em ent
Ġr a
Ġpat tern
w ise
Ġbene f
c om
Ġb urn
Ġd ig
c ul
Ġl angu
Ġchang es
whe re
Ġrun ning
Ġp in
Ġneed ed
Ġon es
Ġf ive
al le
Ġatt orne
Ġw om
Ġt alking
r ies
Ġleg s
Ġtr ust
Ġw in
Ġa ud
Ġpub lic
if ied
Ġse x
Ġdis play
ack s
Ġrep ort
s p
Ġnorm al
Ġbot tle
Ġd at
Ġcomp l
Ġte ac
Ġtr ave
Ġsmo oth
Ġre view
he ad
Ġval ue
cr ib
Ġfin ished
ur t
Ġcal led
p or
if t
Ġg ar
00 0
z e
Ġpart s
Ġc and
h o
Ġrequire d
Ġbat h
d ay
Ġne ck
erg y
se t
as ed
it al
Ġbas ic
w ord
Ġsec ure
Ġper fect
l ight
Ġo k
Ġslow ly
Ġbl ue
Ġcare fully
e es
Ġf ig
iqu e
Ġa ge
g o
Ġqual ity
Ġs au
Ġhapp en
Ġar m
c l
Ġcat s
Ġsk ills
Ġde vice
Ġschedu le
Ġactiv ities
Ġadd ing
so ci
is es
u nt
Ġst ates
Ġsuc cess
Ġed ge
Ġsmall er
Ġrequ est
id ing
Ġident ify
k es
o log
Ġs and
Ġinst ance
Ġd iv
Ġp ush
ation al
th ough
c er
Ġse em
co hol
um b
Ġhig her
Ġg e
Ġfing er
ou nds
Ġsp ot
Ġas soci
Ġc ou
Ġmo ving
Ġteac her
Ġkeep ing
Ġme at
c ol
Ġal cohol
as ing
Ġin j
Ġso on
Ġli qu
c y
Ġcontain er
Ġhe av
es e
Ġm ag
Ġresult s
Ġo ven
Ġe ff
ress ion
Ġclean ing
Ġwr ap
Ġcard s
Ġp u
Ġlangu age
Ġmonth s
Ġfor ward
Ġa ware
Ġsol ution
Ġmult i
Ġind ic
Ġweek s
Ġn ice
Ġdo or
Ġaddition al
Ġchar acter
Ġtow el
ie f
Ġh it
Ġd ouble
Ġpl ants
Ġsu m
Ġlar ger
Ġcal m
r ib
Ġu r
ort un
Ġcour se
Ġfile s
Ġex cess
Ġsing le
Ġopp ortun
Ġt ight
Ġveget ables
Ġs ong
Ġex pens
Ġp air
en ces
Ġor ig
ap h
Ġread ing
d d
Ġc e
Ġfin ish
Ġso il
Ġch ick
Ġstart ing
Ġfing ers
Ġrece ive
Ġintern et
Ġcol lect
ate g
Ġstep s
Ġt ax
Ġ er
Ġsqu are
Ġorgan iz
Ġseco nds
l ish
Ġl and
Ġal though
Ġmem bers
Ġac ross
o on
Ġe le
Ġplay ing
o f
Ġres pect
Ġresp ons
ent al
cr ipt
Ġsho es
Ġser ious
Ġmat ter
Ġvari ety
Ġc am
Ġdis h
Ġst ory
Ġcho ice
Ġsay ing
Ġl ic
Ġpoint s
Ġmin im
au gh
Ġcl oth
Ġclot hing
Ġbeh ind
Ġte nd
ort h
Ġb ank
b y
Ġexper i
Ġatt ach
Ġt ab
Ġser vices
Ġstore s
Ġt ask
Ġch r
Ġmed ium
s ing
Ġmo v
Ġgiv ing
Ġsau ce
et h
Ġlook s
Ġman age
Ġset ting
Ġiss ues
if e
Ġen ergy
Ġso ap
in se
Ġf ore
Ġcont ract
Ġex act
ate ver
Ġinstru ctions
Ġc y
Ġre act
Ġenc oura
ot e
Ġgr ad
st yle
Ġbo il
Ġfr uit
ough ly
Ġf ut
Ġwr it
Ġg oo
Ġso d
Ġsign s
Ġto wards
gg est
Ġwh atever
Ġbec om
is m
Ġhand le
Ġdet ails
Ġdocum ent
Ġmark et
Ġc ases
Ġs ens
d ing
Ġcommun ic
Ġv ac
Ġho le
Ġsu ggest
Ġbook s
is ing
Ġen v
Ġm ar
Ġun less
Ġr ange
Ġfavor ite
ur ance
ro du
Ġear ly
Ġw et
Ġins ert
Ġal mo
Ġs ent
Ġw ide
Ġpr int
Ġactiv ity
Ġch ance
Ġcoo king
Ġm ail
Ġf ar
am in
Ġstre t
Ġfut ure
Ġspe ed
Ġfur ther
Ġan x
Ġfre qu
Ġall ows
Ġtr ack
Ġr inse
Ġshe et
Ġsepar ate
ain t
Ġtr ain
Ġmat ch
Ġgo als
Ġpict ure
ll ing
Ġget s
Ġfold er
Ġmulti ple
Ġstud y
Ġpl aces
Ġlevel s
Ġleav es
Ġattorne y
Ġm el
Ġk ids
Ġm ach
Ġtr ad
Ġs ite
Ġh ist
Ġmain tain
Ġsub ject
Ġb ud
Ġhapp y
ver t
Ġco de
Ġgo al
Ġreg ist
Ġma j
Ġquest ion
in ing
Ġf ine
ort s
Ġpot ential
Ġpr iv
Ġju ice
er v
ub e
g ress
f or
Ġdat a
Ġhelp ful
Ġ our
Ġf ro
Ġmess age
Ġf u
Ġcare ful
p r
id ed
Ġinterest ed
Ġproper ty
Ġte a
Ġproper ly
ce l
Ġg lo
iz ing
Ġit em
ir on
Ġd ise
Ġt akes
Ġcho col
Ġbat ter
Ġnot es
Ġcoun ter
Ġtr a
Ġmaj or
Ġprogram s
ab ility
Ġto t
Ġe nds
Ġgiv en
Ġs ense
a pp
Ġpr ice
r al
Ġm iss
Ġt ables
r ing
Ġfig ure
Ġas king
Ġr ound
Ġlo ss
am s
Ġstand ard
Ġenv iron
un k
e red
Ġres po
Ġlo g
ak en
Ġfe ature
Ġhor se
Ġlo se
Ġpow der
Ġth row
Ġv it
il ities
Ġmay be
Ġd ue
Ġte ach
Ġg ames
Ġkn own
Ġaut om
ffe e
m in
Ġthrough out
Ġ 000
m ing
Ġar ms
Ġt it
Ġpass word
Ġv o
Ġsu per
Ġha m
Ġact ive
Ġlim it
Ġwr ong
ur y
Ġmaterial s
Ġexpl ain
Ġcou ple
Ġthough ts
Ġchocol ate
Ġco at
Ġphot os
Ġinf l
ib ility
Ġse ason
er n
po on
Ġliqu id
Ġb ir
Ġsw itch
Ġtrans fer
Ġc m
Ġgoo gle
Ġt ar
Ġw ish
Ġlearn ing
Ġwe b
Ġcl os
Ġal one
Ġad ult
Ġstud ents
Ġu pper
d is
Ġacc om
Ġpop ular
Ġprot e
w h
iv ing
Ġsub st
Ġform s
Ġdec or
Ġco ffee
a f
Ġscre w
Ġess ential
Ġocc ur
Ġmet al
a im
Ġaf f
Ġsa f
Ġegg s
Ġc ross
Ġrecomme nded
Ġve t
Ġte eth
a h
t op
Ġwear ing
Ġr ate
Ġfl u
ag ing
Ġvers ion
Ġp en
Ġt ank
sel ves
Ġg ard
p ort
Ġins urance
i vers
r ation
Ġche m
Ġcir cle
Ġthin king
Ġth or
Ġcons ist
ck s
Ġcal cul
ific ation
Ġto oth
Ġed it
Ġide as
ist ic
Ġstret ch
m an
Ġt en
Ġl a
Ġche ese
Ġs av
il i
led ge
Ġf ight
ac ed
Ġmed ia
Ġm ass
n y
b ing
er ing
Ġreco gn
Ġpur p
s es
Ġcat ch
Ġin it
Ġed ges
Ġap art
Ġpu pp
Ġregular ly
Ġstr ing
Ġo per
i ally
Ġru les
Ġact ion
re t
em pt
Ġv ar
Ġmus cles
Ġgo ld
Ġprepare d
Ġfin an
Ġa ch
Ġf le
ou d
Ġsour ce
Ġbir th
Ġnum bers
Ġmot ion
c ent
Ġnet work
at ic
Ġexer c
play style
am m
Ġd ough
Ġplay er
Ġenviron ment
n ers
ck et
Ġ1 00
Ġt ie
Ġother wise
Ġface book
i ke
Ġst ain
ten s
Ġfir m
Ġbal ance
Ġt ree
Ġab s
Ġj ump
Ġmedic ation
Ġ2 5
Ġfin al
Ġp ad
Ġdr ug
Ġcomm and
Ġyou ng
Ġsu it
ative ly
ud e
Ġgo es
Ġbreat h
Ġl oose
Ġg ot
g round
Ġy og
Ġchick en
Ġcol le
a ut
p ut
im ent
Ġwom en
Ġsu ff
Ġindivid ual
Ġtrave l
Ġde b
f r
Ġwor ry
Ġint rodu
ul a
Ġli ft
Ġswe et
Ã ©
Ġ1 4
u gg
l t
Ġb ird
Ġorig inal
Ġse eds
Ġbr ows
Ġve h
Ġminut e
Ġgard en
Ġcam er
Ġm orn
enc il
Ġm ist
Ġh on
Ġc ake
Ġadd ed
Ġb ul
an e
Ġsh op
Ġdes ired
or ing
Ġin de
re me
c ut
er ve
Ġrecomme nd
Ġw orth
Ġsm ell
Ġany one
Ġstre ngth
e nd
Ġencoura ge
Ġir on
Ġterm s
Ġref r
l ies
Ġput ting
Ġth ird
ro ll
Ġatt ract
ur ity
Ġag re
Ġdi ag
Ġto ward
Ġrep res
Ġheav y
Ġcont ent
Ġdeg rees
Ġsh ap
a ult
Ġn ose
Ġab ility
Ġacc ord
er al
Ġpr in
Ġmake up
Ġup d
Ġple nt
Ġan n
Ġcut ting
Ġnut r
Ġp a
Ġkn ife
Ġed uc
Ġcommun ity
Ġcar ry
Ġme al
Ġit self
Ġand or
Ġsh irt
Ġex c
Ġcl aim
Ġinfect ion
Ġsh ows
Ġthem selves
Ġsp l
Ġdocum ents
ile d
i ety
Ġrequire s
Ġv ine
Ġappro ach
Ġi ll
Ġmorn ing
Ġplent y
Ġhist ory
Ġmedic ations
Ġfl our
dis playstyle
Ġmom ent
Ġcond itions
i ver
it ation
Ġd y
Ġf air
Ġexp ress
Ġfor get
Ġleg al
Ġfull y
ant ly
Ġhold ing
Ġar g
Ġrel ated
ph one
Ġinter act
Ġche st
Ġp s
Ġfe e
Ġtr ouble
Ġch alle
Ġev ents
Ġprev ious
m iss
im ate
is ed
Ġnot hing
y m
Ġwill ing
ag ed
is hing
Ġlaw s
if f
th is
Ġprote in
Ġr ad
Ġfr ame
Ġapply ing
Ġt ip
u its
Ġs ix
Ġli p
ve red
Ġso ak
Ġmach ine
Ġrele ase
Ġchild s
Ġanx iety
Ġold er
Ġle mon
Ġte as
Ġwrit ten
Ġloc ated
Ġlot s
Ġ5 0
un g
Ġo bs
Ġdr ain
ir m
Ġf ac
Ġtool s
Ġn ail
Ġst y
Ġt aken
Ġaccord ing
Ġfun ction
Ġde fe
Ġpot ato
Ġtr im
Ġan g
Ġpr ior
Ġsee k
Ġrout ine
Ġrepl ace
Ġelect r
Ġk ill
n ces
Ġst ock
ed ing
Ġb read
Ġsl ide
ang er
Ġbl ank
Ġapp le
Ġoff ic
cript ion
Ġreg ard
Ġho les
Ġsupp le
Ġanim al
ac king
Ġ1 8
Ġbuild ing
Ġb acter
Ġv ary
Ġw alking
Ġext reme
Ġr ab
Ġr ib
Ġt aste
Ġir rit
Ġj our
Ġh arm
Ġsign ific
Ġalmo st
Ġgiv es
Ġde ad
st r
Ġy et
Ġtar get
Ġeffect s
Ġtr ue
Ġrem ind
Ġbreat hing
Ġvo ice
Ġform at
Ġcons ult
Ġdire ction
Ġtot al
Ġsh ar
Ġaut h
iz z
Ġac id
Ġg ather
Ġr ing
Ġvine gar
Ġplay ers
Ġdist ract
Ġsoft ware
Ġbr ain
Ġjud ge
Ġinter view
Ġdeg ree
Ġst at
Ġiss ue
Ġthor oughly
Ġinclud es
Ġdise ase
l er
Ġh urt
Ġdes k
Ġcost s
Ġfl avor
Ġpast e
Ġcr it
b on
in ate
Ġlaw y
Ġw ipe
Ġhe ar
ac hed
ang le
Ġw ed
Ġr ot
Ġprom pt
Ġsh ower
g ing
Ġde le
at ically
Ġrespo nd
Ġpr im
in king
Ġass ist
Ġwebs ites
ac hes
Ġg ain
Ġco ll
Ġst uff
Ġjo in
Ġcom ing
Ġo p
Ġsod a
i et
Ġgrou ps
Ġlo ck
Ġcreat ing
Ġf ix
Ġre fer
Ġparticular ly
Ġsaf ety
Ġth read
ig er
Ġopen ing
Ġchem ical
Ġuse ful
v al
Ġm ac
Ġp encil
i pping
Ġbenef its
Ġh ook
est s
Ġtit le
ac y
Ġfinan cial
Ġli f
Ġdes crib
Ġsec urity
Ġatt empt
Ġpre gn
Ġex ist
an ced
Ġm ember
Ġex te
Ġcomm it
Ġsit es
Ġback ground
b all
ast er
Ġc ot
Ġt ail
Ġflow ers
g ed
ic les
as ons
Ġlo ad
Ġdec ision
Ġsh ad
Ġto r
Ġdep art
Ġc ity
Ġsay s
il t
Ġdra g
Ġpict ures
Ġa head
Ġse w
fere nce
Ġim ag
Ġopp os
Ġleav ing
Ġopportun ity
e x
p an
Ġcar r
Ġpay ment
Ġinc ome
Ġw id
Ġequ ip
Ġthough t
Ġest ab
Ġmeet ing
m ake
r or
Ġm ental
Ġcup s
Ġbel ieve
Ġev idence
Ġcomp et
Ġexpens ive
Ġres our
Ġcamer a
Ġgu ide
Ġw ax
o int
ar ily
Ġas ide
Ġemot ions
Ġrepres ent
Ġlab el
Ġsp oon
ile s
Ġye llow
Ġrem ain
Ġrequire ments
Ġ2 4
Ġr ice
Ġ Â
Ġb ur
ict ion
k s
Ġa im
Ġtr ick
u ate
Ġt ick
Ġi p
Ġn ames
Ġfor ce
Ġanim als
Ġf urn
Ġtr ig
Ġcount ry
Ġmov ie
Ġst om
Ġpl ate
Ġatt ack
Ġse al
Ġmean ing
Ġt v
Ġad o
en ing
Ġb oo
c king
i k
Ġrem aining
Ġp ill
Ġrefr iger
Ġbu ll
Ġsour ces
o b
Ġcl ub
Ġbr ight
Ġhe ight
Ġstr ip
Ġbuy ing
Ġexperi enc
o x
ition al
Ġan gle
Ġli ving
an n
Ġok ay
Ġsp ouse
Ġpurp ose
Ġsitu ations
Ġtherap y
Ġscr ub
Ġass ign
Ġclass es
et er
Ġcompan ies
Ġagre ement
Ġcons um
Ġlo an
Ġto m
Ġpro ced
Ġbegin ning
bo x
Ġad min
Ġto ne
Ġfind ing
Ġst ar
ure d
b its
it ter
Ġvit amin
Ġdist ance
Ġn ails
Ġtr i
Ġcal ories
Ġtr ip
Ġchar ge
Ġf acing
Ġd om
Ġre nt
Ġinvol ved
g en
us hing
o pen
Ġremo ved
Ġd irt
im ately
iz es
Ġd on
n ow
re ci
Ġloo p
igh ter
Ġexact ly
Ġtw ice
Ġe ver
Ġr ow
Ġad vice
ve re
Ġeven ly
amp oo
Ġwas hing
Ġp ark
f act
i est
Ġf an
ru pt
Ġeng ine
Ġdis p
Ġcot ton
Ġr id
Ġd est
Ġbud get
Ġwant s
Ġve ter
Ġst a
Ġd anger
le nt
Ġequip ment
um s
Ġsh ampoo
Ġs at
un e
Ġst itch
Ġgir l
on ic
Ġper cent
Ġem erg
Ġemploy ees
Ġstom ach
Ġmus cle
Ġsub mit
Ġautom atically
i ber
Ġhon est
Ġpre t
Ġas se
Ġp al
n al
Ġbro k
ili ar
Ġstate ment
Ġf ed
Ġme als
Ġa w
o nd
Ġd ust
n am
ari an
Ġtop ic
Ġe arn
Ġinc or
Ġl ate
Ġqu ite
Ġocc as
er ic
Ġsm ile
ac ters
Ġgra b
Ġl id
Ġres ist
Ġre asons
Ġmoist ur
Ġco vered
Ġchar acters
_ _
Ġc as
Ġmic ro
Ġdr inking
iz er
Ġho st
Ġan al
Ġvol unt
on y
ord er
Ġmo der
Ġdo ll
ce ed
Ġt ur
Ġvar ious
ul ate
Ġcaus es
Ġd en
Ġabs or
d s
Ġc amp
er y
Ġmon it
Ġm ood
ide red
Ġperson s
hy dr
Ġj ack
Ġsc ore
Ġsa id
Ġexerc ises
Ġ1 1
Ġgrow th
l ive
Ġconf irm
Ġjo int
Ġbacter ia
ay s
ver age
ho ld
Ġrecogn ize
Ġstr uct
Ġlic ense
Ġpriv ate
Ġveh icle
Ġfrequ ently
Ġfr uits
Ġs ess
Ġemot ional
Ġatt end
s h
Ġcontain s
Ġcomb ine
Ġs am
Ġro ot
Ġd in
ion ally
Ġbe aut
pe nd
pl ace
Ġarr ange
Ġf ail
Ġauth or
Ġpo lic
Ġm ask
Ġcustom ers
Ġcons idered
Ġs ort
Ġlawy er
Ġlo ved
Ġknow ledge
Ġhe aring
Ġref lect
in y
ie nd
Ġshould er
Ġli br
Ġg ro
Ġbe at
Ġach ieve
ra id
are d
Ġqu iet
Ġconf ident
c m
Ġmod el
Ġfeel s
Ġsit ting
Ġsh own
Ġbecom es
Ġadmin ist
Ġfast er
Ġtw ist
Ġoil s
Ġth umb
ar ies
Ġeff ort
Ġm other
Ġcl icking
Ġcol ored
Ġaf raid
Ġun ique
um ent
Ġprodu ce
c hed
il led
Ġprof ile
Ġsa les
Ġpe pper
Ġhum an
Ġc ateg
Ġde vices
Ġf ly
Ġr om
Ġey el
Ġbrows er
b ack
Ġto ys
Ġc ult
Ġapp reci
Ġsp orts
it ure
Ġli ps
Ġru le
Ġd ip
f l
Ġc age
Ġfe es
Ġsol id
Ġimp act
Ġm arr
Ġsho ot
en ed
Ġcolle ge
Ġcreat ed
Ġg ent
Ġveter in
Ġpro gress
Ġex cel
Ġover all
Ġam eric
Ġp ink
Ġbre ast
Ġfil ter
Ġu t
Ġg as
Ġide al
Ġs il
Ġse ctions
Ġwe ather
at ory
h aps
Ġj ar
Ġexample s
Ġra ise
Ġser ving
Ġm ax
Ġinterest s
Ġshar p
Ġc ash
Ġth r
Ġmoist ure
Ġs ounds
Ġpartic ip
Ġsw im
Ġfe ar
Ġacc ur
Ġport ion
Ġte en
Ġde li
Ġex h
Ġem pt
Ġste am
Ġpan el
Ġp ump
Ġapp s
Ġse vere
b al
Ġkit che
Ġfurn iture
Ġlist ed
Ġgar lic
ic ed
Ġstart s
Ġstand ing
Ġinj ury
Ġconf idence
a ur
Ġm ir
Ġsupp lies
Ġle an
igh b
Ġjour nal
Ġnorm ally
Ġout f
Ġun com
at ors
Ġadv ant
Ġop in
iv ed
Ġbenef it
Ġje w
on se
Ġcra ft
ag er
Ġoppos ite
Ġper haps
Ġ6 0
Ġsh ot
Ġd ial
Ġad vert
Ġspr ink
Ġh ide
Ġne ighb
Ġb an
Ġsp ir
Ġob tain
id ge
Ġvolunt e
Ġm ount
Ġapp oint
Ġg un
Ġappear ance
Ġresp onse
Ġstart ed
Ġdepart ment
Ġm l
Ġpl ans
Ġinterest ing
t ime
Ġant i
Ġaud ience
Ġ1 6
fere nces
Ġdiffere nce
po ons
Ġnatur ally
Ġch ances
Ġi gn
Ġbo y
Ġprov ided
Ġs ou
Ġm ap
Ġpl ug
Ġre ct
Ġmo ld
Ġact ions
Ġp ig
Ġw o
Ġrec ip
Ġ4 0
Ġcustom er
Ġag ree
Ġgent le
Ġ1 3
y ch
Ġpupp y
Ġpat h
os p
Ġtest s
Ġmo de
Ġup on
Ġdec re
Ġkitche n
Ġgo ver
Ġart icle
Ġd re
Ġrelationship s
Ġpret ty
Ġschool s
Ġplan ning
Ġremo ving
Ġt ips
Ġc ro
t ies
Ġunderstand ing
Ġev al
Ġdesign ed
Ġchang ing
Ġb ake
Ġcir c
v ious
Ġsome where
Ġsu s
z z
Ġshe l
li ke
ib ly
Ġrub ber
in er
Ġble nd
Ġemerg ency
Ġse ems
ic ing
Ġwe ak
Ġwhen ever
v ant
Ġresour ces
Ġh u
Ġdiag n
Ġrecord s
Ġcol um
g s
Ġteas poon
5 0
Ġado pt
Ġclean er
Ġdepe nd
Ġneed le
olog y
Ġdef in
Ġfeature s
Ġem b
Ġdrop s
Ġmethod s
Ġsp in
Ġdele te
Ġconnect ion
Ġh ar
Ġte le
Ġcont rib
Ġne ut
Ġgu id
it ude
Ġfam iliar
Ġch oo
Ġhigh light
Ġob vious
Ġorganiz ation
Ġm as
Ġempt y
Ġlight ly
Ġre ward
Ġstud ent
Ġfle x
Ġe ars
ir ing
Ġloc ate
Ġro ck
Ġbe ans
Ġbre ed
air s
Ġexpl ore
Ġdraw ing
Ġsqu ee
Ġbl ow
Ġg ift
Ġsk ip
Ġex cept
Ġspe nding
Ġpo k
Ġm is
Ġex tens
b ble
Ġdep ression
Ġte xture
Ġthere fore
Ġcaus ing
Ġlay ers
Ġc ast
Ġwid th
Ġsur round
Ġform ula
Ġt re
Ġmix ing
r ight
Ġsur ger
Ġfriend ly
Ġlet ters
h ood
Ġu nd
Ġh oney
ent ially
Ġbe nd
Ġnew s
Ġdy e
Ġus es
Ġfree z
Ġequ al
Ġp ets
Ġ1 9
Ġwork out
Ġpat ient
Ġps ych
Ġass ess
Ġvol ume
Ġall erg
Ġinit ial
Ġs ad
Ġim ages
gr aph
Ġus er
Ġor ange
Ġcare er
Ġpay ing
c ome
Ġman u
Ġmo b
Ġassoci ated
Ġhard er
Ġn av
Ġw ine
Ġsam ple
Ġgover n
Ġcreat ive
Ġcaus ed
Ġdin ner
Ġapp l
Ġpol ish
wh at
Ġlo st
Ġt ag
Ġsc roll
ic ient
Ġappro x
i ot
Ġle ather
ne y
Ġtherap ist
ir ty
Ġstr ateg
Ġup set
ig ate
il ing
p ro
Ġaccount s
Ġl augh
Ġhelp ing
Ġver t
oo p
Ġt ub
p re
Ġshould ers
l ist
Ġro ad
Ġask ed
Ġextreme ly
iz ation
ro id
Ġvis ual
Ġt er
Ġdr ied
Ġgir ls
Ġm ild
Ġreal ize
Ġpe el
Ġcar p
Ġsignific ant
Ġeduc ation
Ġcompl aint
Ġp ages
Ġre sol
Ġjew el
Ġo live
iv ity
Ġro le
l ook
l and
Ġincor por
Ġcho ices
Ġt iss
ous ly
Ġout do
Ġout line
Ġmot iv
Ġdeb t
Ġr at
Ġadv ance
Ġstra w
Ġfl ash
he t
Ġsupp ly
Ġst age
Ġdef ault
Ġappe ars
Ġtask s
ap ers
r ate
al led
Ġspe aking
Ġcon v
Ġcomple ted
Ġpl acing
i pped
Ġobject s
Ġc ry
Ġsurger y
Ġtr ial
u ing
Ġpro of
Ġtrad itional
Ġpa id
Ġlight s
Ġpl aced
Ġpotato es
Ġconc ent
Ġf ash
Ġp ants
Ġdiv ide
m a
ure r
Ġd ed
Ġshow ing
Ġbut t
iqu es
Ġel im
ne ath
os is
ill a
Ġunder neath
Ġlisten ing
Ġch ain
Ġwor se
Ġgrow ing
st ick
Ġgu ests
Ġpattern s
Ġyog a
Ġbo ss
Ġchoo sing
lo ck
Ġhapp ens
ir ts
Ġuncom fort
Ġdefe nd
Ġconnect ed
Ġmanu fact
Ġc ab
Ġlet ting
Ġje ans
n a
Ġw ra
Ġst or
Ġoff ers
Ġc able
Ġkn ees
Ġw it
Ġus ers
Ġmic row
Ġp ul
Ġbag s
Ġnut s
Ġa verage
Ġse ed
Ġd ance
Ġindic ate
Ġeng lish
Ġch at
Ġbas is
n ight
Ġrest r
Ġf el
Ġhor iz
ct ors
Ġkn ot
Ġspr ing
Ġallow ing
Ġmove ment
Ġpl us
Ġbe ll
Ġcert ific
Ġrest aur
Ġp un
Ġfash ion
ul ation
Ġfl ower
Ġfound ation
Ġadvant age
Ġde ath
all ow
Ġt ube
Ġv ir
ive ly
Ġdi am
Ġspecific ally
n ed
Ġrib bon
Ġha bit
Ġ2 00
Ġbath room
Ġwin ter
Ġboo st
i pp
m ark
Ġm ention
Ġwhe el
Ġt ens
Ġi phone
Ġuncomfort able
Ġchr ist
Ġag ent
Ġglo ves
Ġin se
Ġbatter y
Ġball s
Ġevent ually
Ġk id
Ġpersonal ity
Ġact ual
Ġy es
d om
Ġlibr ary
Ġnew sp
Ġprov ides
an a
ale nt
Ġk ick
Ġeng age
Ġstr ugg
f o
Ġ4 5
ard s
Ġsum mer
Ġselect ed
Ġc it
Ġmass age
Ġabsor b
Ġmult ip
Ġstor age
Ġg el
Ġwed ding
Ġen em
Ġro ots
c ons
oun ce
Ġun s
a iled
as hes
Ġexp os
Ġcook ed
Ġfriends hip
Ġelect ric
Ġr are
Ġst ro
am ing
Ġtell ing
Ġcontact s
Ġwall s
Ġemploy ee
Ġturn ing
Ġtom ato
Ġh ire
Ġamount s
ab et
Ġinfl amm
um ps
Ġu lt
Ġkn ee
Ġbecom ing
Ġcan cer
Ġm ort
an cy
Ġbr an
bo dy
ke y
Ġstud ies
at ives
Ġs ink
Ġmem ory
Ġfl ip
c her
e ch
Ġe ight
u als
f ind
Ġexist ing
Ġl at
on ent
Ġsp ots
Ġsur pr
Ġse en
ci pe
Ġpart ners
Ġclear ly
Ġvide os
Ġminim um
Ġre cipe
Ġst o
Ġmax im
Ġant ib
Ġh ors
Ġknow ing
Ġval ues
Ġfact ors
Ġn ar
Ġsm art
Ġr ich
Ġfed eral
Ġdrink s
ren ch
Ġfill ing
Ġpok Ã©
ver se
Ġble ach
le ts
Ġse at
b re
Ġsleep ing
Ġas pect
Ġsh ut
Ġconst ru
Ġinst alled
is on
miss ion
Ġany where
Ġfil ing
is ions
Ġbra nd
Ġtechn ique
Ġs ized
Ġdanger ous
Ġneut ral
Ġres id
Ġn ature
1 2
Ġcorrect ly
Ġto wn
Ġgr ass
Ġsl ip
Ġsens itive
Ġto ng
Ġm ill
Ġjo bs
Ġthem e
z en
Ġes c
Ġst im
Ġwa ist
Ġpo or
Ġcr ack
Ġcomple x
Ġe ase
Ġacc ident
Ġup load
Ġk iss
Ġin h
Ġsuccess ful
Ġs ick
Ġb ound
a pping
ut ions
Ġli kes
Ġp ool
Ġmonit or
Ġpart ies
Ġstr ips
un es
Ġl oud
Ġaccom pl
Ġjewel ry
Ġf iber
Ġstr ain
Ġsta ff
Ġform al
x y
Ġexper iment
Ġrab bit
Ġrefriger ator
Ġch art
Ġcl im
Ġmag n
Ġso ld
i ers
Ġsh ake
Ġcl ip
Ġexpens es
us ion
Ġb ill
er k
Ġn ur
Ġrele vant
Ġsat is
Ġsh r
il it
Ġkey board
Ġsn ow
Ġaltern atively
Ġbox es
Ġpr on
Ġproced ure
con ut
Ġperform ance
Ġgu y
Ġy arn
Ġfro st
Ġlim ited
ness es
d ra
l ier
o ver
Ġsum m
ite ly
Ġsho pping
Ġwatch ing
il s
Ġho pe
Ġcell s
Ġhors es
c re
Ġde m
b ol
Ġeas iest
Ġmicrow ave
Ġdist rib
Ġsex ual
Ġaff ord
Ġl unch
Ġopportun ities
us ed
Ġtechn iques
Ġthan k
Ġtreat s
Ġemploy er
Ġcl osed
Ġdis co
Ġatt ached
Ġpay ments
Ġhoriz ont
o st
Ġ9 0
Ġcr ush
Ġh at
Ġco conut
Ġsong s
Ġw ild
Ġl ap
Ġsprink le
Ġho b
h ow
Ġang ry
Ġqu ar
Ġapprox imately
Ġser ver
Ġscr atch
i ans
Ġche w
Ġen able
Ġgovern ment
Ġallow ed
Ġaltern ative
Ġdrug s
pect ive
Ġcommunic ation
Ġt rees
Ġb i
b ar
Ġmanage ment
Ġag ency
Ġflu id
Ġa id
Ġstat us
Ġspe ech
Ġbu bble
Ġmess ages
ing er
Ġexperi ences
Ġloo s
f ol
Ġcomp are
Ġbr ief
Ġbus y
Ġdr ill
ber ries
Ġg ym
os en
Ġchalle ng
Ġbrok en
Ġext ract
Ġh osp
ac he
Ġoutf it
Ġsal ad
Ġbig ger
Ġre in
Ġcent im
Ġch osen
Ġsc an
en ess
Ġper man
Ġsent ence
Ġown ers
Ġlic ens
Ġhy dr
t r
u ed
Ġcook ies
Ġhang ing
for ce
Ġn erv
Ġconst antly
Ġv an
enc ies
Ġun ivers
Ġb un
Ġprotect ion
Ġcand y
he at
on ents
Ġpl at
Ġsee ing
Ġshap es
Ġcomp lic
Ġcy cle
Ġc ord
Ġdr iving
Ġconc ern
Ġgo d
i age
Ġse a
i ation
Ġm id
Ġto ile
Ġth reat
b and
Ġsk ill
Ġins p
Ġr ide
at t
Ġind ust
Ġpol ice
Ġsa le
m ble
Ġfor g
augh t
Ġg all
Ġfil led
Ġcl ock
m ed
t ail
Ġrespons ible
Ġdry ing
Ġsh ade
i ors
al ing
Ġtem por
Ġbe ad
Ġtables poons
Ġopt ional
Ġp ipe
Ġmix ed
g a
Ġche ap
Ġmir ror
Ġcomb ination
Ġveterin arian
Ġre v
Ġsl ice
Ġv ent
Ġcir cum
Ġteacher s
Ġn ational
Ġcop ies
Ġli e
Ġupd ate
Ġreact ion
Ġcall s
ĠpokÃ© mon
r up
Ġv ia
Ġappreci ate
Ġdirect ions
Ġdis order
Ġnerv ous
x ic
it ches
Ġvac u
Ġset tle
Ġpack age
Ġcap t
Ġintrodu ce
Ġdesk top
or ter
Ġe p
ore s
Ġmob ile
ch oose
ind er
Ġd amp
le y
Ġex e
Ġcolum n
Ġh ol
Ġcomm er
Ġgu ard
Ġknow s
Ġexp and
Ġcoun sel
Ġle ns
Ġt un
Ġle af
Ġgr aph
Ġameric an
Ġch air
Ġf ert
Ġge ar
g est
le n
Ġstruct ure
Ġpro p
Ġc ow
Ġce le
Ġtiss ue
Ġt all
Ġd im
Ġtem pt
Ġpres crib
Ġin put
Ġvis ible
Ġcorn ers
g ers
ad es
ĠÂ ½
Ġsmo ke
Ġclos er
Ġappoint ment
ff ic
g ment
Ġbegin s
br ush
Ġbreat he
Ġha bits
Ġgrad ually
k in
Ġpl ain
Ġsh aring
gr ap
Ġest ate
in ary
Ġin ner
Ġwood en
Ġcalcul ate
Ġsh ift
Ġl ack
Ġl ighter
Ġbab ys
Ġproper ties
Ġhome work
Ġorganiz ations
Ġset s
Ġmanufact urer
Ġcommunic ate
Ġtouch ing
Ġinclud ed
Ġsquee ze
Ġtables poon
Ġan ger
h and
Ġyour s
Ġbe e
y our
Ġwe ap
Ġsk y
is hes
Ġsym bol
Ġpain ting
Ġsupple ments
Ġint ake
Ġdo ctors
1 0
Ġdet ail
Ġde mon
Ġfair ly
Ġmonth ly
Ġchemical s
Ġtreat ments
Ġgu it
Ġit unes
et ch
on ge
Ġvacu um
Ġcall ing
Ġc art
Ġbas k
Ġcurrent ly
Ġv ict
f ast
ch ange
Ġp ier
Ġfeed ing
re l
n ge
Ġth ro
Ġr ain
Ġm al
Ġr aw
Ġof fe
Ġcond uct
Ġrel ig
Ġread er
Ġch ann
Ġwa iting
fr iend
Ġm er
Ġcl ients
Ġgre ater
us es
Ġsc ale
ll s
Ġsuit able
Ġpro ceed
Ġtow els
Ġsc ar
Ġman ager
Ġdra ft
Ġveget able
Ġappl ied
Ġsubst it
Ġestab lish
Ġmov ies
ant ed
Ġbl ade
Ġmo ves
Ġstate ments
Ġun w
Ġli ves
Ġele ments
Ġtr ay
Ġinv ite
Ġdes ire
Ġche cking
Ġfil m
Ġpolic y
Ġh orm
Ġmed itation
Ġcele br
Ġser ies
Ġdis hes
rap h
an cing
Ġv i
Ġgro cer
re te
Ġglass es
Ġmag az
Ġw aste
Ġres ume
Ġfr ust
u nder
Ġab use
Ġun like
Ġtens ion
Ġpar ag
se qu
Ġconc er
Ġpregn ancy
Ġde lic
Ġshap ed
Ġover night
Ġst one
Ġcarp et
Ġtoile t
r m
Ġshe ets
Ġfreez er
e led
Ġmat h
Ġadult s
Ġindivid uals
Ġpress ing
ng the
Ġcard board
Ġkind s
am ed
Ġstay ing
Ġbo nd
Ġspl it
Ġsl ices
Ġrel atively
Ġaffect ed
Ġchalle nge
ac ement
Ġdep os
Ġcondition er
Ġsn ap
Ġinde x
Ġdescrib e
Ġsc iss
r am
Ġsauce pan
Ġtrig ger
he re
Ġc ars
Ġinstall ation
Ġout er
Ġpub l
it is
Ġm ouse
Ġeffective ly
Ġdiv or
Ġd ates
ur ch
Ġmist akes
Ġexcel lent
Ġt our
Ġturn s
Ġparag raph
Ġnutr ients
Ġapplic ations
Ġconf lic
m et
Ġsty les
Ġfl ight
Ġd irty
Ġfel t
Ġac ne
Ġown er
Ġneg ot
Ġs ib
Ġher bs
gg ing
Ġtreat ed
Ġbr ow
Ġam ong
Ġsy rup
Ġcas ual
Ġinst r
Ġst ains
Ġag gress
Ġgr ill
Ġnar row
Ġbutt ons
Ġexam ine
v is
Ġp ed
ak s
Ġvert ical
Ġcommon ly
Ġf ake
c ra
Ġpull ing
l ines
Ġst ove
Ġc ub
Ġhe m
Ġ5 00
Ġhouse hold
Ġh ips
um in
whe n
Ġtooth p
Ġb one
Ġb ike
Ġdevelop ing
Ġbro ad
Ġh ous
Ġst em
Ġdeal ing
Ġy ard
Ġexpos ure
Ġgr ip
Ġoffic ial
Ġro pe
Ġbreak fast
Ġblo g
Ġam az
Ġmarr iage
Ġch ips
Ġsp onge
Ġexperienc ed
Ġst uck
Ġcertific ate
Ġsupple ment
Ġar row
Ġfro zen
et ers
ak er
Ġup s
Ġc d
Ġto y
Ġinvol ves
Ġtra ffic
Ġwh isk
Ġconsist ent
Ġrep ut
Ġfl av
Ġtem pl
Ġfe m
Ġear lier
Ġdis sol
Ġdes cription
Ġbo ots
Ġal ign
Ġto es
Ġm ent
Ġansw ers
d own
Ġg au
Ġthro at
Ġsmo king
Ġw ake
Ġtest ing
Ġgr ain
Ġscrew s
ars h
Ġadv anced
Ġf arm
Ġno ise
Ġbe y
Ġsh orter
Ġab sol
Ġal ert
Ġsho e
Ġtr u
Ġsec ret
Ġrep air
Ġaud io
as p
Ġbo ot
Ġminim ize
Ġla unch
in a
Ġgr ains
Ġregist er
Ġtri angle
d ed
Ġsciss ors
Ġright s
Ġp it
Ġcr u
Ġarg ument
Ġw ound
Ġun ited
Ġexp osed
Ġus b
Ġimag ine
Ġbel t
Ġfact or
Ġrelax ed
Ġregard ing
if ul
Ġyog urt
Ġel b
Ġguid el
Ġv oc
l ay
Ġdepe nds
Ġpo in
Ġh om
dra w
i us
Ġinde pend
s he
Ġmel t
Ġman ner
Ġca ffe
che ck
Ġdifficult y
Ġmark s
Ġsa w
Ġst ation
t ake
Ġf its
Ġvolunte er
u x
Ġpro ve
Ġce re
Ġdecre ase
Ġdig est
Ġabsol ute
le nd
Ġhigh ly
p g
m l
Ġprim ary
Ġun it
Ġconc rete
Ġsell ing
Ġcir cles
am ps
Ġnewsp aper
Ġanal y
Ġaccess ories
Ġnecess arily
Ġsil ver
Ġar ch
Ġco re
Ġdevelop ment
c ar
Ġfor th
Ġdemon str
Ġspir it
Ġtr ade
Ġro se
Ġbird s
Ġon ion
Ġdam aged
Ġpo se
ci ous
Ġsle e
Ġsess ion
Ġca lend
Ġdial og
Ġlaws uit
Ġdem and
Ġa ck
Ġg one
Ġto day
Ġlit ter
Ġboil ing
dd en
ant ic
Ġack now
Ġyou t
Ġnear by
Ġval id
Ġp ure
Ġaccur ate
ch ar
Ġpe pp
Ġst ories
Ġincre ased
Ġtr ap
Ġ1 7
Ġwe e
Ġo d
ly ing
Ġpurch ased
Ġm aster
Ġhe ld
Ġguit ar
b u
al th
g age
Ġfo am
Ġbu cket
and om
Ġp ra
Ġw arn
Ġd ro
Ġfem ale
Ġr ack
ut h
Ġsu dden
Ġkeep s
Ġcom ment
Ġg um
Ġbreak s
Ġloc ations
Ġmem or
Ġswe at
ert ain
Ġbey ond
Ġsc rap
st ers
Ġde v
Ġhol id
Ġqu ot
Ġstrong er
Ġr hy
Ġbene fic
Ġbehav iors
Ġsc ene
Ġd ut
us ing
Ġtru ly
Ġsc al
Ġdi abet
Ġcl ient
Ġcomput ers
Ġclass ic
Ġrub bing
Ġfun ny
t aining
Ġsou p
Ġc in
ough t
Ġpur s
p ress
Ġsn acks
Ġl in
Ġb ite
Ġp c
ur al
e qu
Ġdr ivers
Ġgr ade
act ion
Ġw al
ic ian
Ġposs ibly
Ġple ase
Ġfin ally
Ġfeed back
Ġdet erg
Ġblock s
Ġfocus ed
Ġr ough
ak ed
Ġb or
Ġsp ort
ib ilities
Ġbask et
v ision
Ġdr am
Ġh ur
Ġconcer ns
Ġpost s
Ġneighb or
Ġde br
n el
Ġgra nd
Ġdet ailed
in ct
Ġphys ically
Ġs izes
Ġtw itter
Ġd v
Ġver ify
Ġdec isions
he st
Ġantib iot
Ġboy friend
Ġequ ation
Ġassoci ation
Ġfollow ed
Ġhappen ed
Ġwr ist
est yle
Ġfirm ly
Ġfo il
Ġcook ie
Ġinfect ions
Ġpurch asing
r om
l ings
Ġman ual
os es
Ġro ast
m i
Ġst er
Ġac qu
Ġpin ch
Ġmin or
Ġrestr ict
Ġgold en
Ġcl ay
Ġmat ches
Ġbeaut iful
Ġcle ans
Ġre ference
Ġvan illa
Ġtop ics
Ġyout ube
Ġaccompl ish
r as
Ġdivor ce
Ġcl erk
we ar
Ġrec ent
Ġval u
Ġsc ent
Ġsub t
Ġtong ue
Ġv en
Ġincre asing
Ġg room
Ġopin ion
Ġpregn ant
b t
Ġtrans port
Ġun able
Ġbu ilt
Ġcompl iment
Ġbring ing
Ġsatis f
Ġsn ack
Ġinvol ve
Ġrel ieve
Ġinv ent
ad d
Ġt ightly
Ġsy n
Ġpot entially
ro gen
Ġh ip
Ġdebr is
Ġperiod s
Ġmaxim um
Ġd ur
Ġth us
m od
Ġorgan ic
Ġelim inate
Ġsyst ems
h as
Ġcro che
Ġh i
Ġind o
Ġact ing
re m
Ġm ale
Ġor d
Ġstick s
Ġt ire
air y
Ġasse ts
w ood
Ġperfect ly
Ġprom ot
Ġcontain ers
Ġsun light
Ġhosp ital
Ġp ins
Ġr andom
ra se
Ġart icles
ap ter
Ġhard ware
Ġt ired
Ġdry er
Ġincre ases
Ġeval uate
Ġso ot
Ġfact s
Ġwee ke
Ġrece ived
ul ated
ress ed
Ġcour ses
Ġfac ial
Ġexte nd
Ġpr ices
Ġstre ngthe
Ġham ster
Ġindust ry
m as
Ġcom ments
us hed
Ġassist ance
Ġcol our
ve y
Ġproject s
Ġcon ce
Ġcut s
Ġpos itions
Ġlit er
Ġarr ive
Ġcount y
whe l
Ġswe lling
av ing
am b
Ġdo ors
Ġd ent
Ġorgan ize
Ġt ast
Ġregard less
Ġj pg
Ġcircum st
Ġover whel
Ġsur v
er o
Ġand roid
Ġdet ect
Ġexper t
Ġcon cept
Ġcr ow
Ġoper ating
Ġmin i
Ġbene ath
Ġestab l
Ġcomb ined
Ġvac c
Ġpract icing
Ġpill ow
Ġex change
Ġhum id
Ġgrocer y
id ers
Ġt ut
out s
Ġrad io
Ġg if
Ġre ve
Ġlo sing
Ġst itches
Ġr oughly
Ġus ual
ch an
Ġsp o
Ġselect ion
Ġsurf aces
pt ion
Ġd airy
Ġb en
Ġpres ence
Ġin ject
Ġl uck
Ġqu it
Ġpres cription
Ġv ag
Ġhorizont al
art h
Ġpre ferences
ke ep
Ġsh irts
Ġill ness
Ġtr ash
Ġpers pective
Ġapp les
ber ry
st art
Ġab dom
Ġrom antic
Ġpat ients
Ġble eding
Ġsign ature
Ġcert ified
Ġr ag
ic y
Ġcl in
Ġfert il
Ġband s
Ġco vers
Ġs or
Ġteach ing
Ġd ou
Ġass ume
Ġprov iding
Ġinse ct
Ġsu bs
Ġpr ay
Ġexperienc ing
Ġst ead
Ġro d
Ġent ry
on al
Ġcirc ular
Ġch op
Ġlif estyle
le g
Ġke ys
Ġrestaur ant
Ġroll ing
Ġcateg ory
Ġinfl u
um es
Ġaggress ive
Ġde ck
ist er
Ġpain ful
Ġstud ying
Ġperman ent
Ġpre d
Ġfocus ing
Ġdark er
Ġin k
Ġmove ments
Ġpro s
Ġchang ed
Ġprom ote
Ġste el
Ġnav igate
Ġche ek
Ġbee f
Ġswim ming
Ġess ay
Ġr ates
Ġele v
so ft
Ġreco very
v est
Ġ2 2
ify ing
Ġcho pped
het ic
st all
Ġpre m
Ġmot or
f ill
Ġsol ve
Ġpower ful
Ġto ss
Ġprodu ction
t es
Ġclose ly
Ġble nder
Ġcommer cial
Ġad equ
Ġmarket ing
w r
ple s
Ġlead ing
Ġturn ed
Ġme ant
Ġcr is
Ġguidel ines
Ġbre aking
Ġburn ing
Ġs ight
Ġp ony
Ġign ore
Ġsk irt
c ast
as er
Ġb es
Ġb ars
r ors
Ġit ch
Ġloos en
Ġme chan
Ġr ap
z y
aw s
Ġwom an
Ġsafe ly
Ġl ad
ut s
Ġm ut
Ġw ar
Ġprofess ion
ens ive
Ġcaffe ine
Ġch unk
Ġc aught
Ġst icking
Ġfor k
Ġsc en
Ġvict im
Ġpet ition
Ġwo nder
r ated
Ġobs erve
ist ics
idd en
p es
in ated
Ġcand id
Ġcover ing
Ġhy d
in ations
Ġpo cket
Ġv io
Ġp unch
Ġevery day
Ġg erm
it ate
Ġhu ge
Ġdep th
Ġselect ing
Ġdeterg ent
in o
wh ile
Ġvi ol
Ġrun s
Ġdig ital
Ġwire s
cl oth
l or
Ġaut o
Ġexpect ations
Ġan k
Ġfu nd
Ġcr im
Ġoccur s
Ġg inger
Ġcon sequ
Ġbra id
Ġincorpor ate
Ġt ou
Ġn ap
Ġpol it
Ġlink s
Ġbe ach
Ġcl ar
Ġto dd
ul ting
lo c
ific ations
Ġlap top
Ġcounsel or
Ġstre et
Ġp icking
Ġr ace
Ġeven ing
Ġemploy ment
Ġbel ief
Ġinvest ment
a i
Ġopp onent
Ġdefin itely
Ġex it
Ġsim mer
ig ation
us hes
d le
il let
Ġpo ly
Ġbr ace
Ġse am
Ġdis able
Ġre ject
Ġgr ams
Ġdisc ount
re g
Ġbl ind
d es
Ġs ne
Ġcut e
Ġro of
Ġt uck
Ġheal ing
Ġinflamm ation
Ġcircumst ances
Ġde hydr
Ġtrans l
Ġph ones
Ġsu ns
v as
Ġgu ys
Ġbo ld
Ġoccas ionally
Ġcalend ar
Ġchrist mas
Â º
Ġcab in
Ġreal istic
um ents
Ġbusiness es
Ġsc oop
Ġs an
Ġjud gment
gg ed
Ġha z
1 1
Ġblank et
Ġret ail
am ins
Ġmist ake
Ġpal m
Ġdecor ate
Ġl ung
ph ones
Ġyoung er
Ġus ern
Ġal b
Ġcrit ic
Ġur ine
Ġse ven
Ġbal anced
Ġbound aries
Ġexpect ed
Ġsav ed
Ġcar bo
Ġw arr
Ġfall ing
Ġun ne
Ġmel ted
Ġad hes
ra st
Ġl au
Ġf a
Ġb io
Ġconvers ations
Ġmedic ine
Ġpe an
Ġl ying
arr ass
Ġappe al
Ġsp aces
Ġjack et
zz le
Ġins pect
Ġdisplay ed
Ġt an
ic i
Ġwe igh
Ġpat ch
Ġemb arrass
Ġ3 6
Ġlight ing
Ġcour ts
Ġsw ing
Ġscre ens
Ġadvert ise
Ġt ough
Ġsh y
i as
Ġco ck
Ġphoto graph
ang les
Ġcal or
Ġph rase
the re
Ġd il
Ġtr uth
ul ations
Ġdis k
Ġ2 3
Ġcont ents
Ġrespons ibility
Ġrout e
Ġen h
mo st
Ġd ie
ro oms
Ġrecord ing
Ġt iny
Ġm ush
Ġc ough
Ġke pt
Ġdiabet es
Ġdiscuss ion
ine a
Ġboard s
Ġt ack
b ies
ad em
Ġfree ze
Ġcons ume
Ġ q
Ġpast a
Ġintern al
Ġel ig
Ġquar ter
l led
Ġlab eled
ur ies
Ġoffer ing
Ġprov ider
Ġemp has
Ġs atur
Ġwant ed
Ġelectr ical
Ġparticip ate
iv eness
Ġon ions
Ġreview s
Ġtempor ary
Ġaccom mod
Ġal arm
Ġlist s
Ġsuccess fully
Ġsand w
under stand
c are
Ġvit amins
Ġse nding
Ġplat form
Ġor al
Ġread ers
Ġvalu able
Ġob st
Ġreco ver
ci um
Ġb ought
Ġreason able
Ġip od
Ġne at
Ġprin ter
ens ity
Ġso re
r on
Ġ3 00
s c
n es
Ġsc ience
Ġrect angle
Ġpass ion
we ight
Ġbrow se
Ġaspect s
Ġgu inea
Ġsearch ing
Ġcarbo hydr
Ġcult ure
Ġentire ly
Ġchann el
Ġgr ay
as ant
Ġfile d
Ġweek ly
Ġorgan ized
Ġconsist ency
Ġsess ions
Ġsubstit ute
Ġso cks
Ġstress ed
Ġfe ver
Ġann oy
arn ish
Ġp ounds
Ġprocess ed
m b
Ġshel ter
u ation
av es
Ġhe ard
l ass
Ġpe ace
Ġele ment
b age
Ġint ense
Ġl y
Ġtrave ling
Ġsew ing
a it
Ġ8 0
Ġo dd
Ġfr ag
Ġask s
Ġattorne ys
Ġscal p
Ġwork ed
Ġcal cium
Ġo xy
le ep
Ġpriv acy
Ġfu el
Ġs ile
Ġenem y
Ġth igh
Ġb are
Ġmultip ly
Ġpl aint
Ġh unt
Ġso ci
Ġ3 5
Ġfr y
Ġbirth day
Ġhig hest
Ġsp ark
Ġac adem
Ġprof it
Ġch in
Ġte nder
l ord
Ġtight en
Ġplaint iff
Ġdress ing
Ġco ord
Ġdef ense
Ġa qu
Ġv om
Ġho se
Ġusern ame
Ġj ell
Ġcroche t
s a
Ġcor por
nam on
Ġcont aining
Ġopt im
Ġunne cess
Ġsign ed
Ġmort gage
omet er
p aper
Ġmod els
Ġter r
he n
Ġdeli ver
m ore
Ġhe els
Ġbr ushing
cra ft
Ġshad ow
o ss
Ġlim its
Ġsk illet
Ġvis ion
Ġserious ly
Ġmiss ing
Ġsk etch
Ġstore d
Ġb er
Ġf rench
Ġcon ven
Ġredu cing
Ġb on
Ġback up
Ġto xic
ad o
ir ation
Ġtax es
r ied
Ġconnect ions
Ġinter v
Ġ3 2
Ġge nder
Ġadminist r
Ġf er
Ġsu g
Ġrelax ing
Ġp itch
Ġcont rast
Ġconflic t
Ġel astic
Ġbott les
i able
Ġtr ail
Ġdefend ant
Ġob l
Ġpur ple
Ġmost ly
Ġcontrib ute
Ġide ally
Ġpron oun
Ġtop s
Ġattract ive
Ġcir cul
Ġcin namon
Ġcon vert
Ġtomato es
Ġwork ers
Ġz one
Ġhy p
Ġrot ate
Ġdifferent ly
Ġfail ure
Ġfl ag
Ġcolor ing
Ġmeas uring
ar ant
y l
Ġf ats
po int
Ġsus pect
Ġce iling
Ġpr one
Ġabsolute ly
r ay
Ġsh ots
Ġgre ase
Ġh idden
Ġst ack
Ġd ating
Ġw ip
Ġcover age
Ġt alent
Ġatt itude
Ġland lord
Ġrest ore
Ġvac ation
Ġex fol
Ġp izz
Ġfo ll
r im
Ġgood s
ut es
te red
res po
i pper
Ġeyel iner
Ġp ile
Ġbo at
Ġdisc om
Ġspec ies
Ġr ise
Ġsign al
Ġdiscom fort
Ġlab or
de red
Ġd ab
Ġbe ar
Ġlead s
Ġintern ational
Ġmeasure ment
Ġcoll ar
w ater
Ġhum or
Ġcollect ion
Ġdre am
Ġpra ise
Ġh ung
Ġz ip
Ġadhes ive
Ġmoistur izer
Ġstick y
lf r
Ġtreat ing
Ġw i
Ġstead y
Ġn ove
Ġch ill
Ġrisk s
Ġhand ling
Ġaccept able
k ward
Ġp ine
Ġsome what
Ġstro ke
Ġtempl ate
Ġcert ification
Ġesc ape
her s
and er
iv al
Ġrecip es
Ġf al
Ġbeaut y
Ġpresent ation
Ġpre te
Ġset up
Ġenter ing
Ġacknow ledge
Ġaw kward
Ġrese t
Ġe arth
Ġtele vision
Ġdr iver
Ġbat tle
Ġper mission
Ġpar alle
Ġp ale
Ġfr idge
Ġdest ination
Ġclaim s
z ing
Ġcur l
i os
Ġexcess ive
Ġpad s
Ġroom s
Ġhom es
Ġsuff icient
Ġwor n
Ġimm une
Ġcor respo
Ġclos ing
Ġfl or
Ġd ivid
Ġwor ried
Ġoutdo or
Ġdisc ard
Ġoutdo ors
Ġstir ring
Ġv irt
Ġbe er
Ġdom in
Ġ2 1
Ġmicro soft
Ġcow ork
Ġc ame
Ġmom ents
Ġcreat es
Ġchr ome
Ġinvent ory
Ġst iff
Ġf ah
oun ces
Ġstrateg y
he it
us ive
Ġem ails
Ġrab bits
Ġover l
Ġresist ance
Ġbell y
Ġgu arant
Ġdeep er
ox ide
Ġret ain
Ġpeople s
Ġsp at
Ġappro ved
Ġcard io
Ġlau nd
Ġrece iving
ren heit
Ġstr ings
Ġ7 5
g i
Ġfah renheit
Ġlo ans
ct ure
Ġgl itter
k y
m ates
Ġp ushing
Ġinst it
ut ed
Ġtell s
Ġn ic
on nect
Ġte ar
Ġtooth brush
Ġd u
ie ving
Ġexte nded
Ġsuggest ions
Ġcount ries
il ize
Ġp ace
Ġdesign s
Ġhand y
Ġprofession als
Ġtyp ical
Ġprefer red
Ġglo ss
ord ers
Ġded ic
Ġph r
Ġprocess or
Ġf ont
Ġrec y
Ġirrit ation
Ġsp ices
Ġbo d
Ġmeasure ments
Ġun lock
Ġb ones
Ġbenefic ial
Ġal umin
Ġvis iting
Ġt apping
Ġfrost ing
Ġprompt ed
Ġp apers
Ġopin ions
Ġthe rm
Ġb ac
Ġconce al
k now
ra pe
Ġfrequ ent
Ġexerc ising
Ġte nds
Ġdisp os
t a
Ġfight ing
Ġmoder n
Ġmoder ate
b l
Ġh iring
be ll
he a
Ġ3 4
o dy
Ġun f
Ġoffe red
Ġli ver
Ġgir lfr
Ġcentim eters
char ge
Ġch urch
Ġlab els
ct ive
Ġat h
Ġmas car
u ine
Ġhy per
Ġinj uries
Ġlearn ed
Ġtemperature s
ig s
Ġbab ies
Ġfu nds
Ġconcern ed
est ic
Ġunivers ity
Ġavoid ing
Ġimp oss
Ġaccording ly
Ġchr onic
Ġharm ful
Ġextens ion
Ġfor t
Ġst ur
Ġst ems
Ġas leep
w ash
Ġf ul
Ġsp an
Ġfold ed
Ġfold ers
Ġ7 0
Ġflex ible
Ġsod ium
Ġstr ike
c ase
Ġcup c
Ġto e
Ġb ills
Ġv ib
Ġlink ed
Ġb ored
an ch
Ġsent ences
Ġoxy gen
Ġgen uine
Ġmain taining
Ġw ik
Ġm ine
Ġmind ful
cl ick
Ġbed room
p y
Ġun c
Ġtrans ition
Ġcarr ots
in ating
Ġdef ine
u ro
Ġelectr onic
d ge
Ġa st
Ġso y
Ġstre am
Ġun its
Ġunnecess ary
i at
Ġp el
Ġch ord
Ġparalle l
Ġun sure
alth y
ke w
Ġ 00
Ġa er
Ġrem ed
Ġpony tail
Ġv ital
Ġimposs ible
Ġbra nds
Ġshare d
Ġm int
Ġfield s
f ish
Ġag encies
Ġcalor ie
Ġalumin um
Ġw ise
Ġser ved
Ġfit ness
Ġident ity
Ġr ings
Ġrest art
Ġlip stick
Ġconf ig
Ġconst ant
o e
Ġsol utions
Ġdest ro
p ing
Ġdat ab
Ġtrain ed
Ġoffic er
Ġpercent age
Ġsquare s
e xt
Ġinte gr
Ġa x
Ġcl o
Ġur l
Ġc u
Ġpost ure
Ġst ones
Ġupd ates
grap hy
Ġprotect ive
Ġindepend ent
Ġrelax ation
Ġconsequ ences
if orm
Ġhappen ing
Ġcomp rom
Ġcap ital
ar ation
Ġinj ured
Ġpoin ting
Ġav oc
Ġkit ten
Ġcomp ost
Ġco s
Ġsurround ing
Ġun he
ur b
Ġtr ace
Ġdemonstr ate
Ġcub es
tern al
Ġveh icles
Ġpizz a
Ġc ig
Ġwhe at
Ġqu ant
Ġplant ing
Ġs lo
Ġb ent
Ġinstr ument
Ġr ows
Ġpupp ies
Ġlaund ry
Ġthick er
ug s
Ġdeep ly
Ġpol ite
Ġre aches
Ġrel ief
Ġmascar a
Ġco ach
az e
Ġcrit ical
Ġup gr
Ġaddition ally
Ġsell er
Ġhe ating
Ġtw e
be fore
Ġcomp ass
Ġaccident ally
Ġpsych olog
Ġed iting
Ġrec ently
Ġbed ding
Ġinfect ed
Ġgre et
Ġn ause
Ġcomp onents
Ġla wn
Ġmanufacturer s
Ġsoft en
ad ow
Ġconv in
Ġhe el
Ġph arm
Ġhapp iness
Ġremo val
ter ing
Ġjoint s
Ġre ly
Ġcomp ress
Ġrem ote
de c
Ġprefer ably
Ġsee king
Ġphys ician
ag ers
Ġnum er
Ġbu ff
Ġadequ ate
Ġcateg ories
Ġcit iz
Ġche aper
Ġor ient
Ġto ast
Ġpurp oses
Ġcr ate
Ġdisco ver
Ġsp ent
me al
Ġshad es
Ġpo ison
Ġqual ify
Ġestabl ished
Ġneighbor hood
s is
Ġsim pl
Ġsor ry
Ġtick ets
Ġdv d
Ġc aps
Ġcompan ys
Ġ ounces
Ġmark er
Ġsav ings
Ġo me
Ġnote book
Ġdiagn osis
il ies
et ic
Ġemploy ers
Ġbran ches
Ġanx ious
Ġstrengthe n
Ġcomplic ated
Ġweeke nd
u ous
im p
Ġterm inal
Ġ king
ck ets
Ġent ertain
Ġdecor ations
Ġspat ula
Ġn orth
Ġconsider ing
Ġstress ful
m ade
Ġf ib
Ġcarr ier
Ġye ast
Ġrepe ated
Ġimp ress
Ġprevious ly
Ġwith draw
Ġc iv
Ġto ld
Ġb ind
Ġreact ions
u nd
Ġcoun se
Ġphr ases
Ġap olog
Ġprev iew
Ġf if
Ġw ool
hip s
Ġstretch ing
Ġpo em
Ġrap id
Ġenc oun
ic ip
Ġclean ed
Ġd ental
Ġsubt ract
Ġgre ens
Ġgif ts
Ġun iform
Ġcur ls
Ġc tr
Ġcarbohydr ates
ys is
Ġhealth ier
Ġfore ign
Ġteam s
Ġsav ing
as ure
Ġvers ions
Ġjump ing
w or
Ġlo go
Ġann ual
Ġinte nd
com ing
Ġregist ered
Ġfix ed
Ġinstall ing
Ġmag ic
Ġconstru ction
Ġpre c
Ġregist ration
um bs
Ġj ars
Ġhob by
Ġhydr ated
g y
im ents
Ġsl ight
Ġf ishing
Ġst able
Ġte x
Ġpolic ies
et erm
Ġsuff er
e en
Ġo v
Ġeyes h
in c
b orn
Ġadv is
Ġstrugg ling
op h
rough t
Ġdownload ed
__ __
p a
r ance
Ġcur ve
t ry
Ġwit nesses
c reen
Ġr ust
Ġch am
Ġsignific antly
Ġact s
Ġmat ure
Ġgau ge
Ġv ul
un ately
Ġrat io
l ined
Ġadvert ising
Ġwh om
ten ance
Ġdi arr
Ġfl ush
Ġcur tain
Ġis ol
Ġnutr ition
Ġcr ust
Ġnear ly
Ġco pe
Ġwr ink
Ġimp ression
go ing
Ġp ip
Ġbo b
Ġtyp ing
Ġdirect ory
Ġneck l
Ġtut or
Ġhalf way
Ġac ids
Ġover ly
Ġbas ically
w orm
Ġmat t
Ġweap on
Ġmain tenance
Ġprep aring
Ġh un
Ġdo se
Ġaltern ate
ld er
Ġfew er
d f
p are
p ack
Ġg est
Ġr iding
Ġhu nd
Ġbr ist
Ġholid ay
om y
Ġhund red
Ġend ing
ĠÂ ¼
Ġex ternal
Ġbubble s
Ġaccom pan
Ġtick et
Ġhar vest
qu e
Ġre ar
Ġapp et
Ġsp ine
Ġreg ion
Ġfat ty
Ġprint ed
Ġen velo
n ame
Ġh iding
ol i
Ġperform ing
Ġh us
ac ity
Ġpass ed
ari um
Ġer ase
Ġt att
Ġdr um
Ġinter rupt
c ers
Ġcomple ting
Ġshop s
Ġtur key
Ġkey word
Ġthrow ing
l ers
Ġpean ut
Ġbreath s
Ġrecommend ations
Ġbead s
m y
x id
Ġd ancing
Ġeng aging
Ġhot el
Ġp ant
Ġal ph
Ġantibiot ics
Ġret ire
Ġip ad
Ġdeli very
Ġd uct
Ġdiam eter
Ġha ll
a ud
Ġlif ting
Ġab ilities
Ġstrength s
Ġm g
Ġresid ue
Ġfa ith
Ġp ound
Ġh arsh
Ġrein force
Ġbac on
an as
Ġqual ities
Ġfe ather
g ather
Ġsc ient
Ġlot ion
Ġedit or
Ġwra pping
Ġo at
Ġer rors
Ġsqu ash
Ġas p
Ġdim ens
Ġso le
l im
Ġmix er
Ġbran ch
Ġscar f
k a
in i
Ġcons cious
Ġposs ess
Ġdise ases
Ġproced ures
Ġso f
Ġdomin ant
Ġc rop
ing e
Ġinte nded
Ġtechn ology
Ġcar bon
a ust
Ġcheck ed
Ġdown ward
Ġeyesh adow
y al
Ġcre ase
Ġass um
Ġval ve
Ġod or
Ġstra nds
Ġredu ced
Ġra ised
in stall
Ġle ase
Ġa u
Ġfal se
Ġchalleng ing
Ġstur dy
Ġse qu
Ġatt acks
Ġdiarr hea
t te
Ġcomp ens
Ġdi aper
Ġsumm ary
Ġhum ans
Ġm ile
av a
Ġfit ting
Ġgrad es
le arn
Ġint im
Ġper mit
Ġtatt oo
Ġt ile
Ġposs ibility
Ġun us
Ġgirlfr iend
Ġcl ut
ic ide
Ġad mit
Ġw ent
Ġr ush
ess ert
Ġdisp ute
Ġo z
ang es
lo sure
Ġup ward
Ġbel ong
Ġth y
Ġer ror
pro of
Ġd ot
Ġcrim inal
Ġfall s
Ġgre y
w as
Ġjell y
Ġs outh
Ġcont ext
Ġd essert
ru it
Ġn it
Ġimprove ment
Ġcon ver
Ġpl ot
Ġshort s
Ġpier cing
Ġdisc ip
Ġrelig ious
Ġcounse ling
Ġr ul
Ġw ard
Ġr im
Ġ2 7
Ġprev ents
Ġtoo k
Ġrepl acement
Ġtra um
Ġhy gi
Ġmatt ress
Ġbul b
Ġrel ative
Ġult imately
Ġsho ck
Ġcand le
Ġre verse
Ġb ang
ak ers
ap pe
if ier
Ġcontin uing
Ġsubject s
Ġkid ney
n o
Ġbor row
Ġdepos it
ir st
Ġcl oud
Ġgr ind
Ġwor st
Ġmeet ings
Ġn est
Ġresol ve
Ġf ault
Ġallerg ic
Ġlat est
Ġdeterm ined
Ġconsum ing
et ies
Ġsimilar ly
Ġhit ting
Ġrespons ibilities
Ġg arnish
m ail
Ġe th
ie ved
Ġmark ed
Ġsatisf ied
Ġi cing
Ġplay ed
Ġwire less
oid s
Ġcompl ain
Ġdis ag
Ġstop s
Ġwarn ing
Ġatt e
v ings
Ġb in
ap t
Ġacc ent
Ġlim e
Ġdoll ars
Ġdistract ions
Ġbr ake
e ven
k ed
Ġciv il
Ġpepp ers
f ting
Ġdec ided
Ġm or
Ġvis a
Ġconc l
Ġcan cel
Ġadopt ion
Ġt in
Ġbo l
Ġd ash
and s
Ġindic ates
Ġpaper work
Ġspeak er
Ġfun ctions
Ġsc rape
m at
Ġsuns creen
Ġfoll ows
Ġi l
Ġport ions
Ġshoot ing
1 4
2 0
Ġw ings
Ġsuff ering
Ġr ins
Ġca ul
Ġvir us
Ġ8 00
Ġscr ipt
Ġc els
Ġre cept
Ġsh red
Ġhob bies
Ġath let
Ġhe ro
Ġwe l
Ġch apter
Ġbefore hand
Ġcapt ure
op s
Ġsl ot
Ġgu ess
Ġl iner
ire ct
Ġwork place
Ġdiffere nces
Ġcent ers
Ġ4 8
Ġf ence
Ġm m
Ġfat ig
Ġpump kin
Ġident ification
Ġunhe althy
Ġchar ges
Ġsing ing
Ġallerg ies
lo s
Ġest imate
Ġbull ying
Ġfabric s
Ġfire f
Ġg ap
Ġsub tle
Ġcels ius
Ġexc ited
Ġmarr ied
1 5
Ġhead ing
Ġcost ume
Ġwra pped
Ġban ana
Ġsupport ing
Ġcomb at
Ġflav ors
p arent
un ge
Ġmagaz ines
Ġtoothp aste
se lect
Ġup side
Ġro cks
Ġs en
Ġform ing
Ġdis ability
Ġr ude
Ġdou bt
Ġsy nt
Ġconnect ing
Ġelig ible
om b
Ġgl ow
v y
wor king
e em
Ġp y
Ġprim er
Ġcompet ition
Ġsp a
Ġexc use
k en
Ġbelief s
Ġprocess ing
Ġrep et
m ate
Ġswe ep
Ġtool bar
i ating
Ġcl ips
Ġcent ral
Ġingred ient
Ġlo gin
Ġstandard s
Ġtodd ler
dec ide
Ġv ill
Ġtrust ed
Ġwarr ant
v ent
Ġc her
Ġpass ing
Ġdo s
Ġad s
Ġnause a
Ġ4 00
Ġstra nd
Ġwor s
Ġrem ains
Ġorig in
Ġspin ach
Ġle nder
Ġco ats
Ġenh ance
Ġbr idge
Ġsu its
Ġre ached
Ġor g
Ġm es
Ġbar r
Ġadv ent
Ġm ast
Ġvari able
Ġautom atic
Ġelb ow
Ġpre cise
Ġstim ul
Ġreport s
Ġmot ions
Ġanaly ze
Ġrhy th
Ġw at
Ġgr ate
Ġest eem
Ġkn it
c ue
d eterm
l a
Ġre wards
Ġsh ine
ang ular
Ġunw anted
am ine
Ġprescrib ed
Ġp up
Ġwit ness
Ġdent ist
Ġhous ing
Ġhung ry
Ġless ons
Ġfl uff
ick s
Ġ15 0
Ġcry st
Ġint ensity
Ġelectr on
Ġdra wn
Ġbed time
Ġw ider
h ave
ll er
br ows
Ġwhe els
Ġart ist
Ġsc o
Ġcru cial
Ġvom iting
Ġmem ories
Ġwho se
Ġemot ionally
Ġp ou
Ġag g
Ġto ler
Ġtrig gers
Ġfr act
Ġexe cut
determ ine
Ġh t
Ġdis orders
Ġhome made
Ġo s
ib it
Ġb rought
fo ld
Ġep is
Ġal le
cons ider
ag ram
Ġbr ack
Ġaffect ion
Ġpurs ue
Ġconcent rate
ver ages
Ġstay s
Ġb order
Ġis land
Ġt act
Ġch ores
Ġhair s
Ġintrodu ction
Ġo h
Ġun fort
Ġag ents
Ġresol ution
Ġstraw berries
Ġsurpr ise
Ġank le
Ġreve al
Ġprete nd
Ġart ists
Ġobvious ly
Ġaut istic
Ġmatch ing
Ġmu ff
Ġbank s
c d
Ġb aked
Ġjo h
Ġperson ally
Ġcomfort ably
al ous
Ġver b
Ġdescrib ed
Ġclub s
Ġre ferences
Ġchunk s
Ġflu ids
Ġquot es
a les
ho st
Ġdrag on
g u
Ġany way
Ġstand s
Ġdestro y
Ġn one
ab ilities
Ġeff orts
Ġdocument ation
Ġmat ters
Ġlow est
r s
Ġsib ling
Ġess entially
Ġj ur
Ġeye brows
Ġj am
Ġcou p
Ġs ilk
Ġchar ged
Ġbot her
Ġeff ici
Ġl u
int s
Ġjo ke
Ġshort cut
Ġsubst ance
Ġprescrib e
Ġmajor ity
as y
Ġdam aging
Ġdevelop ed
i ant
Ġweight s
Ġocc up
Ġbank rupt
are st
Ġindo ors
Ġp ork
Ġstrateg ies
Ġw ig
Ġneighb ors
Ġctr l
Ġround ed
ave nder
Ġexh aust
Ġpronoun ced
Ġint ent
Ġnot iced
Ġsh allow
Ġal ter
Ġflo ss
Ġroll er
Ġdom ain
p ie
un ction
Ġcommand s
Ġ3 50
a ign
Ġstr ict
Ġshe lf
Ġpract ices
Ġcap able
ab or
Ġapplic able
1 6
Ġmagaz ine
Ġf ather
le nce
Ġhead s
Ġbowl s
wr ite
Ġsh ave
am el
Ġcy l
Ġconceal er
Ġpo ps
om a
Ġtr uck
Ġgr own
Ġdes p
er ves
ab ol
Ġrequest s
Ġj aw
Ġte ens
Ġut ility
Ġchalleng es
Ġacadem ic
Ġoat meal
Ġper oxide
Ġm iles
ow el
Ġexper ts
Ġpass port
Ġcamp aign
Ġsudden ly
Ġprep aration
Ġbull y
c ular
ll o
Ġver bal
Ġdelic ious
Ġcertain ly
Ġlead er
Ġbl u
Ġjo ining
Ġx box
Ġspeak ers
Ġsandw ich
Ġh ood
Ġcomp ound
Ġball oon
Ġsib lings
Ġde lay
Ġf aces
Ġbl ades
Ġinter p
ang ers
Ġle nd
c ling
Ġqual ified
Ġdress es
Ġr az
Ġpun ish
Ġs ac
Ġcomp at
Ġunder lying
Ġnight s
Ġrout er
Ġencoun ter
Ġit al
ill y
Ġfertil izer
Ġclose t
Ġalb um
um ble
Ġkn ock
Ġje alous
Ġaccept ed
Ġo ily
Ġup right
Ġgu est
Ġperform ed
Ġin ex
Ġbas ics
Ġrepresent ative
Ġdis charge
Ġgr ant
Ġt iles
Ġdiam ond
Ġve gg
Ġhold s
Ġome ga
Ġwant ing
Ġst airs
Ġro b
r us
ig or
Ġfr ac
Ġstro kes
rop h
Ġhe she
Ġloo ps
Ġn as
Ġover come
Ġl ashes
Ġsw allow
Ġclim b
p age
Ġopen s
cre ate
s or
ap y
Ġdatab ase
ig r
Ġinflu ence
Ġwas hed
Ġweap ons
Ġeng aged
Ġstraight en
Ġcircul ation
Ġguid ance
Ġunlike ly
Ġpo res
Ġcirc uit
c al
Ġsupp osed
Ġca ution
Ġstrugg le
Ġlung s
Ġb its
Ġf ans
Ġle ash
Ġcar ing
Ġactiv ate
Ġtra its
Ġc ush
Ġil leg
Ġd ots
Ġsettle ment
Ġf i
Ġher b
m m
Ġcan vas
Ġgar age
Ġmut ual
Ġo val
Ġhygi ene
Ġl avender
Ġrel iable
Ġme ats
Ġn or
Ġpack aging
Ġman ip
Ġimpro ving
Ġremo ver
Ġthin ner
Ġmach ines
Ġfan cy
Ġassign ment
ad ing
Ġgr amm
Ġdec iding
Ġmess y
Ġfore head
Ġhim her
Ġvari eties
Ġcommit ment
Ġb unch
Ġpl ates
ap an
Ġsupport ive
b ur
Ġpo ke
Ġplan e
Ġdraw er
ous es
3 0
Ġy ork
Ġn ood
Ġprevent ing
Ġham mer
Ġnur sing
art s
Ġany more
Ġper f
Ġexplore r
Ġlicens ed
el ine
Ġne arest
Ġen force
Ġlens es
o ff
Ġfr aud
Ġclos est
Ġdre ams
pen se
Ġber ries
Ġcon so
Ġpar king
Ġd er
Ġdec l
Ġlist ing
Ġpan c
Ġconsist ently
Ġexam ination
Ġdisc onnect
Ġrestaur ants
Ġcr own
ll a
Ġv es
Ġthick ness
Ġreput ation
Ġroll s
Ġth ous
Ġun ex
Ġm p
Ġn amed
Ġsn ake
Ġl ining
Ġch lor
Ġreput able
Ġwalk s
Ġnegot iate
Ġbankrupt cy
Ġpre ference
Ġtot ally
Ġinteract ions
ne w
Ġconsum ption
ort hy
Ġmo ved
Ġbe verages
Ġf les
Ġinc red
Ġcomp ar
Ġprior ity
Ġd erm
log ist
Ġband age
Ġauthor ity
Ġcentim eter
Ġmention ed
arch ment
Ġe con
Ġclass room
Ġreal ity
Ġst amp
ric s
Ġdish was
Ġi os
Ġtransport ation
Ġrare ly
Ġredu ces
Ġminim al
sel s
Ġsoci ety
Ġe uro
Ġpe ar
Ġrespect ful
Ġw ave
Ġactive ly
Ġhorm one
ip ts
Ġclean ers
c s
o le
Ġreach ing
Ġinst agram
Ġpill ows
a led
Ġvul ner
Ġgot ten
Ġbre eding
Ġret r
Ġeff icient
Ġexh ale
Ġf au
Ġj apan
Ġback wards
Ġemot ion
Ġcleans er
Ġco pper
Ġbody s
Ġfour th
Ġc el
pp y
Ġcool ing
Ġexpl an
Ġtherm ometer
Ġsh ield
Ġbr ushes
Ġtab s
if ies
Ġbr on
Ġp archment
Ġr am
Ġgreat ly
Ġsepar ately
Ġafter wards
Ġrest ing
Ġfiref ox
Ġl ace
Ġac et
Ġprotect ed
o de
p at
Ġf ant
oura ge
Ġvent il
Ġavoc ado
Ġsh ipping
Ġplay s
Ġirrit ate
t ight
Ġsmell s
Ġassign ments
Ġm ud
Ġal t
Ġrent al
Ġsal mon
Ġopp onents
r ome
Ġlead ers
Ġconven ient
Ġobst ac
Ġp ause
Ġt ense
Ġco ins
ath y
lass es
Ġunus ual
Ġe b
Ġappropriate ly
Ġinter ns
Ġpoint ed
Ġr ash
Ġdelic ate
Ġpan ic
ic he
Ġgr an
Ġcho le
Ġaddress es
r ont
Ġre ass
ap or
fr ac
Ġfil ters
Ġm ilit
Ġfe ars
Ġsto pping
Ġapart ment
Ġc ities
ic ious
Ġsn ip
Ġbo nds
Ġcopy right
Ġunfort unately
Ġpract ical
Ġj unk
Ġinter ior
Ġflex ibility
Ġwik i
Ġm ul
i ator
pl ant
Ġp df
Ġle d
Ġgl ut
Ġir s
Ġm aps
Ġtest ed
Ġbul k
Ġrhyth m
Ġfam ous
ster ol
Ġh ate
Ġbl ot
Ġbod ies
Ġf av
Ġent ered
Ġcand les
Ġattach ment
Ġbo lt
en ger
Ġde als
Ġconf used
Ġdis appe
Ġvar ies
Ġcarry ing
Ġst ub
Ġres erv
p x
Ġpow dered
Ġstr ap
Ġe lder
Ġr ip
Ġdisc rim
Ġconf ront
Ġbro cc
Ġassoci ate
os ition
Ġbre w
Ġlay out
Ġgall on
Ġinte ll
an y
Ġmin eral
Ġbre eds
r ating
rou d
Ġpers ist
ipp ers
Ġse mi
Ġexp ression
Ġbig gest
Ġcig are
Ġout put
Ġbr oth
Ġconsider ation
Ġd ull
Ġde ce
Ġsh ip
if orn
in fect
Ġst ool
ut ing
Ġinh ale
2 2
Ġjo kes
Ġcomp ared
Ġdut y
Ġchole sterol
Ġher bal
Ġspecial ist
Ġamaz on
Ġdr ies
c orn
Ġfam ilies
Ġinf o
Ġamaz ing
ul s
Ġme ets
Ġun re
Ġaccess ible
Ġfly ing
Ġinsect s
Ġintell ig
1 3
Ġsupport s
Ġattempt ing
Ġdirect ed
Ġdam ages
Ġinflamm atory
Ġco ating
Ġbl ush
ang ing
Ġalmo nd
er ved
Ġ2 8
Ġbul bs
Ġarg uments
Ġadd s
Ġant icip
v able
Ġex cl
Ġdon ate
Ġsky pe
Ġmilit ary
Ġp roud
Ġman ually
Ġsy nd
Ġrefer ral
Ġal oe
Ġretire ment
Ġapp lies
Ġrecip ient
Ġmush rooms
Ġsp are
Ġleg ally
Ġatte nding
av oid
Ġaqu arium
Ġt ent
Ġcal iforn
Ġcook er
Ġbr it
Ġfr ames
Ġspe ll
Ġcomm iss
Ġpal ms
pre pare
a id
Ġin qu
ad der
Ġsil ic
e w
ad a
Ġsh iny
il o
er als
Ġwh ites
Ġimport ance
Ġenem ies
Ġfr ying
Ġwork er
Ġz ero
Ġg ut
Ġt bs
Ġextens ions
Ġg ate
book s
Ġdig it
m es
Ġins ul
Ġbrocc oli
Ġobl ig
Ġopen ed
Ġ18 0
Ġasse mble
Ġsurpr ised
Ġpig s
Ġb oring
Ġcontrol s
Ġfre t
Ġfrust rated
Ġfatig ue
Ġhe ated
Ġbes ide
n et
Ġcream s
Ġan ch
Ġaffect s
n oon
Ġn arr
Ġco co
Ġcu cum
Ġde fic
Ġdissol ve
Ġsw ord
Ġsw ipe
Ġsh aving
Ġmeas ures
Ġelb ows
Ġt sp
Ġafter noon
Ġbreast s
app ly
Ġful fill
he red
Ġart ific
Ġhist or
st one
Ġresist ant
Ġle ak
Ġdecor ative
Ġnet working
Ġexc iting
Ġl ined
Ġco in
Ġcheck s
Ġz o
Ġtrain er
Ġ ll
Ġadjust ments
Ġc ube
Ġst ab
Ġc ure
Ġp il
Ġrespons es
Ġ12 0
Ġtr ied
Ġra ising
Ġnove l
Ġdef ined
Ġcharacter istics
Ġdistrib ute
Ġmes h
Ġpass es
Ġju ices
Ġspread ing
ro s
Ġph ase
Ġfl ame
Ġmed iation
Ġwash cloth
c ip
Ġres ulting
Ġso aking
Ġmet abol
Ġcool er
Ġbl ame
Ġsecond ary
Ġde l
pre heat
Ġat m
Ġproduct ive
Ġpet als
Ġflat ten
Ġass ert
Ġreg ulations
Ġste ak
Ġben ch
Ġb orn
Ġanal ysis
Ġl ub
Ġacc um
Ġpurch ases
Ġham sters
Ġdis miss
Ġag es
Ġgr ows
Ġb ump
Ġch ose
Ġinter fere
Ġtag s
Ġback pack
Ġrepl acing
Ġemphas ize
Ġform er
Ġt une
st orm
Ġaccept ing
Ġenvelo pe
h ot
Ġang les
Ġm s
Ġhyd rogen
Ġdeb ts
Ġad m
Ġmu se
Ġim ple
Ġgrad uate
Ġthe sis
b urn
Ġadd iction
f ace
Ġobject ive
Ġbrok er
Ġapolog ize
Ġsu sp
Ġsign ing
Ġdownload ing
Ġsan it
Ġg host
Ġspec ify
Ġmiss ion
Ġpolit ical
Ġhumid ity
Ġeduc ational
Ġtrick s
Ġthan ks
Ġilleg al
Ġsyn c
Ġr ac
Ġv ase
h op
Ġw and
Ġco des
Ġrul er
Ġst ars
Ġobs ess
Ġ ounce
Ġscrew dr
Ġcomprom ise
Ġpat ches
r ings
Ġpl acement
Ġup wards
Ġim per
pect ed
Ġbar rel
Ġm it
ry lic
Ġe ast
Ġcolor ful
Ġoverwhel med
Ġlo ves
Ġstr aps
Ġstuff ed
Ġdesp ite
st e
Ġmeaning ful
Ġur ge
Ġmotiv ated
Ġscen ari
Ġdis infect
Ġcur ved
Ġto nes
Ġsubst ances
Ġasse mb
Ġspirit ual
ro be
Ġtr ies
Ġcaliforn ia
rem ove
Ġsp ice
Ġsur vey
Ġh ay
ar se
Ġdist inct
Ġg ums
Ġcust ody
Ġdis rupt
Ġbuy er
cl oud
Ġvoc al
Ġb ark
Ġsecure ly
Ġh d
est h
Ġtim er
Ġsw ab
st ain
Ġg aps
Ġsuc ceed
Ġsmooth ly
Ġequ ally
Ġrestrict ions
Ġport fol
Ġdedic ated
Ġy ol
Ġplan ned
Ġsign als
Ġmet er
Ġbehavior al
Ġmount ain
ap es
it ations
Ġinteract ion
im al
Ġsc ared
Ġbatter ies
Ġfles h
Ġbr other
x x
Ġwhere ver
Ġdesign ated
Ġtechn ical
Ġsoot hing
it ivity
Ġtable t
Ġinsp iration
ic ate
le x
Ġcr acks
Ġarg ue
Ġcl imate
Ġgr asp
Ġcons ent
Ġkit tens
Ġpen al
c an
Ġleft over
Ġcomplic ations
2 5
Ġall ergy
Ġfin ishing
Ġtou ches
Ġp ap
Ġsh if
Ġexp ose
n uts
Ġdif fer
Ġcr ime
Ġchar ity
Ġoccas ion
Ġtbs p
Ġt ang
Ġh its
Ġmin erals
Ġsea led
o ster
Ġar ts
Ġam b
4 0
Ġair tight
Ġresour ce
Ġannoy ing
Ġp ills
Ġcon j
Ġidentify ing
Ġpul led
Ġhand les
Ġcur sor
is her
Ġtor t
Ġch i
Ġpair s
Ġqu ote
od or
c ur
Ġev ol
Ġt ill
Ġs illy
Ġsynd rome
Ġlub ric
Ġgener ate
Ġdead line
Ġdoll ar
Ġappet ite
8 0
Ġsm iling
ial s
Ġm ad
Ġcan ned
he nt
Ġcrow d
l ar
Ġu v
ep s
Ġsp ider
e rest
Ġfun g
Ġcamer as
Ġban anas
Ġcritic ism
Ġgr at
Ġw aves
Ġgar ment
u ce
Ġr um
Ġhous es
Ġphotograph s
Ġco ated
w all
Ġas h
im eter
Ġscr at
Ġc ouch
Ġtim ing
Ġcand ies
Ġraz or
Ġear rings
Ġwater ing
Ġput s
Ġn ine
Ġswe ater
Ġconc ert
Ġteas poons
Ġb ait
Ġp uff
Ġac rylic
Ġcra zy
Ġlay ing
Ġun h
Ġhope fully
Ġcheek s
Ġdigest ive
st s
Ġrel ate
Ġconcent ration
n orm
Ġsu ck
ce eding
Ġfr anch
Ġst ages
Ġconso le
Ġfr ied
Ġs ed
us er
Ġfrequ ency
Ġbo ys
Ġinst ant
Ġdes cript
Ġconf id
Ġhe llo
Ġho p
Ġartific ial
Ġward robe
Ġl an
Ġabdom en
Ġabdom inal
Ġhe s
Ġun install
Ġn ative
Ġchildren s
Ġ9 9
Ġcatch ing
Ġt um
Ġgo ss
bu y
Ġcowork ers
Ġbol ts
n is
Ġout let
Ġun ion
Ġred ness
Ġli ability
Ġmiss ed
Ġvio lence
Ġj ail
Ġsp ill
Ġcompet itive
Ġnood les
Ġend ed
Ġchew ing
Ġsoap y
Ġkeyword s
Ġpot s
Ġcolle ag
Ġscrewdr iver
c a
Ġdram atic
Ġvirt ual
Ġp ud
Ġd ad
Ġmo le
arm s
Ġprodu ced
p ass
nd ay
Ġmotiv ation
iz ers
Ġaer ob
co de
Ġcontrol led
Ġtor so
Ġinex pens
Ġdif f
Ġreturn s
en er
Ġvegg ies
Ġsug ars
Ġm art
Ġex ter
Ġform ed
st re
Ġrepres ents
Ġcompass ion
Ġh ug
h us
Ġp or
Ġinstru ctor
se e
Ġmine craft
Ġfr action
Ġout look
Ġtim eline
Ġem br
Ġelect ro
h ouse
Ġhe y
Ġspecial ized
Ġdur ation
Ġjpg v
Ġaccommod ate
Ġneckl ace
Ġwel come
Ġl aser
Ġpro l
Ġrelig ion
re he
Ġp ars
ro g
ud ge
Ġdr ives
Ġ3 7
Ġaut hent
Ġglut en
o ld
Ġb acking
Ġpo ckets
Ġlo ving
Ġhim self
Ġeat en
miss ions
Ġexam s
Ġskin ny
Ġsile nt
g un
Ġe t
Ġshe lls
Ġassign ed
Ġht ml
Ġunex pected
Ġprem ium
Ġbang s
are s
Ġlength s
Ġinit ially
Ġdialog ue
Ġres ort
Ġpat ience
Ġ25 0
Ġfre ed
Ġr h
Ġdisable d
Ġr ank
Ġthor ough
Ġhold er
Ġno body
Ġgrou nds
Ġc ort
al f
Ġout come
Ġlo gged
Ġco gn
Ġsympt om
Ġcap acity
Ġw ing
h a
Ġsk irts
Ġcon vey
sp ray
p m
Ġcitiz ens
et te
Ġblo cking
m en
Ġsp ons
Ġaware ness
r ict
Ġp im
Ġde odor
Ġb ass
Ġspe lling
Ġro lled
Ġstr ange
Ġimple ment
Ġill ust
Ġpo le
Ġwhere as
em ents
Ġcoco a
Ġwh it
log y
b ra
Ġoff ices
Ġvulner able
Ġcont amin
Ġnas al
Ġgoss ip
Ġair port
Ġcalcul ator
Ġbacter ial
Ġlock ed
Ġt ies
Ġste re
Ġprin cip
Ġtele phone
Ġbu gs
down load
Ġam mon
Ġless on
Ġven ue
d a
Ġs ar
Ġtr unk
ol a
Ġrese mble
Ġbal m
Ġdistract ed
Ġgroom ing
ag us
b ac
Ġh oo
id ents
Ġr if
Ġsuper vis
Ġbuy ers
Ġequ iv
Ġment ally
Ġt amp
Ġflo ors
Ġhorm ones
Ġgr id
Ġdire ctor
Ġinsert ed
Ġzo om
Ġp ens
rit is
Ġdist urb
Ġm r
Ġple asant
Ġcustom ize
Ġbook mark
Ġrece ipt
Ġsand paper
Ġmod ify
Ġwrink les
Ġg mail
Ġleg it
Ġmer ch
Ġtempt ing
Ġscient ific
Ġdisplay s
Ġcyl inder
Ġportfol io
th ink
Ġhus band
Ġdis app
Ġcomp onent
Ġpan els
Ġtrad ition
Ġlawy ers
Ġcommit ted
Ġsl iced
Ġve nd
Ġpost ing
Ġident ified
Ġcompat ible
Ġmet ers
Ġy ield
Ġscratch ing
Ġwonder ful
Ġgar bage
Ġcolum ns
Ġspan ish
Ġprote ins
se arch
Ġsecure d
Ġs ister
m el
Ġr ail
Ġcontro ller
Ġd umb
Ġcr ushed
Ġauth ors
Ġclim bing
Ġre ven
Ġhar ass
Ġg ly
Ġthink s
Ġhis her
log ical
c ure
Ġshr imp
Ġforg ive
p al
Ġst alk
Ġex pense
Ġbl adder
Ġupgr ade
ing u
Ġd ump
h ma
Ġhapp ier
Ġslee ve
Ġrep ly
Ġrele ased
Ġheav ier
Ġi cloud
Ġpubl ished
pie ce
Ġstr i
Ġpick ed
Ġmar gin
app ropriate
as hing
Ġhead band
Ġeb ay
Ġmul ch
Ġcoo led
Ġinterp ret
n ic
Ġa ward
Ġdet er
Ġneg lect
b a
Ġm and
Ġal to
Ġview s
Ġm arsh
Ġru in
Ġcompl iments
cher s
Ġfib ers
Ġschedu led
Ġout ward
Ġjo y
Ġe c
Ġdivid ed
Ġinexpens ive
b ed
ist ers
Ġoutf its
Ġspecial ty
Ġcalm ing
app le
Ġasp ir
Ġsur g
Ġmy ster
Ġslee ves
Ġjoh n
s ome
Ġbe an
Ġsu e
erm int
Ġcont r
Ġins ight
Ġthigh s
up s
Ġbutter f
Ġaltern atives
am ic
Ġr ays
Ġsl ower
Ġsy ll
Ġcit rus
Ġtempt ed
Ġlike li
ire s
Ġoper ate
Ġcop ing
Ġcere al
Ġsch ol
Ġconcept s
k n
Ġdi ary
Ġbit es
Ġdef ensive
Ġsuggest s
Ġadminist ration
Ġab norm
Ġthem es
Ġin appropriate
Ġconfirm ation
Ġlikeli hood
Ġr ating
Ġher self
Ġp ans
Ġsh a
m ic
Ġgu il
Ġperiod ically
Ġdos age
esth umb
Ġsurv ive
Ġcandid ate
Ġc ables
Ġtr acks
Ġbr u
Ġlast ing
Ġrefer red
Ġconstru ct
er ia
Ġun even
Ġar bit
Ġrepl aced
Ġvoc ab
z er
Ġtext s
Ġconcl usion
Ġhead aches
iche ver
Ġequiv alent
Ġad apt
is ms
Ġus age
Ġbu nd
ines e
Ġref ers
am ent
Ġsy ring
Ġdehydr ation
al y
Ġpur se
Ġprin ting
Ġinterv als
Ġest im
Ġbon us
j i
io xid
oc king
Ġrect angular
Ġindo or
Ġpray er
Ġsh ove
Ġpre heat
Ġper m
Ġgr it
Ġlo cks
Ġelse where
Ġhead er
Ġwin ning
Ġinsul in
Ġch alk
Ġopp osed
Ġant ioxid
at in
Ġlar gest
Ġdisc ol
cle an
Ġdep ressed
Ġpred ict
Ġcommiss ion
Ġwh ichever
Ġpl iers
izz le
Ġdiet ary
Ġsen ior
ra is
cel er
3 2
Ġ _
Ġunder wear
Ġstick ers
Ġdefin ition
Ġc akes
Ġdiscuss ing
Ġguil ty
Ġun co
Ġrefriger ate
Ġentertain ment
ic ular
Ġconvin ce
Ġp ly
Ġv igor
Ġrec all
Ġd augh
Ġblank ets
Ġch ip
Ġpro port
r ant
et o
Ġtr ips
Ġf est
Ġauthent ic
Ġo re
pp ings
c ont
m ix
Ġbr ings
Ġ5 4
Ġprov iders
Ġassist ant
Ġgramm ar
Ġu l
Ġent rance
Ġrepe ating
Ġord inary
Ġoverl ap
Ġr ay
Ġkn ead
Ġast hma
Ġperf ume
h d
Ġsc ary
Ġmeasure d
Ġheav ily
Ġpain ted
is c
Ġpe as
Ġded uct
p ers
Ġpo ll
Ġpublic ation
Ġrins ing
Ġre new
Ġtop ical
Ġsupport ed
Ġste ep
Ġtire s
Ġw est
Ġwater proof
Ġent hus
Ġrequire ment
Ġblock ed
Ġhi king
Ġpo d
Ġint est
Ġquick er
Ġtit les
Ġpul se
Ġcabin et
Ġsuggest ed
Ġmill ilit
Ġhaz ard
Ġiss ued
Ġf ails
Ġshel ves
Ġwrit ers
Ġfac ility
im ony
Ġlet t
Ġnegative ly
Ġclock wise
Ġp acking
Ġar th
Ġcent ered
Ġveterin ary
Ġt ied
Ġn erve
Ġ6 4
Ġbrace let
act ive
other apy
Ġtub es
ur s
Ġd uck
Ġve gan
Ġtw ent
Ġsoak ed
Ġ5 5
Ġhunt ing
Ġt ilt
Ġso ck
Ġpop corn
ot ic
Ġsurround ings
Ġtr acking
Ġau ction
Ġsad dle
Ġinform ed
Ġgen re
Ġinstru ct
Ġt u
Ġattract ed
Ġnot ification
Ġfo ster
ul ary
Ġcontact ing
Ġjur is
Ġst oring
Ġfe min
Ġne ither
Ġeuro pe
Ġdisco very
Ġinvest igate
Ġammon ia
Ġc ater
Ġf ade
Ġcon e
Ġbuild ings
Ġrecommend ation
Ġpepp ermint
Ġwide ly
Ġsubst ant
Ġfit ted
Ġm im
Ġfold s
Ġden om
Ġbr aces
Ġprocess es
Ġresp ir
Ġindivid ually
fl ow
Ġcandid ates
Ġvocab ulary
Ġi b
Ġcont est
Ġnew ly
Ġcelebr ate
s qu
Ġin e
Ġincred ibly
Ġalto gether
cc er
Ġadministr ator
Ġse ar
Ġliqu ids
Ġsymbol s
Ġc uff
b b
Ġplay list
Ġl amp
Ġtrans form
Ġhealth care
Ġto bac
Ġfold ing
Ġseason ing
Ġprofess or
Ġb id
Ġhand ed
Ġsu stain
Ġfl irt
Ġswitch ing
Ġbul let
Ġeval u
Ġelectron ics
Ġten ant
Ġj ury
Ġwas her
Ġphoto grap
Ġsl iding
Ġsepar ated
Ġc ider
Ġord ers
Ġcomp rehe
Ġ3 8
Ġtrans action
Ġlangu ages
Ġbes ides
Ġsl ides
Ġcur ling
Ġtempor arily
Ġpres erve
t age
Ġsoon er
Ġdepend ent
Ġcut ter
Ġcontin ues
Ġdeal er
k ins
Ġburn s
Ġbarr ier
Ġenvironment al
Ġpub lish
Ġtre nd
Ġjuris d
Ġv ot
Ġaltern ately
Ġcere mon
Ġaw ake
Ġo w
ist ry
Ġjour ney
Ġwor ms
Ġupd ated
Ġso ccer
Ġdec ent
Ġ6 5
Ġstim ulate
Ġover do
Ġappe aling
Ġnutr itional
Ġsome body
Ġfast en
Ġbe es
Ġneed les
Ġstret ches
Ġcon gr
Ġdeterm ining
Ġmar king
Ġb ay
Ġsn ug
Ġj es
Ġstar ter
Ġch ili
Ġfing ert
ugg ing
Ġscore s
Ġtobac co
Ġint ention
Ġfl ap
Ġst ance
Ġgra v
Ġposs ibilities
Ġel ses
Ġblo gs
Ġexpl aining
Ġmoistur ize
bu ild
Ġsof ter
Ġche at
Ġenable d
Ġdrain age
Ġaccur ately
Ġout s
Ġwrit er
Ġincor rect
Ġmark ers
Ġcra w
Ġinv itation
Ġcontro lling
Ġfoot ball
Ġstrain er
Ġsynt hetic
er b
Ġble nded
Ġtr act
Ġtast es
Ġodd s
Ġ2 6
Ġcra b
Ġan ge
Ġsa fer
Ġrep airs
Ġund ers
se cut
Ġr an
Ġvert ically
Ġmus ical
Ġdiscip line
Ġy ah
Ġch airs
Ġmembers hip
Ġcolle ges
Ġdom estic
k er
Ġgra vel
Ġfreed om
Ġlett uce
Ġthreat ening
Ġland ing
Ġshr ink
Ġcris p
Ġp ian
Ġsh all
Ġw iz
Ġp ist
Ġbl ur
Ġcomple ment
Ġaw es
f ire
om ic
ass ium
Ġmoistur izing
Ġp ic
Ġch inese
Ġtr aps
Ġholid ays
ag on
Ġstud io
Ġnur se
Ġhand ful
Ġcock tail
Ġcurtain s
Âº f
f u
Ġgu ides
Ġpast ry
Ġlicens ing
Ġi phones
Ġter rit
Ġwal let
Ġflo at
Ġtrick y
pro f
Ġluck y
Ġu tens
ie ves
Ġenjoy able
Ġreport ing
Ġobs erv
Ġly rics
r um
Ġres cue
p ace
Ġfr izz
Ġab ras
Ġkn ots
Ġin n
Ġem o
j u
Ġfree ly
Ġpartic les
Ġspread she
Ġbat ch
Ġalle v
in ator
Ġm ant
Ġnot ifications
Ġunh app
r t
Ġatt rib
Ġhand led
Ġprom ise
Ġcorrespo nding
Ġdispos able
Ġspe ct
Ġpot assium
Ġnetwork s
Ġb ible
Ġm aker
Ġguarant ee
Ġman e
Ġpu zzle
iny l
Ġac celer
Ġper ce
Ġflow ing
Ġref use
c et
Ġcom ed
Ġinc ident
Ġprincip al
Ġnotice able
Ġprodu ces
Ġsoot he
Ġdiv ision
Ġitch ing
Ġv int
Ġla id
Ġarrange ment
Ġcrit eria
Ġtre nds
Ġcupc akes
Ġgrat itude
it able
Ġdr ip
Ġkind ness
Ġrequest ed
Ġplant ed
Ġfor ced
Ġsu lf
bo ot
Ġsqu at
Ġr ug
te en
be at
Ġhal ves
Ġpencil s
Ġse es
Ġz inc
Ġsco pe
Ġtwent y
v a
ra g
Ġenjoy ing
Ġbreed er
Ġtraum a
Ġdur able
Ġmillilit ers
it als
Ġpack ed
Ġsu icide
Ġforg ot
Ġsatur ated
Ġcogn itive
p urch
Ġnot ify
Ġsince re
t urn
Ġsta ple
Ġt read
Ġun ple
Ġexter ior
Ġdec imal
Ġprov en
Ġgarden ing
Ġderm ato
Ġpars ley
Ġadv ise
Ġvari ables
Ġut ilities
Ġintim id
p ot
Ġcol on
Ġprim arily
Ġst encil
Ġcan s
Ġcondition ing
Ġjud ges
Ġmic roph
Ġprior it
Ġconsum er
Ġprop os
Âº c
Ġsl im
Ġve l
Ġo int
Ġw ast
Ġsex y
Ġcl amp
ang ed
Ġin du
Ġhorizont ally
p ick
em ark
or ation
Ġevery where
Ġver a
ident ify
re ts
Ġwe eds
Ġpr ime
Ġcab bage
Ġpat ent
vis it
Ġcal f
Ġkill ing
Ġdishwas her
Ġad apter
Ġca ut
Ġpine apple
ir l
Ġsu ng
Ġsur ge
Ġconf usion
Ġnewsp apers
Ġse ats
Ġbat hing
Ġs orts
Ġavoid ed
Ġdy nam
Ġinc om
Ġfreez ing
Ġmort ar
Ġvisit ors
Ġantibiot ic
Ġgrate ful
Ġg al
Ġbr ick
Ġar ise
Ġgr out
Ġgather ing
Ġfriendship s
Ġawes ome
Ġmu cus
Ġjapan ese
Ġjes us
a que
Ġc ork
Ġm ari
her n
Ġcry ing
Ġdisp ose
Ġvolunte ering
o ke
Ġvisual ize
Ġvint age
Ġdes erve
Ġworkout s
Ġgl u
Ġdiag onal
ball s
Ġhyd ro
Ġpharm ac
Ġfollow ers
Ġensure s
g ly
Ġo ct
Ġhair spray
Ġwarm er
Ġappro val
Ġameric a
Ġsample s
Ġp om
Ġchar co
Ġcel ery
Ġi v
Ġar rest
co py
Ġdi apers
Ġten nis
Ġa ust
reg ular
Ġabnorm al
Ġarrange ments
Ġtoothp ick
Ġembr ace
Ġst ability
ir able
Ġassemb ly
Ġunple asant
Ġwh ipped
Ġcra fting
purch ase
Ġd ys
Ġsyring e
Ġoper ation
ane ously
bre ak
Ġcar b
Ġfo nd
ree k
Ġcons erv
Ġst arch
Ġworry ing
Ġas set
Ġche er
Ġrepeated ly
Ġspa wn
Ġent it
Ġl ash
Ġsit s
Ġdist ingu
Ġnew er
Ġgra pe
Ġtrad emark
Ġinject ion
Ġfeather s
Ġg oth
Ġro ses
Ġsche me
Ġlin ux
y ard
Ġun pl
Ġcar bs
Ġpost er
Ġhon or
Ġconsult ation
Ġmemor ize
Ġcontract s
Ġc av
Ġdisag ree
Ġpress ed
Ġexplan ation
ter y
Ġint imate
Ġgu ilt
gg le
Ġcream y
ent er
Ġalmo nds
f irst
Ġpsycholog ical
Ġfluff y
Ġview ing
Ġsu ed
Ġde bit
Ġman aging
Ġbuild up
Ġprol ong
Ġbrain storm
r ations
Ġmo on
Ġreturn ing
Ġmar in
Ġabsorb ed
Ġclo ves
Ġalph abet
Ġland sc
iat ric
Ġv inyl
Ġinstru ction
Ġprompt s
Ġclin ic
Ġwe ars
Ġcrack ers
Ġcompens ation
Ġbe nding
ir ting
Ġcos met
Ġro les
Ġembarrass ed
Ġse iz
Ġad hd
Ġfore ver
Ġgraph ic
Ġso cket
Ġsatis fact
kew arm
Ġst ations
Ġcharco al
Ġw rench
Ġb ure
Ġh ats
Ġprodu cing
Ġaccount ing
Ġinvest ing
Ġlu kewarm
Ġte ars
Ġ1 000
Ġrec ruit
Ġx p
Ġrefr ain
Ġt int
Ġweak nesses
Ġint r
Ġpour ing
Ġpark s
Ġearn ed
Ġremed ies
Ġex empt
Ġk its
Ġho ver
Ġquar ters
Ġun p
we ll
Ġdam pen
id a
as se
Ġv ice
um ber
Ġcount ing
Ġpack ages
int erest
Ġadjust ing
Ġcalm ly
Ġcaut ious
Ġh ind
Ġtable ts
Ġfor ums
Ġwh is
Ġhead ache
Ġspec ified
Ġpar as
Ġrespo nding
Ġins ult
Ġo ce
im en
Ġlast s
Ġacid ic
Ġcord s
Ġf art
Ġf res
Ġen roll
Ġbu ck
Ġmill ion
Ġw is
Ġr ig
Ġsal ary
ian ces
Ġreject ion
Ġdefic i
Ġdress ed
Ġhun ger
Ġi cons
Ġg em
Ġsm ith
Ġcre ep
Ġdiscrim ination
st ore
ag ger
Ġfig ures
Ġcur ly
Ġstick er
Ġkiss ing
Ġpresent ed
Ġanswer ing
Ġcontin u
Ġen gin
Ġlimit ations
Ġpun ct
Ġinstall er
Ġbrief ly
Ġ36 0
1 7
id al
Ġconst ip
Ġcupc ake
Ġno ises
Ġsol ving
Ġarm or
Ġpoor ly
in ent
Ġs kew
Ġsurg ical
Ġwe ird
Ġcollect ed
Ġspl ash
Ġf ixture
Ġrib s
Ġh orn
Ġr it
Ġscrub bing
Ġengin es
Ġdeal ers
Ġyah oo
Ġvis its
f s
ap ing
Ġbed s
Ġchann els
Ġgreet ing
Ġinterview s
Ġthread s
h ist
ch at
Ġshare s
Ġfr id
Ġd s
Ġbase ball
Ġs on
Ġcouple s
Ġlock er
Ġfamiliar ize
Ġoverwhel ming
or r
Ġn u
Ġr asp
Ġser vings
Ġpost ed
Ġhur ting
Ġab usive
Ġcart r
Ġlend ers
Ġthous ands
ain ed
Ġpo et
Ġcar amel
Ġbasket ball
Ġassoci ations
Ġsu ited
Ġstr angers
Ġregist ry
the se
Ġpet ro
Ġretail ers
er ving
Ġcount s
Ġmarsh m
Ġv ote
Ġfle as
Ġo ats
Ġaff irm
Ġpou lt
Ġply wood
Ġinst inct
lud e
Ġcabin ets
b an
on ym
Ġmu g
Ġtri angles
Ġmother s
Ġpip es
Ġinf ant
co pe
Ġowners hip
Ġdimens ions
Ġtack le
Ġarth ritis
Ġblo nd
Ġcreat ivity
Ġtun a
Ġinstr uments
kn own
l ower
t ion
Ġde mo
Ġmed itate
Ġfin ances
Ġbow el
Ġprin ci
man y
pend icular
er ting
Ġmindful ness
Ġaspir in
Ġg am
Ġallow ance
Ġdist ress
Ġexcept ion
Ġsever ity
Ġdiagn ose
Ġper pendicular
Ġeffici ently
Ġf iction
Ġn ipp
Ġbo iled
Ġassess ment
Ġpassion ate
Ġexp lo
Ġpro ceeding
d en
o ons
Ġ2 9
Ġut ilize
Ġmagn es
Ġglu co
Ġac up
u les
Ġdr izzle
Ġskin s
Ġlength wise
Ġgraph ics
Ġatm osp
Ġcomplain ts
st ock
Ġt a
Ġin box
Ġdiagn osed
Ġded u
Ġcush ion
Ġves sels
u le
Ġen s
Ġbit ter
it ives
Ġpe ak
Ġhundred s
Ġpart ial
Ġfac ilities
Ġc er
Ġpay pal
Ġhook s
Ġto x
Ġst orm
il ant
Ġcamp ing
Ġle s
Ġathlet ic
Ġspreadshe et
p our
Ġal ive
Ġcr unch
Ġg ave
Ġun known
Ġpass ive
Ġsc ales
Ġindic ator
Ġcollect ing
Ġle ag
Ġrecord ed
Ġb ust
Ġp v
Ġor nam
Ġev apor
Ġfunction al
loc ate
Ġsusp icious
Ġinv itations
Ġgener ous
Ġsad ness
Ġrapid ly
Ġlegit imate
Ġelectric ity
Ġrespir atory
Ġexp ort
Ġtrad ing
Ġw ife
Ġl act
Ġchick ens
cre w
Ġb ache
Ġre he
pp ers
Ġformat ting
Ġli es
Ġstain ed
eto oth
en ic
Ġexpert ise
Ġnumer ous
Ġs d
Ġinter face
Ġconfig ur
Ġsequ ence
on ce
Ġexpress ing
Ġvag inal
Ġrel atives
abor ate
Ġpian o
Ġan ts
Ġb ou
Ġcons ists
Ġdi ets
Ġperman ently
Ġsug ary
Ġdisapp oint
it or
Ġcur ves
Ġu m
em a
Ġun fold
Ġgr ief
Ġinvest ig
Ġaud ition
Ġlo b
Ġdis s
Ġsha ft
Ġdaugh ter
Ġfl irting
Ġdisappe ar
Ġll c
Ġsung lasses
Ġqu art
Ġnutr ient
Ġthr ive
Ġe e
us ions
Ġcoup ons
Ġp ix
Ġcontract or
Ġaerob ic
Ġappl iances
Ġdro pping
Ġcorpor ation
Ġpart ially
Ġveget arian
ane ous
Ġstock s
Ġload ed
Ġsp icy
Ġre h
Ġcomb inations
Ġpen et
Ġafford able
Ġbe ats
Ġaccur acy
Ġb omb
Ġconf using
Ġblu etooth
Ġwiz ard
Ġpros pective
Ġobstac les
arn ess
Ġdis like
Ġfle a
Ġpol itely
Ġgluco se
Ġh oop
et he
Ġth irty
Ġsun ny
Ġdut ies
Ġv od
Ġrepe l
Ġsty ling
Ġeyel id
Ġshar pen
i ac
Ġfr ight
Ġchild hood
ol len
c os
Ġcl ing
ag s
Ġappro aches
Ġmaxim ize
Ġpure e
Ġbrist les
Ġch a
ul as
Ġback s
Ġwall paper
Ġspray s
Ġdist illed
Ġs s
Ġc ues
Ġle ver
Ġelder ly
Ġbe ard
Ġwh ip
Ġremed y
Ġstat istics
Ġtend ency
Ġintrodu cing
Ġchord s
Ġappoint ments
it o
Ġar c
Ġir regular
Ġcross ing
Ġd m
Ġentit led
Ġh arness
Ġtrans mit
a ired
Ġparagraph s
Ġtex ting
j o
Ġf ist
Ġser ves
Ġceremon y
Ġallev iate
Ġmagnes ium
Ġcan ce
Ġpe ers
Ġqual ifications
Ġbas il
Ġnice ly
Ġirrit ated
Ġcongr at
Ġin ward
Ġfe llow
Ġburn er
Ġl un
Ġk ale
Ġcomprehe ns
or gan
Ġneed ing
Ġtiss ues
Ġtur tle
Ġp estic
Ġsh im
Ġcat tle
amb oo
Ġmicroph one
t i
Ġdesign er
Ġc ue
Ġd an
Ġd iction
Ġex cus
iv ate
Ġres erve
Ġsmooth ie
Ġtra pped
Ġclin ical
Ġhistor ical
Ġt aught
in ates
Ġbeh alf
Ġm ash
le um
Ġj ava
Ġint el
Ġact ors
b ut
Ġhead phones
Ġsto pped
n ut
Ġmail ing
Ġlate x
Ġfrust ration
Ġmust ard
Ġport able
Ġweak ness
Ġwithdraw al
f all
m ary
Ġl umps
Ġsk ate
Ġsim ult
Ġreport ed
Ġdram a
2 8
Ġbegin ners
Ġsepar ation
Ġgun s
Ġbind ing
Ġw ick
es tern
Ġab st
Ġ3 3
Ġcred ential
Ġt ed
Ġr ounds
str ual
Ġdistract ing
Ġalign ed
Ġlad der
Ġb ounce
Ġread ily
Ġfer ment
Ġch ap
Ġsk im
Ġacc red
Ġp m
Ġm all
Ġgo lf
Ġaccept ance
Ġfingert ips
Ġre boot
Ġfranch ise
w ind
Ġbrows ing
Ġtast y
Ġinst antly
Ġblo om
Ġarr ows
Ġepis ode
f ers
o vers
Ġch arm
Ġover weight
Ġlo yal
y e
Ġb amboo
Ġevery body
Ġye ll
af ter
Ġdist rict
Ġref resh
Ġposition ed
ilo so
Ġw ary
wr iting
Ġdu pl
l ife
Ġc ave
Ġinvest ors
Ġinit iate
Ġsp ouses
Ġrele ases
Ġoccas ional
stre am
Ġnot ary
Ġfresh ly
Ġfor um
Ġpo nd
Ġpart ition
h am
Ġcom ic
Ġstraw berry
Ġpunish ment
Ġscrat ches
6 0
Ġa ids
Ġst atic
Ġap ology
gr ad
Ġindic ated
s in
Ġacqu ire
ro f
Ġan est
ne ys
Ġworks he
Ġoce an
Ġparticip ants
Ġreg ret
Ġswe ating
Ġinf est
Ġsilic one
g rou
Ġph iloso
Ġwr ists
od es
Ġb iting
Ġm ur
st arch
iv en
Ġseason ings
Ġdecor ating
Ġapproach ing
Ġexe c
Ġcowork er
Ġbob by
t les
Ġbr ass
Ġplan ner
Ġencoura ging
Ġleaf y
Ġthy roid
Ġtw ee
Ġsl ider
ain e
Ġper imeter
not e
pt ic
Ġgr ime
Ġsaf ari
Ġwarrant y
b ow
Ġb umps
Ġnut rit
Ġobtain ed
Ġquant ity
as m
Ġnutrit ious
all ic
Ġsile nce
b row
Ġse ams
Ġste er
Ġstrong ly
Ġg y
Ġcre ation
Ġdiscuss ed
Ġsens ation
Ġpersist ent
Ġor th
Ġser vers
Ġgl aze
Ġ6 00
Ġvari ations
Ġbeh ave
Ġshred ded
ic hes
Ġpain ts
Ġdownload s
Ġsus cept
Ġextens ive
r ist
in ity
Ġpack s
Ġchem istry
Ġconstip ation
on in
per ate
Ġheart s
Ġoper ations
t alk
id av
Ġlight weight
Ġcommunic ating
Ġdeodor ant
Ï Ģ
acter ial
alle st
Ġsens itivity
Ġtempl ates
Ġschol ars
Ġto fu
Ġconnect or
Ġunhapp y
Ġattempt s
Ġcryst als
Ġsupervis or
Ġst all
Ġch ains
Ġwe aken
Ġpetro leum
Ġc itation
Ġl ou
iv a
com b
Ġanticip ate
ch ool
Ġsp am
Ġcr an
Ġdistract ion
Ġdead lines
Ġtong s
Ġth aw
Ġdifficult ies
Ġs ake
ub s
Ġconvers ion
Ġto ns
ot y
reat h
Ġref res
Ġcraft s
Ġch amp
Ġfind s
Ġmess enger
c ard
r i
Ġc ement
Ġd ice
Ġer aser
Ġsp iders
Ġaff idav
Ġd izz
Ġeyel ashes
Ġvod ka
w orthy
Ġis o
Ġcucum ber
om ed
Ġr iver
Ġfr ies
Ġde live
Ġach ieved
Ġgr anted
Ġrep ay
Ġspecial ize
Ġcred its
Ġconv ent
Ġstub born
Ġg ross
Ġcorn starch
am iliar
pe l
Ġoccur red
Ġlaugh ing
Ġassum ing
Ġanch or
Ġno str
Ġimpro ved
Ġtex as
o ir
Ġexpress ions
Ġd ow
Ġequ ipped
Ġaust ral
Ġdele ted
Ġgr ace
enc ed
Ġsw ollen
Ġp unk
lo se
and on
Ġprofess ionally
Ġcalcul ated
ul ating
Ġfl ood
Ġcur ren
Ġbroad cast
q rt
Ġinst ances
Ġflav ored
Ġatmosp here
Ġguard ian
Ġfemin ine
Ġred irect
Ġdelive red
Ġt ro
Ġh p
Ġless en
Ġlower ing
Ġrout ines
m ers
Ġz ipper
w alk
Ġu k
Ġli king
Ġloose ly
Ġenforce ment
in ter
Ġwe ave
Ġchart s
Ġinsp ired
Ġmuff in
l ors
ch ing
Ġfl ax
Ġinform al
Ġto pping
st ic
ra v
az z
Ġann ounce
Ġb inder
Ġh ill
Ġc ass
Ġart work
ugg ed
o ys
un ci
Ġadjust ed
Ġdon ation
Ġsa us
Ġapplic ants
Ġble nding
Ġcarr ot
Ġhost ing
Ġflor al
Ġche es
Ġopen ings
li ance
Ġn erves
Ġl ids
Ġan onym
Ġman agers
Ġrec re
Ġeval uation
Ġsmart phone
Ġagg ression
Ġoff ensive
Ġdermato logist
Ġenc losure
la unch
Ġs ir
Ġbreast fe
z ers
Ġstr ay
Ġfrid ay
Ġinter se
Ġped al
Ġcham ber
it ors
Ġab andon
Ġantib acterial
Ġsumm ar
l ied
es ter
Ġu ter
Ġliter ally
Ġwiki how
Ġsimult aneously
Ġsell ers
w rit
Ġcr ay
Ġup coming
Ġrad ius
Ġint act
Ġbra ids
Ġstruct ures
m ber
Ġt id
Ġsh aking
fr ont
Ġank les
m ath
Ġreg ulate
Ġsw ap
Ġalong side
aut ions
Ġtwist ing
Ġme xic
Ġstr ive
Ġpan e
Ġmount ing
Ġrose mary
Ġprec autions
Ġrep s
Ġphotos hop
Ġcorpor ate
Ġcolleag ues
m ia
Ġo x
Ġw ishes
Ġcr amps
Ġmotiv ate
ak y
Ġquiet ly
w atch
Ġb isc
Ġmen strual
Ġperm its
st he
qu et
Ġremind er
Ġparticip ating
Ġgel atin
Ġbrack et
i en
ep ad
Ġemp athy
Ġlisten er
Ġphoto graphy
Ġlicens es
Ġinterns hip
Ġmetabol ism
st ru
ol ar
Ġspray ing
Ġscreens hot
p ad
ou red
Ġmed it
Ġgen etic
Ġpositive ly
Ġseed lings
Ġweeke nds
Ġwip es
Ġf ailed
st ate
Ġcl og
il er
Ġco arse
Ġvis ually
Ġsuscept ible
Ġc ows
Ġad here
Ġcomp act
Ġstud s
Ġele g
Ġadminist er
Ġgreat est
Ġgest ures
Ġoblig ations
i ated
er se
Ġref ill
p ower
Ġst ated
Ġmo ss
Ġimag ination
Ġvag ina
Ġrif le
p ract
Ġsh out
Ġr ic
Ġli ber
Ġadm ire
Ġadv oc
Ġse ated
Ġfl are
Ġins ulation
Ġreg imen
Ġs ided
Ġqu een
Ġpack et
Ġcommit te
Ġdiscount s
Ġmuse um
Ġfor ces
b one
Ġc p
Ġw reath
Ġg aining
Ġhe ater
Ġimportant ly
Ġeffect iveness
Ġfore st
Ġhonest ly
Ġsubs crib
Ġd ying
Ġsn akes
Ġpop ulation
Ġvari ation
Ġagre ed
Ġqu ad
Ġmicro f
Ġsc are
Ġwarm th
Ġreturn ed
Ġscent ed
Ġstrip es
Ġpos es
Ġma ple
g l
Ġso lo
ann ed
ul ing
Ġres ent
Ġrecomme nds
Ġinvest ments
Ġmast ers
Ġgerm s
Ġt rop
Ġo we
Ġback yard
Ġchlor ine
Ġtank s
Ġfunction ing
Ġshad ows
Ġorient ation
Ġscenari o
ent ive
Ġback ward
Ġrele asing
Ġlad y
vas cular
r ical
Ġclar ify
Ġcomp art
Ġinv iting
Ġconst it
b ons
Ġthe ory
Ġj un
Ġtodd lers
Ġpro h
Ġimm un
Ġimpro ves
board s
Ġhang er
Ġsmell ing
r ix
al og
Ġr ipe
Ġag ing
Ġprotect ing
Ġsac r
Ġl ump
Ġle aks
Ġsk i
Ġpriorit ize
w s
Ġdig its
Ġens uring
et ime
Ġend or
Ġfau cet
Ġantioxid ants
Ġremo ves
mer ic
Ġsim s
Ġvio lent
Ġwi i
Ġtest ify
Ġsqu ir
Ġthr ift
Ġpoet ry
Ġw aking
am a
Ġtow er
Ġb ip
Ġbegin ner
Ġwed ge
Ġh int
ra b
Ġfil ms
Ġexfol iate
Ġadvent ure
p ed
Ġthe ft
ib ble
Ġrec ur
Ġk et
Ġno zzle
Ġsmo other
Ġinqu ire
ol ine
Ġslo pe
Ġcher ry
Ġabras ive
Ġconfigur ation
Ġpr un
Ġmat s
ict ions
Ġdissol ved
Ġt ul
Ġlog s
Ġinteract ing
Ġtrim ming
Ġacqu aint
Ġt umb
Ġindic ation
Ġbutterf ly
Ġch ic
Ġlit ers
Ġburn ed
Ġmonit oring
Ġconfid ential
Ġthem ed
ro ad
Ġme re
Ġitch y
Ġtwe et
Ġsc or
Ġrom ance
Ġneat ly
on ts
is ible
ari ans
Ġ7 2
Ġbu g
Ġfine ly
Ġden im
Ġthr own
Ġvolunte ers
Ġbenefic i
Ġh ack
Ġacc idents
Ġcigare tte
Ġs her
Ġle nt
Ġcon ference
Ġfl akes
Ġcult ures
Ġfif th
Ġf et
Ġfe ma
Ġext ent
Ġplatform s
at hered
Ġhelp ed
Ġhot els
Ġfac ilit
Ġbe aring
Ġafter ward
graph ic
Ġrecept ion
Ġyou th
im ag
Ġchar ging
Ġcult ural
Ġflash light
Ġrecy cling
Ġsatisfact ion
m ons
Ġman ic
Ġhair style
Ġlim iting
Ġvictim s
Ġfl ats
Ġmon ster
Ġelev ated
Ġinstit ution
Ġf t
Ġcur ious
ap se
Ġaccomplish ments
Ġunders ide
Ġhighlight s
Ġliter ature
Ġtalent s
Ġw estern
Ġp est
Ġm ites
st ones
Ġqu e
Ġparent ing
Ġprogram ming
Ġrece ives
worm s
b acks
Ġclean se
Ġmark ets
Ġmanage able
Ġi i
iv ir
Ġpe er
Ġbad ly
Ġunder go
Ġglo ve
Ġfif teen
Ġcan ada
Ġde ed
Ġequ als
Ġpartners hip
Ġbache lors
b ling
Ġh ike
Ġapp rais
Ġeye brow
Ġcardio vascular
en nel
ll y
Ġbat he
Ġd ict
as ive
Ġr ats
Ġrecogn ized
Ġmechan ism
Ġbe et
Ġen erg
be red
Ġair line
Ġst ocking
Ġem bell
Ġvacc ine
Ġstre tc
Ġtempt ation
Ġod ors
Ġlike wise
Ġsm allest
Ġdisplay style
Ġstuff ing
Ġthe ater
Ġch ase
Ġdig ging
a a
Ġn yl
Ġaddress ed
Ġtur meric
Ġclut ter
Ġreven ue
Ġde fect
Ġjo gging
Ġclass mates
Ġgrav ity
Ġpropos al
Ġst ating
Ġche ating
Ġform ation
Ġent ries
Ġoptim al
Ġpale tte
rof en
2 4
i ations
om ile
Ġredu ction
Ġadjust ment
Ġcredential s
pract ice
Ġw on
at ter
Ġbe ware
Ġfl ick
Ġste ering
Ġblow ing
n ia
Ġs ip
Ġcr amp
Ġdiscuss ions
Ġsuper v
Ġspin ning
Ġd ense
Ġoccas ions
Ġpud ding
pe ction
Ġpers u
Ġcredit ors
Ġmind ed
Ġpract ition
Ġref und
Ġacknow led
Ġgerm an
Ġon going
Ġdisc oura
Ġill nesses
Ġment or
Ġl one
Ġfl aws
Ġcamp us
Ġpron ounce
Ġ4 4
Ġcer amic
Ġw iring
less ly
Ġmoment um
Ġpharm acy
Ġvers a
Ġcolour s
Ġintel lect
Ġmicrof iber
9 9
Ġmain ly
at a
t ent
Ġm igr
ch ild
Ġcoord inate
Ġt art
Ġplan k
Ġschedu les
Ġsuper mark
Ġunder st
Ġscen es
Ġcr umbs
Ġremain der
Ġincorpor ated
ac ent
Ġnum b
f ig
Ġman go
up rofen
Ġfocus es
Ġorganiz ing
Ġcompet e
l r
Ġing est
fl ower
Ġvir gin
Ġint ro
Ġcomp aring
Ġplay ful
Ġtrans parent
Ġcaul k
Ġa while
Ġd ining
ie nds
Ġform ulas
Ġmet allic
Ġble m
Ġflo ating
Ġjack ets
Ġunivers ities
Ġwip ing
Ġf use
Ġmo squ
hes is
Ġdivid ing
Ġreh ab
Ġattach ing
Ġload s
Ġn oun
Ġcomp ression
Ġlog ical
Ġobst ru
Ġital ian
p ic
Ġs ke
Ġcons ulting
par agus
ga e
Ġleaders hip
Ġfor cing
Ġbrows ers
Ġcryst al
a fe
er ks
Ġl int
Ġor anges
pr int
Ġenviron ments
Ġpubl ishing
Ġspo ken
Ġw ins
Ġfind er
Ġequ ity
Ġbun ny
h t
Ġgr ants
cle ar
Ġbud dy
Ġphiloso ph
Ġbreak up
Ġwe ed
Ġkind le
Ġsnap chat
Ġto ppings
Ġj umps
Ġsc hed
Ġw ounds
ark s
Ġpres ents
Ġmim ic
Ġcurren cy
Ġre b
Ġaffect ing
Ġover s
Ġref ined
Ġfact ory
u ary
Ġw av
Ġsc ars
Ġstain less
Ġoffic ers
Ġy ards
Ġ9 5
Ġdesire s
ic ians
se c
Ġnot epad
Ġorg ans
Ġcon gest
Ġsp aced
Ġterm in
Ġcommun ities
Ġsh ame
Ġsh aker
Ġso res
em p
no v
Ġcompar ison
Ġlight en
Ġgrand parent
Ġhe n
if lower
Ġk illed
Ġtalk s
Ġind ian
Ġge o
Ġexte nding
Ġdistrib uted
Ġgau ze
e ed
r als
Ġarm y
Ġfle e
Ġsto len
Ġacup un
Ġexcus es
Ġco ast
Ġdis ney
Ġbase ment
Ġfail ing
Ġgall ons
Ġembarrass ing
Ġex ists
Ġar om
Ġste al
Ġtherap ists
Ġfinger n
Ġshove l
Ġib uprofen
Ġh ired
Ġaf ric
Ġfro g
Ġdistingu ish
Ġmat te
Ġfema les
Ġb ush
Ġaccompl ished
Ġbrack ets
Ġrib bons
Ġdo ses
Ġcl ause
Ġte ase
Ġmon sters
Ġmo p
Ġde er
Ġout lets
Ġnew born
Ġsou l
Ġn ort
Ġg ay
Ġflor ida
Ġdenom inator
at ile
Ġcol ander
Ġap r
Ġcour th
Ġnur s
Ġhur ts
Ġhyp ot
Ġy o
Ġl as
Ġwor ries
ict ed
Ġactiv ated
Ġdistrib ution
Ġhel met
Ġpubl isher
Ġpromot ion
Ġbare ly
p art
Ġsa ut
Ġplug s
Ġsh av
Ġjo g
Ġrep rodu
Ġprofess ors
Ġauthor ities
Ġadministr ative
Ġg ast
Ġdra gging
Ġult imate
Ġpit cher
Ġwal nuts
Ġmarin ade
Ġfin ishes
Ġconstru ctive
Ġcontinu ously
Ġpoult ry
Ġbe verage
gg les
Ġtub ing
Ġtox ins
Ġsens es
Ġgenuine ly
Ġbure au
Ġwater mel
Ġtrouble s
Ġsubstant ial
we et
Ġye lling
Ġtransfer red
Ġs out
Ġli ked
Ġant ivir
ic it
Ġble ed
Ġtor rent
Ġl amps
il le
Ġfl ies
Ġrese ar
Ġfu nding
Ġattract ion
Ġbill ing
Ġgest ure
Ġbip olar
Ġcl ues
Ġhard est
Ġdest ru
Ġspir al
Ġ ____
Ġl az
os ph
Ġsal on
Ġsub m
Ġprint s
Ġsaut Ã©
Ġto ner
Ġcontain ed
Ġfarm ers
Ġdynam ic
ep t
Ġnyl on
i ences
Ġg ren
Ġha w
Ġdo ck
Ġdefe at
Ġpel lets
Ġcham omile
Ġaffidav it
Ġd read
Ġst ing
Ġli ved
Ġdep ress
Ġblue berries
Ġl ane
Ġch illed
aph rag
g ive
Ġas paragus
Ġres ident
Ġread s
gg y
Ġfun nel
Ġoint ment
Ġl ux
Ġbl ast
Ġg ems
Ġroom mate
Ġinvest igation
Ġchrist ian
Ġorigin ally
x ual
Ġex ceed
Ġins erting
Ġcast le
Ġconflic ts
in ting
Ġco il
Ġm ice
Ġad j
Ġvol tage
Ġsand ing
Ġalcohol ic
Ġsau ces
Ġsurv ival
Ġjurisd iction
st y
Ġst ake
Ġdi vers
Ġdi aphrag
Ġtrans plant
Ġtransfer ring
Ġdescript ions
Ġm arch
Ġsk ull
Ġbet a
Ġrespo nds
Ġexc it
c is
u gin
Ġf ax
Ġcaul iflower
Ġins pection
Ġrece ipts
Ġdiag on
Ġrev ise
Ġla un
Ġlean ing
Ġvir uses
re qu
Ġremember ing
Ġg reek
Ġexh ib
Ġrecip ients
Ġuns crew
Ġ8 5
a way
Ġach ieving
Ġhighlight ed
Ġthy me
Ġir r
Ġsne akers
or row
up id
Ġmar ble
Ġl ake
Ġpr y
Ġho ly
Ġbas es
Ġtrim med
Ġtarget s
ens es
Ġboil er
for ward
Ġpoin ter
Ġcorrespo nd
Ġtradition ally
g lass
Ġd ive
Ġsh uff
pl an
Ġcr ash
m ill
Ġcrow ded
el ing
Ġmod ified
Ġthought ful
Ġviol ation
Ġident ical
Ġhy po
Ġinh ibit
Ġwise ly
Ġutens ils
Ġdiction ary
Ġp iles
or ge
Ġdescrib ing
Ġdr aining
Ġleag ue
Ġlist ings
1 00
Ġh atch
Ġl ing
oc ol
Ġoppos ing
Ġunc ertain
Ġax is
Ġpv c
los ed
Ġwors en
p i
Ġrequest ing
Ġtor n
Ġorient ed
a ff
Ġal leg
are r
Ġtight s
Ġbud s
Ġfro gs
Ġshel ters
co gn
Ġind ul
Ġprof its
Ġvary ing
it ting
ar a
Ġpe ach
Ġcitiz en
Ġmane u
asse mble
nd a
Ġj erk
Ġenjoy ed
Ġsimple st
Ġadvant ages
t ails
Ġsick ness
r ial
Ġdraw ers
Ġb icy
Ġp ests
Ġha llow
Ġdrain ed
Ġtrail er
Ġel aborate
Ġver ification
Ġd and
Ġgr apes
b in
Ġth umbs
ot ch
Ġtrust worthy
9 0
k ill
or us
Ġatt acking
Ġag o
Ġed ible
Ġgre asy
ino a
Ġquant ities
Ġoccur ring
Ġguarant eed
Ġt il
Ġwe ld
Ġcomp os
Ġro yal
cept ion
Ġdi pping
Ġj an
Ġfl aps
Ġsocial ize
Ġindic ating
Ġm ary
Ġso ph
Ġster ile
Ġblond e
t tes
Ġc erv
Ġal gae
ci ent
Ġpay s
Ġanti hist
Ġaccompan ied
Ġ5 50
Ġmy self
Ġden y
Ġreflect ion
Ġcast ing
Ġb ail
Ġtr ays
Ġprotect s
Ġhabit at
fo llow
Ġtwee zers
uc ch
Ġintim acy
p et
Ġen lar
Ġinf ants
Ġthick en
Ġpriv ile
Ġdil ute
Ġcough ing
Ġtrans mission
Ġimpro per
Ġdon ations
Ġeyel ids
Ġund o
Ġsp y
Ġmat he
arr ing
Ġlibr aries
Ġign oring
emp loy
at ivity
Ġp aws
Ġpar am
Ġdash board
b i
Ġpass age
Ġdeb ate
Ġalph a
Ġdiaphrag m
Ġb ows
Ġto ggle
Ġmouth wash
Ġped iatric
Ġext r
Ġcounter top
w ill
am i
Ġev il
Ġty ing
Ġclear ing
Ġbar be
Ġseason al
Ġload ing
Ġappreci ation
Ġtall er
Ġintent ions
Ġexcit ement
o nds
ul ous
Ġperfect ion
Ġbud d
Ġst upid
Ġwr ote
Ġfinan cing
Ġwed ges
Ġearn ings
Ġdispos al
Ġpenal ty
Ġcass ero
Ġsc ents
Ġstraight forward
Ġrepresent ed
Ġdemand s
Ġbe ating
Ġabst ract
c ro
ig ration
Ġqu inoa
Ġcook s
Ġfloor ing
Ġforg iveness
o k
o v
ul um
Ġk icking
Ġball oons
Ġelig ibility
Ġnit rogen
Ġsched uling
Ġcomp ounds
t or
t ings
Ġt et
Ġwho ever
Ġaim ing
Ġtom orrow
Ġventil ated
Ġcon cise
Ġte asing
Ġpot ting
Ġteen agers
Ġmosqu ito
p ay
Ġl ord
co ver
Ġmem br
Ġwood s
Ġesc al
ver ted
Ġd ensity
Ġcreat ures
Ġbar g
Ġbur den
Ġconsum ed
Ġdefici ency
Ġdec line
Ġcr ank
Ġaddress ing
Ġple asure
Ġvers us
bre v
Ġwatermel on
ud es
Ġfir ms
Ġcare g
Ġfavor ites
head s
c il
Ġpr ide
Ġcra vings
Ġ3 1
ont in
Ġr ising
Ġprob iot
Ġz ucch
Ġboo king
Ġmas hed
c ook
z ed
Ġp ac
Ġn er
Ġsub sequ
Ġsex ually
Ġinj ure
Ġinstit utions
rou s
Ġtw ine
Ġinvol ving
Ġpow ered
Ġrecy cle
Ġyol k
l in
Ġn ick
ide press
Ġsc am
Ġbr isk
Ġcond ens
Ġdiam onds
Ġsurpr ising
ju ana
Ġunpl ug
b lock
Ġlo af
Ġam end
Ġz e
Ġrev ol
Ġsandw iches
Ġunf amiliar
Ġcourth ouse
2 3
or a
Ġon s
Ġirrit ating
Ġdev ot
Ġquit ting
Ġtutor ial
Ġcommitte e
Ġtrans act
Ġbund le
Ġkn uck
Ġsw ings
Ġresearch ing
Ġcelebr ity
Ġharass ment
Ġs ag
Ġth irst
ad ed
Ġconf use
Ġref lex
Ġspe eds
Ġgener ic
Ġroast ing
Ġterr ible
s we
Ġtail or
Ġshut ter
Ġpanc akes
Ġa h
Ġf id
al ine
Ġposition ing
Ġadv ised
Ġreject ed
unci ation
Ġnot ed
Ġinc ons
Ġfin ance
Ġpaint brush
Ġcl erks
Ġdist ort
Ġarm p
Ġinsp ire
Ġdro pped
Ġm ason
Ġdis put
Ġass ault
Ġbother ing
Ġassert ive
Ġab brev
Ġhair cut
gg ings
Ġres idence
Ġunderstand s
Ġtechn ically
Ġoverl apping
Ġretr ieve
Ġho ping
Ġbel ts
Ġspr out
Ġblind s
Ġdehydr ated
g ments
Ġpurs uing
Ġhes itate
Ġsear ches
Ġmari juana
Ġbreastfe eding
m us
Ġcon verse
Ġinit i
Ġreward ing
um n
Ġplan ks
Ġcleans ing
Ġalb ums
Ġparent al
he l
ad os
Ġexp los
Ġcomple tion
Ġbrace lets
f y
he ated
Ġdescrib es
ot ine
Ġfr iction
Ġprev ention
Ġteam mates
Ġdim in
Ġconven ience
Ġterrit ory
c in
Ġrot ating
Ġreinforce ment
u ity
Ġend urance
Ġant idepress
Ġintellig ent
t ap
w ith
Ġlook ed
Ġstart up
Ġshampoo s
Ġv amp
Ġremind ers
Ġemb ro
Ġembell ish
Ġpr une
Ġdr unk
get ic
Ġcre w
Ġma les
Ġvir al
Ġfrag rance
Ġc ul
Ġr ides
Ġeleg ant
Ġcl ippers
Ġbr ighter
Ġbottom s
Ġmagn et
Ġsatur day
Ġpim ples
Ġste pping
Ġexpect ing
v ic
Ġsp f
enc ing
Ġcra igs
Ġgall ery
Ġam p
Ġst air
Ġse nds
Ġbre ach
Ġstri king
or ize
Ġkn ob
Ġreg ions
Ġspecial izes
Ġport s
Ġpolit ics
Ġpr ison
Ġres erved
Ġbl isters
Ġmat urity
Ġver bs
Ġcommunic ations
Ġfight s
Ġexfol iating
o bs
Ġdis res
Ġph osph
Ġmed iator
Ġdry wall
Ġrisk y
mer ge
Ġd orm
Ġcr ib
Ġcontin uous
Ġagre ements
Ġemb ed
Ġprolong ed
Ġb less
Ġs i
Ġspr outs
Ġcrack ed
Ġlone ly
Ġrece iver
Ġvag ue
Ġcl an
com es
Ġdoll s
Ġwhat s
Ġtun ing
Ġnap kin
Ġepis odes
Ġd unge
Ġpot ty
Ġtri ple
Ġsubmit ted
Ġexh ibit
Ġhallow een
f unction
Ġben z
Ġhaz el
Ġse af
Ġj acks
Ġind ent
Ġtoler ate
Ġgo ggles
Ġins ist
Ġrot ation
it z
Ġmechan ical
Ġknit ting
e at
Ġpl ugin
Ġsl ack
Ġcr ick
Ġsecret ary
Ġp i
Ġm ow
Ġr amp
Ġspir its
Ġvend ors
Ġc ourage
Ġbl az
Ġado be
Ġcas ually
Ġnav y
c or
Ġbath t
Ġmild ew
Ġathlet es
Ġenthus i
Ġm ate
Ġconnect s
Ġdece ased
Ġl ice
the y
Ġadvis or
Ġof tent
Ġk il
Ġcartr idge
ay ing
ru ff
Ġreason ably
Ġcalcul ation
Ġwhats app
au nt
Ġgr ated
Ġinv o
Ġdisc ourage
Ġprof iles
Ġpack aged
Ġrect angles
Ġcris is
Ġintellig ence
Ġoftent imes
e y
f ruit
Ġp ir
Ġpl ugged
Ġsk ipping
Ġnon prof
Ġpow ers
Ġwild life
Ġcent re
Ġpros pect
Ġisol ated
Ġsc ul
Ġdi ed
Ġmet als
Ġavail ability
Ġsou ps
Ġpeel ing
Ġd owel
Ġsp ills
Ġopen ly
Ġpost ers
Ġexpl icit
Ġprefer able
Ġpassword s
Ġmir rors
du le
st ation
Ġsk illed
Ġhard en
Ġfre el
Ġsty lish
orr h
Ġzucch ini
b f
Ġu ber
Ġhigh l
Ġdecor ation
Ġcoup on
r d
u lent
Ġf ou
Ġeat s
ph ins
Ġeduc ate
c ards
Ġclass ified
Ġair lines
il ized
Ġse asons
Ġk g
Ġthere by
Ġhosp itals
Ġpeace ful
ac qu
Ġro cket
Ġfrag ile
Ġfart her
ic idal
Ġsupp ress
olog ical
Ġmal ware
ve t
Ġsp aring
Ġtid y
Ġf aced
Ġam pl
Ġenj oys
Ġweb page
Ġult ras
Ġsurge on
Ġmedic ines
Ġgrad u
Ġintrodu ced
Ġdepart ments
Ġrepet itions
Ġt ug
Ġan em
Ġbl ues
Ġencoura ges
Ġo l
Ġexcept ions
p n
Ġo ve
Ġp aw
Ġex agger
Ġdevelo per
Ġexec ute
Ġscul pt
Ġg ig
Ġg aming
ip ed
Ġgo ds
Ġra is
Ġdecre ased
ac le
ch o
Ġv est
Ġfe ces
Ġsub merge
Ġflight s
Ġcrop s
Ġimper fect
3 3
Ġcont our
Ġqu iz
co at
Ġe ps
ist a
Ġmyster y
Ġmas king
Ġtun nel
Ġcraigs list
g ie
ill as
Ġte e
Ġman if
Ġsn aps
Ġart istic
Ġmold s
Ġreserv oir
Ġwr ing
Ġcris py
id ges
Ġsp inal
Ġover head
Ġplan et
Ġexpl oring
Ġcl ust
Ġpass code
Ġsal iva
Ġfill er
Ġunderst ood
Ġang led
Ġachieve ments
Ġuns afe
Ġroast ed
Ġo ak
Ġc ud
Ġr ou
Ġpro secut
Ġcomb ining
Ġanim ation
fl ix
zz les
Ġpres erv
Ġge ars
Ġmask s
Ġn ook
Ġinse cure
Ġinject ions
Ġobject ives
Ġwo lf
Ġsumm ons
Ġsaus age
Ġb om
Ġl ugg
Ġg athered
Ġpr ank
Ġfir ing
Ġsum mon
Ġtrain ers
Ġglo bal
Ġsubmit ting
Ġfav our
Ġo m
Ġle th
Ġle ggings
Ġho llow
Ġprom ises
Ġrout es
ym ph
Ġcan e
Ġsu nday
Ġse gment
Ġpr ize
Ġorder ing
Ġreview ing
Ġalign ment
Ġadequ ately
erg ed
Ġcredit or
Ġconfig ure
Ġnurs ery
i ance
on na
Ġk ills
Ġcra bs
Ġbur st
Ġw ages
Ġdis pens
Ġscreen ing
Ġfoot age
Ġaltern ating
Ġlent ils
Ġpattern ed
Ġcompet itors
Ġsquee zing
Ġelim inating
Ġstrict ly
Ġlugg age
Ġdr own
Ġinc lined
Ġworkshe et
y st
Ġgener ation
Ġsp acing
con nect
Ġdeterm ines
Ġmoder ation
Ġvigor ously
Ġdiagon ally
Ġun check
Ġob taining
ric ular
cy cle
Ġtransact ions
Ġdy es
Ġknowledge able
Ġdisag re
Ġdis abilities
pl ane
Ġguard ians
Ġcl ump
Ġdr iven
Ġflat tering
Ġsuper vision
Ġfond ant
Ġs ant
re cogn
Ġcl ue
Ġperson nel
Ġspe cially
Ġstr anger
Ġteen ager
Ġjpg imag
Ġsole ly
Ġrig id
Ġcont em
Ġappe als
Ġnet flix
Ġproof read
Ġlinked in
Ġrepel lent
Ġinter pre
Ġkid neys
Ġtan ning
Ġpip ing
is playstyle
Ġor dered
Ġgood by
Ġsl ots
Ġengine ering
Ġaccred ited
Ġsoph istic
Ġg i
Ġdra pe
Ġsweet en
Ġallerg ens
comb ine
Ġthe at
Ġp ouch
Ġint u
get s
Ġins urer
Ġeffici ency
Ġcitizens hip
Ġdiscoura ged
Ġseaf ood
Ġen er
Ġown ed
Ġstre aks
Ġbuild s
Ġstitch ing
m un
it er
Ġsqu ats
Ġrent ing
Ġcounsel ors
Ġtour nam
Ġsne ak
Ġtort illa
Ġsaf est
Ġhem orrh
Ġsne e
Ġadvis able
Ġn sa
Ġfo l
Ġste w
press o
Ġtou ched
Ġt angles
Ġw itch
Ġcircum ference
Ġmemor able
Ġquot ation
Ġaccommod ations
Ġsp erm
Ġcor re
Ġpsych iat
Ġgloss y
Ġacet one
Ġreass ure
Ġl on
Ġinde ed
7 0
ve ys
Ġum bre
â ħ
Ġh inge
Ġsh in
Ġpul p
Ġunivers al
Ġdupl icate
Ġre apply
Ġle cture
Ġsalad s
Ġsubs cription
ast y
Ġtw el
Ġsl it
Ġdes ert
Ġcop ied
Ġprin ters
Ġrad iation
Ġearn ing
Ġelectro ly
Ġcompart ment
Ġl ure
Ġal oud
me asure
Ġ12 5
Ġdesign ate
Ġpa ired
Ġmob ility
Ġestabl ishing
Ġch ina
Ġshe ars
Ġind irect
Ġmel ts
Ġadvertise ments
Ġmor al
Ġrein stall
Ġthreat s
Ġpe g
ho le
Ġsubst rate
oster one
8 6
Ġg iant
Ġdevelo ps
Ġpil ot
Ġt ails
it ory
Ġch ore
Ġsal ine
Ġsn iff
Ġaccess ed
ias is
Ġmere ly
Ġr anges
Ġman aged
Ġdes irable
Ġ5 2
Ġarch ite
Ġout lined
Ġcr acking
Ġfant asy
ing es
Ġs ap
Ġs ail
Ġd iced
ke ys
Ġpre y
Ġput ty
Ġdist ances
Ġprior ities
Ġarbit ration
Ġbatht ub
Ġl atch
Ġg erb
Ġhost s
Ġpean uts
es ity
Ġcl umps
Ġsm e
Ġgu ards
Ġtexture s
Ġa is
Ġan ten
Ġside ways
Ġgl ad
Ġimm igration
Ġprin cess
Ġtransl ate
Ġhaz ards
Ġnic otine
n atur
en gers
Ġloc ally
Ġz est
Ġlat ter
Ġmagn ifying
Ġfung al
Ġcomprehens ive
Ġblem ishes
an o
Ġsell s
Ġbi king
Ġcigare ttes
Ġqu ail
Ġleg umes
Ġclut ch
ro ids
Ġany time
Ġfrust rating
Ġrestrict ed
Ġpestic ides
Ġrec onnect
be gin
Ġrhy me
Ġsimpl ify
Ġj ot
Ġab road
Ġinter val
Ġmanip ulate
Ġventil ation
Ġyol ks
Ġu b
alle n
Ġshif ting
Ġfun eral
Ġneg ativity
Ġhurt ful
u ble
Ġi od
Ġwh ist
Ġinv isible
Ġcur ry
Ġlim bs
Ġmod est
Ġelev ator
c ore
Ġp iv
uc king
Ġlandsc ape
Ġt am
Ġve ins
Ġes presso
Ġdigest ion
rem ember
Ġwat ers
Ġn in
ple te
if ting
reat ed
Ġwarm ing
Ġpublic ations
Ġfig uring
ĠÂ ¾
um per
Ġad verse
Ġsho ots
Ġnav igation
t imes
Ġto n
pe ople
Ġchar ger
Ġproduct ivity
Ġz ones
Ġdip l
Ġtuck ed
Ġb ic
Ġbra kes
h s
Ġcre ases
Ġcongrat ulations
Ġmaneu ver
Ġl amb
Ġk o
Ġoff set
Ġdefe nder
cons cious
Ġsparing ly
p in
Ġso aps
Ġwin ner
Ġcontamin ated
Ġcongest ion
Ġrequ iring
Ġsol vent
Ġcross ed
ty pe
Ġsal ts
Ġstrong est
Ġsav es
recogn ize
al t
Ġr ake
lic ation
Ġpupp ys
Ġsport ing
Ġneckl aces
Ġstretc hed
f in
u k
Ġcr umble
Ġcat alog
Ġve ts
Ġsol ar
Ġstim ulation
ast ics
Ġsl ipping
Ġspr int
Ġin ac
Ġhome page
Ġten ants
Ġban king
ie l
ff le
gan o
Ġru ss
Ġmount ed
cra st
Ġmole c
Ġmathe mat
Ġthe r
on ing
Ġl g
Ġr acing
Ġpl aque
Ġpo les
Ġen list
Ġac ute
dd ing
r in
Ġa est
Ġf allen
Ġpo pping
Ġbr icks
be ing
Ġbrown ed
Ġcy cles
Ġcertific ates
Ġcapt ion
Ġtrop ical
Ġe aster
pe nding
Ġdis aster
unt u
Ġrepresent ing
Ġseal er
Ġloud ly
Ġdev ote
Ġclar ity
Ġpossess ion
Ġsar c
Ġrit ual
Ġener getic
Ġbreed ers
Ġm i
Ġre el
Ġtick s
Ġdepos its
Ġp ushed
Ġm ich
Ġr ugs
all ows
Ġport al
m g
Ġout comes
Ġman ners
Ġbat ches
Ġprob ate
Ġfinan cially
Ġcontrib utions
Ġe ther
ci ously
Ġgr inder
Ġret in
whe ther
Ġarr ives
Ġsens ory
Ġtact ics
Ġc ous
ro lling
Ġun employ
ren ce
Ġexpos ing
Ġvirt ually
Ġintellect ual
3 4
g on
Ġst are
Ġpro crast
Ġexcess ively
Ġreflect s
re search
en ne
ay ed
Ġprun ing
d og
Ġre use
Ġkn ives
Ġro ds
Ġleft overs
Ġconcent rated
Ġstation ary
Ġle ge
Ġtail ored
Ġhd mi
Ġdisres pect
Ġoff ense
oth y
Ġtalk ed
Ġpad ding
Ġf ount
Ġmo nday
Ġmind set
Ġcopy ing
uc ent
Ġgu ided
Ġmind s
Ġview ed
Ġur g
Ġine v
Ġlaz y
Ġf ool
Ġd j
is y
Ġle mons
Ġarch ive
Ġjealous y
Ġnipp le
Ġdizz iness
l ink
s m
Ġc arn
Ġb oun
Ġnot ch
op hen
Ġsin us
Ġloss es
Ġproh ib
Ġacupun cture
h ire
Ġcard stock
Ġfore arm
Ġmush room
Ġisol ate
Ġdisplay ing
p orts
Ġs age
Ġf onts
Ġne ur
stand ing
Ġcold er
a us
Ġspe lls
Ġterm ination
Ġtext book
Ġsand als
Ġsuper ior
Ġ24 0
Ġsta ples
Ġjpgimag esthumb
Ġapp rent
bo y
Ġgra vy
Ġestim ated
Ġdiscol oration
Ġw ines
Ġb b
Ġun used
Ġaccess ory
Ġemploy ed
Ġpron unciation
Ġvacc inations
Ġbrit ish
b ird
Ġn ation
Ġgen res
Ġremo vable
Ġlif es
Ġsimpl er
Ġvill age
Ġore gano
b el
d i
l ining
Ġe ll
Ġlarge ly
Ġresemble s
w ax
ic a
Ġbe am
Ġst aring
Ġr ated
Ġsp it
Ġstrip ed
Ġbookmark s
Ġinn oc
Ġan swe
Ġmant ra
Ġc ds
Ġhair line
Ġ5 6
Ġsw irl
Ġcy cling
t one
Ġa ug
amin ophen
Ġtransl ucent
n ity
re ls
Ġr is
Ġsp i
Ġtest osterone
p ill
r is
Ġcomp ressed
Ġge omet
Ġembro ider
v an
he ld
Ġbu zz
Ġret reat
Ġvers atile
Ġwav y
Ġgoodby e
Ġv oid
Ġacc ust
Ġhonest y
Ġswe ets
Ġconsum ers
Ġcere als
b at
Ġ âħ
er ies
Ġ11 0
Ġhorm onal
Ġsnip er
Ġparas ites
Ġultras ound
Ġhe x
Ġcom pe
Ġaut ism
Ġra ises
Ġj azz
Ġshow ers
Ġmodel ing
Ġadopt ing
Ġconserv ative
Ġd ies
c iss
Ġtheir s
Ġcomm a
als a
Ġreg ul
Ġcost ly
ig an
Ġpr icing
Ġag ed
Ġhome own
sh ield
Ġcru ise
Ġsatisf y
Ġcalcul ating
Ġadminist ered
Ġtown s
Ġbou quet
Ġtwel ve
Ġanswe red
it a
Ġfo x
Ġprot ocol
Ġsec uring
Ġsun flower
Ġc ay
Ġp arr
Ġob esity
Ġbro om
Ġ16 0
Ġcontrib uting
Ġstrugg les
ie vable
Ġcoo per
Ġstrengthe ning
Ġpiv ot
Ġpl umb
Ġsp ont
Ġwig gle
ill ing
Ġpair ing
Ġconver ted
Ġacet aminophen
onna ise
3 6
Ġp us
Ġpersonal ized
Ġsmo ot
Ġhumid ifier
Ġstere o
grad uate
ur ities
Ġcoun cil
Ġbal let
Ġtarget ed
Ġscan ner
ad vant
Ġr anging
Ġad ren
ho ot
Ġinterview er
Ġpunct uation
Ġt ac
Ġc asing
Ġloc king
Ġdet ach
Ġmother board
Ġsevere ly
Ġre vers
Ġal k
Ġrun ny
Ġstre aming
Ġmy th
Ġn our
Ġbe ars
Ġspecific s
Ġnews let
Ġw rest
Ġl bs
Ġl ymph
Ġv ast
Ġup hol
Ġroll ers
ob tain
Ġanonym ous
Ġfe ll
Ġsal ty
Ġste aks
Ġmar gar
Ġrom an
Ġrain bow
Ġdram atically
Ġunf air
Ġse mes
Ġcl asp
Ġsl ipper
Ġreason ing
Ġbull ies
Ġvom it
Ġv s
ree ze
Ġreg ional
aste red
Ġindepend ence
le te
Ġg arn
Ġadd itives
ign ed
Ġdeli ber
Ġpod cast
Ġwith hold
Ġengage ment
amb ling
Ġo xid
Ġp arm
Ġal ien
Ġco aches
Ġwe alth
Ġread ings
Ġrefer rals
Ġattrib utes
Ġwis dom
1 8
Ġarg uing
ilant ro
c lo
Ġform ats
Ġprompt ly
Ġfly ers
Ġconvin cing
Ġstere oty
Ġmay onnaise
Ġpass ages
Ġappear ing
Ġcarr ied
Ġlo ses
Ġdet ox
Ġdirect ors
Ġfeed er
Ġroad s
Ġpist ol
Ġsout hern
Ġl ather
Ġrel ie
Ġed ition
Ġinv ited
Ġtem ple
Ġgrab bing
Ġuncom mon
Ġforgot ten
Ġchap ters
Ġpol len
Ġgain ed
Ġemphas is
k m
re r
Ġcomp osition
Ġarr ay
Ġscrap s
Ġdil uted
Ġpsycholog ist
Ġspect rum
Ġl aces
ge red
ag n
Ġur inate
Ġtraum atic
Ġo ste
on i
Ġcan al
Ġad ject
Ġaccount ant
Ġspecific ations
Ġing r
cl ip
Ġpsych ology
Ġproport ion
c all
Ġfl uct
Ġprov ision
Ġca f
Ġequ ations
Ġmel ting
Ġster oid
Ġback st
Ġ3 9
Ġstruct ured
Ġincorpor ating
it udes
Ġal imony
Ġover look
Ġes oph
Ġair craft
Ġz ig
Ġtast ing
Ġseiz ures
d ers
Ġatt ire
op ath
Ġview ers
Ġcra ving
ad s
Ġdis advant
Ġmin ced
Ġaccount able
grou nds
Ġwor m
Ġinc l
Ġbr im
Ġver se
Ġchat ting
ic oster
Ġ0 8
Ġcoll abor
Ġdut ch
Ġtread mill
z ym
Ġin ability
Ġl amin
Ġg aze
Ġab user
Ġgl ands
Ġ4 7
Ġdefend ants
Ġsummar ize
d ry
Ġw if
at al
Ġh ub
Ġk h
Ġlo s
Ġshe ep
Ġair plane
Ġdraw ings
Ġlif etime
Ġprogress ive
Ġsteam ing
Ġaccompan y
Ġcraw l
Ġcassero le
d ress
Ġtest imony
Ġfurther more
iver se
Ġretail er
Ġcher ries
g ling
Ġre arr
Ġsal v
Ġant ique
Ġworks pace
Ġencourage ment
ik a
Ġdecre ases
Ġbio logical
Ġbron zer
Ġsued e
am ines
Ġse pt
Ġcomp ly
Ġlove ly
Ġpops icle
Ġclass ical
Ġwonder ing
Ġsher iff
Ġaccust omed
Ġn ude
Ġform ulated
Ġsubsequ ent
Ġove reat
Ġout lines
Ġad ap
we ed
Ġrecord er
re p
Ġimp l
Ġpower point
Ġjud ging
Ġfair y
Ġsweat ers
Ġconvent ional
Ġs es
Ġcan n
Ġrespect ively
Ġsof a
ce eds
iz on
Ġdep r
Ġc ilantro
as hed
Ġpe e
Ġback ed
Ġinvest ed
Ġmerch ant
Ġsophistic ated
Ġfast est
Ġpanc ake
Ġecon omic
Ġeurope an
Ġst akes
Ġde ar
Ġinv al
Ġshort ly
Ġcompl aining
Ġpig ment
Ġ37 5
Ġphotograp her
h u
Ġen zym
Ġ4 6
Ġass ure
Ġpath s
Ġrandom ly
Ġpel vic
Ġcater pill
j a
Ġfr inge
Ġpe eled
Ġbath s
Ġcay enne
Ġto en
Ġbo nding
Ġcontin ued
Ġpad dle
Ġether net
er ge
hes es
Ġgen ital
less ness
Ġbrit tle
Ġevol ve
Ġt ai
Ġimag esthumb
Ġauthor ized
Ġdemand ing
Ġov als
Ġflee ce
Ġy el
Ġor ch
Ġblo ating
Ġupload ed
es an
Ġst roll
Ġsp ike
Ġdrag ons
Ġhazard ous
Ġf as
Ġshort en
Ġtrust ee
Ġcam ps
Ġdiag ram
Ġpromot es
Ġket tle
d les
Ġd c
Ġtime ly
urt les
Ġconsult ant
Ġcort icoster
m ans
he art
Ġout going
Ġpa wn
Ġstab ilize
Ġc ite
Ġm astered
Ġapp arent
Ġour selves
Ġsurround ed
Ġlaptop s
Ġanem ia
Ġl umber
Ġhead ed
Ġdraw s
Ġill usion
Ġanten na
m art
z ema
Ġb arn
ren e
Ġsound ing
Ġmicro s
Ġappreci ated
Ġresol ved
Ġtour ist
Ġvel cro
Ġwast ing
Ġ2 000
Ġlong est
Ġcal ves
Ġinfl amed
Ġfear ful
Ġconduct ed
Ġdm v
Ġshim mer
natur al
w o
Ġpl uck
Ġk ern
Ġ4 3
Ġest rogen
Ġbelong ings
Ġub untu
Ġcheese cloth
Ġwarn ings
Ġavoc ados
Ġbr ide
Ġgr illed
Ġlot ions
Ġsuff ici
Ġmer c
Ġofficial s
math rm
Ġbisc uits
Ġsc all
Ġcontin ually
Ġn a
Ġro s
Ġimp ul
Ġlemon ade
Ġre load
Ġpresent ing
Ġwom ens
Ġthird s
Ġfix ing
Ġfung us
se ts
Ġresid ency
Ġul cers
r un
Ġdo l
Ġunder ground
Ġgu ild
Ġsqu irt
ffe red
Ġfav ors
Ġpre heated
Ġgal ax
Ġdow nt
Ġuter us
Ġparm esan
Ġe in
Ġwind shield
Ġsteam er
Ġlaugh ter
Ġvib rant
Ġbored om
Ġfract ions
g al
Ġreve aling
Ġnic he
Ġpoison ing
Ġc ages
Ġr aces
Ġhe dge
Ġbl ister
Ġelect ion
Ġarr anged
Ġrestr aining
Ġelev ate
Ġinterns hips
Ġphilosoph y
Ġrais ins
w ar
ot es
Ġg n
Ġst ats
Ġspeak s
Ġv ents
Ġkn ew
Ġexp iration
Ġdrop box
Ġg ps
Ġend less
Ġfull er
Ġb a
Ġm c
Ġg ains
Ġre cess
Ġdr ipping
Ġoff line
ask et
Ġpu zzles
Ġadopt ed
Ġaustral ia
b ones
Â ½
Ġfashion ed
Ġshuff le
r ates
Ġw orthy
Ġsnug ly
Ġendor phins
Ġbarbe cue
is hers
ip her
Ġpe aches
Ġbu bb
Ġdry ness
Ġ4 2
Ġwa iver
Ġimprove ments
b ars
t est
Ġt urtles
Ġsec rets
Ġsym met
Ġapplic ator
Ġmuff ins
Ġfulfill ing
Ġsu do
Ġfo li
Ġdisc re
Ġfat al
c ies
j ud
Ġc rou
Ġcle ared
Ġmar ath
Ġanal og
Ġfert ility
i h
Ġa ce
Ġadjust able
Ġchr on
Ġdiagn ost
Ġunlock ed
Ġnarr ative
b ro
m ilk
Ġimp aired
Ġrel ation
Ġj ug
Ġcl ove
em ail
Ġdown wards
Ġpol ished
Ġur inary
Ġseal ant
Ġbull ied
Ġtoler ance
Ġl ately
Ġsu icidal
Ġref uses
Ġz oo
Ġur ban
Ġbleach ing
Ġclin ics
Ġconj unction
en g
im m
Ġ5 9
Ġgl uing
Ġsty list
Ġwr aps
Ġscrap book
Ġven ues
Ġobstac le
Ġec zema
Ġhighl ighter
k ers
t ic
Ġseem ing
Ġgold fish
Ġbi kes
Ġgrocer ies
Ġflag s
Ġb ik
Ġm ous
Ġir re
Ġgrad ient
Ġcalcul ations
Ġdecre asing
Ġscan ning
am as
Ġsu ing
Ġthous and
Ġsubm erged
Ġw ander
Ġp orn
Ġm un
Ġnot icing
Ġan cient
Ġinc ur
Ġday time
Ġer r
Ġrat ings
stick s
7 7
Ġs alsa
Ġre pt
Ġpass ions
Ġkick s
fo am
se ed
Ġst amps
Ġsh ing
Ġbet ta
Ġlog ic
Ġrecogn izing
Ġagg rav
Ġe ager
ag het
Ġcut ters
Ġmini ature
Ġtamp on
in st
Ġf are
Ġsun burn
Ġplaintiff s
Ġmart ial
Ġintimid ating
Ġb ing
Ġent ity
Ġsal icy
Ġbehav i
Ġfire place
Ġscor p
l ux
Ġw ond
Ġcon form
Ġch im
iz able
Ġpass engers
Ġdef enses
Ġmusic ians
Ġinterv ention
Ġbo oth
Ġag rees
Ġsepar ating
Ġden ied
Ġprinci ples
c led
Ġp oo
Ġre build
Ġunder graduate
Ġnight time
Ġexplain ed
Ġexpress ed
Ġlin en
u pp
Ġt ant
if iers
Ġexp ans
Ġdrop down
col or
Ġsat in
lim ited
Ġses ame
Ġp hen
Ġbar king
Ġmagn etic
Ġmer ge
Ġmand atory
d rop
Ġs ab
Ġqu ilt
Ġdisc losure
Ġstat ute
pers on
Ġhaw ai
Ġcl aw
Ġcar ries
br ing
Ġsens ations
Ġsir i
Ġdi y
Ġdeal t
Ġresid ents
Ġprop osed
Ġbio logy
Ġsuffici ently
aghet ti
ple ss
Ġad mission
Ġsoft ened
Ġnonprof it
Ġh r
Ġn aked
Ġre ins
Ġmac ar
Ġlan tern
i w
Ġf umes
Ġsp ool
Ġannoy ed
Ġconver ter
Ġgrind ing
l ists
Ġl unge
ers onal
Ġbreak er
Ġrecogn ition
Ġtre asure
Ġclim ates
Ġtamp ons
Ġtint ed
Ġgrandparent s
ad ian
Ġr acks
Ġcom bo
Ġfl ows
me g
Ġsett led
Ġbell s
Ġcucum bers
Ġstri kes
Ġmarshm allows
Ġapr il
Ġbicy cle
Ġth under
Ġun iverse
Ġswe ats
Ġenc losed
Ġmultip lying
Ġhur ry
Ġskew er
Ġdes perate
Ġhigh way
cript ions
Ġchees es
Ġw arts
ple n
Ġ6 2
Ġl inger
Ġun st
Ġrest s
Ġmaintain ed
Ġcult ivate
Ġr ational
Ġle ct
Ġover board
Ġhas ht
Ġbl ouse
Ġcare s
Ġspo ons
Ġfoli age
Ġall oc
Ġ7 8
Ġpim ple
Ġfixture s
Ġted dy
Ġsemes ter
c uss
Ġt ighter
Ġpract iced
Ġsqu e
Ġnon stick
Ġattach ments
Ġacqu ired
Ġdessert s
Ġspi kes
Ġsc out
Ġbal ancing
Ġrepet ition
Ġpre cious
Ġhot line
Ġappro ve
Ġinstru ctors
Ġassoci ates
Ġvo ices
Ġterr ain
Ġvend or
Ġrehe ars
Ġpediatric ian
h aving
Ġe uc
Ġcl ou
Ġpo ems
Ġcare ers
Ġsold er
Ġm ys
Ġcomp uls
Ġhead ings
Ġreview ed
Ġdedu ctions
Ġadj acent
Ġab used
Ġfl aw
Ġsoft ly
Ġthreat ened
Ġrasp berries
Ġsh akes
Ġse ating
Ġsp aghetti
Ġpe els
Ġexte nds
Ġrepet itive
b ag
h or
r ator
Ġa pt
Ġto ned
Ġre de
Ġpe nd
Ġbread s
Ġcheap est
Ġscar ves
Ġre plen
Ġli z
Ġblo gg
c ings
Ġwe an
Ġcl aws
Ġup front
Ġdown s
Ġbec ame
Ġgl ued
Ġbel ieved
Ġcond om
Ġsol uble
li ers
Ġenc ry
Ġreact s
Ġcomed y
Ġiniti ative
Ġser um
Ġcav ity
Ġp umps
Ġdr ains
Ġstraight ening
Ġincreasing ly
Ġpenet rate
ig e
omet ers
Ġfin s
Ġline ar
Ġscre am
Ġrad iator
Ġgalax y
Ġve in
Ġgard ens
Ġmass aging
Ġrid ic
Ġnsa ids
Ġt aut
Ġam ple
Ġhold ers
Ġband ages
Ġperce ived
Ġlg bt
Ġs ieve
Ġsu ffered
Ġint ensive
Ġcomp ose
Ġpopular ity
Ġiod ine
Ġs ift
Ġst aining
ab s
Ġcons on
Ġnut meg
mark s
Ġscenari os
ro l
Ġobs erving
Ġsus pens
Ġpool s
Ġswallow ing
Ġjan uary
nd ers
Ġunder water
Ġword press
Ġclass y
the n
Ġtra it
Ġps or
Ġrepresent ation
Ġbright ness
Ġsignature s
Ġfer ret
Ġflu or
Ġbehavi our
d ings
Ġnot ices
Ġj et
Ġbas in
Ġpull s
Ġcontract ors
Ġbright en
Ġfract ure
Ġtumb lr
b et
Ġbet ray
we lling
Ġshort ening
Ġtrip od
Ġspo il
Ġexcl usive
pt ions
Ġencoura ged
Ġmel ody
Ġnumer ator
Ġunre al
Ġp ent
ater al
Ġpersonal ities
Ġprom inent
Ġwax ing
Ġut il
Ġthank ful
Ġne uro
Ġbott led
Ġexp ed
Ġconnect ors
Ġincre ments
Ġwo k
Ġbe gan
Ġkn ight
Ġover se
Ġess ence
ster y
Ġworld s
Ġpear l
6 6
Ġl ig
Ġad missions
Ġlim b
aly pt
Ġunco vered
Ġran king
om nia
st ring
is ons
im ental
Ġover view
Ġ5 8
Ġ8 8
Ġsuff ice
Ġcort is
Ġ Î
Ġg own
ro ot
Ġv apor
our se
Ġbat tles
be lls
Ġmen us
Ġcy st
Ġpred ators
Ġcloud s
Ġfacilit ate
3 5
h r
Ġtor ch
Ġbl unt
me an
Ġpres ident
sol id
Ġsens or
Ġspoon ful
Ġweak er
Ġfl ipping
Ġent ers
Ġlight ning
Ġpick s
Ġred d
Ġslow ing
Ġliqu or
Ġbi os
Ġrepay ment
Ġr ises
Ġmo les
Ġtwist ed
Ġvigor ous
Ġb inge
per t
cr ow
Ġyear ly
Ġintegr al
Ġpractition er
Ġsupermark et
Ġling ering
Ġne on
Ġbo om
os ing
Ġdi verse
Ġcur b
Ġbun s
Ġinac cur
Ġd ual
Ġh ills
Ġh inges
st op
Ġha ss
oo king
Ġv ista
Ġunt reated
Ġcar ve
Ġparent heses
Ġcool s
Ġbro ch
Ġrespect ive
Ġinteract ive
Ġimpress ive
Ġjudge ment
Ġoccup ied
Ġw ow
Ġcont ing
Ġpol ar
Ġland s
Ġwhit ening
Ġstalk s
Ġfavour ite
Ġumbre lla
Ġmous se
Ġs ams
Ġrun ner
Ġref in
Ġtut oring
Ġlubric ant
s v
Ġf ired
Ġl b
Ġbat ting
Ġresid ential
Ġb ins
Ġp interest
Ġrun ners
Ġbi as
Ġmotor cycle
Ġtact ic
Ġol ives
Ġpro ps
ra vel
Ġarr ival
Ġcm d
Ġornam ents
Ġex ch
Ġconsider ably
Ġdra fting
Ġref lux
Ġessential s
Ġinh al
Ġpier cings
Ġwors hip
Ġmedit ating
Ġdunge on
Ġslipper y
alypt us
l am
t ics
al though
ay a
Ġ14 0
Ġcommit ting
Ġlat in
ias m
Ġecon om
Ġfant astic
Ġsalicy lic
g ia
m p
Ġp ts
it ated
Ġh ints
Ġun limited
Ġmin us
Ġdisinfect ant
Ġspons or
ot onin
Ġhair sty
Ġdiv ing
Ġge ck
Ġle aking
ge bra
Ġd na
Ġv pn
fe ed
Ġrec on
be e
Ġdele g
Ġdrill ing
Ġpear ls
Ġc t
am ination
Ġsu cc
Ġsp ac
Ġen amel
Ġrest room
Ġnight m
Ġrecip ro
Ġmargin s
6 4
Ġt aper
Ġin her
Ġhal ter
ret ion
Ġabsor ption
Ġrein for
Ġdou b
en a
Ġh ue
Ġe ject
ro foam
Ġv owel
Ġdis li
Ġchick s
Ġabs ence
gu ard
Ġenthus iasm
Ġtri angular
Ġplat ter
Ġcush ions
Ġen ch
Ġapplic ant
Ġabsorb ent
Ġalert s
Ġsight s
Ġchunk y
Ġgrape fruit
c lock
Ġany body
Ġser otonin
ton es
Ġfore f
Ġhydr ation
Ġcorpor ations
Ġclou dy
o cc
Ġpro pr
Ġde af
Ġsp ong
Ġlook out
Ġess ays
Ġmeat balls
Ġtrad itions
Ġpromot ing
Ġlege nd
Ġn om
Ġso cially
Ġpink y
Ġpant ry
Ġfau x
Ġuphol stery
o ft
st ay
Ġfr ank
Ġpl un
Ġout standing
co nd
Ġval ued
Ġpet ting
Ġvo ic
Ġseason ed
Ġdisappoint ed
Ġfount ain
Ġcont ag
Ġside bar
Ġcontrast ing
Ġow ed
Ġantivir us
Ġpre n
Ġsc oring
Ġam en
Ġ9 11
Ġiron ing
Ġpermit ted
Ġgly cer
Ġlift s
Ġcoord ination
Ġdatab ases
Ġaccum ulate
Ġcosmet ic
Ġembroider y
Ġi ra
Ġtr ous
Ġapp liance
iz ations
lud ed
Ġtutor ials
Ġdeduct ible
Ġdisput es
Ġpsychiat rist
Ġre n
igh ters
Ġk ennel
Ġbut to
pr ints
Ġsty rofoam
Ġjournal ing
Ġprem ature
Ġverb ally
Ġdescript ive
Ġf etch
Ġm il
ce nding
Ġv ow
Ġclick er
Ġnum bered
Ġrout ers
Ġpy ram
Ġhen na
Ġgast ro
Ġfou l
Ġe g
Ġmu zzle
Ġno d
Ġcost umes
Ġvisual ization
Ġliter ary
Ġperce ive
Ġther most
Ġre nder
ac ur
Ġan e
Ġj une
Ġmore over
ab ling
Ġhome less
Ġdy ed
Ġbrok ers
b or
Ġw age
Ġmon et
Ġgre ased
Ġrespect ed
Ġdestru ctive
Ġcur ric
gram s
Ġgar ments
Ġcollect ions
Ġcarr iers
Ġvent ure
Ġdece mber
Ġal gebra
Ġtask bar
Ġhar ry
Ġnur ses
Ġadvoc ate
Ġacquaint ances
Ġf udge
Ġl ick
Ġsn ails
Ġbro ke
Ġgrad uation
Ġsubscrib e
Ġprobiot ics
Ġg b
Ġg ang
Ġgo v
Ġadd itions
roid ism
Ġmarking s
Ġanest hes
Ġbom bs
f ield
Ġbe ets
Ġtr acing
Ġmouth piece
Ġer ra
Ġbur nt
Ġwashing ton
Ġgro ove
Ġpump ing
Ġconcl usions
Ġpenal ties
Ġdo e
Ġcut icle
Ġprevent ative
Ġaccept s
Ġconscious ness
Ġpharmac ies
le e
Ġh iv
Ġins omnia
op ard
Ġfid get
Ġto ll
al ity
Ġcom ics
ong s
ors hip
Ġrel ieving
Ġcond oms
Ġreal izing
Ġtrig gered
Ġber ry
Ġsuspens ion
Ġa wards
Ġext ras
Ġmoistur izers
Ġ19 0
Ġslee ved
Ġmerch and
Ġplun ger
4 5
Ġpers pect
Ġpain ters
Ġstre ets
Ġjour n
Ġshower ing
Ġseal ing
Ġcoord inates
Ġcompens ate
Ġpic nic
Ġcloth s
Ġworth while
Ġpier ce
v ide
Ġb ib
il itation
Ġblack berry
Ġshot gun
Ġlaun cher
Ġd angers
Ġre name
Ġcon solid
Ġbr ightly
Ġjust ice
Ġind ig
Ġthr ows
Ġnegot iations
Ġmarshm allow
Ġeps om
Ġn asty
Ġsle ek
Ġfore c
Ġmar ry
Ġbeat en
Ġlin ers
Ġintention ally
Ġmarath on
Ġhelp er
Ġpain kill
Ġ4 50
Ġmat rix
Ġdist ant
Ġbreak down
Ġgir ly
Ġinfest ation
he rent
Ġj erse
Ġgl am
Ġcelebr ities
yst em
Ġperspect ives
Ġexpand ing
Ġresent ment
Ġwif i
Ġc ape
Ġcon es
Ġindust rial
Ġhero es
ch a
Ġmon o
Ġsocial izing
rel ated
Ġcock at
Ġstimul ating
Ġves sel
Ġf uss
Ġlo d
Ġho pes
Ġgl ance
Ġterm inate
Ġheart burn
Ġtou g
Ġretain er
Ġder iv
Ġash amed
Ġruss ian
Ġch ur
Ġat e
Ġsc arring
Ġdr ift
Ġbr as
Ġvis ibility
Ġdark ness
Ġself ish
Ġexhaust ed
Ġa pert
Ġpe ars
Ġqu ir
Ġspr itz
Ġbra ve
Ġbrown ies
Ġimag ery
on ia
Ġreg ain
Ġcap abilities
Ġdisco vered
Ġblaz er
Ġeuc alyptus
Ġpro xy
Ġman s
Ġsupp ose
Ġhard wood
Ġbow ling
Ġteac hes
Ġproceed ings
Ġexcl us
Ġpsor iasis
o z
Ġcon ferences
Ġpre ced
Ġte aring
ci als
Ġpe bble
Ġend e
Ġcent ury
Ġdress er
Ġaff ili
Ġindepend ently
Ġvacc ination
Ġrecover ing
Ġais le
Ġwond ers
c ake
o graphy
Ġle ngthe
Ġpl um
Ġlo ver
ag ging
Ġlay ered
Ġaut umn
Ġemerg encies
Ġdissol ves
Ġcan ola
il st
Ġinc ub
ang ling
Ġprot r
Ġflat ter
Ġspl int
Ġcosmet ics
Ġnostr il
Ġdiagnost ic
h ou
w ide
ac cept
Ġli able
Ġday care
Ġdepos ition
Ġinstruct ed
Ġmanic ure
fig ure
Ġl ax
Ġen ables
Ġph p
Ġag ric
Ġacc us
Ġgener ated
hold ers
Ġthumb n
Ġdv ds
child ren
l iness
Ġl acking
Ġsome how
iv als
Ġshe er
Ġind ia
Ġpast el
Ġbul ky
Ġafric an
p ose
is l
Ġnot ified
im s
Ġpro state
Ġdr ows
Ġcheck list
Ġcho king
Ġsuggest ion
Ġcompet ing
Ġadvertise ment
Ġt rench
Ġwho les
Ġnegot iation
Ġtrend y
acur ricular
Ġo y
Ġg er
Ġent ert
Ġinv asive
Ġspr ings
Ġ6 8
Ġret ention
Ġear ring
Ġbro iler
Ġtort illas
k g
r ika
Ġb mi
cl aim
Ġsod as
Ġmath rm
Ġparam eters
Ġmanif est
ne um
Ġblo ss
Ġbar b
Ġtar p
Ġrepresent atives
Ġwaist band
Ġtruck s
Ġcramp ing
Ġrehab ilitation
Ġpts d
Ġjourn als
Ġy a
Ġhe nce
Ġgo at
Ġatt ain
Ġno des
Ġdec ides
Ġdesign ing
Ġmod em
Ġsweet ness
Ġhydr ate
Ġcart oon
Ġre lying
Ġpet al
Ġtight ening
Ġsteam ed
zy me
Ġecon omy
Ġprinci ple
Ġpix els
Ġunemploy ment
Ġc pr
Ġuse less
Ġkit ty
Ġur ination
Ġlift ed
Ġconv ention
Ġdimens ion
Ġbenefici ary
Ġnort hern
ro st
Ġinto ler
Ġinc ision
ting u
Ġbag gy
ipp ings
Ġbrist le
Ġaccent uate
Ġrins ed
Ġpup s
Ġmuse ums
Ġseiz ure
Ġc act
if ice
Ġall ot
Ġsm ash
Ġsk ating
Ġtor to
Ġconduct ing
Ġexecut ive
Ġagric ult
c arr
g iving
r ances
y n
Ġc f
Ġwh ilst
Ġcut icles
Ġmix es
Ġmess aging
Ġcell ular
light s
Ġconcent rating
Ġloyal ty
Ġextr acurricular
Ġleth ar
Ġswe ar
Ġexpl ains
k u
Ġb orders
Ġto ot
Ġpl aster
Ġcont amination
Ġser ial
Ġcompan ion
Ġblo oms
Ġart ic
Ġfeature d
Ġacknowled ging
Ġc ache
Ġc umin
Ġb ury
Ġex ert
Ġex tingu
Ġmoist en
loc ity
Ġplumb ing
Ġs qrt
Ġr ushing
Ġtr ails
Ġdeterm ination
Ġant ise
ah u
Ġflu ores
Ġcub ic
Ġorth od
5 5
n ies
Ġsp here
Ġcomp ile
Ġdisc lose
Ġtre as
Ġapprox imate
Ġstove top
ff les
Ġfill s
og enic
Ġ9 1
Ġscr unch
Ġmun icip
Ġbe gun
Ġsub mission
Ġrespect fully
Ġcoll age
Ġhes it
Ġfo cal
Ġrest ed
Ġbus ines
Ġtrans itions
Ġimpro v
Ġwat ches
Ġcontag ious
Ġcat he
Ġboard ing
Ġsubt it
c key
t al
Ġi vy
Ġco zy
Ġmet aph
Ġpick up
do es
Ġassum ptions
Ġsams ung
Ġe co
Ġref u
Ġcust oms
Ġmold ing
Ġcarbohydr ate
Ġdefect s
Ġingr own
in est
in um
Ġconsider ate
Ġfact ual
Ġant if
Ġflavor ful
Ġfurn ace
Ġmembr ane
ro ck
Ġsc ams
omet imes
Ġval ves
Ġcontrib ution
d ling
Ġre e
Ġle nding
Ġex otic
Ġover he
Ġcall er
Ġdestroy ed
c am
ate red
Ġrel ates
Ġcheck mark
Ġgl and
Ġprob ation
Ġinf in
Ġpen is
Ġmood s
Ġcertific ations
Ġsore ness
clock wise
g b
Ġdis lo
Ġbl aming
Ġbread cr
Ġado les
Ġdistrib ut
Ġinstit ute
Ġbrist led
Ġmexic o
Ġfingern ails
Ġforef inger
Ġres in
Ġdec om
Ġegg plant
Ġcounter clockwise
Ġnegot iating
Ġintegr ity
an es
ur a
Ġimp ressed
ract or
Ġpol ishing
Ġgym n
Ġder ived
it ched
Ġsu ction
act s
ag o
Ġbr ides
Ġres ize
Ġhighlight ing
Ġprete nding
Ġrecy cled
Ġpoison ous
Ġsanit izer
Ġdumb bells
Ġpropr iet
à ¤
Ġher pes
Ġap ric
Ġfil tered
Ġcap ac
Ġmac ro
Ġbound ary
Ġrecept ive
Ġcp u
Ġenzym es
Ġbr ine
Ġlit igation
Ġdisc retion
ho b
Ġtax i
Ġgrad ual
Ġdistinct ive
Ġbuck le
d ia
Ġk ar
Ġport ra
Ġcoo p
Ġtrave lling
Ġdre w
Ġcaffe inated
Ġhoo f
Ġc ed
Ġtr ains
Ġso lic
Ġso iled
Ġv arnish
Ġman ure
Ġdec ay
Ġ7 00
Ġmyster ious
Ġantidepress ants
Ġh ut
am ble
Ġso les
Ġrel uct
Ġchar itable
Ġtyp ed
Ġfire wall
Ġoffic ially
Ġfort ified
Ġful f
Ġdumb bell
Ġul cer
Ġcrunch y
Ġunreal istic
1 9
Ġbl ink
Ġ5 7
Ġfamily s
Ġlayer ing
Ġtwe ets
Ġre write
Ġtr ib
Ġsupp liers
Ġtrans fers
Ġaccess ing
Ġsweet ened
Ġo mit
Ġst ren
Ġan us
Ġleg isl
Ġdele ting
Ġop aque
st on
Ġtr aces
Ġfast ing
Ġboo ster
Ġincorrect ly
Ġdedu ction
d l
Ġg our
Ġas ian
Ġcl a
Ġcle ver
Ġcheck box
Ġproblem atic
Ġhor ror
it t
Ġam ino
Ġhand held
Ġtransmit ted
Ġcray ons
Ġantihist amines
Ġe go
Ġpro active
Ġconsider able
Ġmen op
Ġclear ance
Ġspecial ists
iqu ette
Ġvar ied
Ġsacr ifice
h og
Ġac hes
Ġcomple tes
Ġju ly
fr iends
Ġguidel ine
pa id
Ġdecl aration
Ġp neum
Ġv alent
Ġpersonal ize
Ġscr aper
Ġple asing
Ġfinal ize
Ġrefer ring
Ġsyll able
Ġchur ches
Ġbusines ss
Ġt s
Ġco d
Ġpe a
Ġper ception
Ġcontact ed
Ġheart beat
Ġprecise ly
Ġshortcut s
Ġl s
el iness
Ġcho ke
Ġwarm ed
Ġtechn ician
Ġcharacter istic
Ġim bal
Ġcontro vers
Ġbra iding
Ġus a
Ġve g
idd ing
Ġinf ring
pr ot
Ġoper ator
Ġcas he
Ġscrap ing
w et
Ġf aint
Ġch orus
Ġcont ests
Ġsl ing
Ġimm ers
Ġpressure d
Ġdrive way
Ġmis understand
Ġdeliver ing
Ġbod ily
Ġshav ings
Ġentert aining
g reen
or ous
Ġback grounds
Ġreact ing
Ġtrial s
Ġnove ls
Ġa z
Ġp int
or ice
Ġdo zen
Ġmin ing
Ġcondition ers
Ġsuccess es
etch up
Ġbron ze
Ġange l
c ases
z ip
il a
Ġex ac
Ġanim e
Ġcommit ments
Ġsatisf ying
Ġembarrass ment
r ad
Ġg orge
Ġse gments
Ġimp air
Ġem erge
Ġconf ess
Ġmail box
Ġaff air
Ġcru el
Ġking dom
Ġexac erb
Ġd um
Ġh ives
Ġk er
Ġbr ains
Ġdis gu
ass y
Ġro pes
Ġnar ciss
Ġcheek bones
n ip
Ġm oth
Ġmo l
Ġcat ches
Ġ17 7
Ġimper ative
Ġgy ms
Ġwith stand
ook ed
ign ment
Ġsleep y
Ġpin point
Ġforget ting
Ġven om
Ġvase line
Ġshif ts
Ġpoll ution
Ġtermin als
Ġp sp
Ġover d
Ġover load
Ġno isy
Ġhour ly
Ġaud iences
Ġexist ence
Ġachieve ment
att ach
Ġhass le
o ked
al igned
Ġst amin
Ġse min
Ġacc ents
Ġdisc s
Ġchick pe
Ġshad ing
Ġameric ans
Ġund es
Ġacadem y
Ġproport ions
Ġdict ate
Ġthermost at
at ar
Ġd war
Ġout wards
Ġsomet ime
Ġplay station
Ġgener ator
Ġfeed s
Ġspread s
Ġchem otherapy
Ġtum or
g ression
p her
ed it
Ġg ates
Ġinc on
te xt
Ġphys ics
Ġpow ders
Ġedit ors
Ġreflect ive
Ġban ner
Ġstack ed
Ġtart ar
Ġbutto cks
Ġc v
Ġk etchup
Ġcomp osed
Ġact or
cr ipts
Ġval ley
Ġquick est
Ġbad ge
Ġrefriger ated
Ġfashion able
Ġlabor atory
Ġrefres hing
Ġn p
Ġchar ities
Ġbask ets
pat itis
Ġpharmac ist
Ġrecur ring
Ġtrous ers
Ġj ig
ator ies
Ġrad ical
Ġcoll ars
Ġupset ting
Ġwal mart
Ġclo gged
Ġcolleag ue
Ġanesthes ia
r ain
Ġu gly
Ġtr ump
Ġcal ib
Ġsur veys
Ġdep reci
Ġswim s
Ġhyp n
Ġobserv ations
Ġtroubles hoot
Ġmargar ine
Ġstren uous
ist ically
Ġus cis
ag en
Ġmon olog
Ġfoot wear
Ġparticip ation
Ġupload ing
Ġunw ind
Ġenvelo pes
Ġindul ge
z a
re al
ce nd
ag ne
Ġmass ive
Ġabs ent
Ġattack er
re th
Ġi e
al a
Ġob ese
Ġupd ating
Ġtattoo s
Ġimperfect ions
3 7
u pt
x displaystyle
Ġbl own
Ġside walk
Ġve locity
Ġpa j
Ġden ial
Ġstab il
Ġet iquette
Ġembellish ments
Ġantise ptic
Ġthe ore
Ġe po
ic ides
Ġg els
Ġver ified
Ġster ilize
Ġpy th
Ġlun ges
Ġtul le
Ġsant a
Ġapprent ices
Ġexclus ively
Ġstamin a
Ġsh ore
ort ion
Ġsm ud
Ġret aining
Ġmedic are
Ġdiet it
Ġview er
fr ame
ob a
Ġwik iped
Ġskate board
Ġalleg ations
Ġcrick ets
ct ory
Ġimag inary
Ġcontr ac
Ġnostr ils
Ġw att
Ġf ences
Ġwater y
Ġflo ps
Ġdrug store
fo ot
Ġwar p
Ġcl amps
Ġam mo
Ġpack ets
Ġdil ig
Ġr ails
Ġinc entive
Ġ6 1
Ġlic orice
Ġresid ual
Ġoverwhel m
Ġdiff user
Ġcreep y
n av
Ġfl amm
Ġper missions
Ġfire s
Ġpen ny
Ġpel vis
Ġeast ern
Ġemo ji
Ġapert ure
im eters
Ġsl its
Ġdisc ontin
Ġ20 15
Ġpublic ly
Ġgro in
Ġflower ing
Ġw ars
Ġst un
Ġthin ning
Ġpar is
Ġquestion na
Ġpok er
Ġnav ig
Ġdipl oma
Ġli abilities
Ġpre jud
Ġpe aks
te ll
Ġtrans it
Ġlaws uits
Ġcarp ets
Ġguit ars
Ġgran ola
Ġlou der
he m
Ġg ad
Ġdo dge
Ġcon secut
Ġpr izes
Ġclean up
Ġcur ios
Ġbar ley
Ġz om
Ġsmooth ies
Ġcourse work
Ġaff ix
Ġobs erved
Ġdon ating
Ġrede em
Ġcurric ulum
Ġtoot hed
Ġco e
Ġcr ut
Ġbel ieves
Ġshr ubs
Ġtoast ed
Ġyel p
Ġvoic email
Ġlearn s
Ġaug ust
Ġp ing
Ġl ava
Ġg a
Ġen zyme
Ġwas hes
Ġconf ir
Ġbath rooms
Ġcontract ions
Ġcit ations
Ġconj ug
Ġenthusi astic
Ġf da
Ġd Ã©
Ġre charge
Ġfl ashing
Ġfertil ize
Ġaward ed
Ġlob ster
Ġabandon ed
at te
Ġd itch
om es
st ically
Ġar ter
Ġgra ham
Ġsuc king
Ġhost ile
Ġsurv iv
Ġinnoc ent
prot ect
r ust
in ce
Ġexam ining
lud ing
Ġhand writing
Ġsa ute
Ġtap ing
Ġhy br
Ġclos ure
sh i
Ġbi ops
Ġsc atter
Ġqu ery
Ġob ed
Ġmas cul
Ġvacc inated
Ġscient ists
Ġcathe ter
lo cks
Ġbit ten
Ġorganiz ational
Ġ13 0
Ġexpans ion
Ġ Ã
Ġhe patitis
us able
th at
ip er
Ġcut tings
Ġsexual ity
Ġpant y
Ġsweep ing
Ġrearr ange
Ġhairsty les
e very
Ġ6 6
Ġcap tain
Ġconcer ning
Ġpyram id
Ġw art
Ġse als
Ġpro x
Ġde mean
Ġbo ats
Ġfu zz
Ġmile age
Ġd welling
Ġco ding
Ġover flow
Ġtw ists
Ġcompet itions
keep ing
Ġviol ations
Ġintest inal
agon ist
Ġsept ember
Ġmerchand ise
Ġced ar
Ġo ath
Ġem eral
ious ly
Ġcontract ing
Ġirrit able
Ġswing ing
Ġvamp ire
c p
c ount
Ġre usable
Ġlo gging
Ġdr ills
Ġinc ent
Ġsleep over
Ġhum ane
Ġtit led
Ġign ored
Ġtexture d
int end
Ġster oids
Ġbees wax
c ans
Ġd ips
st ar
Ġk iw
work s
Ġcomplex ion
Ġdevot ed
g re
h i
Ġn urt
Ġnot ar
Ġatt ic
Ġsl ime
Ġ20 10
Ġattract ions
Ġcance ll
Ġwhist le
h ill
ã ģ
Ġs sa
Ġsmo ky
Ġcoun ters
Ġsuit case
bre w
Ġurg ent
Ġzom bies
Ġf encing
us ers
Ġhard s
Ġsw itches
Ġcor ros
Ġintrodu ctory
Ġdust ing
Ġgro o
Ġtoday s
Ġmechan ics
omb ie
Ġdelay ed
Ġincom ing
Ġerra nds
Ġa str
Ġc bt
Ġr ashes
Ġat om
Ġfind ings
Ġref ine
Ġcompan ions
Ġtrave ls
Ġsav ory
Ġjail break
Ġinterpret ation
Ġchamp agne
o ber
r int
ag ged
Ġsl ows
Ġrec ons
Ġdi pped
Ġneck line
Ġharm less
Ġexecut or
Ġaffirm ations
Ġfluores cent
ur able
Ġch ise
Ġat oms
Ġev ac
Ġsl ouch
Ġrel ating
Ġcr umb
Ġgl ide
Ġquest s
Ġflamm able
Ġsh ark
Ġbreak outs
Ġinqu ir
Ġsweeten ers
b ot
b ru
Ġd well
Ġpay check
Ġpres chool
Ġcomb ing
Ġcool ant
Ġdest inations
Ġult ra
Ġsplit ting
Ġpubl ishers
Ġfarm ing
Ġsimmer ing
Ġee oc
Ġp oop
Ġde em
ber ty
Ġar ises
Ġam e
Ġdi oxide
Ġdra stically
Ġpot ter
Ġ10 1
Ġveterin arians
Ġfreel ance
Ġhomeown ers
f ix
in is
Ġs id
Ġcomp r
Ġspl its
Ġluck ily
Ġpil ates
p ir
Ġbe ings
Ġ9 00
Ġsusp ic
Ġlon eliness
Ġcurios ity
s l
at is
Ġfor wards
im bur
Ġfr aming
Ġv in
Ġstr um
Ġpain s
Ġprov isions
Ġcomfort ing
Ġgovern ments
Ġdel ays
Ġpor ch
Ġfest ival
Ġshing les
Ġane cd
h ine
Ġpro gression
Ġpo ds
Ġpre lim
Ġbus hes
Ġbreak age
Ġvacuum ing
Ġpup ils
Ġown ing
Ġ7 6
Ġunw illing
Ġdedic ate
Ġbuff er
Ġeth ics
Ġtournam ent
Ġcompe lling
Ġimpul se
Ġspe nds
Ġun clear
Ġ4 9
Ġregard s
Ġinterview ing
Ġwed dings
Ġattend ance
Ġcro ck
Ġdefin itions
Ġgrill ing
Ġslo ppy
Ġtum my
Ġdeter ior
Ġvow els
Ġc ad
Ġso ggy
Ġmar ine
Ġregist ering
Ġglow ing
h air
ll ers
ch air
Ġgr ieving
od ies
Ġhum mus
Ġped als
Ġtu ition
Ġobserv ation
Ġvel vet
Ġresear chers
Ġdress ings
Ġpu berty
Ġintegr ate
Ġsacr ific
Ġbreadcr umbs
c ot
Ġt ing
Ġth resh
Ġcan adian
as ma
ant ing
Ġspray ed
Ġglo be
Ġfiber glass
Ġesoph agus
Ġg asket
Ġv ig
Ġkn e
Ġbet s
Ġbel ieving
Ġpast ure
Ġtext books
Ġer a
Ġsil hou
Ġsuperv ise
Ġb red
Ġpro be
Ġaff airs
fo cus
Ġprop ose
Ġcleans ers
Ġoblig ated
Ġcortis ol
al ways
Ġfor ge
Ġse ep
Ġtr action
Ġfl ames
Ġph ob
Ġcr am
Ġcy ber
Ġplat inum
Ġmerc ury
Ġreplen ish
Ġoverse as
im on
Ġover time
ues day
Ġcred ibility
Ġrab ies
Ġharm ing
Ġpret z
Ġreserv ation
Ġevalu ating
Ġjerse y
l ig
nd on
Ġbr ushed
Ġimp at
Ġjo ined
Ġmod ification
Ġage nda
Ġboil s
Ġattack ed
Ġdetect or
Ġisland s
Ġfluor ide
a e
Ġless er
be c
Ġlength y
Ġdon or
Ġsprink les
Ġinflu ences
Ġcontr ary
Ġinterse ct
Ġsme ar
Ġwikiped ia
2 1
h igh
Ġli en
Ġfe as
Ġcle arer
Ġho ckey
Ġign ition
Ġforg iving
Ġpillow case
sin ce
Ġdand ruff
Ġare na
ut ic
ood le
Ġsp as
vers ion
Ġmel on
Ġremind ing
Ġevalu ated
Ġcareg iver
s pe
Ġm oms
red ict
Ġ5 3
Ġext rem
Ġ9 8
tens ion
Ġoct ober
Ġrecons ider
a ver
b est
Ġw ob
che t
Ġautom ated
Ġbur gers
Ġm ates
Ġch asing
Ġk ite
Ġk os
Ġcomp liance
Ġcomm ute
Ġdesign ers
Ġdimens ional
Ġpossess ions
Ġthirst y
Ġf x
Ġg ambling
ce ll
Ġpl ag
ast s
Ġun paid
Ġhum ble
Ġdye ing
Ġconver ting
Ġjoh ns
Ġsl ick
Ġbrown s
Ġagree ing
Ġvi able
Ġaggress ively
Ġdiabet ic
Ġdiscount ed
Ġo o
Ġw ired
ain ting
Ġk ilo
Ġdr ums
Ġun conscious
Ġman us
Ġsw ift
Ġmultip lication
Ġflav our
Ġcaps ule
Ġintest ines
Ġunp redict
at able
Ġp and
Ġhe ir
Ġfin er
Ġple as
Ġtravel ers
Ġfly er
Ġ17 5
Ġpoly ester
Ġpap rika
Ġindu ce
Ġscholars hip
Ġmexic an
Ġric her
Ġgorge ous
p rodu
w est
at itis
Ġre imbur
Ġby pass
Ġ6 7
Ġprep aid
Ġhor r
Ġapproach able
ann el
Ġmonit ors
Ġcelebr ation
Ġcig ar
at onin
ffect ive
Ġca fe
Ġclaim ing
Ġfac ult
Ġabsor bing
Ġglycer in
Ġprelim inary
b read
Ġsu p
Ġdr ips
Ġdifferent iate
Ġinv ention
Ġpat ties
Ġenjoy ment
Ġelectr ons
Ġreserv ations
h um
st ores
Ġk ay
de f
Ġpass enger
Ġaccess orize
Ġma iled
Ġsweet er
Ġmoistur ized
cre am
Ġduck s
b uck
d iv
m aking
Ġa le
ell a
Ġda wn
Ġbutter milk
Ġstruct ural
Ġwra pper
Ġpun cture
Ġincons ist
Ġinaccur ate
at tered
Ġg pa
Ġsu shi
ip ers
Ġstud ied
Ġlandlord s
Ġsulf ate
Ġcran berry
Ġarmp its
Ġs way
Ġcan ning
Ġout right
ra ising
Ġinter c
Ġpat io
Ġov ulation
Ġdirector ies
Ġsyll ables
h ots
Ġr ider
Ġch ats
Ġal ike
Ġpr iced
Ġve ctor
Ġgen e
Ġshow ed
Ġheat s
Ġpaint ings
Ġteen age
Ġmath bf
Ġex pend
Ġstr aining
Ġscr amble
Ġmount ains
Ġpunch ing
Ġisol ation
cont act
Ġinstinct s
Ġper ks
Ġx xx
Ġtable cloth
Ġ22 0
Ġpap aya
Ġunco ver
Ġa rab
Ġres c
Ġper t
Ġrel apse
Ġsmo ker
Ġslot ted
Ġbrew ing
Ġspont aneous
is p
am ental
Ġfr own
Ġgr am
Ġinter rog
Ġflavor ing
Ġcompassion ate
it ary
ain ted
Ġgo ats
co p
Ġred s
lay er
Ġtransl ation
Ġfort unately
Ġax e
Ġdisagre ement
Ġdisli kes
s ometimes
ud s
Ġlo ndon
Ġsw iss
Ġnecess ity
Ġste aling
Ġfore arms
Ġkill er
Ġimpact s
Ġobl igation
Ġcyl ind
Ġscholars hips
Ġthresh old
i ander
p aste
ain es
Ġpr iest
Ġadd ict
Ġprosecut or
r ower
ro lled
Ġtw igs
Ġneg lig
Ġscre aming
Ġaim ed
Ġpromot ions
Ġchi rop
Ġn intend
ur ous
ade qu
Ġ10 40
Ġfil lets
Ġwilling ness
list en
Ġdebt or
Ġinh aling
Ġvict or
Ġcorrespo nds
Ġconcert s
Ġdietit ian
i ar
Ġa unt
Ġh oses
aw are
Ġnow here
Ġschool work
Ġinvest or
Ġbor ax
Ġvacc ines
Ġnic er
Ġhall way
Ġarrest ed
Ġt al
Ġr ind
pe red
Ġrun es
Ġemp ath
Ġprec ision
est r
ak i
Ġ20 13
Ġsett ling
Ġmel atonin
fr om
Ġdepart ure
Ġstiff ness
ro x
Ġtr amp
Ġav en
Ġmon key
Ġcor al
Ġ20 16
Ġgar land
Ġdisturb ed
Ġco al
Ġint ra
Ġres on
Ġar oma
Ġinclud ep
Ġoffe nded
2 9
Ġro am
gr an
Ġlearn ers
Ġtem po
Ġhang s
Ġdecor ated
Ġsales person
Ġtang led
4 4
Ġt as
ul ative
pl ate
Ġlar va
Ġinvolve ment
Ġspark ling
Ġexhib its
Ġbarg ain
Ġmolec ules
Ġvalent ines
s k
est ion
Ġad ul
Ġtem ples
Ġsing er
Ġrev is
Ġmechan ic
Ġdys function
Ġsmoot hing
Ġlect ures
Ġ Ð
Ġt uesday
Ġhe aled
Ġint ric
Ġhydr ating
Ġdraft s
Ġcalor ic
Ġstimul ates
Ġfright ened
Ġt inder
Ġp am
ch lor
pe nded
av ail
Ġsupp lier
Ġstrateg ic
Ġtour s
Ġgroom ed
Ġbarr iers
Ġlamin ate
Ġchim ney
nav igate
Ġdo c
Ġle is
Ġpl ac
are lla
Ġsp he
Ġshow case
Ġtherap ies
Ġbur ger
Ġlux ury
i ently
m ine
Ġin nov
Ġh one
Ġst umble
Ġvis ited
Ġcust ard
Ġweigh ing
Ġnoun s
Ġre fere
Ġrel i
Ġbal d
Ġcalend ars
Ġlad le
Ġjudgment al
Ġcritic ize
Ġtang ible
Ġembed ded
Ġreluct ant
q l
Ġn aps
il iate
Ġse wn
Ġsk et
Ġperiod ic
Ġboost ing
Ġaccum ulated
hu ahu
y a
Ġc c
ig ma
Ġr ural
Ġup beat
Ġwom ans
Ġspot light
amm a
Ġpig e
Ġneutral ize
Ġnap kins
Ġnest ing
Ġelectron ically
Ġan at
Ġatt itudes
zz arella
Ġpul ley
Ġexperiment ing
Ġpinch ing
Ġtalent ed
Ġvot ing
Ġt ier
Ġc ured
ab y
Ġatt entive
Ġdec ree
Ġfore cast
Ġsweet ener
Ġdetect ed
Ġfrizz y
Ġbenefici aries
Ġcorrespond ence
Ġintu itive
Ġm ens
Ġne ct
Ġmo ck
ge nder
Ġv ivid
Ġpe at
Ġcr ad
Ġpress es
Ġmar ital
Ġring tone
Ġbroad er
Ġvalid ate
Ġhyper tension
Ġstool s
writ er
Ġmacar oni
l ate
Ġo tc
Ġb ise
Ġin adequ
Ġle e
Ġtr owel
un ches
Ġsl am
Ġsl icing
Ġselect ive
be ans
Ġcor iander
Ġsalt water
Ġsulf ur
Ġnipp les
bru ary
g reg
Ġmo zzarella
Ġj av
ft y
orn s
Ġinv ites
Ġel ite
Ġlast ly
Ġir ish
Ġcounter act
Ġtele port
Ġ19 9
Ġesc aping
Ġsoften er
Ġchi huahu
Ġapprais al
Ġaest hetic
n els
Ġsm udge
Ġbl and
Ġcare d
Ġground ed
Ġformat ted
Ġthr ot
Ġcu is
Ġexplo de
Ġles ions
Ġamend ment
Ġconsecut ive
an ium
Ġrem em
Ġhard ened
Ġpromot ional
Ġscrat ched
Ġrecre ational
Ġmich a
d re
z ens
Ġa k
Ġto night
Ġle ap
Ġpre fers
Ġel ong
Ġmus lim
atur ated
Ġeduc ated
Ġirrit ability
Ġwax ed
Ġsuns hine
Ġrasp berry
Ġkos her
am ple
Ġpo king
Ġbot hers
pl ants
Ġcur led
Ġpot ions
Ġsw ir
Ġdark en
Ġflash cards
Ġhumor ous
Ġlact ose
Ġmigr aines
Ġpaj amas
Ġr ipped
Ġcon gress
Ġal tered
Ġown s
Ġcour te
Ġur inating
Ġadvert ised
Ġbelong s
Ġinsult s
Ġornam ent
Ï ī
Ġst ink
am ents
Ġtr iv
Ġcl ipping
Ġsc ab
Ġsurf ing
Ġtemper ament
Ġann ually
Ġheight s
Ġrhy mes
Ġhedge hog
Ġmonet ary
Ġcancell ation
is er
ge e
Ġbu ckets
Ġins uff
oy l
Ġarr iving
Ġcircul ate
Ġo cd
Ġro cking
Ġsol ved
Ġphys icians
Ġindic ators
Ġcross es
Ġsubt ly
Ġhun ter
Ġarchite ct
Ġfulf illed
t p
Ġpl ural
Ġdown side
Ġye ah
Ġcard iac
Ġpract ically
Ġenv ision
Ġbur sts
Ġabsor bs
Ġsprink ling
Ġcomplement ary
Ġexplicit ly
Ġparr ot
t aking
Ġdo zens
Ġcreat ure
ask a
Ġcrack er
Ġchop s
Ġalarm s
Ġnove mber
Ġaffection ate
Ġpremium s
Ġdisappoint ment
Ġhesit ant
s qrt
Ġch uck
Ġso ber
Ġcl own
Ġhel ic
Ġimm erse
log ne
Ġbrainstorm ing
Ġarom ather
Ġincent ives
f ord
Ġor bit
Ġmo lasses
Ġpro ving
Ġj ane
Ġmat ched
Ġsn ail
Ġliqu e
Ġdecl are
Ġbru ise
Ġsquir rels
Ġstocking s
Ġnewslet ter
Ġinterc ourse
Ġc ited
Ġexam ined
Ġpos itives
Ġstud ios
Ġmis be
Ġvib e
Ġclust er
Ġforec losure
h ops
s ign
Ġs isters
ver ts
Ġhe als
Ġab und
Ġfe bruary
Ġspot ify
Ġoper ated
Ġfres he
Ġflax seed
Ġbiops y
Ġfacult y
Ġnect ar
v d
v o
Ġw ol
Ġh ots
is or
pe g
Ġtr ic
Ġv ines
Ġcol oured
Ġteam mate
Ġinh ib
point s
Ġfract ures
Ġdiscre et
ow ing
Ġ20 12
Ġport ray
Ġarr ived
Ġminim izing
Ġmoder ately
Ġadvent urous
weet ened
Ġprivile ges
Ġsi xt
Ġfluct u
st ro
ation ally
Ġfound ations
Ġwash able
Ġhang ers
Ġrid ers
Ġfail ures
Ġaccomplish ment
Ġutens il
Ġknuck les
t as
z u
Ġ ×
st ud
Ġstr ipping
Ġsa pp
Ġiss u
Ġamong st
Ġbear ings
Ġadmit ted
Ġincred ible
Ġjurisd ictions
b id
Ġd ns
Ġli vest
ace a
lo ss
Ġche ss
Ġweight ed
Ġshut tle
b ite
Ġconsider ations
Ġey ed
Ġrep aired
Ġdist ur
Ġaccident al
Ġsweat y
sc reen
Ġmascul ine
Ġf ict
Ġl ug
Ġpot ion
Ġbat s
Ġmod es
Ġabs cess
Ġconv iction
Ġpray ers
Ġcompat ibility
c est
Ġab rupt
Ġim itate
Ġdra stic
Ġcho pping
Ġble nds
val uate
Ġgas oline
pat hetic
Ġtum ors
Ġpainkill ers
Ġorthod ont
g ue
du les
Ġblock ers
Ġcoll ateral
Ġcommer cially
Ġclar ification
Ġinterp ersonal
Ġsquir rel
Ġdwar f
c ate
Ġb art
Ġsl ips
Ġheav en
amm ers
Ġcult iv
Ġnervous ness
Ġmetabol ic
wind ows
Ġrefres hed
Ġinvo ice
Ġpneum onia
Ġchickpe as
c ous
l aw
Ġs iding
Ġre nov
Ġcan ine
Ġinc ap
Ġun natural
Ġstress ors
Ġbase line
Ġele ph
Ġsignific ance
Ġdead ly
ik i
pat ient
Ġrum ors
Ġrh inest
Ġnumb ness
Ġw atered
Ġfl annel
Ġav atar
Ġshe pher
Ġhand book
Ġair b
Ġfinger prints
Ġdetail ing
Ġdemonstr ates
Ġsuspect ed
Ġgran ulated
Ġsyll ab
Ġgren ade
Ġthrot tle
Ġan th
Ġper ch
ub ar
Ġlow ers
Ġmac s
Ġquestionna ire
v ille
Ġthe rape
Ġjust ify
Ġbehav ing
Ġhook ed
Ġcast or
Ġdiff ers
Ġse vent
Ġfr ance
Ġcl ots
ud ing
Ġsit ter
Ġju ic
Ġtax able
Ġinflu enced
Ġevapor ate
Ġepo xy
2 6
Ġn aming
Ġsc ot
Ġrem arks
Ġun related
Ġtrust ing
Ġthread ed
Ġuns weetened
Ġcommer ce
Ġadministr ators
Ġath lete
Ġquad r
Ġgroo ves
w ire
Ġar rog
Ġ4 1
Ġbit mo
Ġmaintain s
Ġquestion ing
Ġbul lets
Ġconfirm ed
Ġreflect ing
Ġkeyboard s
Ġtack y
Ġcaps ules
Ġimpress ions
Ġbru ising
b es
om an
qu al
Ġtim ed
ass ess
Ġmarket place
Ġstead ily
bl ack
Ġantioxid ant
Ġsincere ly
l ap
Ġa ero
Ġl am
Ġl icking
Ġtr ot
Ġim aging
Ġ6 3
Ġbook store
Ġlisten ers
Ġann ivers
Ġsink s
Ġanaly zing
Ġeth nic
Ġbenz oyl
Ġmenop ause
f ood
he lf
Ġh ugs
ad vert
Ġho lly
Ġtv s
Ġoptim istic
j ack
Ġb apt
st h
Ġpr ick
ong est
Ġun int
Ġins ulated
Ġmus cular
Ġlow ered
Ġoption ally
col lect
Ġsix th
Ġcoll apse
Ġdedic ation
Ġcorre ction
Ġnintend o
d ate
k ind
Ġsm iles
Ġrec ite
ens ure
Ġz oning
Ġprotect or
por ary
Ġvio let
igr ams
Ġdisrespect ful
se ction
ad er
Ġle verage
ul ator
os itory
Ġdes erves
Ġcar ol
Ġcard igan
Ġcor rel
con f
Ġdef rost
Ġphys io
Ġestim ates
Ġcerv ix
Ġbik ini
Ġcourte ous
Ġhelic op
Ġtherape utic
2 7
Ġw il
ac a
Ġon set
Ġk at
un ate
au ce
Ġwork book
Ġfl oured
Ġthin ly
Ġgather ings
Ġmill igrams
Ġfarm s
Ġine ffective
Ġtoen ails
Ġfas c
l c
it ative
Ġshe dding
Ġpoint y
Ġ8 6
Ġarr anging
Ġbooks helf
Ġunc ont
Ġknuck le
Ġpreserv atives
Ġdispens er
Ġobed ience
Ġf ading
Ġp um
os cope
Ġham bur
Ġbur ied
Ġsus pended
Ġdeterg ents
Ġscen ery
Ġvill ain
Ġcampaign s
Ġacceler ation
Ġlivest ock
l n
st ra
Ġco logne
Ġag ility
Ġform ally
Ġrec ru
Ġir ons
Ġcoll agen
Ġsupplement al
Ġacceler ate
Ġexempt ion
Ġcondens ed
Ġleis ure
l p
Ġw ished
Ġbe ige
Ġsnow fl
Ġloos er
Ġconfid ently
Ġovereat ing
w ait
ie v
Ġme lee
Ġbr us
Ġcre vices
Ġcat ar
Ġlabel ing
Ġster ilized
Ġ32 5
Ġinhibit ors
Ġpl asma
Ġche dd
Ġprot est
Ġshort ness
sh a
Ġclip board
Ġcrow ds
Ġviol ated
Ġfoll icles
Ġcoach ing
Ġmigr aine
Ġm akers
Ġco als
Ġres il
ps y
Ġexp ired
Ġthreat en
Ġrag s
Ġmut ually
Ġfund raising
Ġchic ago
Ġelectroly tes
Ġridic ulous
Ġincon ven
avail able
1 80
Ġr anch
Ġpe ren
Ġfl aky
Ġsol ids
Ġpost al
Ġexc lude
Ġinterrupt ing
Ġconfront ation
aunt ing
ĠdÃ© cor
Ġl ag
ot a
im ity
ul ates
Ġde eds
ag le
Ġfl ute
Ġwater color
Ġinform ative
Ġpriv ately
Ġdefe nding
sh ake
graph ical
Ġdimin ish
Ġhemorrh oids
d if
i i
Ġp ome
ud o
Ġshe ll
Ġam ate
Ġreg ulation
Ġmen stru
the less
Ġnever theless
Ġ9 6
Ġvol ley
Ġinsert s
Ġmist aken
Ġfund amental
Ġillust rate
Ġbutterf lies
Ġintest ine
Ġenerg ized
Ġescal ate
Ġpren atal
Ġarter ies
Ġchedd ar
j oba
Ġw ore
Ġpo dge
Ġcons ciously
Ġstr ide
Ġbit co
Ġcollect ors
Ġgerb il
x ia
int rodu
Ġreg ulated
Ġhard core
Ġvol t
Ġbon uses
Ġast ring
Ġfraud ulent
Ġphotograp hers
Ġperen n
p osition
Ġa a
Ġb anned
ar ations
ot o
Ġsure ly
Ġqu izz
Ġprob ability
Ġpop up
Ġfeed ers
Ġbal ances
Ġreward ed
Ġmid night
Ġcompar able
Ġunre ason
Ġsanit ary
Ġpebble s
b ul
c at
Ġp ies
Ġeven ings
Ġsym p
Ġcustom ized
Ġapolog izing
Ġor ally
Ġr av
Ġde fer
Ġpl ugging
Ġdr illed
Ġref using
Ġcourt room
sh ot
Ġbor rower
Ġsatur ate
Ġdismiss ed
Ġbrother s
Ġboun cing
Ġunpredict able
t ling
Ġbet ting
Ġrese al
Ġincorpor ation
Ġdishwas hing
Ġassemble d
Ġsustain able
Ġseeming ly
Ġspong es
ir th
Ġper ipher
Ġstr ains
Ġher d
Ġdec ongest
Ġprodu cers
Ġroom mates
Ġ7 4
Ġveget ation
com mun
Ġge ek
Ġclos es
Ġ40 1
Ġfel ine
Ġtender ness
Ġau ctions
Ġcran berries
Ġadject ives
Ġcorticoster oids
Ġb out
om en
Ġas best
not ice
Ġpot ent
Ġactiv ation
Ġsecond hand
Ġrecord ings
Ġfire arm
cur ities
Ġmr i
Ġfunctional ity
Ġcerv ical
Ġhybr id
l ie
n cy
u able
Ã Ń
Ġn an
Ġkn obs
Ġsing ular
Ġirrit ants
Ġstar ters
Ġsort ing
Ġmeant ime
Ġfloss ing
Ġenlar ged
Ġb ore
Ġm ont
Ġbe ak
Ġbe nds
ut ter
Ġloc ating
ric ts
Ġkiss es
nes day
Ġpuff y
g or
g les
Ġto aster
Ġin fer
Ġke en
Ġbr ill
Ġun ions
Ġworks hop
Ġobs cure
Ġconv icted
Ġ200 7
Ġsyn ch
Ġinev itable
Ġgeck o
bec ause
Ġbitmo ji
ar in
Ġr ar
Ġsc ans
Ġrem ark
Ġdi ure
Ġbreath able
Ġax le
Ġmanus cript
i ators
it as
Ġal tering
ater nity
Ġbot hered
Ġsl ang
Ġsw ish
Ġ9 4
Ġcot tage
Ġfingern ail
ot ive
Ġback p
po st
Ġsal ut
Ġsn ugg
Ġcell phone
Ġcalcul ators
Ġpad ded
Ġelim inated
Ġwarr ior
Ġnick name
Ġaromather apy
Ġw are
Ġi on
Ġcan es
Ġnot or
ore an
pt o
Ġcenter piece
Ġcateg or
Ġstraw s
Ġadvent ures
e a
re c
Ġv a
Ġunder tones
whe el
wh ite
Ġimag ining
Ġprogress es
Ġmal let
Ġnot ing
Ġch arms
Ġfl air
Ġed ited
Ġhot ter
Ġver te
Ġdoll op
Ġshr ub
Ġupgr ades
Ġretr ie
Ġsustain ed
writ ten
Ġnotar ized
Ġasbest os
m ediate
he im
it ters
Ġwind s
Ġmean ings
Ġru ining
Ġpin ned
Ġeyel ash
Ġsequ ins
Ġalt itude
Ġconstruct ed
ou fl
Ġd unk
Ġj ones
Ġche ats
Ġcle n
Ġselect ions
Ġext ro
Ġpresent ations
Ġge or
Ġmis carr
Ġseed ling
Ġinse curities
Ġviol in
Ġrit uals
Ġweld ing
Ġmonolog ue
e ach
r ar
Ġal right
Ġob ey
Ġdef ining
Ġswe ll
ute red
Ġapples auce
Ġeth ical
Ġwhis per
Ġrevis it
Ġm ute
es y
Ġe ch
Ġsh ips
Ġle dge
ck les
Ġbr id
Ġar tery
be an
Ġflash y
Ġrain y
Ġrelig ions
Ġentertain ed
Ġstamp ed
Ġox ide
Ġmathemat ical
Ġthumbn ail
Ġmunicip al
Ġin verted
ro se
Ġat he
Ġdec ed
Ġpos itivity
Ġid le
Ġz ombie
Ġmorn ings
Ġshap ing
Ġmention ing
Ġcomplex ity
Ġaccompan ying
Ġcan ister
Ġsh arks
Ġwh ining
Ġpe gs
Ġclick s
Ġinter mediate
che dule
Ġdur ability
Ġconsequ ence
Ġsurprising ly
Ġcous in
Ġchise l
Ġt reme
Ġrel ies
Ġcar ving
Ġair way
Ġworks hops
Ġcorrect ed
str ings
Ġintegr ated
gly ce
pic uous
Ġze al
Ġalk aline
Ġcontrovers ial
n ames
Ġover coming
Ġback side
Ġcr unches
Ġmach in
Ġstandard ized
Ġtwe ak
Ġevol ution
Ġdislo dge
Ġtreme nd
t ical
Ġo t
Ġh ugging
Ġk in
un ion
Ġme g
int est
Ġsn acking
Ġboy friends
Ġwheel chair
Ġfund rais
Ġjun ior
Ġenlar ge
Ġmosquito es
Ġcontem porary
Ã ¡
Ġo vere
or ters
ate ll
Ġair ports
oc ular
Ġmicro ch
Ġbabys itting
Ġcomprom ised
Ġharvest ed
Ġoccup y
Ġwhis king
Ġinterse ction
Ġlarva e
Ġa il
Ġb ak
Ġn ape
iv itis
Ġ7 7
ph in
Ġconc lude
Ġscr ipts
Ġcheese cake
Ġdivide nd
Ġgirlfr iends
Ġcartr idges
Ġrelie vers
m other
o cus
Ġc um
Ġst ap
Ġar izon
Ġsens ible
Ġmill ions
Ġbron ch
Ġundes irable
i ary
l inary
Ġc ents
Ġi ced
Ġkn ocking
Ġimp lic
pl ing
Ġhead line
bo il
Ġbra z
Ġcam oufl
Ġoper a
Ġwo ven
Ġdefin ite
Ġdealers hip
Ġcact us
le ading
ot al
Ġun available
ang s
Ġcar go
Ġsch iz
cept ions
Ġentire ty
Ġmiss ions
urs day
Ġconvent ions
Ġkern els
Ġdoub ts
Ġdistur bing
Ġpome gran
Ġc s
Ġe cho
am ation
Ġmal t
Ġpou red
Ġobsess ive
Ġpersu ade
Ġhypot hesis
Ġtoug her
intest inal
c as
Ġpe ek
Ġman ga
Ġstr ipper
Ġtrans pare
Ġprotect ant
Ġdevelop ers
Ġchoo ses
Ġtoss ing
he ast
in form
ure th
ast ing
Ġper pet
Ġpot ted
Ġsal ted
Ġsym pathetic
Ġsmell y
Ġsort ed
Ġcontrib utes
Ġsold iers
Ġlin ens
Ġrob ot
Ġthanks giving
Ġgren ades
Ġarmp it
Ġastr on
Ġsilhou ette
h irt
Ġg ait
Ġac ou
ff icient
Ġtrans cripts
Ġass ured
Ġcreat or
az ole
Ġrepl icate
Ġdiscol ored
h ns
Ġt iger
Ġw oo
Ġf ennel
Ġsu f
op ed
Ġ20 14
Ġconversation al
Ġtrad es
Ġlog os
Ġroot ed
Ġsus pend
Ġsquee zed
Ġhoriz on
Ġfest ivals
Ġanest hetic
Ġfeas ible
r ams
Ð µ
Ġt ame
ol in
ink s
Ġplan ter
io nd
Ġver d
Ġfirm ware
Ġelement ary
Ġportra it
Ġd ome
Ġg m
Ġal f
ie ls
Ġcl ap
Ġdis char
Ġday dre
Ġplay ground
Ġplay lists
Ġcheck out
Ġsec urities
Ġlim p
Ġnet her
Ġaff iliate
Ġshad ed
Ġmanufact uring
Ġome let
Ġmo dule
Ġcom fy
Ġwind ing
Ġpick y
Ġaccess ibility
Ġident ifies
ob ile
Ġvolunt ary
Ġsto pper
Ġindust ries
Ġtun er
Ġbullet in
ubar b
l ifting
r ich
ke l
Ġwe lf
Ġpart ys
Ġsmo kers
Ġblack heads
Ġge ared
Ġcharacter ized
Ġunc ooked
Ġp p
le st
Ġth ai
al ysis
Ġimp ed
Ġcat nip
Ġqual ifying
Ġfre ak
Ġmouth s
Ġaud itions
Ġarm ed
Ġmill imeters
Ġmal practice
Ġsimpl ified
Ġstroll er
Ġb reeze
Ġm aze
Ġin vert
se ment
Ġinc idents
fere nt
Ġcomm od
Ġwas hers
Ġjo joba
Ġcor rupt
Ġear pl
Ġcount ies
Ġtrack er
Ġgraph s
Ġdivers ity
Ġadren aline
Ġhypn osis
Ġwelf are
f ile
Ġt i
Ġm n
Ġh ic
Ġh ipp
Ġcan cers
Ġco ils
gr ade
Ġgl are
Ġsnee zing
Ġcrou ch
Ġcla uses
Ġvig ilant
Ġarizon a
Ġha ired
Ġco y
if iable
Ġsm s
de pending
br ushes
Ġspray er
Ġlater al
Ġauthor ization
Ġthr ust
Ġblot ting
Ġshout ing
Ġdepreci ation
r ons
z illa
Ġp ushes
Ġl uc
om as
Ġpro ceeds
Ġpl ums
Ġpe cans
Ġpay able
Ġemp ower
Ġimm ature
Ġcountry s
Ġmush y
Ġaccommod ation
Ġtro ops
Ġdeleg ate
Ġde lt
ub lic
Ġsa ff
Ġrep osition
Ġkind ly
Ġmod s
Ġvisit ation
Ġdoor way
Ġcollect or
Ġmechan isms
Ġsarc astic
Ġantif ung
Ġyour selves
Ġl acqu
Ġst ump
Ġj agged
iv ation
av ed
Ġsin uses
Ġred stone
Ġfigure d
Ġbull s
Ġmultip lied
Ġtherm al
Ġstarch y
Ġtheat re
Ġtramp oline
b as
Î ¸
Ġl acks
Ġpl ush
Ġins ulting
ne a
Ġdist ressed
Ġfig ur
Ġframe work
Ġoppos ition
Ġbrand y
Ġelev ation
Ġwand ering
Ġoint ments
Ġwast ed
Ġprospect s
Ġall ah
Ġte les
Ġph il
Ġ5 1
Ġair flow
Ġfil ming
Ġfire arms
Ġmag ical
Ġwid get
Ġshampoo ing
Ġparticip ant
Ġmari o
Ġski ing
g ic
Ġp her
en gage
Ġn ib
Ġfr an
Ġgr ac
Ġgood will
Ġgen et
Ġsty l
Ġrestr ain
Ġspo ke
Ġinspect or
Ġinval uable
Ġmys pace
Ġpert inent
u ch
Ġt ad
in als
Ġth ieves
Ġn ations
Ġwhe y
Ġsmo ked
che m
Ġmort g
Ġdestro ying
Ġharvest ing
Ġchees y
Ã ¨
Ġd ill
Ġd ated
Ġbag gage
Ġdiet ing
Ġpar aph
Ġthick ens
Ġdro ppings
reg ard
Ġaerob ics
Ġrh ubarb
Ġreprodu ctive
inst ead
Ġprox imity
Ġmicha el
he e
at hetic
Ġin herent
ic ation
Ġg ing
Ġspe lled
ru g
Ġmar inate
Ġlan es
Ġfest ive
Ġsymmet rical
Ġco ax
Ġsp ur
Ġsc uff
Ġclick ed
Ġbox ing
Ġwed nesday
interest ed
Ġpestic ide
Ġan ore
Ġtr out
Ġbr idges
Ġbl anch
Ġ7 9
Ġperform ances
cent ed
Ġmonit ored
Ġcart on
pie ces
Ġrenew al
Ġdan cers
Ġsuperv ised
Ġhorr ible
Ġpher om
d ust
ou pe
re f
se x
ber g
Ġsub po
Ġart ich
Ġdeep en
hol ic
__ _
Ġskew ers
Ġgeo graphic
atte nded
t we
Ġre ed
Ġpl aid
Ġv ic
Ġun attended
Ġloc als
Ġcr ates
Ġsw ip
Ġstress ing
Ġsun set
Ġspot ted
Ġknock ed
Ġdefici encies
Ġuter ine
Ġuncertain ty
Ġhasht ags
Ġdisgu ise
d ated
Ġch ard
Ġfe at
act ivity
Ġtarget ing
Ġtor que
Ġpodcast s
Ġrept ile
p ull
Ð ¾
Ġs izing
Ġp on
Ġn y
Ġl aps
Ġfr is
Ġcon greg
Ġpro st
Ġfl irty
Ġpick ax
Ġorig ami
Ġvict ory
Ġvill agers
or al
or ient
Ġh inder
Ġe rect
Ġre hydr
Ġst acks
Ġfr uct
Ġpre ppy
un ct
Ġspe ar
Ġpers ists
Ġtw in
Ġcr imes
yle ne
Ġnecess ities
Ġspot ting
Ġautom otive
Ġwid est
Ġpump kins
Ġlad ies
Ġcontr ad
Ġslides how
Ġtermin ology
f ree
Ġe ts
Ġen abling
Ġun e
Ġgr ieve
Ġag itated
Ġ12 00
Ġsuggest ing
Ġchocol ates
Ġboss es
Ġdevelopment al
Ġtransl ates
Ġexplan ations
Ġlubric ate
Ġdisadvant ages
Ġgastro intestinal
Ġapprentices hip
d x
in cre
Ġj ames
Ġsocial ization
Ġbrown ie
olog ies
Ġce ase
Ġcy sts
Ġpun ches
Ġexpand ed
Ġpray ing
Ġspark le
Ġnotebook s
Ġencry pt
Ġk en
Ġen for
Ġper k
omet ric
gr ass
Ġtem p
Ġtap ed
log ists
Ġfire works
Ġchr om
Ġacid ity
Ġbabys itter
Ġpure ly
Ġdisconnect ed
Ġgate way
Ġpractition ers
Ġnour ish
Ġp uck
or ial
Ġe book
Ġimp uls
pl aces
Ġser v
Ġinfect ious
Ġfavor able
dr ive
cel ain
Ġremind s
ex pl
Ġly e
Ġweaken ed
Ġjun gle
Ġampl ifier
Ġlengthe n
Ġoverhe ating
Ġd av
Ġg out
Ġse as
ast ers
Ġcal mer
Ġaud it
Ġengine er
Ġinterv ene
Ġimmun ity
w arm
Ġd art
Ġne utered
Ġv ial
if er
Ġgr ips
Ġrest ored
og en
Ġ0 5
Ġemb assy
Ġboost s
Ġeight h
Ġabnormal ities
Ġfuzz y
Ġneed y
Ġpre fix
Ġoff s
Ġday light
play ing
Ġfil t
Ġmagn ets
Ġcapt ured
Ġsco ot
Ġsupervis ors
Ġzig z
Ġintric ate
Ġcuis ine
Ġtranspare ncy
Ġb age
Ġch ia
Ġlight ening
Ġje an
Ġinde fin
Ġps i
Ġthread ing
Ġloos ened
Ġinject ed
Ġfort une
c ap
w ho
Ġth ursday
Ġg imp
ac cess
Ġsl ur
Ġkey pad
Ġloos ening
Ġborrow ing
Ġwel coming
Ġvegg ie
Ġcling y
Ġsupermark ets
Ġinher it
Ġb unk
Ġde cks
th y
rop yl
Ġband ana
Ġrespons ive
Ġdefend ers
Ġmid w
Ġintr ig
Ġbudd ies
Ġsarc asm
Ġconting ency
Ġinsuff icient
Ġvolley ball
Ġbe ams
Ġsu ds
Ġnew est
Ġam ps
Ġcur se
Ġblo gging
Ġjud ged
Ġcatch y
Ġcompet ent
Ġveter ans
Ġpit ched
Ġdent ists
Ġfrag rant
Ġjell o
Ġdot ted
Ġattrib ute
Ġdeliber ately
Ġdemean or
Ġbraz il
b ian
e lect
r ows
r inse
he ll
er ver
Ġm ower
Ġu h
Ġwa ffle
Ġmod ifications
Ġcra ve
dr ink
Ġweb cam
Ġann oun
Ġdemonstr ating
Ġpronoun s
Ġirr ational
e er
Ġt res
er able
Ġf ists
Ġha unt
Ġan cest
Ġr ud
Ġr age
Ġr ushed
Ġev iction
Ġlay s
Ġhands h
Ġcred ible
Ġfinger print
Ġtoothp icks
Ġscreens hots
Ġpor celain
Ġhoo ves
Ġliz ard
Ġamate ur
m ove
Ġhe ll
iv ities
Ġres umes
os h
Ġword ing
Ġmotiv ations
Ġrev ision
Ġcarpet ing
Ġincom plete
Ġsuf fere
Ġe ve
ver b
Ġch ives
Ġfl ashes
Ġem it
Ġrid ge
Ġdivide nds
Ġsurpr ises
prof ess
Ġearpl ugs
c ape
l aim
Ã ±
Ġm rs
ar ter
Ġover r
Ġfre ckles
Ġspark ly
Ġaggrav ate
Ġper ish
Ġinter fer
Ġrest less
Ġtend on
Ġstock pot
Ġmemor izing
Ġhun ters
Ġdiscip linary
Ġafric a
Ġoverlook ed
Ġsket ches
le ton
as cript
Ġout dated
Ġfo lic
Ġun load
Ġche fs
Ġcond iments
Ġnet ting
Ġbro il
Ġhear ings
Ġassess ing
Ġassess ed
Ġfatig ued
Ġmanip ulation
Ġrehe arse
Ġacquaint ance
Ġm b
Ġre attach
Ġint ens
lo cking
Ġinc ense
Ġvol can
Ġuns cented
Ġinsect icide
Ġaustral ian
Ġcashe ws
Ġmachin ery
Ġfilt ration
Ġbe aches
Ġat op
Ġj igs
Ġimp art
Ġtrust s
Ġextract ed
Ġcray on
Ġprohib ited
Ġsucc ulent
Ġwol ves
b irth
r ans
v ol
Ġh ues
Ġg h
Ġv ou
ach ing
Ġmin ce
Ġcr um
Ġsn oo
Ġsn apping
Ġsand y
Ġsoil s
ex er
Ġfilter ing
Ġund erest
Ġstrain ed
Ġpsycholog ists
Ġmile stones
Ġsanit ize
Ġplugin s
Ġcud dle
Ġamen ities
Ġpum ice
m ar
Ġthe ta
an us
Ġpl ump
Ġsk ates
Ġprot agonist
Ġwalk ed
Ġoccur rence
Ġcrit ique
Ġsubstit utes
Ġdand el
Ġindig estion
Ġd ances
Ġst unt
Ġwe aving
ap ed
Ġins ides
Ġed its
Ġstre ams
Ġru pt
Ġcourt esy
Ġgre w
Ġforward ing
Ġgif ted
Ġprofit able
Ġcarbon ated
Ġprivile ge
Ġmicros cope
Ġlo vers
Ġleg o
Ġbar bell
Ġgerb ils
Ġhawai i
Ġbib l
Ġu reth
Ġfor ks
Ġde form
Ġlo l
ful ness
Ġplay time
Ġsupp lied
Ġinformation al
Ġret al
Ġinf use
Ġstir rup
loc al
Ġbob bin
mat rix
Ġobsess ed
Ġguardians hip
Ġredd ish
Ġ ÏĢ
Ġc ss
Ġin advert
Ġl ion
ct ic
ch ief
Ġch ak
Ġ8 9
Ġx y
word s
Ġcro hns
Ġdefin itive
Ġhar bor
Ġwit ty
Ġitch iness
Ġguess ing
Ġmart ini
Ġantihist amine
Ġgeomet ric
Ġquizz es
c urity
Ġp as
om ial
Ġsc ored
Ġ7 50
Ġgreen house
Ġrepl ac
Ġrat ios
Ġoffe nding
Ġfres hen
Ġgradu ated
f at
h n
at ical
Ġh ier
al ted
Ġcon qu
Ġde w
ges ter
Ġcompliment ing
Ġprem ises
Ġshy ness
Ġfer rets
gy pt
Ġnit rate
Ġfright ening
Ġliber ally
Ġimproper ly
acqu ire
Ġmathemat ics
Ġm ating
Ġm ering
Ġsu nd
Ġopen er
Ġdec ades
Ġexpect ation
Ġwild er
Ġbroker age
Ġghost s
Ġpir ate
Ġtant rum
Ġadoles c
gester one
e zing
Ġt ucking
it amin
Ġin so
Ġit iner
Ġte ab
Ġshe a
Ġsing ers
Ġblock age
head ed
Ġattract ing
Ġring worm
Ġroot ing
Ġoptim ize
Ġgoth ic
sec ured
Ġwrest ling
Ġunst able
Ġhelicop ter
h l
Ġpre st
Ġdr ibble
Ġun ravel
ins ert
Ġrecogn izable
Ġrad ar
Ġdon ors
tr ack
Ġwal nut
Ġhots pot
b red
Ġc uring
Ġd are
Ġd ub
Ġh itch
Ġde light
Ġout ing
Ġen co
Ġinter f
Ġap nea
Ġtest imon
Ġcup board
Ġhandle bars
Ġwrink le
Ġrecre ate
sec ution
Ġs ow
Ġm erm
Ġm amm
op ropyl
Ġve il
Ġmedic ated
Ġblood stream
Ġlif el
Ġmultip layer
Ġferment ed
Ġsynch ron
u rop
Ġsh ipped
Ġsh ih
Ġde ment
Ġab c
Ġpost age
Ġmess es
Ġ0 1
Ġbrown ing
Ġann uity
Ġlibr arian
Ġpier ced
Ġpersu asive
Ġfict ional
g rab
Ġm our
le ys
as ers
Ġfl ake
Ġbl inking
Ġfun ky
Ġhot test
Ġ8 2
Ġdep loy
Ġinf used
Ġmult iv
Ġassist ants
Ġpal ate
Ġshoot er
grou p
Ġapric ots
Ġcorros ion
Ġbise xual
h on
Ġli k
Ġcom for
Ġpro gesterone
Ġfl ore
Ġwater fall
Ġgr ap
Ġunder line
00 00
gr ow
Ġcorn meal
Ġbra ided
Ġhum ming
ret te
Ġreflect ed
Ġfertil izers
Ġfault y
Ġarbit r
Ġwhis key
Ġcaterpill ar
Ġya wn
Ġf izz
Ġn ests
Ġe uth
Ġre heat
Ġcl ash
Ġun m
Ġbl ows
Ġstr ik
Ġplay back
Ġgener ously
Ġimm igr
Ġblood y
olog ist
Ġtight ness
Ġbuff et
Ġbru ises
Ġdampen ed
Ġbisc uit
Ġhards hip
Ġsyllab us
4 2
Ð °
Ġd angling
ic o
as ion
Ġus da
Ġbet tas
Ġru ined
Ġperform s
Ġvers es
Ġspeed ing
Ġcoll aps
Ġallerg en
Ġfrag rances
Ġhyp othy
Ġpor ous
Ġdemo graphic
Ġnightm ares
Ġtorto ise
Ġreseal able
i ages
Ġs ard
Ġl um
ad ays
Ġde act
Ġbo ston
Ġam use
Ġsur re
Ġsub way
Ġreal istically
Ġdef lect
Ġbur rit
Ġupgr ading
Ġnarr ower
Ġsup reme
4 8
Ġnot ation
Ġv as
we igh
Ġconf ined
Ġfair s
hold er
Ġmanufact ured
Ġbirthday s
Ġhus k
Ġshav ed
Ġcrad le
7 5
ic on
Ġse ctor
Ġk m
lo in
Ġsl ate
fect ion
Ġcal iper
Ġrep orter
res p
do ing
Ġvac ations
Ġdre aming
Ġsea weed
Ġ22 5
Ġweigh s
Ġwat ched
Ġgramm atical
Ġrif les
Ġschol ar
stru ct
ontin ence
Ġexacerb ate
Ġempath ize
Ġunreason able
Ġantifung al
l ow
le ave
Ġl cd
Ġdis ks
Ġun se
Ġstr ipe
Ġprov es
Ġold est
Ġbur lap
Ġadminist ering
graph ics
Ġmemor ial
Ġquarter ly
Ġrust ic
Ġorigin als
Ġinsight s
Ġsubstant ially
Ġenroll ment
Ġartic ulate
Ġpam per
r ine
v ac
Ġt xt
in qu
it ably
Ġin wards
Ġal i
Ġal aska
Ġlo ll
Ġspe e
Ġno de
Ġpay roll
Ġtrans cript
Ġsho el
crib e
Ġindic ative
Ġpeel er
Ġtoilet ries
Ġstur d
Ġov ens
Ġcomprehens ion
Ġcrut ches
Ġdement ia
Ġb m
al so
Ġsu ite
Ġtr ape
Ġsp ind
Ġsc our
Ġdr ier
Ġun secured
Ġbra g
Ġvol um
Ġthick ened
Ġoper ates
Ġrot twe
Ġ17 0
Ġcav ities
Ġgymn astics
Ġmortg ages
Ġfruct ose
r ue
t ie
Ġt ins
Ġw re
Ġb idding
Ġus able
Ġsc rolling
Ġsl ap
Ġtrans gender
Ġdef ines
Ġcrim p
Ġcock tails
Ġaqu atic
Ġneglect ed
Ġswims uit
Ġanat omy
Ġspee ches
f iction
p read
Ġs ack
at tering
en ch
Ġinc ontinence
de velo
Ġchild care
Ġhand stand
Ġap ron
Ġlot tery
Ġexp ire
Ġrub y
Ġsche mes
Ġep ic
Ġchin ch
Ġadmit ting
Ġovers ized
Ġcaterpill ars
bro ken
Ġd aunting
pl us
Ġfin es
Ġhard y
ric ting
Ġcook ware
Ġcomb ines
Ġmedic aid
Ġsquare d
Ġment ions
Ġrul ing
ing le
Ġcan tal
Ġout lining
Ġlo ot
Ġsc i
Ġpe nding
Ġpay day
Ġstress es
Ġwra ppers
bre aking
Ġatte nded
Ġcontamin ants
Ġexagger ated
Ġcontrac ept
Ġjav ascript
k i
ke rel
un s
ag na
Ġfo g
Ġfl ushing
Ã© e
Ġaw ful
Ġspill ing
Ġblogg er
Ġhut ch
Ġemeral d
c ort
x p
Ġn ud
im port
Ġpo lo
one lla
Ġph on
Ġsl ab
Ġrun way
Ġorganiz er
oph il
Ġcharm ing
Ġdizz y
Ġsubtit les
Ġastring ent
h ose
Ġle v
ra ge
ci a
erm ost
Ġtend ons
Ġfel ony
Ġanaly tics
Ġrhy ming
Ġpoly ureth
Ġinterrupt ed
Ġapprais er
a ution
e i
Ġm ound
Ġd ign
ver ty
Ġle gged
est y
Ġadd icted
Ġme ga
Ġover h
os aur
Ġem iss
Ġam mun
Ġtrave led
umb ling
Ġprec aution
Ġsilk y
Ġlas agna
Ġcompuls ive
Ġallot ted
Ġs led
Ġh iber
Ġl ust
pe el
ter day
ol ic
ave l
Ġclean liness
Ġind ie
Ġterm inated
Ġbur row
Ġyes terday
bre aks
Ġrepair ing
Ġreve aled
mb ling
Ġital y
Ġknead ing
u cc
Ġpo verty
Ġlo om
Ġsl anted
Ġjo e
Ġconf ron
Ġ8 1
Ġadv ances
Ġma id
Ġcoo perate
Ġcontrib uted
Ġrod ents
Ġpou ches
Ġintu ition
Ġsuspic ion
Ġpretz els
Ġp t
Ġst ern
Ġab ortion
Ġcons ulate
Ġrel ay
Ġcorrect ing
Ġfan ci
copy paste
Ġreb ound
bird s
Ġwithhold ing
Ġj im
Ġen orm
Ġsc oo
Ġgen es
not es
Ġbed wet
Ġcount less
Ġrespect ing
Ġsty led
Ġappoint ed
Ġinsp iring
Ġfert ile
Ġster il
Ġintimid ated
Ġredirect ed
Ġnavig ating
Ġinadequ ate
Ġhypothy roidism
Ġammun ition
Ġw ort
Ġth ief
Ġl inking
st ir
Ġbe ep
Ġst ale
Ġj umper
Ġsp out
Ġche f
Ġset backs
Ġret ro
Ġemp athetic
Ġground ing
Ġbull dog
Ġattend ees
keep er
ethe less
ar ia
ot ta
Ġg unk
Ġse nder
lo ved
Ġtw itch
ens it
Ġinclude a
Ġru cks
Ġnon etheless
Ġlabel led
Ġgrand mother
Ġspons ored
Ġarchite cture
rep rene
Ġintra ven
Ġgr ipping
Ġsub c
Ġir is
Ġflo ppy
Ġvol umes
Ġham mo
amm ed
Ġps y
Ġshad y
Ġpure ed
Ġsurv iving
Ġnumer ical
Ġft p
rox en
Ġzeal and
Ġhiber n
f lo
h ome
s on
Ġb il
ed o
Ġgl az
Ġgen itals
Ġnow adays
Ġeng land
Ġ19 8
Ġdiscard ed
Ġreven ge
Ġinvestig ator
Ġmow ing
Ġs ba
Ġn am
ac les
Ġco b
Ġbut cher
Ġall iance
per i
co pic
Ġinter cept
Ġmem o
Ġmel an
Ġsolid ify
Ġtag ged
Ġcart il
flow ers
Ġbubb ling
occ up
glyce mia
Ġanore xia
Ġwilder ness
Ġsh ining
Ġr ape
Ġr iff
Ġfe cal
ep lay
Ġsc attered
ink le
Ġent reprene
Ġdry ers
Ġprep arations
Ġpar alysis
Ġtend encies
Ġtrig on
Ġ11 8
Ġdin ners
Ġdepress ive
Ġcountertop s
Ġsummon ing
Ġsapp hire
Ġinadvert ently
Ġis opropyl
Ġform ulate
Ġfurn ish
Ġsyn cing
Ġtransl ated
Ġcritic izing
Ġunnecess arily
Ġstimul i
Ġjur ors
Ġhood ie
Ġital ic
Ġgeomet ry
Ġorch id
Ġimpat ient
Ġitiner ary
Ġpolyureth ane
Ġt ipped
Ġd al
st ep
ic ts
Ġcl ipped
Ġus d
Ġsn are
Ġfill ings
Ġroutine ly
Ġwid en
Ġrock y
Ġinse curity
Ġsold ering
Ġquar ant
Ġearth qu
Ġdiss ip
Ġdorm ant
Ġdeem ed
ipers pir
Ġmn em
in et
Ġst an
ver bal
pp ort
Ġcl ippings
Ġsp ook
Ġen rich
Ġsc iences
os ity
Ġsl ippers
Ġher mit
ren ia
Ġoffer ings
Ġbro o
Ġsand er
Ġsuper fic
Ġfrost bite
Ġrack et
Ġexhaust ion
Ġspons ors
Ġferment ation
Ġw d
it us
Ġe gypt
Ġre ap
Ġch ant
Ġsp ayed
Ġlo zen
Ġover power
Ġcomple ments
cl ass
Ġreact ive
Ġmac kerel
Ġconson ant
Ġgeor gia
resp ons
m aster
Ġs atell
Ġl akes
Ġcan ner
Ġsc av
os copy
Ġhead set
Ġplan ets
Ġexp onent
Ġgar gle
ex amine
Ġsilent ly
heart ed
Ġdol phin
Ġlig aments
Ġderiv ative
Ġfris bee
Ġtrape z
Ġre per
Ġplan es
Ġhard ly
Ġappe ared
Ġret ract
Ġair ways
Ġcell ul
Ġpin ning
Ġcro pped
Ġalt ar
Ġdisappe ars
Ġrac ist
Ġworkshe ets
Ġirr igation
Ġdistribut or
Ġcatar acts
b ugs
Ġp ep
Ġm ould
Ġr ivers
un a
lo x
Ġexper iments
Ġref ocus
Ġreco vered
Ġimpact ed
Ġtoile ts
Ġhem p
Ġgroom er
Ġsatur ation
Ġperf umes
Ġreass urance
e le
Ġt ay
Ġt ux
oo s
Ġwas ps
Ġappe nd
Ġclass mate
Ġass ort
Ġball ot
Ġant iperspir
Ġmusic ian
Ġju icy
Ġrect um
cons ciously
Ġchalleng ed
s ay
à ®
Ġf ame
Ġsl ash
Ġbar re
Ġexpect s
Ġra pport
Ġgrad ing
Ġham strings
Ġrot ary
Ġuns alted
dra wn
Ġoffe nd
Ġcuff s
Ġvirgin ia
Ġting ling
profess ional
Ġre play
Ġr ipping
Ġse m
Ġj al
Ġres ide
Ġunder going
Ġheat ers
Ġneg atives
Ġtow ers
Ġpar an
Ġop acity
Ġthr ill
Ġtrigger ing
add ers
Ġsyn ced
Ġcapital ize
Ġdeter rent
Ġterrit orial
Ġjerk y
Ġmiscarr iage
Ġcamoufl age
Ġlacqu er
m ay
p ent
Ġbe ers
Ġdo p
Ġdo sing
Ġwh ipping
ant ically
Ġat l
Ġem ulate
Ġent ails
Ġsau cer
Ġach ievable
Ġtrim mer
Ġdon ut
Ġcroche ts
Ġcartil age
on ly
Ġg igs
Ġhe ars
Ġcre s
Ġimport ed
Ġmon op
Ġcy dia
Ġexpress es
Ġwip ed
Ġii i
Ġinev itably
Ġhandsh ake
v in
he lls
Ġs ins
Ġi c
Ġh ive
Ġcon ve
so ak
Ġgr ater
Ġimp lies
Ġcol ony
be nd
Ġpol ka
Ġchest s
Ġord in
Ġtan ner
Ġsubtract ing
Ġderm atitis
Ġamb ient
Ġinfest ed
Ġsnee ze
Ġlifes pan
6 5
Ġt ale
re view
Ġm t
en o
ur ized
Ġde x
fe w
Ġsome place
ber t
Ġsqu ad
Ġconst rict
Ġsent imental
sh ow
Ġneighb our
Ġnap roxen
Ġprotr uding
Ġconfir ming
Ġpanty hose
Ġ Ñ
Ġh iss
ra w
Ġimp urities
Ġho g
Ġreal ized
Ġcondition ed
Ġsuff oc
Ġund ue
Ġextract ion
Ġthaw ed
Ġpest le
Ġsheriff s
Ġshakes pe
Ġannivers ary
a pped
g ust
p ical
p ants
Ġw ishing
Ġb ish
Ġnot able
Ġr igor
Ġde co
Ġsm arter
Ġper se
Ġact ed
ib r
Ġins ured
gg ling
Ġsle nder
Ġwalk er
Ġstock ed
Ġinsp ir
Ġdehydr ate
Ġbol ster
Ġfather s
cur rent
Ġmur der
Ġprocrast ination
Ġbroch ure
k it
Ġf aded
Ġi bs
se xual
Ġas ia
ers on
Ġbr idal
Ġwork load
ol s
Ġatt aches
con fig
Ġfre ts
alle ts
land s
Ġcelebr ating
Ġvoc als
Ġque ue
Ġmembr anes
Ġloll ip
p rit
Ġwill i
est ab
Ġlearn er
Ġbuild er
Ġmess ing
Ġmal icious
Ġmut ed
Ġrac ism
Ġinterpre ted
Ġcooper ative
Ġstereoty pes
Ġcarol ina
Ġverd ict
Ġpickax e
Ġets y
c ale
p arts
r id
r ub
Ġb umper
Ġp es
Ġd ens
Ġsp ru
Ġclass ics
Ġsimilar ities
Ġdouble s
Ġtrad ed
Ġwaist line
Ġdiff use
Ġtil ted
Ġoste op
dry er
Ġarrog ant
gor ith
Ġpomegran ate
Ġf ainting
Ġm unch
Ġfor ty
Ġr v
Ġse len
Ġj ul
Ġdouble d
Ġspl ur
Ġign or
Ġchop sticks
ino is
Ġaddict ive
Ġcantal oupe
w rap
Ġo ly
Ġg amma
Ġal gorith
Ġ8 4
Ġjud gments
Ġquiet er
Ġkick ed
Ġabbrev iations
Ġbrides ma
c ertain
z heim
Ġp aring
ich Ã©
Ġdet rim
Ġprob able
Ġmis erable
Ġdivor ced
Ġexecut ed
Ġintent ional
Ġheadband s
Ġpix el
Ġphosph orus
Ġinterfer ing
v ia
Ġli ly
ans as
Ġcr iss
Ġmain stream
Ġvisit or
Ġdom inate
Ġdon ated
Ġtun ed
Ġped ic
Ġgerm inate
Ġbuff ing
Ġhall uc
Ġstair case
Ġnin ja
Ġrehears al
Ġspas ms
Ġschiz oph
a ic
h are
l ift
ro b
Ġk a
Ġhal o
Ġsubject ive
Ġconsult ants
Ġ16 8
Ġpsych otherapy
kin z
Ġsubstit uting
Ġguarant ees
Ġhoo ps
Ġvot er
Ġrecruit er
3 1
Ġn oses
Ġst if
Ġas hes
Ġcl ichÃ©
Ġsp ade
Ġhand ing
Ġcat holic
Ġmust ache
Ġbel ievable
Ġattend ant
Ġaqu ari
Ġassum ption
Ġoy sters
Ġzigz ag
zheim ers
o ly
Ġa lex
Ġc ate
Ġat omic
Ġtr uss
Ġperson a
Ġcr ushing
Ġwind y
Ġhapp ily
Ġpres criptions
Ġinf lic
Ġheart y
Ġmilk shake
Ġpin ched
Ġcalcul us
Ġattract s
Ġfamiliar ity
Ġtub s
Ġbind ers
Ġoccup ational
Ġlandsc aping
Ġcha os
Ġbubb ly
Ġbrill iant
Ġsard ines
w hy
Ġp ng
um my
Ġout break
Ġbut ters
Ġag ave
Ġge orge
Ġcontract ed
Ġtor ches
Ġpsych iatric
Ġsword s
Ġingest ed
w id
Ġcons erve
Ġdes ensit
Ġhead ers
Ġ9 7
Ġdeg re
Ġprice y
Ġjew ish
len ol
Ġexplos ion
Ġrou x
Ġtac o
Ġpyth on
u per
ft s
Ġty lenol
op y
Ġcat fish
Ġanother s
Ġ10 4
Ġdef ra
Ġlower case
Ġdish on
Ġweb kinz
Ġseal able
pro vide
Ġgrass es
Ġsubs ide
Ġdestru ction
0 2
Ġd h
or osis
Ġst alking
fe eling
ist ical
Ġcard am
Ġreal tor
Ġpar ake
Ġproject ed
Ġmis con
Ġvib ration
Ġclut tered
uls ion
Ġcongrat ulate
Ġantidepress ant
Ġdisagre ements
Ġsalut ation
Ġacou stic
er r
Ġout breaks
Ġher s
Ġturn over
Ġsch n
Ġvis as
Ġpar ac
Ġmint s
Ġconfig ured
Ġrelie ver
Ġhambur ger
Ġlifel ong
Ġdetrim ental
r ive
r ange
Ġg in
her ing
Ġal zheimers
Ġcl over
th al
Ġfo al
Ġbus es
Ġlevel ing
Ġju ven
Ġunw rap
Ġfrust rations
Ġdro pper
Ġpitch ing
Ġcareg ivers
s it
Ġf tc
at ious
Ġh ib
ir s
Ġr he
Ġsp ik
Ġsc ruff
Ġfl int
Ġsk is
Ġcol a
Ġent ice
be ar
io graphy
Ġnon verbal
Ġworld wide
Ġwarn ed
Ġconverse ly
Ġadren al
Ġrefere n
Ġrucks ack
i ates
he ro
an cer
it ating
ut ional
Ġorgan isms
Ġmeas urable
Ġsav vy
Ġauthor ize
Ġmemor ized
Ġsuspect s
Ġadvis er
Ġborrow ed
Ġcraw ling
ju ven
Ġstencil s
Ġflaw less
Ġbedwet ting
Ġhe ns
Ġfr amed
um ental
fe ree
Ġinto xic
Ġfl iers
Ġbu cks
Ġins ure
Ġcr otch
Ġreg ener
Ġ11 5
Ġpc s
Ġconserv ation
Ġbloss om
Ġrhinest ones
z o
Ġcl ique
Ġmay o
Ġdis engage
Ġdis orient
Ġher n
Ġhealth iest
Ġwet ting
Ġpa ul
Ġcro oked
Ġinput s
Ġlaunch ing
Ġhur ric
Ġcos play
Ġreass uring
Ġpredict able
Ġexplos ive
exer cise
Ġconfron ting
b ly
r ac
Ġas ym
th ood
Ġun accept
pl ug
Ġpres um
li est
sp ace
Ġ24 7
Ġ19 2
Ġter ror
Ġelim inates
Ġelectric ian
Ġsmart phones
Ġdissol ution
Ġenh ancing
Ġwors ening
Ġlun ches
Ġdow els
Ġinval id
Ġwholes ale
Ġsuperfic ial
v ag
y clo
Ġthe ories
Ġre locate
is cus
Ġhel pless
Ġprodu cer
Ġlight est
Ġbra king
Ġdark est
Ġstat ue
Ġrot or
Ġoxid ation
Ġintoler ance
Ġimbal ance
Ġfeat uring
Ġcrum ple
z es
Ġp ess
Ġg ed
Ġre juven
Ġpr ongs
Ġdirect ing
Ġmain e
Ġimm ense
Ġcold s
Ġspl inter
Ġresol ving
Ġtun nels
Ġoct ave
Ġannounce ment
peri enced
f ied
Ġha ul
Ġdo cs
Ġco aster
iv able
Ġun aware
Ġqual ifies
Ġblack berries
Ġshare holders
Ġrout ing
Ġfore ground
pro cess
Ġcompliment ary
Ġell ipt
opath ic
Ġhier arch
pe lled
qu ar
ood les
Ġph ases
Ġmed ian
Ġmet e
Ġtap es
Ġiss uing
Ġinf ert
Ġmanu als
Ġcit ric
Ġflatten ed
Ġbrisk et
Ġaest het
Ġbrus sels
Ġselen ium
4 7
v oc
Ġp ms
Ġp itches
Ġr ut
Ġsp illed
Ġsc otch
Ġover use
per form
Ġper ches
Ġpress ures
Ġfeed ings
Ġclaim ed
Ġdent ures
Ġviol ate
Ġhyper link
Ġrank s
Ġsalv age
Ġswip ing
Ġosteop orosis
l u
m ets
Ġs om
re y
Ġg p
ur g
Ġwhe ezing
Ġdis gust
cons ult
Ġtack ling
Ġfant as
Ġmud dy
Ġdupl ic
Ġcockat iel
Ġsemin ars
a ways
d em
Ġsc anned
Ġho ard
gr own
Ġbad ges
Ġbur g
Ġdev ast
Ġvalu ables
Ġgarnish ment
Ġhp v
Ġdeliber ate
Ġdownt own
Ġmetaph or
quar ters
d ouble
k not
n as
p aint
v ir
Ġh ides
Ġdis qual
omet ry
Ġsw itched
Ġ10 2
Ġcount ed
Ġmean while
Ġexh aling
iot ic
Ġdab bing
Ġnutrition ist
Ġsed iment
Ġtournam ents
stro ke
Ġf isher
Ġre feree
Ġwith drawn
fe it
op hob
Ġstre p
pper ware
Ġcapt uring
Ġviol ating
Ġremote ly
oph ane
Ġpist on
Ġchamp ion
Ġtet anus
hel p
Ġsurre nder
g m
er a
Ġh ud
Ġfr uity
ul ance
el t
Ġmin es
Ġcur ler
Ġbed rooms
mo on
Ġbutter cream
Ġdirection al
Ġdust y
Ġund one
Ġhomes chool
Ġencoun ters
Ġmit ts
Ġinfin ite
re du
Ġc b
Ġw ither
Ġf ier
Ġn at
Ġnot ches
Ġle asing
Ġch ilies
Ġtr imes
em eter
Ġhas h
Ġwa ffles
Ġstretch y
Ġ200 3
Ġreve als
Ġoh io
Ġfasten ers
Ġperipher al
f a
Ġf m
at ers
Ġto k
all erg
Ġch ief
Ġdr apes
Ġaccount ability
Ġfil let
Ġx ml
Ġrelax es
Ġconst rain
Ġpupp et
Ġhost ed
Ġml a
Ġment ors
Ġpred ator
Ġexfol iation
Ġconvin ced
inc lude
Ġobsess ion
Ġantivir al
Ġmolec ule
Ġbroch ures
Ġkiw i
Ġadul thood
Ġchihuahu a
Ġvolcan o
5 2
in ished
ter m
Ġde ple
Ġdis regard
Ġun att
Ġsl acks
Ġher nia
Ġsw at
Ġunderstand able
Ġcor set
Ġdemonstr ated
Ġnood le
Ġtu pperware
Ġproh ibit
Ġobstru ctions
Ġcaf eter
n ings
or able
Ġsh ank
Ġcom bs
Ġcl iff
get ting
Ġavoid s
res ent
Ġsw amp
Ġ6 9
Ġcor on
Ġinj uring
Ġsmile y
Ġwaist ed
Ġillust ration
Ġillust rations
Ġdan cer
Ġted ious
Ġrecon c
Ġsubpo ena
Ġschizoph renia
h at
o kes
Ġc emeter
Ġover t
Ġun avoid
Ġsur rog
Ġrest oration
Ġ15 00
Ġcell ophane
Ġje opard
Ġtur f
Ġjournal ism
Ġinex perienced
Ġprejud ice
Ġeleph ant
Ġp aced
Ġm ails
Ġd ach
st airs
Ġst acking
ab ras
Ġke g
Ġinc line
Ġam ber
Ġmu gs
Ġperform ers
Ġharm ed
Ġdesk s
Ġdin osaur
Ġped estr
Ġhem isp
Ġlau nder
Ġunexpected ly
Ġobstru ct
Ġrevol ution
Ġdrows iness
Ġcompr ised
Ġfanci er
g ies
n ever
le vant
al o
Ġse b
Ġse o
ress es
Ġmed ically
Ġrep ository
Ġgener ations
Ġz ippers
com a
Ġdon uts
Ġengine ers
Ġ11 6
Ġsne aking
Ġgossip ing
Ġparas ite
Ġreprodu ce
Ġincons picuous
Ġadject ive
d c
Ġs ought
Ġre form
Ġnot ably
Ġcl ams
Ġqu il
Ġdis pl
Ġwr ites
Ġprom ising
Ġ25 5
Ġcomment ing
Ġfif ty
Ġoccup ation
Ġcompar isons
Ġconfidential ity
yn c
Ġarab ic
Ġremem bered
Ġsnoo ze
wid th
o ise
t ons
Ġp its
Ġall ig
Ġback bone
Ġfollow er
Ġgl uc
Ġvis ibly
Ġpast els
Ġfast ened
Ġthick est
Ġrot ten
Ġiv ory
Ġdiss ert
Ġgad gets
Ġunaccept able
Ġa y
ll as
ve led
Ġal p
Ġclean ly
Ġcare t
Ġdi vert
Ġexper imental
io let
Ġburn ers
Ġden ying
Ġshut ting
Ġunf inished
Ġwarrant ies
Ġgam eplay
ocular s
Ġail ments
l an
Î ²
Ġf aking
Ġi ons
on ed
Ġg ins
Ġde hum
us k
Ġpart ly
Ġinclud ethe
Ġrest oring
Ġaud acity
Ġenvironment ally
Ġdiag rams
Ġshel ving
Ġinitial s
Ġelim ination
Ġsnow board
Ġcheap ly
Ġcow boy
Ġclar ifying
Ġawkward ness
Ġclo gging
Ġsip hon
8 8
e re
l ab
s im
it an
and a
Ġhead board
Ġconf ide
Ġpast ries
Ġreal m
Ġcomb os
Ġtra pping
Ġtre k
Ġfund ament
Ġvib rate
Ġpanc reat
Ġshield s
Ġske leton
Ġnook s
Ġenorm ous
b ath
n x
Ġs if
Ġb inary
Ġl ith
is one
ul u
Ġab ide
Ġhand bag
Ġmon ot
Ġbuild ers
Ġble ached
Ġpa uses
Ġcas ino
Ġclim ax
Ġsaw dust
Ġacqu iring
Ġgly col
Ġtorn ado
Ġprobiot ic
Ġphosph ate
Ġdiscontin ue
Ġaero sol
Ġmenstru ation
Ġp ard
Ġp ave
or i
Ġh ull
ic ity
ge l
Ġfl ask
Ġbar code
Ġflo p
Ġru ins
Ġpar ade
Ġpal let
Ġtransition ing
Ġking s
Ġsco ld
Ġresear ched
Ġexagger ate
Ġblogg ers
Ġconson ants
Ġlegend ary
Ġlethar gic
Ġdop amine
Ġellipt ical
Ġunavoid able
p ipe
v id
Ġt ester
in ators
Ġb ould
Ġth ist
Ġst igma
Ġr sv
Ġle opard
Ġcon fection
Ġch ills
Ġout ings
Ġte ap
mon ary
Ġmod ifying
Ġobject ively
wh ich
Ġoper ators
Ġpa vers
Ġpal p
Ġmicro organ
Ġep ile
Ġsubs criptions
Ġipad s
Ġinfring ement
buck s
Ġunderest imate
f are
v ity
ent ary
Ġcl one
ra nd
Ġover heat
Ġres ur
Ġpartic le
Ġfresh ness
Ġfur ry
Ġcounter parts
Ġinfl ation
Ġmotiv ating
Ġmattress es
Ġcommiss ions
Ġflirt atious
17 28
Ġtil ting
Ġincur red
Ġcapac itor
introdu ce
Ġopt ical
Ġcat ast
Ġ7 1
Ġx x
Ġpercent ages
Ġgover ning
Ġwip er
Ġstimul ants
Ġindefin itely
s ed
Ġh ates
ro soft
Ġmo dules
Ġwe althy
Ġall ies
Ġgr im
Ġcons iders
Ġinclud em
Ġno dding
Ġsim ulate
Ġmet ric
Ġlab s
Ġdocument ary
Ġassist ed
aur us
Ġhistor ic
Ġner d
Ġj en
Ġover cook
Ġfun gi
Ġpick les
Ġmot ives
Ġproject or
Ġcity s
Ġwid gets
Ġattack ers
Ġrow ing
Ġadvance ment
Ġalle ged
Ġanch ors
Ġblur ry
Ġbure aus
Ġhorn s
Ġee ve
Ġexec ution
Ġfluctu ations
f ing
Ġt angle
Ġto ning
Ġfor age
ch i
ble s
Ġsp ite
Ġun cle
Ġap h
Ġdevelop ments
Ġfish s
Ġdise ased
Ġharm onic
Ġconsult ations
Ġpark ed
ony ms
Ġconcent rations
Ġfault s
Ġcancel led
Ġliber al
Ġkil n
Ġorthodont ist
cort isone
Ġre vert
Ġpo nds
Ġk im
Ġspe cials
Ġgr iddle
Ġcomm as
Ġgu iding
Ġgl utes
Ġhead lights
Ġru ff
Ġcontract ion
Ġharm ony
Ġcompress or
Ġunus ually
Ġgran ite
Ġgem stones
Ġbloom ing
Ġdrown ing
Ġcorre ctions
Ġalk al
Ġinfer ior
Ġspind le
Ġre ck
Ġne v
Ġsc ra
Ġinclud et
Ġdi a
Ġspr inting
Ġmixture s
Ġest ates
Ġgra ve
Ġpar ad
Ġsharp ie
Ġinstr umental
Ġoptim um
Ġassum ed
Ġleak age
jo in
Ġconstit ution
Ġgradu ates
id el
ort ic
Ġen rolling
Ġover st
Ġbl an
Ġno on
Ġmon keys
Ġswe aring
Ġra f
Ġattempt ed
Ġstrateg ically
pre p
Ġirre levant
Ġsevent h
Ġfran cis
l aws
Ġt b
in os
Ġp aternity
Ġfor b
ad ium
Ġun in
Ġche ated
Ġpat iently
Ġspr igs
Ġpost p
Ġsens ors
Ġcoll aborate
Ġbur p
loc ation
Ġnit r
Ġherb icide
Ġcheer ful
Ġreli ability
Ġsh am
Ġout bur
Ġthan king
co d
Ġmet ron
Ġsitu ated
og lo
Ġrepl ies
Ġprogress ively
Ġstub s
Ġimplement ing
part um
Ġcompos ite
imm une
Ġaffili ated
Ġshell fish
Ġperish able
c ass
d ock
l ot
l uck
p ins
r h
v ine
Ġd ime
Ġr p
il on
Ġv ault
Ġpre requ
Ġback drop
ous al
Ġap a
Ġbir thing
Ġconsist ing
Ġapart ments
ane an
Ġdetect ion
Ġsubs id
____ ____
Ġles bian
Ġlob by
Ġagricult ural
Ġinquir y
Ġflore ts
Ġtrimes ter
Ġprerequ is
Ġw ides
Ġm are
Ġl ac
as ia
Ġsp h
Ġover re
Ġclose ts
ian a
Ġple a
Ġhang outs
Ġfresh water
Ġsurger ies
Ġrhyth ms
Ġrip en
Ġfol k
Ġfol ks
Ġpend ant
Ġcoe fficient
Ġdelt a
Ġrhe um
Ġto pped
Ġin verse
Ġn avel
Ġr s
Ġse mic
Ġfr aying
and el
Ġcar ot
Ġjo king
Ġgener ating
Ġpres erving
iqu et
Ġanim ated
Ġgir th
sp read
Ġpure bred
Ġwrink led
Ġleag ues
Ġaccred itation
mans hip
Ġimpair ment
Ġnp c
Ġdach sh
4 3
l imate
m ain
r ums
Ġs ash
Ġf bi
Ġi cy
ib bling
Ġrun e
Ġlight headed
Ġpost partum
Ġinj unction
Ġinfl ate
Ġjaw line
ker chief
Ġneur ot
Ġsweats hirt
Ġcres cent
estab lish
Ġt ah
Ġan not
Ġex its
Ġtim et
Ġte es
Ġun so
Ġbu ys
Ġdi ver
Ġshort est
Ġtable top
Ġanx iet
Ġspo iled
Ġenh anced
Ġobl ong
Ġsed entary
Ġlou is
Ġnewslet ters
Ġpige on
h ows
t w
Ġpr ong
Ġpart itions
Ġpaper clip
Ġrub bed
Ġscrew ed
Ġdefe ating
Ġdiscrim in
Ġange les
Ġclust ers
Ġdisadvant age
Ġscramble d
Ġsatell ite
g ian
h ar
Ġc iting
Ġb ids
ll is
Ġpl ucking
Ġcl am
Ġpre set
ens us
Ġrep ublic
Ġweek day
Ġ10 5
Ġcontro llers
Ġgroup ed
Ġcap ability
uc cess
set te
Ġhuman ity
pro gram
Ġvisual izing
Ġaccompl ishing
Ġdynam ics
Ġbarg aining
Ġlethar gy
Ġls at
Ġn i
id ian
Ġsu l
Ġen ric
Ġover crow
Ġser rated
Ġent ities
Ġdifferent ial
Ġclass ification
Ġbehav ed
Ġtape red
Ġbud gie
Ġstat utes
Ġmal function
Ġroof ing
Ġenh ances
Ġmanip ulative
Ġrecruit ment
Ġcondens ation
Ġchron ological
Ġagricult ure
l on
m ount
Ġt ide
Ġb bb
Ġd d
Ġover hand
Ġeng ra
Ġpub ic
Ġprom ised
Ġautom obile
Ġpill ar
Ġcirc uits
Ġgrand ma
Ġaer ial
Ġbin oculars
Ġaccum ulation
but ton
Ġsaus ages
Ġsubscrib ers
Ġimpl ant
Ġdischar ged
Ġchak ra
Ġhemisp here
Ġp ong
Ġl onge
Ġpo pped
Ġtw ins
Ġhand kerchief
Ġbook let
Ġ9 3
Ġgarden ers
Ġrot ting
Ġ13 5
Ġpun ishing
Ġduct s
Ġuv b
Ġyield s
Ġblur red
Ġobstru ction
ov ie
Ġbless ing
Ġcud dling
Ġmich igan
Ġâħ ĵ
Ġshimmer y
Ġimprov ise
Ġphob ia
Ġsnowfl ake
Ġimplic ations
Ġdissert ation
Ġgins eng
Ġn ons
Ġl up
Ġbe loved
Ġev ident
Ġstre ak
Ġclot ting
Ġenc ount
Ġneck s
Ġpsych ic
Ġtruth ful
Ġsketch ing
Ġsilic a
Ġindu cing
Ġdiss atis
Ġcul prit
Ġdepr ivation
Ġquir ky
Ġdehum id
f am
Ġd ashes
Ġin active
Ġn os
Ġre assemble
oo led
Ġle n
Ġv ases
Ġar ches
Ġmen ing
Ġpost ings
Ġmater nity
Ġfit tings
Ġcust od
Ġple ased
Ġrespons ibly
Ġcam el
amm y
Ġblank s
Ġadopt ive
Ġmis cell
Ġmor ale
Ġpup il
Ġdaugh ters
Ġissu er
Ġtres pass
Ġamuse ment
m ph
Ġg ul
Ġpr ism
Ġunder mine
Ġaud itory
Ġaccord ance
Ġill inois
Ġrom antically
Ġmagn ification
Ġrestrict ive
Ġgerm any
Ġnic kel
Ġcompress es
cal cul
Ġconso les
Ġhydro xy
Ġkern el
Ġsurviv ors
Ġjuven ile
Ġcafeter ia
Ġencount ered
Ġt roll
nd ered
Ġr f
Ġde let
so il
Ġen rolled
Ġsw ive
Ġx displaystyle
og ens
Ġinf requ
Ġtechn ologies
Ġgoo gles
Ġflu x
Ġann ul
Ġnarrow ing
Ġdetect ive
Ġeth ic
Ġdiffer ing
Ġcater ing
Ġintr ud
Ġque ens
Ġbeet les
Ġnewborn s
Ġrevers ed
Ġhawai ian
Ġkne el
Ġquadr atic
Ġanxiet ies
h ift
m ap
Ġl ary
Ġl ures
Ġe agle
ly cer
ro ach
Ġco hes
Ġgr in
Ġgr iev
Ġho ll
Ġmet ro
Ġemp ire
Ġham per
Ġrid ges
Ġaw aken
Ġpink s
Ġmold y
Ġgentle man
Ġchlor ide
squ are
Ġaffirm ative
Ġinvestig ating
Ġsharpen ing
Ġdistort ed
Ġcorticoster oid
Ġneuro logical
Ġtroubleshoot ing
Ġholly wood
develo p
Ġs ire
at us
Ġm ars
Ġbe g
Ġst ash
Ġwill ow
Ġr oth
Ġout weigh
Ġph y
Ġcar cass
Ġsub conscious
Ġz ag
Ġrub s
bit ious
Ġarm our
Ġscrub s
Ġspin ner
Ġexcept ionally
Ġlaugh s
Ġmit t
Ġsculpt ure
upp ort
real ize
Ġnurt ure
Ġjigs aw
Ġcomfor ter
9 5
d p
Ġf ighter
qu in
Ġbut tern
Ġus pto
Ġcle ars
Ġcheck ups
Ġtap s
Ġwa ive
Ġsal am
br idge
par ate
Ġthick ening
Ġmass ages
Ġmild ly
Ġcircumst ance
Ġdehydr ator
Ġreset ting
Ġdiscover ing
Ġdrows y
Ġteles cope
Ġcardam om
b us
v ents
Ġd arts
st itch
Ġr amps
Ġtr uff
ple ts
Ġcons ignment
Ġhal t
Ġnight ly
Ġmoist ened
Ġbi ased
Ġpoin ters
Ġfrag ments
Ġsen iors
Ġnarr ator
Ġsquat ting
Ġkil ometers
Ġadap ters
Ġquarant ine
d id
v ar
Ġt unes
or se
Ġpro secution
Ġco inc
per se
Ġper taining
Ġho ps
Ġeye ball
Ġtool box
Ġrefr ame
Ġcrust y
Ġdisrupt ive
Ġalleg ation
Ġlax atives
Ġaven ue
Ġw akes
Ġn ibble
se mble
is o
Ġv iet
Ġsp ousal
Ġte ased
Ġsl ugg
Ġacc limate
Ġhand made
Ġdec al
ia z
Ġdraw backs
Ġview point
Ġcraft ed
Ġgut ters
Ġbund les
Ġcrick et
Ġtreas ury
Ġplag iar
Ġtestimon ials
Ġhammo ck
e valuate
l it
r ise
Ġb aker
Ġbe friend
Ġr ival
Ġmo bs
Ġpl iable
Ġsp ores
Ġun fl
Ġun protect
ink y
Ġacc used
Ġsn oring
Ġlisten ed
Ġwin ners
Ġinteract s
mark et
Ġantib odies
Ġhip ster
Ġgreet ings
Ġfres her
Ġaffirm ation
Ġjuic er
f ah
s ur
an ol
Ġr ye
Ġk ool
Ġun pack
Ġres orts
Ġam bitious
Ġwell ness
Ġpat ents
Ġrest ate
Ġprofessional ism
ho e
Ġinsert ion
aut hor
Ġang ular
Ġextract s
Ġvalid ity
Ġwat ts
Ġital ics
Ġhydro cortisone
Ġgy ne
rav iolet
Ġindent ation
Ġtoen ail
Ġbak ery
Ġrigor ous
h ound
Ġi re
Ġha lls
ut er
Ġdo ork
Ġen light
Ġdis assemble
Ġpain less
Ġpat ho
ract ors
Ġprevent ed
Ġmult ic
Ġ0 6
Ġpen nies
Ġyellow ish
Ġdepos ited
Ġarch ives
Ġflor ist
Ġraz ors
Ġassemb ling
Ġarom atic
Ġparr ots
Ġdownt ime
Ġphen omen
Ġglam orous
Ġb als
se ll
Ġco ven
ry s
Ġread able
Ġavoid ance
Ġexp ires
Ġsn ag
Ġseem ed
Ġcateg orize
Ġpath ways
Ġclock s
Ġgrand children
Ġbare foot
Ġsubtract ion
Ġisol ating
Ġbic eps
Ġutil izing
Ġwatt age
Ġsaff ron
Ġdiscrimin atory
w in
Ġl dl
Ġe ld
Ġg hee
Ġgo dd
Ġac ro
Ġun professional
Ġbl ower
ens itive
Ġtyp os
Ġred o
Ġver izon
Ġelect ed
app les
Ġterr arium
Ġvib rations
Ġagg reg
Ġswallow ed
asm ine
Ġlump y
Ġdistort ion
Ġalloc ate
Ġbarb ie
y es
Ġp ug
it ures
Ġj er
ra h
Ġsc outs
Ġacc ru
oid al
Ġcheck er
Ġsearch able
Ġbal con
Ġmarket ed
Ġrespo nded
Ġchew y
Ġestablish ment
Ġdivid ers
bl ue
Ġrept iles
Ġmicroorgan isms
Ġo iled
Ġd ents
Ġd usk
Ġl av
Ġco ded
Ġk ara
Ġun follow
Ġsl iders
Ġdec ou
Ġdec ade
other ap
Ġret ired
Ġ7 3
Ġpop ulations
Ġbra gging
Ġimag in
Ġstim ulated
Ġsimpl icity
Ġll cs
Ġrank ed
Ġdiscol or
Ġincl usive
Ġreinfor cing
Ï µ
Ġg an
Ġis ra
ur ious
Ġv lc
Ġfo ss
Ġhair dryer
Ġ4 25
Ġ8 7
Ġsleep s
Ġeng ages
Ġassign ing
Ġign ite
Ġexpand s
Ġmast ering
Ġevapor ated
Ġmarble s
Ġencry ption
Ġsymp athy
Ġware house
Ġconstrain ts
p matrix
Ġto nic
Ġd ug
Ġqu arts
Ġar cher
Ġturn ips
Ġprof icient
Ġappear ances
Ġtax ed
Ġcounter claim
Ġshar per
off er
Ġgly ce
organ ize
Ġcompart ments
Ġtul ips
Ġbackp acks
Ġlozen ges
d el
re x
re ach
ac am
ac ies
ment al
au nd
au coma
Ġun zip
Ġnotice ably
Ġ0 2
Ġemail ing
Ġobject ion
Ġge nders
Ġsou ven
Ġknot ted
Ġment hol
Ġauto immune
Ġuniform s
Ġov arian
Ġauthentic ity
Ġgal van
Ġhypo glycemia
Ġsuffere rs
Ġspru ce
g ood
m ac
Ġw ilt
Ġb s
Ġh omet
ic ting
ic ial
qu oise
ace ous
Ġen semble
Ġcol umb
Ġcond u
Ġlive ly
Ġadjust er
com plete
Ġinterview ed
Ġpurs uit
Ġrac co
Ġchamp ions
Ġroyal ty
Ġhasht ag
Ġfundrais er
Ġmicroch ip
Ġgenet ics
Ġnev ada
Ġmiscell aneous
z one
re w
Ġd ar
Ġbe gging
Ġst ip
Ġcan on
ad ine
Ġr pm
and al
ress ure
Ġsk ipped
Ġdes cend
Ġallow ances
Ġskin care
Ġgl ory
Ġsepar ates
Ġfig s
Ġlog ically
Ġcrit ically
Ġ16 5
Ġpops icles
Ġcontamin ate
Ġelectroly te
Ġretin oids
Ġmisunderstand ings
Ġsturd ier
Ġunprotect ed
Ġd b
Ġr ome
Ġk ibble
Ġimp lied
Ġsqu ish
Ġintern ationally
Ġpush y
Ġland marks
Ġsoak s
het ical
Ġult raviolet
Ġanaly tical
add le
Ġrac ial
alf a
Ġlos er
Ġfidget ing
Ġlique ur
Ġhib iscus
Ġeeve e
Ġglyce mic
Ġt ipping
ot ros
ent h
ig o
ch ain
Ġmo zilla
Ġad orable
Ġim ovie
Ġhand gun
Ġsa ver
ract ive
Ġbel ie
erg ing
Ġimm ob
Ġgrow ling
Ġ20 4
Ġenc yclo
Ġorganiz ers
Ġflour ish
Ġjewel er
find er
Ġinh aled
Ġvib r
Ġabbrev iation
Ġbloss oms
Ġbrid le
Ġmering ue
Ġinspir ational
Ġ Ø
er ation
Ġab using
Ġk orean
lo sing
Ġover lay
Ġmu nd
Ġinform ing
Ġpur ses
Ġsoft ening
ph oto
Ġlim es
Ġflo ck
Ġsens it
Ġmast urb
Ġder ail
Ġanticip ated
mic rosoft
Ġflood ing
Ġsalv ation
Ġkara oke
Ġencyclo ped
d k
f ly
Ġf af
Ġf eral
Ġe u
al tern
Ġsl ant
Ġgl aucoma
Ġsur ve
Ġlight hearted
Ġbook ed
Ġbehav es
Ġveget arians
Ġletter ing
Ġcommunic ates
Ġworth less
Ġloop ed
Ġrect al
Ġdefault s
Ġpoly mer
Ġattain able
Ġinterrog atories
Ġburrit o
g oo
Ġg ag
Ġg ases
Ġcon veys
Ġpl acent
Ġim ei
ol ing
Ġprov oke
arm a
Ġenter pr
Ġste ve
Ġperiod ont
Ġfur the
Ġok ra
Ġtooth brushes
Ġrecogn izes
Ġfac etime
Ġmarr iages
Ġauto graph
Ġstimul ant
Ġexhaust ing
Ġobsess ing
Ġporn ography
Ġnightm are
Ġaccus ations
Ġmete or
Ġslugg ish
Ġl adders
st o
Ġst agn
if ax
Ġk an
Ġper tain
Ġatt ent
Ġunder gar
Ġmed s
Ġpat ty
Ġloo fah
Ġshort ened
Ġ20 11
Ġgra zing
Ġsuper hero
Ġbudget ing
Ġcamp fire
Ġpath way
Ġassess ments
Ġcarp ent
Ġq r
Ġcoord inating
Ġchill ing
Ġbless ed
Ġsab ot
Ġdia lect
Ġbuttern ut
b ags
m outh
t t
Ġ à¤
Ġn ull
Ġg ur
Ġre read
Ġsp ins
Ġac he
Ġloc ator
Ġfab ulous
Ġinfl ated
Ġdial ing
Ġund ist
Ġep a
Ġrh iz
Ġmedit err
Ġyouth ful
Ġimpl ants
Ġdign ity
Ġhalluc inations
Ġgodd ess
Ġmediterr anean
p ain
Ġt ally
Ġis lam
ig hed
Ġbo nded
Ġbr at
Ġpart ing
Ġman a
Ġres h
Ġstr ipped
Ġap ost
Ġpur l
Ġcond es
Ġbow els
Ġpush ups
Ġexc luding
Ġtur quoise
Ġgent ler
Ġswim mers
Ġcancer ous
urb ed
Ġunco nd
Ġbroadcast ing
Ġfet us
Ġquir ks
Ġinconsist ent
Ġtriv ial
Ġmnem onic
Ġisra el
Ġl ame
Ġsh ards
Ġse l
Ġde worm
if ts
me et
Ġpick ling
ficult y
Ġqual ification
Ġant ac
Ġelect ions
Ġvol ts
Ġblock er
rib ly
Ġgraph ite
Ġoffe nder
Ġstrengthe ns
Ġrod ent
Ġblind ness
Ġinspect ed
Ġbackup s
Ġbrew ed
Ġannounce ments
Ġlod ging
Ġairb orne
Ġearthqu ake
allerg enic
Ġfurthe st
2 00
e c
Î ³
Ġto ken
an cies
ver bs
Ġal len
Ġco bble
Ġj asmine
Ġsc aling
Ġph d
Ġexam inations
Ġsub missions
Ġbox er
Ġsol itude
Ġphoto copy
Ġcreative ly
ipp y
Ġshall ots
Ġregul atory
Ġscall ions
Ġalf alfa
Ġmerm aid
n ier
Ġf en
Ġd ll
Ġe ct
Ġj aws
Ġad vers
Ġk ab
Ġun block
Ġam ort
ib e
Ġread just
Ġassist ing
Ġ23 0
ole um
Ġswab s
Ġgrace fully
Ġhypo allergenic
Ġkilo grams
Ġconfection ers
Ġp acing
le ft
se ek
Ġu ric
Ġcan oe
im ic
Ġpre occup
ment ion
ag ic
Ġfl ank
red it
Ġfir mer
dy nam
Ġname ly
Ġhour glass
Ġcert ify
Ġhy dra
Ġdiv ider
Ġdocument ed
Ġdon eness
Ġtur k
Ġvalid ation
Ġelastic ity
Ġrim s
lam y
Ġextingu isher
Ġabrupt ly
Ġrecru iting
Ġresil ient
g ir
y an
Ġb ree
Ġp se
om pass
Ġor che
Ġr ation
Ġback fire
Ġph ill
Ġrest ful
Ġfull ness
Ġcor p
Ġpet ty
Ġmult imeter
Ġdiv isible
Ġcontrib ut
Ġextens ively
Ġtre ble
Ġuns uccess
Ġlat te
Ġsold ier
tr ans
Ġdetect ors
ici ency
Ġnause ous
Ġsurg ically
Ġvot ers
Ġcylind rical
Ġemiss ions
Ġmund ane
k o
p rop
il ings
Ġal ab
ess age
Ġpre dis
Ġbr ad
Ġspe ars
Ġres ign
ult ure
ru cture
Ġcorn ea
Ġ9 2
Ġenc ompass
Ġcy cl
Ġsheet ing
Ġtour ists
Ġvoc ational
Ġblu ep
Ġange ls
Ġrecre ation
Ġtad po
Ġinso les
Ġantiperspir ant
Ġsplur ge
Ġhierarch y
t wo
Ġl ard
Ġg on
Ġtr aged
Ġpro pel
Ġunder arms
Ġwell s
Ġhand written
Ġcolor ado
Ġbox ers
hy l
com m
Ġ11 3
Ġconv ictions
Ġhope less
Ġbabys it
Ġbroad en
Ġpony tails
Ġappet izer
Ġeuro s
Ġwhit er
Ġâħ Ľ
Ġliz ards
Ġwean ing
Ġmening itis
m all
Ġa ster
in ers
Ġto ads
le an
Ġmin ors
Ġz en
Ġappro ached
Ġdeg ener
Ġgra ze
Ġfore most
Ġmis leading
yl van
Ġhop ed
Ġcomed ogenic
Ġanonym ously
Ġdandel ion
Ġfaf sa
c ets
f it
h al
Ġa ka
he res
Ġb ounds
Ġto ad
Ġg ills
ut tering
am ous
Ġtr ich
Ġparent hesis
Ġinvol unt
Ġweb bing
dis cuss
Ġshar ply
Ġpromot ed
Ġintense ly
Ġexplo it
Ġfell ows
Ġorch ids
Ġexch anges
Ġkar ate
Ġhurric ane
h ide
r ia
Ġc pa
Ġre open
Ġr anged
Ġhe brew
Ġch lamy
Ġinter ference
Ġtest icles
Ġbar rels
Ġadv il
Ġdesign ation
Ġpop ulated
Ġple ats
hy th
Ġgoo fy
Ġsuff ers
Ġjar gon
Ġprop ag
Ġcomment ary
ron ym
Ġshock ed
Ġunex pl
Ġpoult ice
Ġneglig ence
Ġvic inity
abras ion
d on
Ġ erg
Ġm ite
Ġd aring
Ġn apping
st ration
are rs
Ġdown hill
Ġrel ieves
ry l
Ġcat aly
Ġcur ds
Ġsw ept
Ġsoft ball
Ġpet er
sp ring
Ġdefe ated
Ġshut down
Ġdistrib uting
Ġgum my
Ġtransport ing
Ġtract or
Ġorth oped
Ġench ant
h ouses
Ġs ine
Ġf ades
Ġg ou
is ional
as is
Ġstart le
Ġcol ic
Ġread iness
Ġcheck ers
Ġcheck up
Ġhead light
Ġtap est
Ġsal aries
Ġcost ing
ns ylvan
Ġdress y
Ġheart ed
Ġteam work
Ġletter head
sh are
Ġchrist ians
Ġrain water
Ġspark s
Ġdu vet
Ġpud dles
organ ized
Ġclassified s
Ġtheore m
Ġinfert ility
o pt
Ġt m
in ction
re ction
Ġd ander
Ġh unch
Ġfr ay
Ġv ans
Ġout patient
Ġdr ibbling
Ġins ulate
Ġhard ness
Ġprev alent
Ġblo at
Ġpar ole
Ġeff ic
Ġinit iating
Ġveter an
Ġcash ier
Ġexcept ional
Ġpul monary
yl um
Ġconfront ational
Ġfingert ip
Ġgrace ful
Ġadap ted
Ġlinger ie
Ġtremend ous
rans mit
4 9
v s
Ġp amp
Ġso ckets
Ġj ab
ep hr
Ġtime frame
Ġres ale
Ġtop soil
Ġopt ing
Ġdet ached
Ġhum ili
Ġcondition al
Ġfrequ encies
Ġhon ors
Ġrat chet
Ġtens ing
Ġuns ightly
Ġpartners hips
Ġbold er
Ġdu i
Ġacup ressure
Ġmango es
Ġinvo ices
Ġtheat ers
Ġnan ny
Ġmultiv itamin
e ous
Ġs r
Ġo reg
Ġex iting
Ġacc lim
Ġno ble
Ġcur few
Ġspot ter
Ġce ilings
Ġcollect s
Ġland line
Ġpen gu
Ġneut ering
Ġboost ers
Ġneighborhood s
Ġouts our
Ġhover ing
Ġende avor
Ġtrump et
ephr ine
w a
Ġt zu
en able
Ġh ilar
Ġh acks
ar row
Ġe art
Ġse ize
Ġli ed
Ġtr aced
Ġpl unge
os a
Ġar gan
Ġho pping
ose xual
Ġfile name
Ġcor ro
Ġpar ach
Ġforce fully
ox ic
Ġmount s
Ġinh ab
Ġbi ases
Ġsting ing
Ġame nds
Ġreplac ements
Ġepile psy
Ġbals amic
0 1
6 7
b uds
se nd
Ġr us
Ġle ek
est he
ra z
Ġun ic
Ġcle av
pl asia
Ġins ign
Ġpast or
Ġsand ed
umb a
Ġenv y
Ġpoly n
Ġvulner ability
Ġtok ens
Ġundist urbed
m ith
Ġn ets
Ġv ene
Ġcl ums
Ġte qu
ab eth
Ġwater line
Ġwater mark
Ġem ulator
Ġshe en
Ġunder weight
Ġlist ens
Ġcar ib
cr ack
Ġmem ent
ump y
Ġwood y
Ġband width
Ġminim izes
Ġham string
Ġtar ant
Ġsuff ix
Ġcas c
Ġrole play
Ġfry er
Ġamb ulance
Ġconj unct
Ġdimin ished
Ġregul ator
Ġabund ance
Ġbitco in
Ġintraven ous
Ġpess im
v il
Ġd rought
Ġon ed
Ġas ph
age al
Ġno vice
oun ge
Ġscreen ed
Ġblo ated
Ġextra ord
Ġfoot ing
Ġintrodu ctions
fl ip
Ġcin ch
Ġacqu ainted
Ġunhe lp
Ġanticip ation
Ġbeet root
Ġcul inary
Ġincub ator
Ġfrancis co
Ġunhelp ful
Ġa i
Ġc aked
it ic
Ġcan ter
am y
Ġpl astics
Ġbl ouses
Ġsign ify
Ġcur s
Ġsw apping
Ġschool ing
Ġdef ens
Ġmedic inal
az a
Ġple ad
Ġpen nsylvan
bol t
Ġsymbol ic
Ġdissol ving
Ġalert ness
Ġcircul ating
Ġtoler ant
Ġclump ing
Ġbic ep
Ġbetray al
Ġsphe roids
Ġvolum izing
Ġteap ot
oglo bin
on a
Ġl or
Ġg oose
Ġv iv
Ġen act
Ġper for
Ġunder tone
Ġwell being
Ġve nding
Ġer asers
Ġrent als
Ġhyp other
Ġcompress ions
Ġwitness ed
mel t
Ġfart hest
gl ue
Ġdefect ive
Ġpac ific
Ġsteroid al
cond uct
acam ole
Ġcleav age
Ġs ple
us al
Ġun roll
Ġdet ract
Ġsur plus
Ġcase work
Ġeyes ight
az ing
Ġblue berry
Ġprogress ing
Ġsprink ler
Ġenem a
Ġscal y
Ġsoci eties
Ġslo pes
Ġchalk board
Ġconstit utes
Ġwides pread
Ġneurot ransmit
o cr
Ġm age
Ġe ater
Ġch andel
Ġk y
Ġby laws
Ġar k
Ġjo ists
Ġed ging
Ġpat ting
Ġvis uals
Ġass ass
whe at
Ġjoint ly
oop ing
Ġsweat pants
Ġsan ct
Ġretain ed
bl ood
Ġpel let
wor ld
Ġadvis ors
Ġunre li
Ġgeo graphy
Ġcooper ation
Ġdilig ent
Ġlonge vity
d t
o pl
ow ered
Ġtim ber
Ġbo k
Ġwork force
Ġro aming
Ġcur vy
Ġleg ible
Ġdist ill
Ġsal ons
Ġgra ft
Ġindic ations
Ġhoney moon
Ġfreez es
Ġcommer cials
Ġlawn s
tor rent
Ġtric eps
inform ation
Ġhomet own
b ooking
Ġt ents
Ġb iot
Ġf ml
Ġl ounge
ig rap
Ġli ens
Ġv m
ra ise
Ġun locking
Ġsk unk
Ġpay out
Ġchar ter
Ġchar ism
Ġtool bars
Ġcustom ization
go ld
Ġsuccess ion
Ġtot als
bon ate
Ġmental ity
Ġrev isions
Ġcork s
orr hea
Ġlantern s
Ġoy ster
Ġcram ming
Ġplacent a
n ox
Ġa rous
Ġc aves
ion e
Ġwh ine
Ġch ipping
Ġex ceeds
Ġsp ro
Ġany ones
Ġdr ippings
os otros
Ġwa ived
Ġfoot print
Ġfour s
pr ime
Ġdrug stores
Ġspl ashing
Ġsou ls
Ġdemon stration
Ġexfol iant
Ġhyper thy
Ġinterrupt ions
Ġsynt hes
Ġslim mer
Ġinhal ation
Ġincap ac
Ġeffic acy
n itus
w an
Ġm cd
Ġu mb
ct ur
oo f
Ġr ips
Ġmo lar
Ġac ronym
Ġhead phone
Ġcover ings
Ġrece ivable
Ġscr ut
Ġtight ened
Ġfix es
Ġgro oms
Ġcarp ool
Ġsnow man
Ġinsp ires
Ġchop stick
Ġdos ages
Ġoh ms
Ġalter ations
Ġec os
Ġuneven ly
Ġdeduct ed
Ġsear ched
Ġow l
Ġlact ic
Ġquart z
Ġhomeown er
Ġeconom ics
Ġpremature ly
Ġfreshe ner
fam ily
Ġire land
b ted
d ig
d erm
in acea
Ġm illet
en use
Ġand roids
Ġdes per
Ġlit eral
Ġpres erved
Ġref urb
Ġpresent able
Ġmultiple s
Ġexc av
Ġcompost ing
Ġupgr aded
Ġrum or
Ġ____ _
Ġleth al
Ġkay ak
Ġphysio logical
Ġshakespe are
n ants
t reat
re rs
es cent
Ġe lf
Ġr ame
Ġfr ayed
Ġch an
Ġco c
Ġco bra
Ġj ams
Ġte et
Ġdis perse
gg s
Ġmat ted
Ġproject ions
Ġrespond ent
Ġagree able
Ġ19 7
Ġscroll s
Ġmanufact ure
Ġwhisk ers
Ġpolit icians
Ġstream ers
Ġdesp air
Ġcontest ants
Ġhind u
Ġvamp ires
Ġbackst ory
Ġmoth s
Ġstun ning
Ġdav id
Ġureth ra
Ġpennsylvan ia
i y
s pend
Ġf ern
Ġto te
om atic
Ġsu pers
Ġne op
Ġle ases
Ġch ipped
Ġco ke
th s
Ġgu acamole
Ġsqu id
Ġsleep er
Ġinf r
Ġnut ella
Ġfire wood
Ġorig ins
Ġring ing
Ġtele v
Ġmis inter
Ġunfort unate
Ġconfront ed
Ġnovel ty
Ġsurge ons
Ġcous ins
Ġdiure tics
Ġadolesc ents
Ġstrik er
Ġoreg on
Ġa ura
Ġst d
as ana
Ġex s
Ġcl ipper
Ġsp ain
Ġ1 Â½
ame le
Ġjust ified
Ġchild ish
op sis
op athy
enc ys
aw k
Ġsol vents
Ġear liest
Ġspecial ization
Ġdiv ine
Ġcross word
Ġcomprom ising
Ġinterfere s
Ġsuck ed
Ġintro verts
Ġrou g
Ġpropriet orship
Ġslouch ing
Ġpard on
m ult
Ġa e
Ġb iz
Ġn ach
Ġal ley
Ġfl ange
Ġfl ushed
Ġstr uck
Ġshe ath
Ġcre pe
Ġreg ulating
Ġcor ps
Ġcomb ust
Ġconst ell
Ġremind ed
Ġkitche ns
Ġsus pense
Ġlicens ure
Ġbun ches
Ġmelt down
Ġ00 00
Ġintro verted
Ġgeo graphical
Ġindirect ly
Ġros y
Ġbetray ed
Ġfuss y
author ized
c ity
n on
o es
er ally
Ġl il
Ġe lic
ill in
Ġhe ck
Ġex pel
ci ble
we b
we ek
Ġob nox
Ġaut oc
Ġ12 3
Ġru led
Ġwait er
Ġrele v
Ġtechn icians
Ġcy an
Ġexc luded
Ġharm on
Ġwidth s
Ġtre llis
Ġsecret ly
Ġdro plets
Ġdev ise
Ġcoord inator
Ġborrow ers
Ġtin nitus
Ġstraighten er
Ġharass ing
Ġinsurer s
Ġderiv atives
Ġimmers ion
Ġradical s
Ġvictor ian
Ġdecou page
y pe
Ġa aa
at ility
it i
ed ed
Ġon coming
Ġor b
Ġwe arer
ie val
Ġadd end
Ġho e
Ġopen ness
Ġend ure
Ġpoint less
Ġaut on
Ġequ ifax
Ġcou ches
Ġcollect ible
Ġround ing
Ġ200 9
Ġnarrow ed
Ġsilver ware
Ġpra ising
Ġknight s
Ġboom er
Ġswir ls
Ġphill ips
Ġhilar ious
Ġtequ ila
h an
r ack
Ġl ilies
Ġch amele
Ġwe ighed
Ġk art
Ġsa x
Ġgener ates
Ġhu h
Ġrestr iction
Ġslip knot
Ġshr inking
Ġmer it
Ġdev iation
Ġconce aled
Ġsac red
Ġdisturb ances
Ġconstit ute
Ġcramp ed
Ġdiscre pan
ims y
Ġdecongest ants
Ġoverre act
Ġcarib bean
Ġfml a
j un
p osed
Ġn agging
ig ans
el ines
Ġus ps
Ġtw il
Ġsl ugs
Ġrel ieved
Ġdisc ern
Ġchar gers
Ġbreak ers
Ġflo ats
Ġintern ally
do cum
Ġstar bucks
Ġrent ed
Ġvolunt arily
Ġpink ie
Ġmild er
Ġbun nies
Ġdraft ed
Ġterr ier
Ġdisinfect ing
Ġhoo king
Ġindu ced
Ġcha pped
Ġske pt
Ġske let
Ġrepellent s
Ġcollabor ative
Ġbridesma ids
Ġphenomen on
Ġundergar ments
b ound
c ross
Ġm Ã
Ġe h
Ġtr ipping
ail ing
Ġun con
pl ings
Ġmin ions
we bs
Ġexper ian
Ġdist ricts
Ġ0 11
Ġesc ort
cre as
Ġsubstit ution
Ġspo kes
Ġcomprom ises
Ġwithdraw ing
Ġdiscip lined
Ġpist ach
Ġexempt ions
Ġnu cle
Ġevac uation
Ġchirop ractor
Ġdefra gment
Ġrsv p
Ġmultic ol
Ġunsuccess ful
Ġunreli able
f ir
Ġn f
Ġn ug
im ia
Ġpro pe
ie ce
fe el
ical s
Ġunder arm
Ġplan ners
Ġsec luded
Ġste via
Ġexpl oration
og ue
Ġobject ions
Ġcalm ed
Ġminim ally
Ġlat itude
Ġkiss ed
Ġvalu ation
Ġexcl amation
Ġcling ing
def ine
Ġexpend itures
import ant
Ġdissip ate
Ġlup us
Ġacro bat
aund ice
f amiliar
Ġs ut
Ġf uses
Ġis p
Ġdo d
Ġas ylum
Ġj peg
Ġeas ing
Ġes crow
Ġspr ite
Ġcall igrap
Ġequ il
augh ter
Ġheight ened
Ġneighb oring
Ġbill ion
Ġsecret ions
Ġconce ive
Ġrob ust
Ġrob lox
Ġsnip ers
Ġfulfill ment
clip se
Ġveg as
Ġmisunderstand ing
stud y
Ġech inacea
Ġlollip op
Ġgyne co
e an
à ¦
Ġs avor
it ol
Ġn oo
Ġg ab
Ġre iter
Ġad ware
Ġun authorized
Ġchild birth
Ġpat r
Ġpres erves
Ġpick le
Ġfle et
Ġbur ial
Ġtre m
Ġshr ine
Ġfau cets
Ġimplement ed
Ġarbit rator
Ġore o
Ġdemo cr
Ġmason ry
Ġinterpre ter
Ġlegisl ation
Ġshepher d
Ġinterf acing
Ġunatt ractive
Ġhyperthy roidism
c lose
u v
w ipe
Ġo ph
ct r
est ed
Ġman ages
Ġmed ieval
Ġrest ricting
Ġlot us
Ġpan creas
Ġprepare s
Ġwom b
Ġprop ane
add ress
Ġchill y
Ġcig ars
Ġacet ate
Ġunhapp iness
Ġnour ishing
Ġtant rums
Ġinquir ies
Ġdeterior ate
Ġfurnish ings
Ġtimet able
Ġhypother mia
in vest
Ġad a
Ġup keep
ment ation
Ġag ar
urn al
Ġmess ed
Ġsens ual
Ġarg u
Ġ11 2
Ġrestr ained
Ġlin oleum
Ġverify ing
Ġoptim ism
dec or
Ġrecept acle
Ġwiki hows
Ġmerch ants
Ġspy ware
Ġlod ged
Ġpreced ing
pent ine
c id
er ian
Ġg uts
Ġnot ion
ir us
Ġsc ammers
reat ing
Ġag itate
Ġher it
Ġcre st
Ġend ings
Ġel iz
Ġcond uc
Ġsin king
Ġreco il
Ġwindows ill
Ġra id
Ġcollect ive
Ġtit anium
Ġdistrib utions
Ġcapt ions
Ġsport y
Ġful lest
Ġhus ky
Ġnit rates
Ġprocrast inate
Ġcompanions hip
Ġmisbe h
process ed
Ġcatast roph
Ġoned rive
Ġconduc ive
s ave
t ra
Ġb asting
Ġi ch
Ġch iles
Ġpl a
Ġnum eric
Ġinte ger
be come
Ġpost card
Ġgroup ing
Ġer asing
Ġfore ns
Ġspl ints
Ġthr ush
Ġforg iven
Ġtour n
Ġamaz ed
Ġcough s
Ġemphas izing
Ġemphas izes
Ġspiritual ity
Ġbru ised
Ġuncheck ed
Ġscorp ion
Ġverte x
c ation
Ġo ll
le ad
st it
Ġor acle
il les
el f
Ġk ong
Ġpr ying
ab out
Ġag itation
Ġtop coat
Ġmu cous
wn s
Ġreg edit
Ġprov isional
Ġappe ll
cr iber
Ġnight stand
Ġlab rad
Ġwin ters
Ġstory te
Ġspl atter
Ġill umin
Ġobs c
Ġtick le
Ġgall eries
Ġdou bling
Ġalarm ed
Ġappet izers
Ġvill ager
Ġtu ber
Ġbitter ness
Ġgast ric
Ġlux urious
Ġcompe lled
Ġsymmet ry
Ġcylind ers
Ġaquari ums
m eter
le vel
Ġst adium
Ġr ains
are l
Ġhair brush
Ġhair dress
Ġ0 4
Ġsand al
ese ed
Ġ200 8
Ġpit a
Ġsoy beans
Ġsilic on
Ġdad dy
Ġalphabet ical
Ġacupun ctur
Ġsag ging
Ġsucc inct
Ġcrumb ly
Ġt ugging
es ign
Ġl ull
ic ated
Ġal umn
Ġrem inis
Ġkeep er
Ġag encys
Ġ3 000
Ġcare ss
Ġeye let
Ġpol ishes
Ġfour square
Ġsing les
Ġanim ations
Ġstory board
Ġcounter feit
Ġindividual ity
Ġinterview ers
Ġflavor ings
Ġboot ies
Ġoptim ization
know ing
Ġpossess ive
Ġpunish ments
Ġgrant ing
Ġbump ing
Ġenerg ies
Ġfluct uate
Ġtorto ises
div ide
Ġperenn ial
Ġlol ita
Ġtrapez oid
Ġpedic ure
imic rob
u ating
Ġ ___
Ġt umble
Ġf usion
Ġe clipse
Ġan ap
Ġad block
ci ence
Ġfl ipped
Ġgr unge
Ġsleep iness
ph ys
Ġant imicrob
Ġfre estyle
Ġgeneral ized
Ġaud ible
Ġcouple d
Ġcompet itor
Ġmas ala
Ġwild ly
Ġrain fall
Ġcelebr ations
Ġpom ade
Ġsatisfact ory
oty pe
Ġfet al
Ġcrumble d
Ġheir lo
Ġscot t
Ġfasc inating
Ġsucculent s
Ġparac ord
mention ed
p ile
v ard
Ġw w
ot ics
Ġover see
Ġbot s
Ġdet angle
Ġbottom ed
Ġru ffles
Ġevent ual
pr om
Ġintrodu ces
Ġbul imia
ann ies
Ġtut ors
Ġconsequ ently
Ġhygi enic
Ġpil ots
Ġrenew ed
Ġgoth s
Ġevapor ates
Ġsout heast
Ġvenom ous
Ġoverd ose
Ġimpuls ive
Ġali ens
Ġannul ment
Ġeld ers
Ġbalcon y
Ġinfr ared
l ong
m aker
t able
le ngth
it zer
so cial
Ġcont empt
Ġ2 12
Ġsl abs
Ġopt omet
Ġcho ir
erg art
Ġsoft ens
Ġfoot er
Ġarr hyth
Ġgar ter
Ġfinal ized
Ġbul ge
Ġaccord ion
Ġtur nt
Ġmid point
Ġhousehold s
Ġ17 6
Ġwarr iors
Ġpud dle
Ġpens ion
Ġscientific ally
Ġhatch ing
Ġlax ative
Ġhic c
Ã¨ me
Ġdevast ating
Ġcohes ive
j our
p ol
t ale
Ġb aste
ay er
ad as
pe h
est one
Ġus r
iv ated
Ġdis abling
Ġun friend
Ġsub head
Ġpot tery
Ġtest ament
Ġexp on
Ġz umba
Ġeduc ating
Ġhous ed
Ġcompens ated
Ġdefic it
Ġbump y
Ġdisapp ro
Ġsd k
Ġbreastfe ed
Ġox ford
Ġlamps h
Ġsacrific es
Ġpherom ones
Ġscoo ps
e nded
Ġf enced
Ġm ms
Ġin ver
Ġcan opy
Ġat kins
Ġcat cher
Ġsign ifies
Ġrep ur
Ġcur d
Ġpast ed
Ġpost ures
Ġ12 8
Ġremo vers
Ġscrew ing
Ġcoll ard
ann a
Ġemerg ing
Ġdepend able
Ġgrass ho
Ġfrost ed
eterm ined
Ġcel iac
Ġflick r
Ġdunge ons
Ġtac os
Ġpave ment
Ġswive l
3 8
6 2
t z
Ġs q
Ġw ield
Ġb ah
Ġv ests
Ġper ceptions
Ġgr ills
Ġbl uff
Ġreg row
Ġpress uring
Ġdisc ord
Ġprot ractor
Ġcent uries
Ġbook stores
Ġactiv ating
br own
Ġste alth
Ġsun rise
Ġserious ness
how ever
Ġcart oons
Ġblind fold
Ġterr iers
Ġbronch itis
Ġturk ish
Ġmcd onal
Ġtwil ight
familiar ize
Ġherit age
f resh
Ġt at
Ġt ic
Ġs omed
Ġm ish
an other
Ġst ds
im ens
Ġhard ens
Ġvol atile
Ġbank er
Ġquestion able
Ġchem ically
Ã© s
Ġdiagn osing
Ġhydr ange
Ġconflic ting
Ġstation ery
Ġrust y
Ġpom p
Ġpunct ual
Ġreflex ology
Ġcontour ing
Ġris king
Ġscall ops
Ġextrem ities
Ġsensit ivities
Ġalab ama
f ine
t ors
u el
Ġf led
at ics
Ġto ed
Ġre nal
pe x
Ġsm other
Ġgr ays
Ġsl ump
Ġdes cending
Ġthin ners
Ġextra vag
Ġdeep est
Ġgrad ed
Ġbead ed
Ġvul va
Ġdys plasia
Ġdepr ived
Ġveg ans
Ġinherit ance
Ġrottwe iler
Ġaph ids
f ed
Ã º
Ġt t
Ġw ic
is ers
im als
Ġoff enses
Ġro ost
Ġdet ention
Ġpos ing
Ġspr ints
Ġstay ed
Ġid ol
Ġgreen ery
Ġma h
app lication
Ġcomplic ation
Ġram en
Ġillust rator
Ġcushion ing
Ġclog s
Ġcoast ers
Ġhypot enuse
Ġrecipro cate
Ġsnugg le
Ġconjunct ivitis
Ġargu ably
b ud
r ists
Ġs onic
Ġp ik
Ġan a
Ġr b
Ġr aining
Ġj aundice
Ġfl ares
Ġimp ose
Ġho a
lic ited
Ġdes elect
Ġinter change
Ġbas al
Ġchar lie
Ġass umes
Ġprogram med
Ġnorm s
Ġple x
Ġjud icial
olog ists
Ġprin ce
Ġseek s
Ġearn s
Ġlean er
Ġdeath s
Ġsumm aries
Ġacqu is
Ġglitter y
Ġamb ig
Ġchap stick
Ġcontem pl
Ġcollabor ation
Ġelong ated
itas king
Ġnotor ious
Ġunexpl ained
a pper
b ie
d irect
Ġre bell
ir cle
Ġmo sa
Ġsk ater
Ġsl ats
Ġclean ings
Ġskin ned
gin a
Ġcur ving
Ġref usal
Ġeat ers
Ġhot mail
Ġpost cards
Ġkind ling
Ġkind ergart
Ġant iques
Ġsat an
Ġgau ges
Ġscrap booking
Ġscient ist
Ġevalu ations
Ġinstruction al
Ġnu is
Ġdemo graphics
Ġingest ing
Ġcann on
Ġcamps ite
Ġinhal er
Ġcorrel ation
Ġencrypt ed
Ġcemeter y
Ġasph alt
Ġantimicrob ial
Ġf s
Ġd oodle
ar ound
ed es
Ġbe ast
Ġr ss
Ġj ess
Ġj ord
Ġinc and
Ġrem od
Ġgood ies
Ġrec l
Ġpick led
Ġphys i
Ġmult itasking
Ġbase boards
Ġ0 9
Ġill um
Ġmir acle
Ġquot ations
Ġ36 5
Ġdomin ance
Ġstalk er
Ġfol ate
Ġinnov ative
Ġshepher ds
Ġhaunt ed
Ġvou cher
Ġparan oid
Ġdegre aser
Ġhydra ul
Ġumb il
e z
l ite
o h
Ġs ill
Ġb our
Ġf ighters
Ġi u
Ġre vel
et ti
ro sis
Ġsu st
ard rop
Ġhel mets
we e
Ġacc use
Ġpersonal ization
Ġste ws
ho les
by tes
put stream
dom in
tr ain
Ġinsect icides
Ġbattle field
Ġvirt ue
Ġgem stone
Ġindul g
sm ith
Ġgene alog
flo or
Ġscav enger
Ġunso licited
n n
t v
Ã ³
Ġm ig
Ġn c
Ġhe ms
Ġtr an
ick y
Ġgo s
Ġsc um
Ġcal ms
Ġbegin aligned
Ġval erian
br ake
Ġpast ing
Ġmeet up
Ġer os
Ġgoal ie
Ġresist ing
Ġneut rals
Ġfarm er
Ġfoam y
Ġclar inet
Ġrecy cl
Ġrestart ing
Ġsynt ax
Ġcomprehe nd
Ġfet a
Ġ88 8
Ġpand ora
Ġbart e
Ġcontracept ives
Ġtay lor
Ġcobble stone
Ġeliz abeth
Ġalumn i
Ġsomed ay
x c
ou ched
Ġp ity
ad or
ad ryl
Ġv ina
if ully
us ually
Ġad isplaystyle
Ġrem nants
Ġno ct
Ġinter mit
Ġed gy
Ġhead lines
Ġ10 99
Ġbed side
Ġwait ed
Ġscr ip
Ġmilk y
Ġdiv isions
Ġer ased
Ġsuper man
Ġmid section
Ġcoord inated
Ġdecl ared
Ġhd l
Ġpest o
Ġcatalog s
Ġwob ble
Ġinherent ly
Ġmidw ife
Ġassort ment
Ġpamp h
3 9
Ä ģ
Ġ ought
Ġp oodle
Ġm oo
Ġd angle
Ġor ph
ig ious
Ġsh rug
Ġco gs
Ġk ik
Ġall y
Ġwork day
Ġun kind
Ġimp ly
Ġcr Ã¨me
Ġent rances
Ġspec ifies
Ġgener osity
Ġ10 3
Ġsol itary
Ġcop d
do or
Ġur ls
Ġmar row
Ġ14 5
Ġpal ace
Ġcrush s
Ġhosp ice
Ġ23 7
Ġoverl aps
Ġcreep ing
Ġfright en
Ġexert ion
Ġluc id
Ġscoot er
ophil us
Ġincand escent
b ish
p he
p ath
Ġd un
or ph
Ġas per
il ation
Ġpl umber
Ġret ains
Ġfill ers
Ġadv ancing
Ġfit bit
Ġheart worm
Ġstuff y
Ġcry stall
Ġdil ated
Ġtoxic ity
Ġax es
Ġsouth west
Ġboun cy
Ġlig ament
Ġspoonful s
Ġdeced ent
Ġastron omy
Ġimmigr ant
Ġcondes cending
p op
Ġw ad
Ġn udge
Ġse ptic
Ġpro se
Ġco lo
um ing
Ġcl ans
so ever
Ġstr iving
ert ime
Ġreg urg
Ġtem peh
use t
Ġpar abol
Ġdisp osed
Ġtag ging
Ġhol istic
Ġpier cer
Ġscrap es
Ġquot ient
Ġly ft
Ġimper ial
Ġcance ling
Ġmall s
Ġabbrev iated
Ġren ters
Ġdeact ivate
Ġbish op
Ġalgorith m
Ġasym met
Ġglycol ic
Ġdehumid ifier
Ġgalvan ized
Ġtadpo les
Ġcoc aine
n umber
p ages
Ġt ann
ive t
Ġbut tered
Ġimport ing
Ġsal m
Ġpar ale
Ġsuc ceeding
Ġlog istics
Ġexpress ive
Ġcoll ared
Ġtrig lycer
Ġauthor itative
Ġpun ished
Ġgovernment al
Ġtender loin
Ġevol ved
Ġapprent ice
Ġmetaph ors
Ġbapt ism
Ġcommod ity
Ġteet hing
Ġobnox ious
Ġaddend um
m atic
t ys
Ð ¸
Ġh m
st ret
Ġg ust
is ors
Ġwill s
ver ify
Ġtr ough
Ġv ip
Ġj amb
Ġcl apping
Ġres chedule
Ġcol itis
ia h
Ġret ake
Ġterm ites
hy de
Ġdiv isor
Ġmiss es
Ġgrain y
Ġpit chers
Ġipod s
Ġhus ks
Ġmim ics
Ġow es
Ġcautious ly
Ġcontrad ict
redu ce
Ġparach ute
Ġvina ig
b ase
c f
n b
o king
Ġha il
ir a
Ġcar cin
Ġopp ose
Ġpet itions
Ġsocial ized
Ġinf usion
Ġstraight ened
sp in
Ġmeal time
Ġpump ed
Ġpig gy
ffic ients
Ġcub ed
Ġben ign
Ġq t
Ġsoci opath
Ġinterv ie
Ġexecut ives
Ġretr ieved
Ġcockat iels
Ġanecd ote
Ġorbit al
Ġschn au
Ġduplic ates
Ġallig ator
main tain
Ġtapest ry
h z
n est
Ġf ad
Ġp he
it in
Ġn t
Ġad r
Ġwor ces
Ġsp aying
Ġdis asters
Ġgood ness
pl astic
Ġreg ime
Ġnum bing
Ġprov ince
Ġsub cont
Ġbat tling
Ġhouse plants
Ġmakes hift
Ġur ges
Ġstory line
Ġfore sts
Ġpok ed
Ġ19 5
Ġsto ves
Ġmaster y
Ġtransport ed
Ġzip loc
Ġintegr ation
Ġexecut able
Ġadvoc acy
Ġstretc her
Ġsprout ing
Ġurg ency
Ġcoe fficients
Ġintens ify
Ġparake et
Ġfundament als
Ġtelev isions
Ġappell ate
c redit
Ġf red
Ġor n
Ġst agger
Ġcan ary
Ġan gina
Ġover work
ol is
Ġ5 000
Ġaccount ants
Ġcho y
Ġx s
Ġju ggling
Ġmaj ors
Ġstat istical
ex ample
Ġaim s
Ġresist or
Ġrhythm ic
Ġvot es
Ġgrac ious
Ġjal ap
Ġbiot in
b oth
o per
o inting
y y
Ġy ank
or ic
Ġsh ins
il is
Ġfe ast
Ġbot ox
Ġmat the
Ġcustom ary
Ġwax y
Ġtub ers
Ġincorpor ates
Ġmicrow aving
Ġhem oglobin
Ġpred etermined
Ġlipstick s
Ġgut ter
Ġcarb ure
oft en
Ġadoles cent
Ġcategor ized
Ġdeced ents
Ġstap ler
Ġrehydr ate
Ġcalligrap hy
Ġb ount
ed ia
se en
Ġdo able
Ġrem orse
Ġqu es
Ġdis interested
Ġmin n
Ġmed iators
ax is
po x
ne ck
Ġdist inction
Ġball er
Ġdep ot
Ġinf idel
Ġpar aly
Ġma pping
Ġdocument aries
Ġapprox im
Ġtong ues
Ġsnow ball
Ġhi kes
Ġpoly gon
Ġscoop ing
Ġ48 0
Ġdefic ient
Ġassert iveness
Ġjail breaking
Ġaudition ing
Ġpix ie
Ġperfection ism
hel ves
Ġgarn ishes
Ġexped ited
Ġgeck os
Ġapric ot
Ġwil ted
dif ferent
Ġgrap eseed
Ġtrigon ometry
u ke
Â ¼
Ġc dd
Ġb ile
Ġm ingle
Ġh ula
ed uc
ic ons
Ġst eth
as a
Ġk r
Ġun fore
op ing
ens ion
Ġcare less
Ġmot if
Ġhang out
sol ved
Ġclothes pin
Ġregist ers
Ġstar ve
Ġcamp ers
Ġsciss or
Ġtoss ed
Ġsne aky
Ġtrail ing
Ġgran ules
Ġneglect ing
math bf
Ġric otta
Ġcaret aker
goo gle
Ġcasework er
Ġmulticol ored
Ġmcdonal ds
b ug
c lic
d ist
f il
f elt
p d
Ġt ig
er ad
Ġf andom
Ġm ism
Ġe ard
Ġe books
Ġtim id
Ġun bal
Ġaf ore
Ġro ok
Ġph leg
Ġar s
Ġexam iner
Ġconf etti
Ġinf inity
Ġenc lose
Ġregist rar
Ġmass es
Ġvan ity
Ġbead ing
Ġsan ity
Ġtrail ers
Ġexplan atory
Ġwis cons
Ġacknowled ged
Ġbing o
Ġmys ql
Ġsacrific ing
Ġrunes cape
Ġperenn ials
Ġchinch illa
Ġtourn iquet
Ġnoct urnal
Ġsalm onella
8 9
t ier
Ġr ally
ur an
Ġpl ots
Ġwe arers
Ġapp arel
Ġfl aking
Ġfl imsy
Ġro be
Ġcr ies
ention ally
Ġsn ob
ins ons
Ġprom in
Ġbra ille
Ġhum ility
Ġself ie
Ġadjust s
Ġburn out
Ġdepend ency
Ġdebt ors
Ġmemor ization
Ġtired ness
Ġharsh ly
inter rupt
Ġpac ifier
Ġreflex es
Ġapt itude
Ġstrum ming
Ġafore mentioned
Ġt ines
et tes
Ġst ile
Ġwill power
Ġr het
Ġne ater
Ġhe ctic
pe es
th rough
Ġte ardrop
Ġsk aters
Ġrep ent
Ġcond uit
tc hed
ret ino
Ġstar ches
Ġrock er
Ġboss s
Ġhabit ats
Ġben adryl
arth ritis
Ġacknowledge ment
Ġfort unate
Ġprec ip
men u
Ġpenet rating
Ġpend ulum
Ġspac ers
Ġsubtit le
Ġsolic it
Ġartich okes
Ġtraged y
h is
Ġo sha
Ġw igs
Ġf f
Ġf ate
Ġst itched
pe e
Ġcomp iled
Ġsupp orters
Ġmet rop
Ġmot ors
ian c
Ġcode pend
Ġtom b
Ġflex ing
Ġsumm ers
bar row
Ġestabl ishes
off s
Ġcopyright ed
Ġdisrupt ion
spe ak
Ġcultiv ating
Ġrav i
p ool
al an
Ġro ku
Ġcr ashes
Ġent ail
Ġskin less
Ġhead shot
Ġinv asion
Ġpot pour
Ġcup boards
Ġaltern ator
Ġbooks helves
app s
sh ots
Ġbeaut ifully
Ġter ry
Ġrestr aint
Ġwithdraw als
Ġasp iring
Ġjur or
off ice
Ġindu ction
Ġrecess ion
Ġmuslim s
Ġconqu er
Ġforb idden
Ġcondu ctor
Ġskept ical
Ġinfidel ity
retino in
ent a
Ġch urn
Ġex ceeding
ble m
Ġtr ink
Ġab users
Ġdr ifting
Ġbot ul
Ġap k
Ġhealth ily
Ġsub ord
bo ss
Ġgener ators
Ġvis or
Ġcent r
Ġactiv ates
Ġnet i
Ġra ffle
cer ity
Ġrespect s
ler y
Ġsales people
Ġneut er
Ġrev ive
Ġpizz as
Ġbelong ing
Ġexter min
Ġembr acing
Ġstorm s
Ġdm g
Ġstall s
Ġner f
Ġpreserv ative
Ġregul ates
Ġros acea
Ġkne eling
Ġpotpour ri
m em
Ġt iring
Ġp als
Ġre union
il ers
Ġhe ter
Ġde chlor
Ġad am
ack now
ach uset
Ġadd ictions
Ġwhat soever
Ġover fill
Ġph o
ang ible
Ġmin nes
de hyde
Ġspr ain
Ġweight lifting
Ġbrown ish
Ġcoll ision
Ġmax i
Ġsquee gee
Ġwheel barrow
Ġtension er
Ġwound ed
Ġrecept ors
Ġrob ber
pers onal
Ġshim s
writ ers
Ġconfir ms
Ġbage l
Ġscholar ly
otherap ist
Ġpolyn omial
achuset ts
Ġe ul
Ġre ign
Ġmo s
Ġso br
Ġwhe l
Ġv icious
Ġmake over
Ġgr umpy
Ġcr ashing
Ġlay outs
ters hire
Ġ8 77
Ġpaint ball
Ġclothes line
Ġpowder y
Ġharm s
Ġimag ined
Ġbur d
Ġmood y
Ġter ribly
Ġvent ing
Ġven us
Ġcapital ized
Ġmg dl
Ġmit er
Ġspons orship
Ġintr usive
Ġhind i
Ġjacks on
Ġpreserv ation
vide o
Ġger d
Ġsmud ging
Ġstyl us
Ġorthoped ic
d ata
Ġt aunt
Ġb ans
Ġe nder
Ġfr onts
Ġad hering
ip se
ast es
Ġun important
Ġman ne
Ġcar ved
Ġrep ot
Ġmix ers
Ġ8 3
Ġflu ent
Ġflour s
Ġwid ow
Ġsprink led
Ġsnow y
Ġbrief s
umin ous
Ġprem ise
Ġseam less
Ġet ching
Ġsleeve less
Ġtul ip
Ġalloc ated
Ġfier ce
Ġcdd vd
Ġwiscons in
h ard
Ġt es
Ġt arnish
re pe
ill on
am ide
ad el
Ġsu cks
Ġde grade
Ġout rage
Ġk ent
Ġgr om
Ġstr ides
Ġdes cent
Ġjo ins
enc hes
Ġdisc rete
Ġmus lin
Ġcall uses
Ġaut of
Ġje well
Ġden ote
Ġpig tails
Ġresol utions
Ġuns atis
Ġformal ity
Ġlin col
Ġled ger
Ġdisrupt ing
Ġuv a
Ġlas so
Ġdread s
Ġcassero les
Ġconsolid ate
Ġconjug ate
Ġwilli am
dem ean
y r
Ġo sc
Ġb ounces
Ġf ianc
en za
Ġh an
Ġn ip
Ġe cc
Ġg or
Ġre used
ge ar
Ġpre domin
act ic
iv ores
Ġhand ra
Ġprocess ors
ug al
Ġpast as
Ġwarm s
Ġconc uss
Ġsun flowers
Ġproject ing
com ed
Ġteach ings
Ġforce ful
Ġpit fall
Ġdigest ed
Ġanaly zed
Ġstream line
Ġcaul king
Ġexecut ing
Ġrecur rent
Ġconsolid ation
Ġcongreg ation
Ġphleg m
4 6
n ys
Î ´
Ġw aving
Ġn ano
om er
Ġbe vel
Ġr t
Ġpo re
Ġadd itive
ub a
Ġcre ations
Ġcr ushes
Ġdet on
Ġdi ode
Ġpur ge
Ġident ifiable
og y
Ġnon fiction
oc aine
sp r
Ġforward ed
Ġmass achusetts
Ġexerc ised
Ġcas sette
Ġcro cod
Ġexpos es
Ġgerm ination
Ġpale o
Ġpersist ence
Ġintimid ate
Ġdealers hips
Ġtumb ler
Ġbudd hist
obs erve
Ġrefin ance
Ġaccus atory
Ġdum plings
Ġreimbur sement
Ġunint entionally
Ġchlamy dia
Ġmosa ic
erad ish
g lasses
t om
Ġr gb
Ġlo in
Ġche et
Ġam n
Ġlit ters
Ġfree hand
Ġel m
ne g
Ġbat man
Ġcond o
Ġsho cking
Ġscreen play
Ġold s
ivid ed
Ġ0 3
Ġdisp ers
Ġmir r
Ġinspect ions
Ġ27 3
Ġwors ens
Ġexcl usion
Ġaccum ulating
ste in
Ġconstruct ing
cont in
Ġtransplant ing
Ġkh aki
Ġsmud ges
Ġevac uate
produ ctive
Ġlith ium
Ġenterpr ise
Ġworces tershire
c ooking
g os
u a
Ġ nd
Ġt inct
Ġa sexual
Ġs ony
Ġc au
Ġw ink
Ġb pm
Ġp is
Ġh acking
Ġl ube
ct in
ch op
Ġsh aw
Ġch ut
Ġch af
Ġv ale
Ġwork station
Ġdec af
Ġed ema
Ġcard igans
Ġmon oxide
Ġprof ound
Ġfoot note
Ġgoo ey
Ġvo ila
Ġmid st
Ġsoci et
Ġphr asing
Ġwig gling
Ġship ment
Ġevol ving
Ġpuff iness
Ġcha otic
Ġtro op
Ġhack ers
Ġrefin ancing
aca o
Ġspook y
Ġimmense ly
Ġmetron ome
Ġamort ization
Ġvinaig rette
g ate
n ob
r ition
in th
es pecially
Ġl ite
st al
Ġre eds
ld om
Ġch ow
un less
Ġsure ty
Ġfl ips
Ġcut lery
Ġdec als
Ġpur ified
Ġpoint e
Ġsec re
Ġer y
Ġfut ures
Ġsuggest ive
Ġmis demean
Ġund ou
Ġslight est
Ġinterrupt ion
Ġcontext s
Ġtact ical
Ġmanip ulating
Ġelectro des
Ġtrunk s
Ġsharpen ed
Ġtrop hy
Ġloaf ers
Ġneur ons
Ġcaf Ã©
Ġreins ert
Ġalgebra ic
Ġimbal ances
Ġelong ate
Ġdachsh und
Ġeart hy
Ġsobr iety
j et
j ury
p ow
Ġp ag
ig i
Ġsu ms
Ġr anger
Ġout ermost
Ġtime less
Ġke l
ol itan
Ġun processed
Ġfl am
Ġher ring
te ach
gg er
Ġdi at
Ġtalk ative
Ġcook book
Ġ12 7
Ġslow ed
arr ied
Ġfoot work
Ġphoto cop
Ġalcohol ism
Ġestablish ments
Ġrag ged
Ġshred der
Ġherb icides
Ġreass ess
Ġbark s
clean er
Ġauthentic ation
Ġrecruit ers
Ġtransmit ter
Ġintro vert
Ġexhib iting
Ġexch anging
Ġoverh ang
Ġdishon est
Ġcustod ial
Ġinvolunt ary
Ġoph thal
Ġanap hyl
x s
Î ±
Ġm out
Ġfr othy
ul ously
Ġcl as
Ġup hill
Ġint angible
ist ing
Ġdis organized
Ġ5 10
Ġed itions
Ġspecific ation
Ġresult ed
Ġdoor ways
Ġfu nded
Ġloop ing
Ġ19 70
Ġhi j
Ġminimal ist
stre tched
Ġpoll ut
Ġphotograp hing
wind ow
km h
Ġimpul ses
Ġnarciss ist
Ġbibl iography
may be
bted ly
Ġhydraul ic
Ġeros ion
Ġwhel ping
j ac
y er
Ġa ld
or ative
ac c
Ġse ldom
Ġco er
Ġsc oli
Ġun o
Ġtrans f
cept ive
Ġsn out
Ġ20 17
Ġvari ance
Ġmedium s
Ġclos eness
Ġcross over
Ġchest nuts
Ġempt ying
Ġweak est
Ġadvantage ous
Ġesc apes
Ġfer ns
Ġht tp
Ġfav ored
Ġdisappe ared
Ġabnorm ally
Ġdenom ination
Ġcontest ed
Ġcance led
Ġcance lling
Ġresent ful
Ġmarch ing
Ġbless ings
Ġmyth s
Ġranking s
Ġtaper ing
Ġrender ing
Ġswift ly
Ġhern ias
Ġundou btedly
Ġscoli osis
b ank
g irl
p ark
v i
Ġp oth
Ġi ep
Ġd ha
se eds
il ia
Ġj ol
Ġj unction
Ġab stain
Ġke fir
Ġpur ples
Ġlocal ized
Ġredu nd
Ġspecial izing
Ġheav iest
Ġmac book
Ġrev ising
Ġtour ism
Ġboot y
Ġsyn opsis
Ġcroche ting
Ġannoy ance
Ġarc ade
Ġrecur rence
Ġspac ious
Ġxy z
Ġchandel ier
Ġnuis ance
Ġminnes ota
f ather
p hen
r an
Ġ Ï
Ġs ally
Ġm idd
Ġan ise
Ġch ile
Ġv ise
th row
ace ut
Ġunder taking
Ġins ane
Ġturn ip
app y
Ġoper ational
Ġpurpose fully
Ġut ilized
Ġpath ogens
Ġlie u
Ġguard ing
Ġfib rous
Ġpound ing
Ġhood ies
Ġmanip ulated
Ġcrown s
Ġsar ah
Ġhusband s
Ġox al
Ġcompos ing
Ġgi ants
cuss ions
Ġreinfor ces
Ġende av
Ġcruel ty
Ġinconven ient
Ġsteth oscope
Ġjewell ery
Ġmirr oring
a wn
f x
i ple
Ġt ib
ot um
Ġre app
et a
Ġst ave
ad just
pp ies
Ġad orn
Ġk arma
Ġim essage
os ke
Ġmin ister
Ġcr ude
Ġbas h
Ġcur v
Ġspec s
Ġ12 1
Ġrot ated
Ġstom p
Ġstar ving
Ġhors eradish
bre aker
Ġdepos itions
Ġhyp not
Ġconver ts
Ġrim med
Ġpy lor
Ġtransform ation
Ġbuck les
Ġwick er
Ġunemploy ed
rep resent
Ġnurt uring
Ġuncont roll
Ġmour ning
Ġmatthe w
Ġunfore seen
7 2
c age
he et
ve get
Ġon screen
Ġsh ag
Ġtr ou
Ġco ffe
Ġbo ast
Ġbu oy
Ġpat ron
Ġcook books
Ġshort hand
Ġhouse work
Ġrepe ats
Ġblack smith
Ġbase board
uff s
Ġcounter productive
Ġmist ing
Ġrad ial
Ġaw ait
Ġhom est
Ġcapital ization
Ġmit tens
Ġimplement ation
Ġskim mer
Ġsubsequ ently
Ġnonprof its
Ġais les
Ġdiure tic
Ġdelet ion
Ġdoork nob
d uring
l ah
m ot
Ġt and
Ġy ams
Ġy ummy
Ġp ike
on gh
Ġd rench
ir k
ul f
Ġco ars
qu ets
Ġv andal
Ġj on
Ġpo ets
em per
Ġover grown
Ġsl ush
Ġsl ipped
Ġrel ish
Ġunt o
Ġhead quarters
Ġpat rol
Ġbox ed
Ġsn ows
Ġconnect ivity
Ġeye lets
Ġmem oir
miss ible
Ġprompt ing
Ġdom ains
Ġpark insons
Ġgrowth s
Ġdial ysis
Ġjewel ers
Ġprop he
Ġmer cy
Ġcurl ers
Ġgest ational
Ġwhit en
Ġalphabet ically
Ġbudd h
Ġbic ar
Ġpige ons
sha ft
Ġoutbur sts
b ench
g as
o lo
Ġs aint
it arian
Ġin sol
Ġin patient
Ġe z
Ġhe red
Ġli ar
Ġj ac
Ġget away
ra ised
Ġun interested
Ġam u
rop hy
Ġtrans cription
Ġsn or
Ġincre ment
Ġblack s
Ġhang over
Ġtrack pad
Ġrat tle
Ġcart wheel
Ġbone less
Ġapolog ies
Ġblu ish
Ġrac quet
grad able
Ġadvoc ates
Ġblem ish
Ġner dy
Ġinterpre ting
Ġcaf es
Ġdiscretion ary
Ġdilig ence
Ġphob ias
Ġrenov ations
Ġbitco ins
Ġnotor iously
Ġcommod ities
Ġartich oke
Ġshoel ace
Ġentreprene ur
Ġpreoccup ied
Ġlampsh ade
Ġm um
an i
Ġh ulu
al d
Ġre ndered
ut o
Ġco h
Ġup sets
Ġhelp ers
Ġstart led
Ġunder take
Ġsa una
Ġprof iciency
Ġair y
Ġear buds
Ġprotect ors
Ġtow ing
Ġgre ed
Ġdough nut
Ġregard ed
Ġstomach s
Ġjew els
Ġmold ed
Ġmas her
Ġ19 80
Ġcarbon ate
Ġdecl ining
lar ge
cont rol
Ġray on
Ġoverdo ing
Ġnu clear
Ġmono ch
hem ian
Ġtriv ia
Ġdex ter
t led
u i
Ġhe eled
ep tion
un ctions
Ġme nd
Ġun le
Ġar ra
Ġhand brake
Ġcr annies
Ġrep orters
Ġexp onents
to cin
Ġcenter pieces
Ġrecord ers
Ġemot icons
uck y
Ġgra bs
Ġpar cel
Ġproject ion
Ġtrack ed
Ġhist ories
Ġdough nuts
Ġiron ed
Ġfac ep
Ġtrick ier
eter a
sh op
Ġcash iers
Ġdepend ence
Ġchew ed
Ġbio de
Ġacadem ics
bl adder
was hing
Ġgrasp ing
old s
Ġinappropriate ly
Ġsummar izing
Ġliber ty
Ġindian a
Ġell ipse
Ġarbitr ary
Ġoverpower ing
Ġcolumb ia
Ġnach os
Ġoll ie
Ġumbil ical
Ġcarbure tor
d ep
m t
w d
y x
Ġi q
on ies
se parate
Ġk ah
Ġfo aming
Ġbr unch
Ġqu ails
Ġtw ig
Ġam using
ren ces
Ġret weet
Ġsho cks
ph al
Ġprofess ions
Ġfollowing the
Ġscr otum
Ġconst r
Ġaff lic
Ġacid ophilus
Ġhost ility
Ġexperiment ation
Ġscan ners
Ġrev ised
Ġcarpet ed
Ġped ig
Ġginger bread
Ġ00 1
Ġjelly fish
Ġsed ative
Ġrespir ator
Ġceremon ies
Ġyell ows
Ġcommitte es
Ġreb el
Ġlgbt q
Ġintoler ant
upt ial
Ġcontrac eption
Ġextrem es
Ġreli ably
Ġoverr ide
calcul ate
Ġboomer ang
o les
Ġs ql
at i
at iond
Ġd or
le ment
Ġe aves
Ġcan y
Ġup lifting
ack aged
Ġro aches
Ġav id
Ġpur ity
Ġtem pered
Ġsin cerity
Ġbit torrent
Ġ7 20
Ġoffic iant
Ġanal ges
Ġdiagn oses
Ġemb ry
Ġhar p
Ġtoothp astes
Ġarch ived
Ġpant ies
Ġms n
Ġshif ted
Ġlubric ants
Ġrevol ve
Ġom bre
inst alled
Ġjohns on
dif ficulty
Ġparaph rase
Ġpalp itations
bus iness
Ġaccru ed
a ffe
j or
k ia
Ġa j
Ġa verages
Ġf ha
st eps
se y
Ġre loc
ver n
Ġwh irl
el le
and ex
Ġac orn
Ġun interrupt
Ġback hand
Ġbl ist
Ġset back
ry pt
Ġgl itch
Ġemp owered
Ġpad lock
Ġdust er
Ġuns ubs
Ġnegot iable
Ġchill i
Ġcham bers
Ġhall ways
Ġdel usions
Ġdismiss al
Ġnort on
Ġprocrast inating
Ġrecipro cal
Ġdum my
Ġdaydre aming
Ġging ivitis
Ġhiss ing
6 8
n ets
Ġp g
Ġp ledge
ar re
ar king
ot ed
Ġg it
Ġsp ans
Ġbr ut
Ġ2 10
ug reek
Ġkey chain
Ġbag gie
Ġfast ener
Ġheart felt
Ġgreen ish
Ġchicken pox
miss ive
Ġrot ations
Ġchart ing
Ġtun ic
Ġargument ative
Ġinflu ential
Ġhyd rop
oss ess
Ġhyper activity
cd ot
rog ens
Ġgrit ty
Ġdys lex
Ġlaun ched
Ġsniff ing
dog s
Ġeconom ical
Ġgour met
Ġcashe w
Ġdiscreet ly
Ġbage ls
Ġreper cussions
Ġreck less
Ġplagiar ism
Ġerg on
Ġkindergart en
Ġravi oli
Ġpylor i
m akers
Ġre think
is ation
Ġis ot
Ġch or
Ġpr unes
Ġun bear
pl ash
Ġhair y
Ġdog gie
Ġnumber ing
Ġsoft ness
Ġdoll y
Ġban ners
ilit ating
Ġchew s
Ġsyrup s
Ġwrist band
Ġbean ie
Ġproport ional
Ġmicroph ones
Ġcontinu ity
Ġmur de
Ġflashlight s
Ġparam eter
Ġcontour s
Ġstirrup s
Ġeuth anas
Ġbicar bonate
Ġa ol
Ġa pex
Ġs v
Ġto pper
Ġn icks
ic ations
Ġst ings
Ġsh atter
Ġcon co
ie re
em aker
Ġtim ers
Ġqu eries
Ġbl ushing
Ġgive away
Ġent icing
Ġlight ed
Ġsub consciously
Ġrep ossess
Ġrest lessness
Ġtell er
Ġsw ed
Ġstra ighter
Ġste pped
let te
com ings
Ġfacebook s
cut ting
Ġpregn ancies
Ġhost els
Ġboss y
Ġbi ome
Ġsubstit uted
Ġwarr ants
Ġbio graphy
Ġjell ies
Ġflor ists
Ġmile stone
Ġfranch isor
Ġbeard ed
Ġnort heast
Ġbb q
Ġanecd otes
produ ct
Ġsphe res
Ġabund ant
Ġclums y
Ġeuthanas ia
k Ã©
r ot
w ing
Ġthe s
Ġh ik
Ġre x
Ġr ca
Ġpo ppy
Ġbo hemian
Ġsc ares
Ġim pe
Ġinclud el
Ġgen ius
Ġmet rics
Ġshort comings
Ġinf rast
Ġtravel er
Ġpa using
Ġexc urs
Ġspl in
Ġtur bo
Ġreflect ions
Ġ19 50
Ġease ment
Ġmemor and
Ġspo iling
Ġoxy tocin
Ġast ro
Ġmast itis
Ġdigit ally
Ġrefresh ments
Ġmary land
Ġnom inal
Ġker atin
Ġgad get
Ġeuth an
Ġimagin ative
Ġrelev ance
acknow ledge
e al
f ru
y og
Ġf angs
Ġl ore
ent ions
ent ric
Ġsh iver
ur ally
Ġv iber
Ġsp her
Ġro bert
Ġgr unt
Ġsub du
Ġpot luck
res ist
Ġperform er
Ġplant ar
Ġinit iated
Ġdon key
Ġbudget s
Ġcraft y
Ġcd c
Ġadhes ives
Ġaqu a
Ġcha o
Ġnin ety
Ġprotocol s
Ġpawn s
Ġinher ited
Ġtas sel
sk etch
Ġresil ience
Ġfantas ies
Ġextraord inary
u ated
Ġt el
Ġs ips
Ġc program
Ġb um
Ġm ph
Ġm ba
Ġd ues
Ġin ks
Ġg ib
ch s
Ġco ps
Ġsp ay
os it
Ġcle ats
Ġav i
Ġstr ongh
ific ant
Ġfin ches
Ġcur ricular
ari o
Ġrece ivers
Ġfact ored
Ġfact oring
Ġorig inated
Ġrad ios
Ġpepper corn
Ġhoriz ons
cre ens
Ġhat red
Ġdil uting
Ġcos ign
Ġov aries
Ġbund led
Ġterrit ories
Ġinfest ations
Ġsnaps hot
Ġger anium
incre ased
Ġteab ags
4 1
c ating
d ark
m ong
Ġp out
Ġp iling
Ġe jac
ac ular
ss h
Ġsp ades
Ġbr un
Ġgr ates
po kÃ©
Ġsmo key
Ġmeas les
Ġfoot notes
Ġver mic
Ġ0 7
Ġones elf
Ġce o
Ġtrack ers
Ġitem ized
Ġmoment arily
Ġtrouble some
Ġextract or
Ġbroad ly
Ġdev il
Ġmotor cy
Ġchrome cast
Ġstream lined
Ġacceler ator
Ġdevot ion
aby tes
Ġdecongest ant
Ġdaydre am
Ġblanch ing
Ġoly mp
Ġstif fer
Ġf ren
Ġp ung
Ġg ees
et ric
ant a
Ġv ows
Ġac r
ak is
Ġper cuss
Ġjust in
Ġbot an
od il
Ġdisc laim
Ġcall ers
Ġart if
Ġwhite board
Ġir respons
Ġrepl aces
Ġcompl ains
Ġele ven
Ġtra ff
Ġindividual ized
Ġthro ats
Ġpillow cases
Ġviol ates
Ġexfol iator
Ġreven ues
Ġdenom inators
Ġreception ist
Ġhazel nuts
Ġom n
Ġreinstall ing
Ġprohib its
Ġoste o
Ġba its
Ġrupt ure
urop ath
Ġcrumple d
Ġthist le
Ġsabot age
Ġreiter ate
Ġextravag ant
a j
e f
s chedule
Ġb h
Ġb enches
Ġg ree
Ġbe aker
is a
ut ory
Ġas cending
Ġr ho
ble nd
fe ver
Ġwork able
Ġun not
Ġun app
ass is
ange red
Ġprov oc
oun s
Ġtext ur
Ġpublic ity
Ġmac he
Ġscrub ber
Ġdip stick
Ġcarp enter
Ġmid i
Ġprop osition
Ġquot ed
rom yal
Ġdent ure
Ġfertil ized
Ġsubtract ed
Ġtent h
Ġhistor ically
Ġelectro de
Ġrebuild ing
Ġwean ed
Ġthumbn ails
Ġcrut ch
Ġmaid en
Ġtux edo
Ġhoard ing
Ġrefurb ished
Ġoptomet rist
Ġgos pel
Ġunbal anced
Ġuninterrupt ed
p ret
r il
Ã ¤
Ã ¼
Ġt z
Ġt ales
Ġj ade
Ġsp ic
rop he
Ġpass ports
be aring
Ġstand by
Ġcount down
Ġmult itude
az ep
Ġbra nding
Ġple ading
sp ot
Ġsand box
Ġfinger ing
Ġrad iant
Ġshar ps
Ġtail bone
Ġimpact ing
Ġflex ed
Ġmotiv ates
Ġenem ys
Ġstro king
Ġnorth west
Ġpant ing
Ġmor ph
Ġcher ish
Ġgran ular
Ġdel inqu
Ġpod iat
Ġfoster ing
Ġphilosoph ical
Ġstereoty pe
wo lf
Ġdistribut ors
Ġskateboard ing
Ġtal cum
Ġteab ag
Ġstagn ant
Ġmement os
Ġorph an
Ġmemorand um
Ġspher ical
Ġunnot iced
h h
u ent
Ġp oodles
Ġh ars
st ered
Ġr ick
Ġsc ones
Ġres erves
int e
ang led
Ġform ulation
read s
read ing
me re
Ġreal izes
Ġspecial ties
Ġsystem ic
Ġnut ty
Ġfur by
Ġaud itor
Ġok lah
Ġcommunic ated
Ġsuper iors
Ġearn est
Ġtur keys
sh ave
graph ies
Ġcarp al
Ġmal aria
Ġboot ing
Ġinvent ed
Ġvag in
Ġtrash can
Ġsor bet
Ġq uran
Ġbod ied
Ġdump ing
Ġiv f
Ġsail ing
Ġnation wide
Ġgn ome
Ġscorp ions
Ġheir s
Ġsixt y
Ġinconven ience
Ġhipp ie
Ġenfor ced
Ġretal iation
Ġintoxic ated
Ġrheum at
Ġincapac itated
Ġtran qu
stret ch
Ġtrou bling
Ġinfrast ructure
romyal gia
p hers
er os
Ġbe ater
Ġha st
Ġse ren
Ġtr ance
Ġout stretched
[...]
