#version: 0.2
Ġ t
h e
Ġ a
i n
r e
Ġt he
o n
Ġ s
e r
Ġ w
e n
e d
Ġ b
Ġ o
Ġ c
h a
Ġ f
i s
o r
i t
n d
e s
in g
Ġt o
Ġ p
Ġ in
o u
a r
a l
a n
a t
Ġo f
Ġ m
Ġ d
i c
Ġa nd
a s
l e
o m
i d
Ġ ha
i on
i l
Ġb e
en t
v e
Ġ re
Ġ n
s t
o t
Ġ l
Ġ g
u t
a y
Ġ on
Ġ h
r o
a c
Ġ e
Ġ S
Ġf or
o l
l y
Ġ M
i g
Ġ he
ha t
Ġ C
a m
u r
v er
T he
o w
' s
i m
Ġ is
i r
e t
e l
a d
Ġw as
e c
Ġs a
t er
Ġt hat
Ġs t
Ġ B
Ġt h
u s
Ġ it
l d
Ġ A
Ġ "
Ġw e
it h
Ġsa id
Ġa t
il l
Ġ I
at ion
Ġw h
Ġw ith
c e
Ġa s
u n
er s
Ġa l
Ġ r
Ġa n
o s
or t
Ġf r
Ġ y
a nd
u l
e m
Ġ P
es t
Ġc on
Ġb y
e ar
he r
Ġ T
Ġha ve
p p
a g
r i
a in
Ġha s
Ġ W
Ġ 2
Ġfr om
Ġ L
o re
c h
k e
Ġa re
Ġ R
ig h
t h
o p
Ġ 1
ou r
Ġ H
Ġ D
ou ld
i f
Ġc om
c t
Ġd e
Ġ E
Ġ G
e w
Ġ le
t s
m ent
Ġh is
Ġs u
Ġp l
Ġ F
Ġn ot
it y
re s
Ġp ro
Ġg o
Ġ N
ar t
. "
Ġha d
i ve
Ġbe en
as t
Ġ v
Ġ -
ac k
Ġe x
o d
Ġ U
a b
0 0
es s
at e
Ġ J
Ġs e
ha n
u m
en d
Ġw ill
ou n
al l
re d
Ġs h
i es
is t
o c
u p
u st
igh t
Ġ (
ic e
q u
Ġb ut
Ġwe re
Ġwh o
ar d
g h
s e
Ġ j
i v
a k
an t
Ġa b
r ou
ou t
Ġthe y
g e
om e
r a
Ġs p
Ġth is
Ġa f
u d
ec t
el l
id e
Ġthe ir
Ġy ear
Ġw he
Ġw or
re n
o st
ic h
b er
Ġc l
o k
i al
Ġo ut
, "
Ġ k
h i
l and
r y
Ġ2 0
u b
Ġo r
Ġa g
u nd
Ġaf ter
on d
Ġa d
i a
u e
p t
Ġ O
Ġw ould
f f
Ġwh ich
Ġof f
Ġn e
on g
Ġ un
on e
ion s
Ġ K
Ġp e
p ort
an s
Ġin t
im e
Ġm an
re e
s o
op le
l i
ou s
or d
ay s
is h
Ġre s
t her
Ġ up
Ġm ore
u re
ic k
Ġo ver
Ġ20 1
p l
Ġa c
Ġpe ople
Ġal l
Ġpl ay
ar y
am e
Ġal so
Ġc an
ac e
Ġin c
Ġp r
Ġcon t
" .
w o
Ġd o
I t
ig n
Ġf ir
Ġab out
in e
ow n
Ġ us
ver y
p er
Ġt r
a ke
al ly
os e
ĠS t
Ġcom p
Ġm e
Ġp ol
H e
Ġon e
Ġ im
ag e
ha m
Ġn ew
at ed
Ġit s
en ce
Ġc a
ĠM r
ol d
Ġthe re
Ġp art
m er
oun t
ac t
e p
Ġhe r
' t
Ġs he
en s
m an
v ed
Ġwor k
l l
Ġf in
Ġwhe n
r it
id ent
Ġd is
Ġt han
a il
Ġfir st
Ġa pp
Ġs c
ar k
ver n
Ġw in
Ġs o
a v
i an
Ġt wo
Ġre c
Ġy ou
Ġa r
o in
ad e
d ay
Ġ The
Ġat t
Ġbe c
ation s
ou nd
Ġc ha
Ġs ec
Ġt e
ic t
ou gh
il d
r u
i re
is s
Ġ qu
Ġb o
Ġt ime
it e
us e
i b
Ġthe m
ab le
Ġad d
Ġl ast
Ġc ould
o g
Ġs er
Ġint o
w n
Ġgo vern
ul t
Ġin v
v en
f e
Ġ en
f t
Ġag ain
re at
he d
s s
res s
p e
as s
an c
Ġyear s
I n
Ġl o
Ġo ther
w e
Ġs ome
c ot
Ġ 3
e k
ol l
o b
i le
B C
Ġto ld
ac h
n e
ur n
u c
Ġl i
Ġgovern ment
Ġh im
or s
it ion
e f
an ce
Ġm in
und er
on s
Ġac c
Â £
in k
W e
Ġ ro
Ġj ust
Ġg et
n g
Ġbe ing
o ot
Ġsu pp
ĠL e
B ut
Ġw hat
le ct
Ġp re
Ġc h
Ġan y
Ġb ack
f or
f ore
Ġo ur
i e
Ġd ec
ĠU K
i ous
al s
Ġn ow
o ve
Ġk n
Ġle ad
it t
ing s
ic al
Ġ V
ĠS cot
en c
ub l
ĠU n
Ġbe fore
or y
Ġ under
Ġcom m
a p
Ġa m
ation al
Ġs ays
ver s
Ġbe t
ĠB BC
oc k
Ġa ct
Ġc han
M r
Ġ1 9
l ud
Ġn o
Ġre port
o ol
t on
Ġli ke
ĠC h
Ġp er
Ġ if
it ed
o y
Ġb l
oun c
Ġagain st
ve l
rou gh
n ing
Ġs ay
as e
ot her
Ġth ree
Ġm ade
Ġre m
i ed
ent s
Ġc ount
n er
os s
in ce
am p
Ġwe ek
Ġm on
rou nd
is e
ren t
00 0
Ġne ed
p ect
a use
a w
Ġr ight
Ġinc lud
ter n
w ard
at er
Ġ 4
Ġte am
ak ing
v ing
a re
Ġ end
Ġon ly
o od
s ide
l f
Ġd es
Ġ very
Ġc o
Ġde f
y ear
g ed
u ro
is ter
at h
is ed
Ġin d
Ġc ar
oll ow
Ġbec ause
Ġ Y
t ing
Ġim p
Ġd id
Ġm y
in d
as on
hi p
am il
Ġb r
ubl ic
Ġf oot
an g
Ġle ft
i x
ĠU S
Ġhe l
Ġadd ed
Ġc all
Ġsupp ort
Ġc r
at es
Ġe v
Ġ 5
rou p
al es
u es
ĠE ng
Ġoff ic
Ġh ow
ur ing
Ġmon th
Ġinv est
t y
Ġe ar
i el
Ġw ant
Ġf our
it ies
s on
Ġn um
Ġatt ack
Ġsec ond
Ġwhe re
Ġre g
ic es
Ġlo ok
em ent
l ed
Ġf ound
an k
Ġf e
ou th
T h
us s
v ice
Ġ Â£
Ġpol ice
u g
Ġsh ould
ro w
Ġd own
h n
ag ue
am es
Ġhel p
Ġcha r
m s
Ġcon s
Ġsh ow
Ġhe ad
ro ss
x t
ri b
Ġs et
Ġs ince
Ġm ake
Ġf ollow
at ch
Ġw ell
Ġ ke
ĠI t
g et
Ġwh ile
if e
our t
le y
re st
Ġth ink
ĠF r
Ġwor ld
Ġc ent
Ġm ost
Ġthe n
Ġf l
Ġt ake
Ġch ild
ĠI n
Ġth rough
re m
ĠH e
Ġman y
we en
c ess
ut ion
t e
Ġre t
m ed
u ch
ul l
Ġh ome
as ed
i o
res ident
Ġg roup
ĠB rit
Ġas s
g est
at ing
Ġs ign
ĠE uro
el f
it al
Ġb u
i p
ter s
Ġha lf
Ġ2 00
Ġd if
Ġm ed
Ġbet ween
Ġm iss
Ġth ose
Ġb ot
ha r
ort h
g an
t ed
e ver
em ber
Ġf ree
st er
Ġw ay
ĠT h
l es
Ġf amil
u res
iel d
h ing
) .
n ed
Ġst art
c on
is ion
Ġl ong
ĠEng land
Ġe very
Ġsh ot
Ġcon c
Ġcl ub
Ġp oin
Ġse e
Ġe m
Ġgo ing
Ġs ur
al k
b y
p en
om m
Ġr un
ch ool
i ew
Ġe lect
li e
ĠA r
A t
Ġw om
ĠM c
d u
Ġst ill
Ġo wn
Ġgo od
w ay
Ġnum ber
ĠM ar
al th
el s
ĠN ew
Ġcon f
b le
i er
he n
ur y
Ġse ason
he s
hi re
Ġt er
ham p
ĠUn ited
a ir
f ul
em pt
em b
Ġb us
e red
a ve
al e
Ġman ag
u al
Ġcont in
Ġh igh
ĠT r
an y
or k
c es
ment s
v es
Ġs ide
Ġp ut
Ġm ay
Ġg ame
Ġp ublic
ic s
Ġne xt
Ġkn ow
Ġ1 0
ĠW ales
Ġd ay
Ġcount ry
ĠJ o
' ve
ounc il
Ġ 6
ĠEuro pe
Ġt ak
le ar
Ġpl ace
Ġc amp
ou l
Ġt ri
ut e
g es
Ġw ar
ib le
ĠScot land
Ġre l
ow er
Ġha pp
ĠB r
Ġb ig
r ic
iv es
ad y
Ġsu ch
Ġfor mer
r al
y s
Ġm uch
ire ct
st it
Ġv ot
at her
Ġst r
Ġl oc
an ts
is ts
ĠC ity
us ed
er n
ers on
Th is
Ġc or
Ġex t
The re
S he
Ġd uring
for m
at ive
e e
Ġo pp
Ġs chool
r am
Ġk ick
a x
Ġbo x
Ġd on
o v
a im
ond on
The y
Ġs y
ut h
Ġan n
Ġin j
a j
Ġf ive
Ġw on
p ital
in ess
um p
Ġpro v
Ġbe lie
d er
Ġinclud ing
Ġc ur
ĠR o
im es
Ġre p
l ing
a red
Ġpl an
ĠLe ague
ul ar
Ġca re
Ġa round
Ġle g
Ġde al
Ġto p
Ġst at
Ġo pen
if ic
p r
ĠL ondon
Ġcom e
ĠA l
en er
Ġv ict
c ed
Ġpr ot
Ġinvest ig
re t
Ġg u
Ġg ot
Ġpre v
Ġha r
Ġpol it
er t
Ġs ix
Ġd et
Ġrem ain
ac es
ou se
Ġs m
Ġth ough
con om
ir d
Ġis s
b all
Ġcl aim
u gh
Ġe ven
Ġk ill
a ign
Ġfamil y
Ġd irect
i vers
g er
il ity
Ġchild ren
Ġdis c
Ġm ark
f ord
Ġm il
j ect
Ġbot h
os ed
in a
Ġres p
enc y
it s
od y
' re
Ġe ff
Ġthe se
ec ut
Ġh op
c k
ol ice
Ġnew s
Ġs ha
Ġg reat
on t
Ġp a
Ġcent re
Ġre f
Ġsu b
Ġn ear
m in
Ġt ra
Ġcamp aign
m e
Ġd el
one y
ĠS e
at t
a ff
Ġg iv
Ġst ud
Ġin tern
le g
ĠA nd
Ġus ed
p h
Ġe conom
Ġf ar
ĠD av
ur s
Ġtak en
her n
Ġex pect
" ,
pp ed
ĠI s
Ġbus iness
et s
Ġd ri
Ġto ok
ĠA ss
Ġp h
Ġ 7
ĠScot t
Ġre ally
ol og
Ġl ife
in es
Ġwin s
Ġb est
ĠW e
Ġl ater
r is
i z
Ġp ay
Ġtr ans
Ġplay ers
Ġfollow ing
Ġ ent
Ġcall ed
Ġt ry
i ver
ĠE U
Ġp ass
Ġas k
hamp ions
ab our
e al
Ġre pl
re land
Ġl aw
a z
Ġp ar
Ġinc re
Ġfin al
Ġin s
Ġv is
H ow
' m
du ct
t en
) ,
ĠA f
am ent
as h
Ġex per
Ġpro g
ĠC l
Ġsp ok
vel op
Ġa ir
or ld
Ġan other
Ġmonth s
Ġm ove
Ġmin ister
Ġha nd
Ġb re
Ġc ourt
our s
Ġloc al
at ur
b ack
Ġgo al
u red
l ine
is hed
uth or
Ġs ame
Ġc ame
v ices
aj or
om et
Ġg r
ĠC on
Ġc lear
Ġpart y
ru g
Ġ '
Ġto o
Ġde ath
d uc
b e
Ġm en
Ġfin d
Ġrec ord
ĠI reland
A nd
Ġp ri
un ity
Ġoffic ial
ĠM ay
Ġcl ose
ain ed
ĠJo hn
Ġsp ec
in s
. .
is m
Ġs ent
ĠC omm
Ġr is
st em
Ġr a
en ed
Ġy oun
Ġex p
Ġdif fe
Ġinv ol
f ield
Ġde p
Ġbu ild
ĠBrit ish
Ġhe alth
a h
Ġ Z
Ġret urn
A n
o ok
Ġrec ent
Ġj ob
Ġsu c
Ġcomp any
n ess
ĠI nd
he ster
Ġcont ro
n es
g y
Ġl ot
Ġout side
he ad
hi ef
Ġd ied
Ġf und
ĠC up
At t
Ġp oss
ĠW orld
ĠR uss
s hire
Ġo per
Ġac ross
re w
Ġin ter
t il
Ġf ail
or n
Ġcur rent
Ġp ost
Ġall ow
Ġa way
ri es
er v
e v
oc i
Ġim port
Ġspok es
Ġsu g
Ġ 0
t ic
Ġsy stem
Ġst and
Ġdo es
ĠB l
Ġm ajor
Ġre st
ll en
Ġme et
Ġpr om
F oul
li er
Att empt
ĠS outh
How ever
Ġfoot ed
Ġd em
Ġsp e
Ġc ase
Ġy our
Ġare a
id ence
Ġde velop
Ġd ays
igh ts
Ġm oney
b s
ĠS y
re ady
os ition
Ġwom en
Ġse en
ĠW est
Ġ ed
Ġdec ision
ce pt
Ġj oin
emb ers
Ġs us
he l
Ġc ity
res ent
u ed
Ġpro ble
Ġst ri
on es
Ġsc ore
Ġl ar
Ġde b
Ġg ener
b r
v iew
r act
os pital
Ġus e
Ġin f
Ġal ready
ur ther
ĠA n
Ġst ate
Ġc ol
Ġgiv en
Ġf ew
Ġs l
Ġun til
Ġc ost
u ally
et y
Ġm ain
ag es
Ġ1 2
Ġlead er
Ġsug gest
ort hern
end ed
Ġp erson
Ġhe re
ĠScott ish
c rib
end ing
ro wn
Ġmil it
id er
Ġw ent
id ay
ut es
Ġa uthor
Ġre ce
Ġs omet
ĠM in
ĠEurope an
Ġ [
A s
i ent
Ġ 8
c c
Ġex pl
u ge
Ġha ving
ear ch
iss ion
Ġsuc cess
Ġ Q
i red
Ġ201 5
i ence
Ġt urn
ens ive
Ġle vel
en al
Ġre al
Ġth ird
Ġser vices
Ġb all
Ã Ĥ
Ġc ouncil
Ġre le
Ġp resident
O n
Ġm at
i am
ock ed
Ġ1 5
Ġwork ing
at s
Ġf urther
Ġm embers
in al
a pp
ur ity
ĠB ar
Ġprev ious
and s
Ġcomp et
Ġapp ro
stit ution
Ġyoun g
Ġne ver
Ġt alk
Ġm ill
ĠA ust
r ist
Ġc ut
ĠL abour
Ġst aff
iv ed
Ġfoot ball
Ġcomp le
ward s
ist ed
Ġb ro
c hed
id ed
Ġsay ing
en n
ĠG er
Ġc rit
ut ure
Ġc he
Ġbet ter
w ays
ĠP ar
Ġtr ain
Ġqu est
Ġ201 4
ial ly
itt ed
Ġp ower
Ġl a
ĠS p
Ġmanag er
Ġint e
Ġp ast
ivers ity
ĠC ar
or m
Ġapp ear
ĠR e
I f
Ġpoin ts
i ans
Ġstat ement
Ġpro f
is on
Ġm id
d d
pl oy
Ġp at
m p
oc ial
Ġf uture
Ġear ly
atur day
Ġs im
f ic
Ġ Ġ
Ġg row
Ġg ames
ac ed
ĠB ut
b n
Ġplay ed
Ġc hief
Ġa v
Ġr ul
mer ic
ĠM P
2 0
Ġchan ge
Ġhar d
y n
Ġke ep
Ġag re
Ġl ost
ord ing
F or
ĠC hampions
Ġ1 8
ĠG l
Ġev ent
Ġp ress
Ġt ax
Ġf il
ĠS aturday
Ġf ore
i um
un e
Ġsh ort
Ġm atch
Ġs it
r an
Ġimp ro
Ġmed ia
Ġdes crib
Ġab le
anc hester
Ġwith out
Ġqu al
Ġwhe ther
w it
c om
Ġaf f
p s
und ay
ert ain
t o
Ġg l
Ġd ue
Ġt est
Ġf ig
ec ts
Ġimport ant
Ġw r
Ġcha llen
Ġar rest
Ġ est
Ġf ull
ecut ive
Ġreport ed
Ġthough t
Ġ 9
ĠJ an
Ġt ar
c o
Ġpol ic
Ġad v
Ġcon d
m ing
Ġelect ion
ru ct
Ġintern ational
ĠDav id
Ġres ult
Ġfor ward
Ġdiffe rent
ĠAf ric
if f
Ġ201 6
Ġfe el
Ġkill ed
Ġt imes
ion al
Ġser vice
Ġm o
hi le
ĠSy ri
ĠS unday
Ġ1 1
h ind
is ing
l s
Ġre qu
ĠTr ump
Ġt aking
th ing
ĠP r
Ġmin utes
Ġvis it
Ġex c
form ation
e b
Ġprog ram
Ġm ight
on y
Ġfor m
e x
Ġg ive
Ġm aking
Ġor gan
Ġbe hind
at ic
Ġris k
i or
ĠA meric
ĠAust ral
Ġsupport ed
en e
els h
Ġhe ld
ard s
ri ed
al d
Ġstr ong
Ġsomet hing
Ġf act
Ġpolit ical
t he
ounc ed
ĠP olice
anc es
Ġde vice
Ġ $
Ġmiss ed
ra w
ĠC ourt
Ġp o
ate ly
p le
Ġsu m
fic ult
Ġinte rest
ad io
ĠM s
ĠP resident
at a
Ġbec ome
Ġexpect ed
Ġf ire
r ation
ĠE d
ĠFr iday
ne y
i ol
im s
i k
Ġal ways
Ġle t
et er
Ġsa ved
Ġlead ers
l am
Ġag o
Ġpart ic
ed nes
Ġm ust
Ġask ed
i end
Ġf ace
Ġf ight
itt le
Ġfr iend
iv ing
ednes day
ren ce
Ġpoin t
Ġd en
Ġp op
Ġsu ff
Ġo b
Ġtar get
er ing
Ġpro p
Ġdif ficult
ĠA s
ĠG re
a ul
ĠN orth
ent ion
Ġe ach
ĠM ond
Ġ3 0
al y
Ġd one
g ing
se a
Ġs en
Ġinc ident
ret ary
ĠH ar
Ġ19 9
ĠW ednesday
Ġm et
ĠP rem
Ġn ational
Ġa head
Ġsec urity
s elf
ĠMin ister
ĠS w
m ost
Ġvot e
ect ed
re nd
uc k
ĠT own
Ġb ank
Ġth ings
Ġhe ard
ec hn
ĠW elsh
Ġl ess
ab ly
ĠMond ay
Ġh it
Ġf all
Ġpro cess
Ġc re
ĠJ u
p ite
Ġm ar
Ġcontin ue
Ġh ospital
ĠN orthern
Ġb it
Ġconc ern
Ġkn own
Ġpl ans
Ġear lier
ues day
u ary
ĠW ill
y ing
e ad
Ġper for
Ġs ocial
Ġh um
Ġmark et
Ġd ist
Ġinvestig ation
Ġs ing
Ġwith in
Ġplay er
Ġn ight
ep end
Ġhis t
st and
S ub
it ions
ĠG r
ed ia
Ġal ong
Ġin st
d e
Ġwom an
T hat
id es
ĠC am
ĠT uesday
r or
Ġ1 6
li ament
Ġsus p
Ġc ross
Ġmill ion
Ġl ed
Ġdirect or
ĠGer man
Ġcount ries
n ers
Ġm ur
Ġc our
Ġen ough
th ough
c l
Ġspokes man
Ġinvol ved
Ġj ud
enc es
Ġse ven
Ġ ÃĤ
Ġb en
Ġin formation
ĠN ational
ĠS he
Ġc e
Ġth reat
Ġh ost
ĠW ar
Ġd r
ort s
Ġact ion
Ġev idence
p ool
Ġser ious
Ġ ve
ĠJ une
ĠThe y
am ed
re et
n ot
Ġh ig
Ġsa w
Ġb ody
urs day
Ġh old
e an
Ġl ive
Ġh ouse
Ġweek s
ar ing
Ġle ast
Ġann ounced
Ġ201 3
Ġad m
ĠCh ina
as es
le t
ell ow
Ġt it
Ġ1 4
l ess
Ġsm all
Ġh ours
Ġre fe
ĠMar ch
Ġc ust
Ġl ittle
Ġlook ing
Ġbe at
ĠJan uary
Ġe ight
Ġex ecutive
Ġ201 2
ect ion
Ġbre ak
ĠA d
Ġin qu
Ġbelie ve
l in
ĠTh ursday
c hes
ĠC ount
o ff
Ġwant ed
Ġam ong
he re
Ġse x
Ġ1 3
as ter
Ġstart ed
Ġb ad
id ge
Ġdescrib ed
l ish
ĠM anchester
Ġco ach
Ġo ld
m y
it ing
Ġm om
ĠC o
a f
ĠBrit ain
Ġp ot
Ġrepl aces
an n
Ġse ver
5 0
ĠM ic
d s
Ġposs ible
w ork
Ġind ust
pr il
W hen
ĠP ro
M edia
her s
ĠY ork
Ġb an
Sub stitution
Ġpro s
M s
ot e
Ġv iew
Ġ ens
ĠS er
Ġs k
Ġbe g
ĠA pril
an e
Ġs qu
Ġt echn
Ġro le
Ġplay back
Ġconf ir
Ġm od
Ġlike ly
Ġprogram me
iv al
Ġwh y
if ied
Ġdid n
Ġbl ocked
Ġy et
in c
g o
it ive
Ġplay ing
Ġst ar
Ġd ou
ent ial
Ġsever al
Ġcom ing
ĠC ouncil
Ġe qu
Ġro ad
Ġl at
Ġl ine
Ġfir m
Ġt reat
Ġca pt
oc r
Ġopp ort
Ġle ave
il y
Ġd ro
Ġ1 7
Ġlar ge
Ġv iol
ific ant
ĠC ol
Ġacc ording
olog y
S t
Ġmilit ary
t ime
ons erv
itt ee
at or
ĠW h
Ġf ac
Ġla un
ak es
Ġiss ue
H is
a i
Ġvict ory
Ġbr ing
Ġoffic ers
Ġspec ial
Ġr an
H S
Ġde ad
ĠP ark
ĠCh rist
Ġr ound
Ġcor ner
Ġneed ed
ac y
A l
ly mp
le x
Ġpro duct
A f
Ġre view
ĠChampions hip
a u
ha el
Ġus ing
Ġl ow
Ġw rit
e y
Ġse em
Ġcon v
Ġal most
Ġar g
Ġen g
Ġperfor man
Ġstri k
Ġare as
o ke
t i
ĠCount y
ĠD ec
Ġser ies
Ġfin anc
Ġcomm unity
b ur
Ġe mer
Ġtry ing
duc ed
Ġe as
Ġreport s
l o
ĠJu ly
O ne
o ber
om b
Ġn et
ĠUn iversity
Ġe ver
Ġcontro l
Ġget ting
C or
Ġb ar
ag ed
om in
p a
Ġdo ing
Ġc ou
Ġl and
Ġquest ion
f er
Ġ5 0
c ast
Ġschool s
Ġpro per
Ġem ploy
Ġl ate
pt ember
ad ing
Ġd rug
ĠO lymp
ĠFr ance
Ġofficial s
g ency
Ġcrit ic
Ġs ite
Ġne g
om es
ul ts
' ll
Ġ ur
Ġpr ison
Ġd ata
Ġdef ensive
m ber
Ġpri v
Ġ1 00
Ġpartic ular
Ġst ay
Ġarrest ed
ec h
i od
id d
Ġs old
ĠSe ptember
ĠG e
ĠD em
Ġg round
or ies
Ġinj ury
Ġhapp ened
Ġde fe
Ġh uge
av ing
Ġw ater
Ġ es
ĠJ ames
Ġeconom y
Ġed uc
Ġ2 5
Ġv al
Ġind epend
Ġmeet ing
Ġme ans
Ġact iv
s p
os ing
Ġb ill
Ġacc used
a ugh
Ġto get
end er
Ġf ans
Ġp enal
Ġg ir
Ġauthor ities
our n
Ġorgan is
ĠS ec
Ġtoget her
ren ch
ick et
el t
Ġsh own
Ġ ident
Ġfig ures
Af ter
Ġe l
ĠC onserv
ĠR adio
Ġscore d
i ents
Ġd am
Ġrele ased
wit ter
en g
Ġke y
Ġto wn
Ġf oc
Ġs ol
st r
Ġfr ont
re x
Ġlat est
Ġleg al
en ing
Ġben ef
Ġcha ir
ic ally
Ġimpro ve
Ġresp ons
ĠDec ember
i ers
s el
Ġ ide
ĠPrem ier
Ġl ink
ist an
ove mber
ĠM or
Ġto t
Ġc ard
art y
3 0
Ġsu re
ell ing
Ġeff ect
Ġsum mer
ĠWill iam
ĠA b
a ud
p ar
Ġother s
am a
Ġpro ject
ĠG o
art ment
Ġmom ent
Ġs w
Ġd i
Ġper iod
Ġacc ess
Ġrece ived
ĠN ovember
Ġar ri
Ġfor ce
Ġme an
ac hed
Ġor der
up t
Ġp osition
Ġproble m
Ġon ce
Ġcom es
ul ation
Ġmur der
ĠI r
ĠS port
Ġchan ce
ir on
Ġimp act
Ġl ist
Ġcour se
ĠE ast
Ġbuild ing
Ġsign ificant
Ġfail ed
at ives
Ġ2 4
ĠT witter
ĠM o
ress ed
ct ober
Ġfinanc ial
Ġbec ame
ĠAss isted
ul ly
ove red
Ġdis app
ĠD r
Ġpolic y
P olice
un g
ch ie
Ġ2 1
Ġcons ider
Ġst age
Ġfor ces
Cor ner
Ġm ess
ug ust
Ġr ace
Ġw a
it or
Ġst op
u ation
ĠG u
ĠAfric a
ĠO ctober
ard iff
Ġm other
.. .
at ors
ĠC ent
Ġbot t
Ġtit le
Ġo cc
ĠIs lam
Ġcont ract
Ġgener al
Ġy n
ĠS m
Ġatt empt
ced ed
Ġhop e
Ġcom pl
o ver
l er
ĠA ugust
Ġhum an
Ġcurrent ly
S o
Ġgo als
land s
Ġth ing
or ters
Ġp ubl
z e
ĠM ark
iver pool
Ġm us
sel ves
at ure
Ġ2 2
rough t
Ġtri al
Ġbig gest
a ult
r ing
s h
ke y
ĠCon ceded
Y ou
Ġbe gan
ff ic
Ġwe bs
Ġal le
Ġiss ues
i ber
Ġchan ges
ĠRuss ia
ĠR ep
Ġv ide
Ġ201 1
Ġcan c
Ġb oss
Ġme as
Ġsign ed
Ġc oll
ĠB e
Ġo pt
iv id
Ġdes pite
ĠR oy
Ġeconom ic
Ġa w
ĠAustral ia
eb ru
ebru ary
ĠP h
Ġc ertain
Ġinclud e
Ġattack s
Ġshow ed
ver age
g r
Ġincre ase
Ġapp eal
ren ts
Ġcust om
Ġg ave
ĠSt e
Ġneed s
Ġto day
Ġp le
on ald
ar n
Ġperforman ce
ĠSyri a
ĠO ne
Ġst ep
ĠF rench
Ġproble ms
ĠJ ones
Ġa p
Ġre b
Ġinf l
Ġpress ure
ĠN HS
ĠF ebruary
Ġsa f
ĠNew s
an ies
ĠP aul
iv il
Ġc and
Ġbo ard
r ay
Ġqu ick
Ġst ory
Ġre ve
Ġ19 8
est s
Ġar t
Ġof ten
Ġm or
ĠC or
ut y
Ġdet ail
y m
Ġchar ge
Ġhist ory
Ġm ember
ang er
ed s
Ġp resent
ough t
Ġgroup s
Ġfund ing
Ġcare er
Ġon line
rem e
Ġen c
Ġm ot
pt on
du ce
e ared
W hat
ib ility
r s
Ġw ing
h o
Ġres earch
Ġa chie
Ġp os
Ġr ather
Ġens ure
Ġb rought
pp ing
Ġbo ok
Ġprov ide
Ġav ail
i ke
ĠInd ia
Ġindust ry
Ġ4 0
ad es
Ġn orth
ob al
Ġsqu ad
Ġrep resent
Ġn ine
Ġdisc uss
Ġjob s
Ġr ights
Ġ2 3
Ġinqu ir
Ġtrain ing
b ers
Ġa ge
ous ands
y an
Ġl im
b ook
Ġin it
Ġl oss
Ġpa id
Ġconcern s
Ġfil m
Ġeduc ation
Ġt re
S ome
er ry
Ġcar ry
Ġac cept
et t
Ġcand id
Ġcomp anies
Ġbro ad
ĠMic hael
Ġca pital
Ġcomm un
k s
ain s
Ġsaf ety
Ġconfir med
c a
it her
ec e
id ing
Ġdes ign
ĠD e
Ġrel ations
ord er
ĠRo ad
Ġal though
c ha
Ġqu ar
Ġsp ent
v iron
Ġn ame
il ar
ĠT ur
Ġre ach
oci ation
ĠP al
rug g
al ed
Ġto ur
Ġd raw
Ġbelie ved
Ġf ood
qu e
Ġle ague
Ġsa fe
Ġagre ed
ĠCam er
Ġunder stand
Ġc y
rex it
ir c
ĠS h
ĠT V
ĠH ouse
ve ll
ess ion
Ġprevious ly
ĠM ur
Ġw ide
Ġres ults
Ġw atch
Ġext ra
all ed
Ġclaim s
Ġfamil ies
Ġchallen ge
N ew
Ġwork ed
Ġab s
Ġalle ged
ud get
ĠGe or
Ġqu ite
o x
Ġl ives
Ġter ms
Ġsc he
itt ing
Ġto wards
Ġgrow th
S T
Ġcar ried
ĠIr ish
Ġclaim ed
Ġst rugg
Ġremain s
ĠA lex
Ġwr ong
ur ies
rend um
' d
Ġal leg
Ġacc ount
1 0
Ġt y
Ġp res
Ġexper ience
viron ment
Ġsit uation
ot i
Ġsp ort
Ġsen ior
Ġf ather
Ġcomple te
ĠC an
r on
ĠA m
Ġc le
Ġavail able
ĠRep ublic
Ġp ick
Ġpa rents
Ġse ek
oin t
h ic
im ate
ĠS am
Ġ i
ab ility
Ġst e
Ġ201 0
ĠS ha
ĠC har
Ġs ect
Ġr ise
Ġw alk
Ġpat ients
ĠR ob
Ġind ivid
r ain
ug by
Ġwebs ite
Ġj ail
as ing
ĠUn ion
og n
Ġsha re
ĠM art
Ġpenal ty
Ġhim self
Ġch o
Ġlook ed
o f
Ġb ased
Ġw ants
Ġcont act
Ġvict ims
Ġbott om
hamp ion
Ġwin ning
et h
Ġc ivil
om an
Ġhelp ed
g ow
us h
Ġrun ning
e per
ĠMP s
Ġam b
Ġb as
u k
on n
Ġc ases
u el
Ġtot al
Ġoffic er
Ġrefe rendum
ra ft
ĠRuss ian
M ore
ĠT hat
re am
Ġsu per
Ġdefe at
r upt
Ġf elt
Ġter ror
Ġbe ha
Ġany one
hel sea
Ġpro b
Ġf av
ace book
Ġpot ential
it ness
Ġopport unity
as gow
in n
W ith
Ġca p
ict ed
Ġcan not
op s
Ġoff er
Ġhe art
Ġwho le
Ġfore ign
Ġint ro
Ġun c
il s
Ġm ass
Ġcou ple
ĠP arty
ĠY ou
ig r
Ġteam s
ĠSm ith
Ġtr ust
p or
Ġfin ish
ĠS c
in t
le ment
Ġdef ence
om p
Ġinj ured
ĠH ol
er gy
Ġf ell
Ġwh ose
Ġattack ing
ĠMc C
ĠSt reet
Ġl iving
Ġsim ilar
Ġso on
Ġopp osition
Ġsing le
ĠH am
Ġprot ect
ra z
ĠC ardiff
Ġweek end
ĠAmeric an
Ġag ency
y r
ĠM us
Ġwar ned
ĠA t
M T
us ing
C h
Ġcl ass
Ġor ig
in ation
Ġvide o
Ġlead ing
Ġfriend s
ĠO ff
ĠRoy al
Ġc hampion
Ġca used
Ġs on
Ġmid field
Ġc oun
ĠP l
ition al
ĠCamer on
ĠCh ris
il t
ĠB ST
Ġcom ment
Ġcl osed
he st
im b
ak er
Ġwork ers
B BC
Ġve hic
ct ion
ad em
Ġ er
wo od
Ġdet er
st on
enc ed
Ġoff ice
if y
Ġevery one
ĠB rexit
Ġend s
ĠD an
Ġquar ter
Ġadm itted
P ro
ĠT e
Ġv ol
Ġstud y
ĠF or
ĠB en
Ġg one
ĠEng lish
ĠBl ack
Ġtr ade
oin ted
l or
u ff
Ġstud ents
ĠComm ission
ĠM an
Ġdou b
Ġp red
Ġreg ion
ĠM ad
ill s
Ġk ind
Ġb att
d ow
Ġopen ing
Ġdevelop ment
c ome
Ġpr ime
Ġfour th
ines e
Ġgl obal
Ġy ellow
n o
ĠGerman y
ĠMr s
w ell
Ġchar ges
Ġpar liament
Ġan ti
har d
Ġden ied
Ġpr act
is es
Ġtr ack
ham pton
und red
Ġw el
ic ated
n ow
Ġthem selves
ir st
Ġlong er
Ġtalk s
Ġjoin ed
Ġsome one
Ġce le
ar s
on se
Ġmo ved
Ġex am
Ġrec ogn
Ġen ergy
Ġr ate
ĠR ic
ĠF acebook
Ġhig her
Ġph ot
Ġrecent ly
ourn al
h old
Ġinquir y
em ents
v i
ur ch
Ġinvest ment
ra ph
Ġchar ged
Ġcomm ittee
Ġany thing
Ġt ell
Ġsuff ered
Ġneg oti
ĠL iverpool
ĠTh is
ĠO r
s c
ĠK ore
Ġmajor ity
G o
Ġd anger
Ġapp eared
ĠRo ber
Ġc irc
Ġth ousands
Ġbe l
Ġte ac
Ġdem and
Ġl ight
1 5
Ġf re
ĠAss ociation
Ġmor ning
Ġab use
un t
Ġinclud ed
b or
ent al
Ġfav our
Ġdis p
Ġh on
ĠWilliam s
ĠM al
ĠT om
ens ion
Ġor d
Ġra ised
Ġres ident
li ed
y a
ent ly
bur gh
Ġallow ed
Ġsp ot
Ġmus ic
ugh t
Ġran ge
Ġresp onse
Ġa ut
Ġpriv ate
L ast
ĠDem ocr
ot h
Ġt w
ap an
ĠGl asgow
ec ess
n el
in ed
Ġin side
ĠO b
Ġ2 7
Ġtreat ment
ed d
Ġt ro
1 9
Ġs outh
Ġcapt ain
f ort
Ġinj uries
R e
Ġ2 6
Ġdeb ate
Ġbeg in
Ġle aving
Ġa ward
Ġde v
Ġl if
ive ly
Ġb udget
um b
Ġl ack
Ġcon st
ĠN or
Ġcol lect
Ġa im
Ġr out
Ġim m
ĠSec retary
Ġ2 8
Ġ201 7
i ant
Ġm akes
Ġlo ve
Ġo il
ĠP eter
Ġp ict
Ġturn ed
Ġcr is
Ġnot hing
Ġpubl ished
Ġsche me
Ġcontin ued
L e
ra q
er y
Ġhe av
Ġaff ected
Ġrul es
Ġf ear
ad ium
ĠS ir
Ġ19 7
Ġev ents
augh ter
Ġinter view
ur al
we et
fe rence
Ġh omes
med i
Ġb omb
Ġprob ably
Ġg old
ĠD ep
ang ers
Ġn amed
Ġm is
oc u
Ġsec retary
j oy
r ict
Ġtri ed
Ġmat ches
u ing
Ġf un
Ġres pect
Ġcond itions
Ġchair man
y d
Ġperson al
Ġmat ter
Ġcompet ition
ĠE l
ed er
ĠU N
A ll
Ġbl ack
os p
w hile
y le
Ġcons ult
b our
ar i
a id
Ġpart ies
ĠH igh
Ġact ually
Ġcele br
y l
Ġc red
Ġpr ice
Ġdec ided
Ġcris is
ĠL ord
ĠE x
Ġst o
Ġevery thing
ĠF ar
Ġd est
ĠH al
ĠOff ice
Ġviol ence
Ġto urn
Ġbo y
ĠC r
Ġcost s
ĠThe re
Ġsur v
or ing
Ġprog ress
Ġprev ent
il ty
Ġre d
Ġresp ond
ĠA ll
b ased
ĠC ha
ĠCh inese
Ġp ark
ĠB ank
re ad
ĠI S
w ich
ra el
Ġcol le
s w
Ġalleg ations
Ġt em
Ġsuccess ful
op e
it ch
Ġcon n
ĠOlymp ic
Ġf ield
Ġshow s
p ro
m ark
in burgh
Ġsuggest ed
Ġprop os
W hile
Ġen joy
ĠP e
ĠGeor ge
Ġs earch
Ġre ason
l ight
Ġp ain
Ġun ion
Ġest ab
Ġh ous
Ġgu ilty
k y
Ġam ount
Ġlaun ched
Ġre n
ĠI raq
Ġn on
ag n
v al
Ġfe at
Ġg un
li ke
Ġca ught
Ġmiss ing
i j
Ġcr im
o id
Ġter m
Ġb od
Ġcl os
Ġ ill
Ġdo ct
Ġhapp y
Ġnum bers
re en
Ġconc er
Ġwr ote
Ġd iv
Ġend ed
Ġass ist
Ġt ack
Ġide a
on a
at han
ĠQ ue
ic ation
Ġfoc us
Ġnear ly
ve y
Ġtak es
Ġsp ending
Ġcont rib
ol ute
Ġtra vell
Ġhapp en
Ġadd ress
ĠS up
Ġan im
Ġparticular ly
ĠA ng
c el
Ġm em
tern ational
res p
ad a
ĠSt ate
Ġpre p
elf ast
a ur
ot t
Ġfollow ed
Ġd ocu
Ġtechn ology
our ces
Ġa verage
Ġchar ity
Ġcustom ers
el tic
ĠJ ust
ĠJ ack
Ġca use
ĠN e
p ec
ĠG MT
Ġph one
Ġen vironment
Ġbu y
Ġsur pr
Ġc hampions
Ġrelations hip
Ġdoes n
u le
Ġagre ement
T wo
ĠW il
v ious
amp le
c y
ĠM on
Ġro om
m a
Ġsupp orters
Ġt able
Ġtra vel
Ġn ation
Ġfor ced
ĠĠ ĠĠ
Ġst ation
S cot
Ġpri or
ĠP ort
oci ety
Ġdel iver
Ġse par
Ġprof ess
ak istan
Ġpar ts
g u
ot s
Ġcr ime
Ġmed ical
ro p
ĠM il
ĠPh il
Ġsp ace
Ġappro ach
Ġenc our
Ġpo or
ĠN ot
Ġhead er
Ġj ournal
ĠF ore
Ġim medi
p ly
Ġtr ad
Ġw ife
vern ment
1 2
om ing
ĠK ing
Ġfin ished
Ġstrik er
Ġpe ace
ag ing
ow ers
ĠP ol
Ġincre asing
r ight
as ons
em i
ĠH ow
ices ter
ĠM ac
oun ce
Ġp ur
Ġsex ual
ĠJ apan
Ġcre ate
Ġlevel s
U n
Ġb order
Ġag ed
se x
Ġreve aled
Ġindepend ent
Ġmidfield er
E ng
Ġe ither
b ed
ad d
b ody
ĠA ir
ĠP at
Ġche ck
Ġc ult
Ġre ad
Ġapp l
ĠMc G
ĠI f
ast ic
Ġc reat
ol a
pl ay
undred s
Ġm igr
ĠB elfast
Ġjud ge
nd er
Ġpop ular
e es
Ġass ault
Ġp up
ĠConserv ative
Ġh ot
ĠM att
il ities
Ġpolit ic
Ġlo an
Ġrun s
Ġnet work
1 6
F ollow
I P
Ġme ant
Ġdri ver
Ġe y
Ġstri ke
ĠPar is
om as
Ġ2 9
t ies
ĠEd inburgh
Ġquest ions
Ġw orth
c ial
Ġcr ash
ore d
Ġcall s
Ġs ales
is ions
ol ution
F r
Ġpos itive
Ġatt ract
min ist
le tic
an a
Ġ z
ĠW ood
ig er
ĠL ib
Ġde ep
Ġbelie ves
ĠM er
m ar
Ġkn ew
es tern
Ġte le
re g
re y
Ġqual ity
Ġa ud
ig ration
raz il
amil ton
Ġb ur
Ġpl aces
Ġcom b
ĠMart in
ir ming
i et
ĠIn ternational
Ġ X
Ġc row
Ġsect or
v ent
Ġsc ene
is l
ĠRo vers
Ġsus pect
Ġtourn ament
ĠGre en
ĠR es
Ġpr ices
Ġprom ot
ĠHe alth
Ġre ached
Ġbusiness es
Ġincre ased
Ġl ower
Ġvisit ors
Ġdo g
ĠIs rael
D r
r id
b and
Ġwin ner
Ġreturn ed
c he
ic ations
Ġquick ly
Ġbr other
Ġh ol
% .
ain ing
Ã ©
ha lf
ĠT wo
irming ham
ĠC helsea
Ġoff ered
Ġb ow
Ġat h
an sea
ra p
ĠS im
ĠWh ite
Ġmiss es
Ġs at
ud d
Ġstr ate
Ġclub s
Ġup d
Ġco al
t r
Ġchan ged
Ġt weet
Ġreg ul
Ġcons um
k en
Ġ200 9
Ġcomm ission
Ġeff ort
Ġhe aring
Ġcom ments
Ġsh oot
ĠOb ama
Ġcanc er
Ġre v
rupt ion
Ġfight ing
T o
ĠMus l
Ġm ob
Ġcent ral
ce ed
in son
Ġest im
Ġcon duct
ac ing
y dd
Ġse lect
Ġ200 8
Ġadd ing
Ġc al
m en
ĠI ran
Ġbu ilt
ĠPar liament
end s
Ġn orm
Ġco ver
ĠL u
stit ute
ĠK en
Ġs il
b ury
ĠB el
The se
Ġhig hest
ri an
op er
Ġex ample
Ġb id
es e
For mer
Ġmess age
k ed
ir th
ten ham
Ġinfl u
ang u
ĠP akistan
ĠA th
Ġwas n
al ys
n ight
Ġph ys
j ects
Ġlar gest
Ġlet ter
Ġdetail s
er by
ĠC rown
Ġset t
Ġvict im
Ġemer gency
ill a
se qu
Ġlaw y
ar a
ĠB rown
Ġke pt
Ġdrug s
Ġcomm it
Ġopen ed
Ġb ab
Ġref uge
N P
ean while
Ġeng ine
ject ed
Ġoper ation
Ġre pe
ĠE m
ĠAd am
Ġelect ions
Ġcut s
Ġte en
Ġwe ap
Ġf air
Ġ6 0
O ur
Ġw itness
Ġr ates
d en
ĠDep artment
g ent
Ġdri ving
Ġres c
Ġgrow ing
om en
resp ond
ĠAnd rew
in ary
Ġtrans fer
Ġin n
ĠA ber
ĠT est
Ġdis m
Ġsl ow
ĠG roup
ĠSyri an
Ġs emi
ĠPr ime
ĠR ed
Ġplan ning
Ġex ist
Ġab ove
ĠAfric an
Ġf oul
br idge
a e
Ġminister s
Ġf ly
Ġits elf
pe aking
Ġass ess
as hed
ren g
ĠE n
? "
ter m
ĠJ on
E ar
b o
Ġmeas ures
M eanwhile
Ġcre ated
k rain
m on
Ġf ast
uc lear
oot ball
Ġp i
ear c
â Ģ
oun ts
ĠF er
Ġachie ve
ĠS o
5 00
Ġg as
ad ed
ay lor
Ġro w
if th
Ġann ounce
Ġe uro
Ġconf l
il leg
Ġhe ar
Ġcrim inal
n a
ro y
ur t
Ġr ugby
Ġspe ak
Ġm ater
og raph
Ġem b
Ġgiv ing
Ġfig ure
Ġg en
Ġdef ender
Ġreg ular
ĠB ro
Ġcon ference
g han
Ġchar ac
Ġhand s
it iz
Ġp un
Ġpop ulation
ĠH ospital
ĠIslam ic
l us
ĠG reat
Ġext reme
Ġsa ve
if t
pec ially
ap s
Ġne igh
ĠH er
Ġmil es
ĠS al
Ġcomp ared
Ġleaders hip
Ġs ides
Ġle ar
Ġf ix
f act
o or
Ġcon side
Ġconside red
Ġto ugh
vi our
ĠF A
Ġhow ever
Ġdam age
k m
ĠB razil
Ġconcer ned
as hing
Ġcont r
Ġp an
Ġwork s
ell ed
Ġmin ute
Ġrec omm
ĠYork shire
2 00
Ġs elf
Ġv ill
Ġdeb ut
Ġre ady
Ġd aughter
Ġval ue
Ġad minist
Ġes pecially
Ġt rib
emb ly
ruct ure
Eng land
A cc
at ory
ep hen
ĠW at
Ġbl ock
S ec
Ġleg isl
ict ion
Ġbatt le
Ġacc ident
air s
Ġre act
Ġexper i
Ġgir l
k es
ĠAmeric a
ĠE v
ĠG ames
Ġem ail
Ġtw ice
1 4
Ġst reng
os h
c ell
Ġcomm itted
Ġ illeg
ĠSer vice
Ġcompl ain
Ġconf idence
Ġcritic ised
ĠJ e
Ġspe ech
Ġmanag ed
Ġorganis ation
m outh
ĠB ur
Ġdec l
v ision
ĠJohn son
er ve
ĠAustral ian
Ġhop es
our ce
Ġarri ved
e re
Ġpart ners
Ġsc ient
Ġf ifth
Ġbl ood
N o
Ġrem o
ĠLe e
Ġgo es
il ed
Ġst ra
Ġdr ink
Ġro b
ĠPro f
Ġann ual
Ġf em
Ġst ates
Ġres ign
us es
Ġresident s
Ġpros ecut
ist ry
ĠC han
o le
S peaking
Ġproper ty
Ġrele ase
ĠQue en
Ġc ru
Ġsim ply
olute ly
ver t
Ġbeha viour
ag er
Ġfl ood
eal and
ĠZ ealand
Ġus ers
Ġplan ned
Ġ19 6
J o
Ġjust ice
Ġan sw
ĠN et
Ġbo ost
Ġcontro vers
ĠS out
Ġtre ated
Ġn uclear
ĠDav ies
Ġmain t
by n
ĠB er
in als
Ġeff orts
h ol
ĠKore a
ĠTr ust
Ġ3 1
ĠTh omas
Ġsec ure
M any
Ġm ental
ke eper
ell ig
ĠR io
M y
ut ed
Ġcond ition
Ġdis e
ib ly
Ġprov ided
Ġd ram
Ġav oid
ĠGr and
ud e
Ġcar s
ĠAr s
is ation
Ġl osing
ĠHal f
u pp
ph y
ĠO pen
ig g
ag h
Ġv ir
C C
Ġdem on
Ġl ose
ell s
ĠK e
it es
Ġra ise
Ear lier
Ġcall ing
Ġsen se
Ġindivid ual
ff ield
ĠR yan
Ġb at
Ġs har
Ġh our
ve re
ha ps
ĠRic hard
Ġprofess ional
ruct ion
Ġp ack
Ġpass ed
Ġcomp ut
ĠV al
d own
ĠL ew
ĠD un
Ġr ail
ĠL iber
cast le
Ġpre t
Ġseem s
ĠU krain
Ġqual if
ĠAf ghan
n s
ord an
Ġkill ing
B y
ist ic
Ġr ank
Ġdanger ous
ĠAr ab
1 7
Ġm ult
Ġn ecess
ail y
w oman
ĠB irmingham
Ġd omin
Ġprot est
Ġm ist
Ġsusp ic
ick ets
Ġwh ite
am b
Ġchan ces
im um
Ġdef end
Ġl angu
Ġcor respond
Ġpup ils
ĠTur key
ut in
H er
ĠAth letic
de en
Ġb irth
pa per
m it
ĠC eltic
am er
ĠS NP
Ġro ck
Ġrul ed
i pp
h y
x ford
Ġc itiz
Ġel se
ĠB o
Ġp ers
ĠMur ray
Ġco ast
Ġpol l
Ġmo ving
m es
Ġp age
ĠD ay
ab in
Ġcandid ate
a ren
Ġref lect
ĠT aylor
ĠM ill
ĠInd ian
Ġ3 5
ĠAl b
p ir
Ġ ver
Go al
m as
od e
Ġun iversity
Ġcertain ly
Ġdro pped
ĠF ootball
Ġiss ued
Ġstra ight
N ot
Ġh or
Ġh undreds
be at
Ġf ully
ut ions
Ġrece ive
rou d
Ġconfl ict
ac ts
Ġfac ing
Ġp owers
av es
r ick
ist ol
1 8
est ival
ĠD onald
Ġcomm on
use um
Ġalong side
Ġsusp ended
ĠIt aly
ĠC al
4 0
is c
Ġsp orts
D es
P e
ec k
for ce
ĠCor byn
Ġk id
Ġpolit ics
Ġrespons ible
m ond
Ġlaun ch
Ġp air
Ġcrow d
Ġinst ead
Ġlink ed
1 3
Ġjail ed
Ġc ash
Ġnews paper
Ġre duce
port s
Ġd ate
Ġcontin ues
ting ham
al ity
go ing
Ġent ire
Ġmanag ement
f inal
Ġreg ard
ĠB ay
Ġrul ing
ra ig
Ġref er
ed om
Ġown ers
Ġpa per
N e
ĠM id
Ġar my
ev in
Ġauthor ity
od d
ĠH amilton
Ġbro ke
Ġaw are
Ġvot ed
ĠR angers
Ġappear ances
Ġcoun ter
ĠLe icester
w ick
Ġstart ing
Ġconf ident
ful ly
hi b
Ġgir ls
Ġp et
Ġwith d
igh ters
Ġrequ ired
ro om
ar ies
ĠA pp
Ġo p
ounc ill
Ġd om
Ġf ine
Ġbenef its
Ġbenef it
earc hers
Ġtrans port
Ġvot ers
i res
il le
ound s
Ġ und
Ġmater ial
ris on
ĠR oss
Ġunder st
Ġdou ble
ec ution
Ġinclud es
Ġhist or
eng ers
Ġgr ant
ann y
A m
Ġlaw s
Ġr ap
at al
Ġfar m
and er
a ith
ĠM idd
it er
o very
ish ing
ĠN ations
Ġfl ight
ru ck
Ġintern et
O ther
Ġp itch
Ġmob ile
Ġfir ms
Ġcoal ition
2 5
ĠM os
A r
Ġw ays
Ġcommun ities
Ġcle an
ĠGo vernment
est ic
ig an
g round
ur d
ill ing
Ġv an
ĠQ u
ĠBr ad
Ġcr icket
o on
und ee
ĠMad rid
un ities
iz e
Ġdism iss
y ond
Ġmove ment
Ġv o
ĠN ick
Ġ7 0
in o
Ġs ell
st one
ĠH all
i que
Ġdri ve
ĠSw ansea
Ġwrit ten
Ġsu st
ĠJo e
Ġdeath s
Ġp ort
Ġbec oming
Ġeven ing
Ġac adem
Ġeas y
Ġsent ence
Ġmigr ants
Ġrel ig
Ġfem ale
Ġsur vey
Ġhost s
Ġap olog
Ġhelp ing
pl es
Ġdis play
ellig ence
re l
ress ive
as k
r un
Ġheav y
Ġb orn
Ġpolitic ians
Ġf ellow
st ances
Ġd ig
Ġthrough out
ener al
Ġt al
Ġoper ations
Ġb al
E x
ill ed
ĠJ am
Ġocc as
l a
in ton
Acc ording
r im
Ġprop osed
v est
ar ian
ĠBr istol
u it
Ġf ant
Ġab ility
ĠSp ain
anc y
Ġtri es
Ġw at
ol f
ĠM ag
ur b
ac hes
Ġpart ner
Ġst ore
Ġh us
Ġr ule
Ġt rou
Ġp us
w y
Ġre jected
ew here
Ġover all
Ġdisc overed
Ġdel ay
Ġmin d
enc ies
Ġbe yond
Ġur ged
Ġf aced
Ġex act
Ġwor ds
Ġob vious
Ġst ories
ber g
Ġad vice
ĠAs h
aly st
Ġban ned
o o
he w
Ġv ia
Sec ond
Ġident ified
1 1
Ġsub ject
ha d
ul ner
ic o
T V
ĠArs enal
ĠSt ephen
Ġs ong
Ġlook s
Ġdec isions
cell or
ĠM et
Ġrespons ibility
ĠH ill
Ġstand ards
Ġst ruck
Ġsto pped
ll ed
Ġactiv ity
Ġs ens
Ġpr im
Ġcarry ing
ĠO ld
Ġ @
Ġc rew
Ġ3 2
ific ation
Ġdiffe rence
ĠL a
ver ton
ym ru
Ġinc ome
u fact
Ġins pect
B oth
an i
Ġpresident ial
Ġath let
Ġsh ip
c her
a pt
Ġ vers
ĠN iger
Ġr are
Ġcirc um
N ow
Ġ200 7
Ġsp oke
Ġpret ty
ĠComm ittee
k ins
ĠJust ice
gy pt
Ġto uch
Ġp roud
ĠConserv atives
Ġs ociety
Ġteac hers
Ġs al
Ġdoub t
U S
ĠSt ates
Ġdri vers
c alled
Mr s
Ġsecond s
Ġwa iting
Ġref used
Ġmin or
Ġdeter min
Ġbo ys
Pe ople
ent y
Ġhous ing
b b
Ġproduct ion
or ter
Ġse ats
Ġj our
Ġun s
Ġst ab
D uring
s et
Ġconv icted
ant age
Ġsit es
Ġh om
Ġb ail
ĠO s
Ġcharac ter
c raft
en ger
Ġpass engers
Ġan g
Ġre asons
en se
Ġ8 0
Ġclear ly
2 1
Ġpro duc
Ġo bs
Ġgreat er
ri ate
Ġtest s
Ġestim ated
ĠChrist mas
Ġrec ru
Ġattack ed
Ġrequ est
Ġexper ts
Ġspe ed
Ġb ase
w are
Ġw ond
ĠCh urch
Ġtack le
Ġput ting
Ġre ven
n y
Ġdise ase
Ġcont est
Ġhus band
ĠLew is
Ġa id
Ġle arn
Ġremo ved
w in
ĠM ed
Ġs an
ĠFr anc
Ġwel com
ri e
Ġdef in
Ġun able
b re
Ġrem ember
ou d
Ġbank s
Ġb ird
stand ing
Ġan alys
ĠS chool
Pro f
Ġremain ing
Ġst re
Ġprot ests
Ġgr and
Ġoff ences
Ġweap ons
Ġcomple ted
il es
Des pite
Ġdep artment
Ġtalk ing
Ġpropos als
Ġsp end
Ġse a
Ġvehic le
in i
Ġown er
Ġrecord ed
Ġmass ive
Ġproduct s
am ous
Ġsc r
Ġsee ing
Ġsold iers
Al though
ĠM a
Ġs ort
li ef
Ġdemon str
Ġis land
s y
S P
Ġcl in
Ġindepend ence
ĠG ra
Ġv ulner
Ġpl ed
Ġwor st
Ġtweet ed
Ġw ild
Ġst reet
A b
P l
abin et
Ġlegisl ation
h ood
Ġtro ops
Ġdec ades
d o
ar th
Ġm ount
min ster
Ġd ed
Ġgoal keeper
ĠC ong
ri al
D av
ĠS om
b it
ĠJ ordan
Ġlangu age
Ġintro duced
ot tenham
Ġdo or
ict or
Ġmod ern
Ġilleg al
Ġorig inal
Ġbab y
Ġun f
Ġmot or
ĠEv ans
or ry
ĠCl inton
Ġopp on
Ġspokes woman
Ġevent ually
ĠP ri
b l
S ha
ow s
g l
om atic
ĠP er
ĠB ill
c ent
Ġf it
Ġinvestig ating
cel ona
er ved
Ġpract ice
Ġcouncil s
ĠB or
Ġj ury
Ġsepar ate
Ġdesign ed
Ġcomplete ly
Ġrequ ire
B rit
Ġs n
Ġar med
Ġw est
ĠSup er
duct ion
Ġs ale
ent ially
Ġun like
ir k
ight ed
Ġstud ent
ra wn
Ġback ed
Ġbod ies
Ġl ic
Ġabs olutely
ri ef
Ġcho ice
I s
Ġcorrespond ent
le ts
Ġman ufact
iers hip
Ġact ions
Ġvot es
Ġdoct ors
Ġdocu ment
Ġelect ed
ĠSte ve
ot ed
ct ions
Ġim ages
Ġf le
Ġper form
Ġdep art
ĠDan iel
Ġcandid ates
id ers
Ġe ast
atur al
r ad
ri a
ĠOlymp ics
Ġcitiz ens
ĠO n
Ġfeel ing
Ġwe ather
Ġre leg
Ġr ad
ut ch
ĠAnd y
An other
Ġro se
S ince
Ġret ail
Ġcould n
Ġm ix
Ġm ag
w all
Ġmilit ants
ĠT al
Ġair craft
ag ues
Ġannounce ment
is er
Ġdro p
Ġestab lish
ol k
f ect
Ġb ought
Ġseek ing
Ġ9 0
ic it
Ġvehic les
y al
Ġcl imate
Ġdom estic
ed i
M anchester
Ġnegoti ations
ress ion
Ġextreme ly
Ġpl ant
Ġsha res
Ġsc oring
Ġprot ection
Ġal one
Ġrepe ated
Ġspe aking
ĠS ur
og le
Ġcred it
ach ing
iv als
Ġper haps
Ġcomple x
if a
Ġmark ets
Ġsupp ly
ĠPal ace
Ġnorm al
Ġpost ed
ĠM e
Ġsha red
ar ily
ĠN o
ĠCent re
Ġe th
Ġstat us
Ġpict ure
Ġpro duced
Ġw all
Ġwar ning
ĠL o
Ġover se
Ġopport unities
ĠMusl im
er c
Ġatt ention
Ġsh ock
enn is
Ġsh o
ov ic
Ġexper t
Ġsuggest s
Ġp ul
d ale
el ly
Ġremain ed
k i
Ġconc lud
Ġcircum stances
re ct
Ġadv antage
Ġso ft
p erson
Ġ( Â£
Ġneigh bour
on ed
ĠD ar
s ha
Ġp il
Ġbel ow
il ly
Ġint elligence
Ġpl aced
Ġf aces
Ġtal ent
Ġs le
Ġord ered
Ġtr ue
w ide
Ġr adio
Ġag ree
Ġserious ly
u als
Ġ &
Ġfant astic
ĠA g
Ġimmedi ately
Ġexpl ained
ĠB urn
it als
ens ions
ĠSt adium
m ore
M atch
ĠC ymru
Ġwa it
ĠO xford
L abour
bor ough
d le
ĠD own
Ġatt end
Ġplan e
aud i
ĠPrem iership
Ġca using
Ġaff ect
e ed
l ster
ĠL aw
ĠL l
Ġmy self
ul a
Ġstrik es
Ġair port
p ts
Ġres earchers
u ct
ĠE gypt
Ġequ al
ĠS ch
pt ion
Ġmill ions
Ġfl ag
ge on
Ġsign ing
Ġrem ark
Ġbas is
Ġrout e
Ġinvol ve
Ġjoin t
Ġchallen ges
Ġfr ust
Ġdec ide
% ,
Ġsur ger
Ġis n
Ġorig in
Ġcontin uing
r ang
ĠC raig
Ġstrate gy
b orn
ĠR am
ĠAber deen
ĠWest minster
Ġm ach
od ay
Ġmed al
ĠA ct
ĠM ex
Ġcont ent
and ed
enn y
E very
Ġwin dow
Ġhop ed
C l
Ġexpl os
and a
ĠD erby
ashing ton
ĠT re
c aster
ĠS ar
R ead
Ġ3 3
Ġ3 6
Ġtra ffic
ĠR h
c i
Ġr ival
rem y
Ġn orthern
Ġ4 5
Ġspec ific
ĠComm ons
Ġadd itional
Ġfl at
Ġask ing
Ġget s
l ines
Ġcritic ism
Ġtele vision
ĠBel g
Ġexist ing
ĠG ar
ĠS l
Ġam id
b urn
F C
Ġstand ing
at he
Ġhop ef
Ġw ider
Ġinit ially
R es
Ġmid dle
Ġfail ure
4 5
Ġc amer
Ġsur round
Ġwe ak
ok ing
al ian
Ġview s
ĠFore st
Ġhigh light
Ġshow ing
Ġvill age
P r
Ġear n
Ġsy m
e lect
Ġapp ointed
Ġarg u
ĠW estern
Ġthink ing
ĠN ic
ĠLe eds
O ffic
Ġinc red
Ġadminist ration
ist le
1 00
Ġdep uty
Ġcult ure
ĠUkrain e
Ġun it
oc al
or row
Ġper m
Ġbr ain
ĠNot tingham
Ġtri p
ĠCol le
Ġb and
ĠT im
Ġr ain
ĠR os
ak ers
ĠK evin
Ġfin ally
ou red
Ġarg ued
ĠA c
Ġsk ills
Ġre form
res h
Ġse at
Ġbeat en
Ġser ved
Ġre duced
k n
Ġhold ing
for med
Ġpat ient
il i
Ġty p
Ġs end
Ġf ired
ĠB a
Ġreb els
Ġg ives
Ġf amous
ĠL ast
Ġnecess ary
Ġjour ney
Ġsuff ering
ip le
Ġtravell ing
Ġrefuge es
Ġdem ocr
Ġsomet imes
ĠNew castle
D et
Ġrel ative
a rent
ĠV ictor
ĠH ome
ĠF l
Ġnear by
Ġlawy er
u a
Ġcom mer
Ġ ult
led ge
az ing
Ġst ock
Ġvulner able
Ġfind ings
Ġbro ken
New s
I S
R uss
ĠShe ffield
Ġcor ruption
Ġansw er
ab or
Ġsystem s
Ġl ived
under land
ĠUK IP
Ġc ast
Ġst adium
Ġ3 4
Ġhar m
co hol
d og
B l
Ġpl at
lin ed
ters hire
iz ed
Ġacc ounts
ol ved
ĠG ary
Ġce rem
ĠW ashington
Ġprov iding
Ġfr aud
z er
Ġes c
Ġcom fort
ack ed
or al
ĠD on
Ġpolic ies
ĠJ im
s ec
Ġed itor
Ġris ing
Ġyou th
Ġcrit ical
Ġwould n
osp itals
Ġtarget ed
ĠMor gan
Ġsc hed
Ġs ource
Ġhigh ly
ĠTr ans
ĠRober t
Ġn ar
ĠA gency
ĠR od
Ġpre m
ha s
Ġdisapp ointed
ĠSt ur
Ġphys ical
Ġr ac
Ġfund s
ĠSim on
Ġfall ing
Ġass embly
Ġsp read
ĠAlb ion
U P
ro ad
Ġj ump
Ġc ities
Ġcon vers
ĠColle ge
ers ey
ĠT imes
Ġbroad cast
Ġimm igration
Ġag g
Ġs ister
ĠI an
Ġcommit ment
Ġwelcom ed
and al
g in
ap ers
ĠF in
Ġb ed
Ġse vere
n ew
ren cy
as c
Ġdec ade
Ġdeb t
ri f
Ġc ouncill
Ġsent enced
Ġ200 6
im ately
Ġsurger y
for ms
Ġorganis ations
Ġcontrovers ial
ber t
out hern
Ġreg ional
Ġprom ised
W est
ĠB ol
Ġshoot ing
Ġpr inc
Ġem ot
S c
ĠD anny
ĠCan ada
er m
c ling
ĠChrist ian
se y
Ġappear s
ĠAng el
Ġpower ful
Ġs ad
Ġpi ece
op ing
ĠG eneral
ro l
I nd
Ġn omin
ĠRober ts
Ġr ivals
Ġaf ford
ar ious
Ġ201 8
Ġe p
Ġcons erv
Ġha ven
ol it
Ġop in
ĠJam ie
c are
Ġv ital
ur ance
Ġhead ed
Ġpul led
Ġ200 5
led on
ĠS ky
at o
Ġha ck
Ġp ace
c an
imb ledon
om s
res a
Ġstre ets
all ing
ar ant
ĠCar l
ar m
Ġapp oint
ri age
ĠT our
Ġcount y
Ġdevelop ed
Ġappear ance
ĠH is
Ġter rit
a ut
li ance
Ġsm art
l ong
ic ide
um an
Ġsh op
Ġal tern
eder al
ĠS un
Ġupd ated
Ġwh om
ĠJon athan
ĠM y
ac c
Ġemer ged
ĠW hat
Dav id
Ġpro jects
Ġelect ric
ca pe
Ġfail ing
k now
Ġd ark
Ġexc han
ĠD en
ha l
ĠF irst
Ġindivid uals
m ate
Ġshort ly
Ġincident s
ar ke
um e
Ġn ames
ol ic
v ant
â Ĥ
Ġwe aring
Ġsuspect ed
âĤ ¬
ite ly
f ace
Ġathlet es
Ġon es
f inals
Ġhot el
ĠW omen
Ġcr imes
Ġsh ut
l ished
ain e
Ġinvol ving
ĠC amp
ul ance
ub e
Ġres ources
Ġimp lement
Ġprep ared
c le
iss ions
Ġgu id
Ġanim als
Ġty pe
ĠS audi
b an
ĠC ast
Ġprom pt
M ar
Ġexact ly
g en
Ġass oci
g ers
Ġinqu est
Ġknow s
S w
Ġopt ion
Ġb rief
e xt
ĠD ev
Ġatt ended
The ir
Ġaccept ed
h ouse
l ife
Ġpick ed
ĠD o
ĠGre ece
Ġapp ly
Ġsc ale
um n
Ġg ap
Ġbegin ning
Ġey e
Ġbuild ings
Ġcust ody
end ers
ac ity
Ġg iant
un te
Ġinit ial
ĠG ood
Ġs ize
Ġwel come
Ġser ve
ord ers
Ġal b
' .
ĠH art
Ġrepl aced
Ġaward ed
p re
ĠW all
ĠE s
Ġlim ited
ĠW imbledon
an ch
Ġcon stit
Ġsix th
Ġal cohol
Th ree
Ġwond er
con t
Ġhop ing
Ġlim it
Ġfre edom
ĠA li
ĠT ony
ere rs
Ġresc ue
Ġcomput er
Ġc abinet
ĠC a
Ġdest roy
O f
Ġinflu ence
Ġan alyst
Ġapp arent
ĠM u
P resident
ĠH en
Ġ Ã
Ġper fect
Ġp urs
l aw
Ġp ush
mon th
Ġteac her
ay er
Ġdi agn
ound ed
Ġs wit
em s
ĠV illa
ĠR eal
Ġb urn
r ast
ĠG P
ĠRepublic an
ĠSte ven
Ġgovernment s
Ġunlike ly
ĠH ug
olog ical
Ġmod el
Ġpict ures
Ġexperi enced
ĠT ra
i pl
Ġhol iday
Scot land
ĠIn st
Ġfind ing
an ish
ud ge
Ġalb um
Ġon going
Ġgu arant
in ho
Ġprof it
Ġth r
as ts
ĠS en
ĠIt alian
oun g
Jo hn
Ġke en
Ġbring ing
Ġprior ity
Ġfeat ures
Ġbig ger
Ġent er
we ight
Ġcolle agues
elf are
ĠJ osh
Ġ5 00
ls ewhere
Ġaud ience
ĠN ort
Ġstrugg ling
ĠH ull
Ġche m
Ġc at
Ġp ension
Ġmon itor
Ġtem por
ĠD el
Ġappro ved
ha nd
ĠC ro
ĠWil son
Ġprim ary
ĠNe il
k ish
ĠJe remy
Ġent ertain
Ġsuspic ion
u art
Ġp ra
Ġded icated
Ġl uck
b ro
ic a
Ġhon our
Ġpartic ip
2 2
Ġdirect ly
ive red
Ġpan el
Ġim age
ĠO f
Ġseem ed
Ġn ature
Ġmean ing
ĠSw ed
it ation
ĠAfghan istan
th ony
Ġg ra
pl aced
Scot t
bor ne
Ġopt ions
Ġreported ly
Ġdi pl
ĠHar ry
g n
Ġwor se
Ġmeas ure
ĠU lster
Ġafter no
Ġinterest s
Ġfall en
st ant
Ġbr ill
Ġrecomm end
Ġscient ists
ĠP et
ĠBr om
b on
ĠAl an
Ġcons ist
Ġac know
Ġreal ity
ress ing
z a
Ġun ivers
Ġqualif ying
Ġexp ressed
Ġd oll
rast ructure
Ġtrad itional
Ġstreng th
eng th
Ġadd s
Ġs outhern
Ġcommer cial
ĠB oy
W ales
oin ting
Ġsl ight
Ġv en
c ow
Ġpay ments
Ġsec ured
r om
Ġsign s
ad s
ain t
ord on
ĠF ifa
Ġsec ret
Ġrest rict
Ġpay ing
ĠS ing
Ġp ull
il m
Ġact or
) ;
Ġsupport ing
S E
Ġad vert
ĠCl arke
Ġoper ating
Ġcon sequ
Ġafterno on
Ġwin ners
Ġple ased
l ig
Ġdel ivered
Ġlo ved
Ġtarget s
Ġsurpr ise
Ġpartners hip
ĠJ ose
Ġem p
Ġkeep ing
Ġquestion ed
C A
ist ics
ĠCl ub
ate g
Ġspokes person
Ġrelig ious
Ġappro p
an ge
ĠS and
Ġs li
ĠB ang
ĠMc D
duc ing
U nder
Ġsc ience
w here
Ġfor t
ij ing
B ar
Ġsp ir
em en
O ver
w orth
and erers
el ess
Ġhand ed
Ġconn ection
ad or
Ġcon stitution
Ġconsult ation
ĠY ear
ĠSt r
Ġg reen
Ġold er
Ġf an
ĠC he
k a
Ġchan ging
Ġj un
ild ren
Ġallow ing
Ġper man
Ġcerem ony
Ġd uty
Ġunc ertain
Ġp ath
ĠH el
ĠE r
te red
sy ch
Ġf estival
ĠS a
ay ers
ĠD undee
es ters
Ġg ang
Ġpro ved
ĠW anderers
Ġt elling
Ġinvest ors
ip s
Ġattempt ed
Ġ20 20
ĠT or
Ġincreasing ly
Ġestab lished
Ġt im
ĠS han
Ġconst ruction
ĠS ol
ĠL anc
Ġmess ages
Ġtr ading
Ġcomp ens
z z
ĠL uc
it ude
Ġconc ed
Ġsw im
Ġsil ver
Ġcl ot
Ġrespond ed
Ġdel ighted
Ġren ew
ab les
ĠGo ogle
Ġins isted
S outh
Ġt on
er o
Ġpot entially
Ġam azing
Ġdecl ared
Ġd d
w ing
ĠR ugby
Ġv arious
Ġwin d
Ġc atch
Ġd ream
Ġmay be
n i
ul f
em an
Ġthreat ened
ĠC om
Ġf resh
ĠG all
Ġocc ur
at re
ĠMar c
Ġf ighters
us iness
Ġequ ip
Ġlear ning
Ġt ight
Ġn ations
M ost
tic le
ĠLiber al
Ġdisp ute
Ġconstit u
Ġ3 8
ĠK ong
ĠG old
U K
a is
ĠChampionship s
un ch
Ġmiss ion
Ġjoin ing
il ing
ĠC hief
Ġdismiss ed
Ġcond em
Ġfe ature
Ġcompet e
ĠM ike
Ġn atural
Ġvis ited
ĠD ef
Ġeffect ive
ĠIn stitute
Ġn ice
Ġunderst ood
ĠBar celona
I ts
Ġwor d
Ġw edi
Ġclose ly
p ut
em outh
Ġreg ist
Ġ4 8
Ġset ting
Ġbrill iant
Ġwatch ing
k o
Ġrec overy
Ġrisk s
Ġreb el
s er
v is
S h
or ial
Ġn urs
Ġrecord s
Ġimpro ved
6 0
iv en
ĠS ix
ak ed
Ġspec ies
ĠK ar
ous ly
Ġwide ly
Ġbe ating
ĠS il
Ġw elfare
ĠP ress
Ġ3 7
t t
Ġvol unte
Ġh ospitals
ring ton
Ġsle ep
Ġpro ve
ĠMo ham
Ġb ul
Ġsp ark
M ic
ĠFr ank
Ġrec over
ĠK ent
Ġar m
Ġch urch
ay ne
Ġvers ion
ost er
ĠAb d
Ġteen ager
ĠC ook
Ġterror ism
Ġfear s
im ent
Ġde g
Ġad op
ul ated
e ing
it age
Ġt ie
iv ity
Ġhapp ens
Ġst ood
Ġmay or
ĠDemocr atic
Ġm ale
Ġar rang
ĠStur geon
ĠL iam
Th ose
E ven
ul ed
Ġsha dow
Ġden ies
Ġinf rastructure
Ġachie ved
Ġfollow s
Ġequip ment
Ġha t
Ġfoot age
Ġra pe
Ġassist ant
ĠAr gent
F irst
Ġac qu
Ġadd ition
Ġde als
t urn
duc ation
Ġpro ced
Ġpro duce
i pped
ĠE verton
gu ard
Ġ ess
C ar
ĠMatt hew
ad u
Ġ200 4
ĠSp anish
ĠU nder
Ġemploy ees
Ġreleg ation
Fr om
Ġreturn ing
Ġob ject
Ġlarge ly
Ġaim ed
Ġt en
Ġoff ering
ĠM un
Ġlink s
Ġde ploy
Ġjournal ists
Ġmin imum
Ġhapp ening
ry st
Ġbook s
Ġpromot ion
ĠApp le
ĠS hi
Ġdocu ments
Ġbal ance
Ġstep s
Ġsp l
cept ion
M c
Ġpres ence
Ġimmedi ate
Ġim pl
al a
Ġim ag
Ġthan k
Ab out
kn own
Ġm er
Ġtr ig
ĠS us
ic op
ic ient
Ġgovern ing
Ġactiv ities
Ġwithd raw
Ġcru cial
Ġdevelop ing
Ġs elling
i en
Ġtem per
Ġdetermin ed
N A
ĠCent ral
ĠH ay
Ġphot ograph
Follow ing
ad i
Ġgener ation
Ġ200 3
Ġext ended
Ġag encies
Ġcap acity
Ġvo ice
Ġwor ry
r ated
v a
v ention
ic ate
Ġconfir m
Ġ3 00
Ġbr and
u ild
Ġ ir
Ġopin ion
ĠM ir
Ġpur p
Ġd aily
Ġsan ctions
ĠO l
ĠSt an
Ġroad s
Ġhouse hold
Ġl ines
Ġbeg ins
ĠBe ijing
fort un
Ġex erc
ĠTur kish
T r
Ġcent ury
R A
Ġst ret
Ġencour age
Ġsol ution
Ġfac ilities
Ġfe e
Ġ ign
est in
Ġins p
yl um
S p
Ġobvious ly
ab led
ĠBl ues
p oint
enc ing
ĠMc K
2 3
ri end
str ong
Ġl ength
ĠThe resa
Ġspok en
Ġstand ard
ĠC orn
Ġanim al
m ine
ick ing
S A
Ġw ish
Ġe le
Ġb ag
Ġhe ro
op h
ĠA h
Ġwin ter
anc ed
m ates
ĠFore ign
ing ton
w en
ĠS her
Ġorigin ally
v an
Ġpol ls
Ġmin istry
ĠF re
Ġsp ect
Ġwalk ing
ĠM at
ov a
ent ry
Ġgrant ed
Ġconclud ed
Ġsu icide
em ploy
ĠT ha
Ġrec overed
Ġtit les
Ġfoc used
ĠB ell
Ġsc andal
ĠMc L
Ġcreat ing
ĠH ot
Ġcon ver
ĠG ard
Ġviol ent
Ġexc iting
ĠAc adem
J ust
Ġdoct or
Ġout come
i as
ĠCong ress
Ġaltern ative
Ġf uel
Ġdev ast
c han
Ġbo at
cl ass
on er
Ġsa v
Ġsc en
E n
ĠT ottenham
Ġret ire
l ook
ĠH ong
Ġs ound
Ġs itting
Ġanalys is
ubl in
Ġben ch
d om
Ġg ay
Ġdefin itely
Ġp sych
Ġe i
Ġsmall er
Ġclaim ing
ran ge
Ġinfl ation
ĠA le
Ġc op
Ġcl imb
Ġhel icop
Ġexp ensive
Ġas ylum
Ġrepl ace
Ġsim ple
7 0
ĠSe a
D el
min ute
Ġrem ove
A d
Ġwe ight
Ġoff side
hen s
ĠOs borne
ĠF ox
Ġocc up
f l
ĠP en
ĠPe ople
F ind
al i
id s
Ġh urt
Ġ199 0
Ġs ession
ĠM el
Ġar ch
Ġrecogn ised
Ġha l
Ġmar riage
Ġcompet itive
Ġappl ication
Ġde vices
Ġdo z
ĠBr idge
Ġsing er
Ġapprop riate
Ġmembers hip
Ġdet ect
ĠNiger ia
ri er
ing er
Ġs ought
Ġwill ing
Ġmur d
igh ter
ain ts
Ġfe els
A ust
Ġs ources
Ġindust rial
Ġf ought
ol n
ĠL ou
ĠDemocr ats
D o
Ġdam aged
ĠF C
G er
Ġtrib ute
Ġsub sequ
S ir
ag ram
Ġus ually
ĠG a
Ġbl ue
k ick
ĠH ear
em pts
Ġsub s
Ġpros ecution
ear s
ourn emouth
Ġoff ence
eder ation
Ġprov ince
ĠGre g
Ġnar row
ish op
Ġz one
Ġsu it
Ġprof its
Ġconsider ing
Ġ4 00
Ġver d
Ġpro ceed
inc oln
ĠW al
i ad
Ġpre gn
ĠP utin
Ġpur cha
pro f
ph one
ĠK han
P h
Ġro ll
Ġcomplain ts
Ġth row
Ġoppon ents
Ġha m
Ġorgan ised
8 0
is her
Ġrefe ree
Ġreact ion
ĠMidd le
ĠS u
Ġv ast
Ġfe ed
M an
ĠCon n
Ġpropos al
ĠHow ever
Ġlot s
Ġstrugg led
A F
ĠC y
are th
ĠS an
her lands
dd en
Ġstar s
ĠMid lands
ĠR a
qu ar
Ġcoll aps
ĠW alk
ĠSt uart
Ġwor ried
ĠCam bridge
ic ed
Ġbec omes
Ġpri ze
Ġdri ven
ut ers
Ġthan ks
ĠD utch
Ġparliament ary
ef ore
Ġfew er
S te
Ġrece iving
ack ing
os en
ĠE nd
Ġvot ing
Ġ198 0
in ner
os es
vern ess
Ġenjoy ed
ch ing
Ġrest aur
Ġkn ock
Ġpresent ed
ĠF ord
Ġexc ell
ĠC ath
Ġspecial ist
2 4
Ġjud ges
k el
Ġw ickets
Ġdram atic
in ated
Ġcent res
Ġdet ained
Ġfavour ite
ĠM as
Ġcor por
Ġwe alth
Ġprot esters
e qu
W ill
Ġback ground
ĠPort ug
ot ter
Ġl ab
ight on
Ġed ge
Ġcle ared
Ġdirect ion
Ġproper ly
Ġemploy ment
Ġke eper
Ġterrit ory
Ġit ems
ld er
Ġfl oor
ĠGu ard
on ze
ĠC omp
athe red
Ġpre c
Ġident ify
Ġdig ital
Ġpl ays
ĠHug hes
ern and
ag ement
ĠG en
Ġle aves
ĠR og
Ġco verage
ryst al
Ġad j
Ġinvestig ated
ĠAn thony
B I
ĠD ublin
ac ement
rib le
ov entry
in ing
bre ak
Ġst ages
Ġap art
Ġtravell ed
Ġapolog ised
Ġf al
r ates
w yn
ĠD UP
ĠAr m
Ġw ake
Ġimpro ving
Ġon to
av y
ĠSout hampton
ĠGra ham
L iverpool
a res
c hen
ĠTe am
hip s
or gan
w ise
An y
re a
ĠFranc is
ĠRob inson
Ġd rawn
Ġatt empts
ĠJ ul
Ġdisapp ointing
Ġfin ance
Ġte xt
ĠMex ico
ĠLu ke
ĠW ol
ly n
ĠAr my
Ġposs ibility
Ġback ing
Ġcivil ians
bur g
Ã ¡
ĠW hen
ok es
Ġser ving
Ġret ired
Ġrecogn ise
Ġover s
ree k
Ġwitness es
o e
3 5
ĠK im
re ll
Ġpus hed
ou ces
Ġclos er
Ġs un
Ġsp ell
ĠSt orm
Ġc ateg
Ġinvestig ations
ĠInst agram
Ġf aith
Ġs we
res ents
Ġact ing
Ġyoun ger
Ġknow ledge
l ad
ew art
i ar
ro g
ĠComm on
Ġinit i
bb c
Ġperman ent
ĠR oman
Ġtest ing
Ġbr idge
ĠL ad
Ġcl osing
Ġrecru it
! "
f ers
ĠSup reme
Ġwrit ing
ĠL ions
Ġsust ain
Ġtrou ble
Ġout standing
ir t
Ġex hib
ib r
n ic
Ġactiv ists
Ġacknow led
i had
Ġ4 3
Ġstar ts
Ġv ice
Ġcrit ics
ĠAs ia
Ġexpl o
g us
ash ion
bo ard
es ter
Ġterror ist
Ġt rend
ĠPr ince
Ġex it
ĠH a
ĠMos cow
Ġm ort
Ġunderstand ing
ĠE arth
i ot
Ġm useum
w a
Ġbl amed
ol en
Ġcor rect
Ġinvestig ate
az e
ĠY oung
Ġfe es
Ġd ie
Ġh un
Ġre forms
ac ements
Ġinvolve ment
Ġdis aster
Ġrelative ly
Ġey es
Ġrep ut
Ġplat form
h od
Ġfil ms
er al
ĠS underland
Ġun less
Ġ3 9
Ġhead ing
Ġsur face
C helsea
ĠT ory
ha b
u x
ĠE ducation
Ġeas tern
Ġg ard
Ġsoft ware
w ed
ĠPal estin
ar r
ok ed
Ġm ax
ir ing
Ġthere fore
uss els
re p
ivers ary
ĠCo le
ul ate
Ġg athered
Ġoff ers
Ġwar m
Ġground s
ent ed
port ion
Ġart ist
Ġst ress
oss ible
Ġform al
Ġgood s
ĠP M
Ġalleged ly
Ġperm ission
ĠF ound
Ġposs ession
Ġch osen
Ġrep resents
Ġent ered
ĠRe g
Ġwas te
m ad
ĠCent ury
Ġqu oted
ĠV ale
Ġl og
ile y
ĠJ ew
Ġeffect ively
as hire
Ġint ended
a ire
Ġab and
Ġl ands
ĠA cc
as er
Ġbel ong
Ġmaint ain
Ġshot s
Ġmar ried
Ġext rem
w an
Ġbill ion
on om
ĠAnd erson
all s
as hes
Ġoverse as
m osp
ĠR ail
ĠB al
Ġsu dden
Ġenvironment al
ou ts
Ġinterest ed
ĠH amp
Ġsub m
Ġear ned
Ġturn ing
Ġw ood
Ġg ain
Ġour selves
Ġpros pect
Ġunivers ities
ĠG od
Ġslight ly
o ch
vent h
s ing
Ġs ending
Ġ4 2
Ġrepeated ly
Ġwat ched
Ġlear ned
i us
Ġt ask
ib an
ĠSec urity
Ġloss es
Ġcanc elled
Ġreg ime
Ġprison ers
Ġstrate g
ĠS ociety
Ġbl ow
Ġcompens ation
Ġk ne
ĠT urn
Ġm ov
ard y
Ġwar n
r ont
Ġex ecut
Ġab road
ĠM ary
ant ly
ĠC C
re al
Ġup on
ult ure
ĠB as
G l
ĠB ow
Ġst yle
Ġy ards
Ġstrong ly
Ġman age
Ġconsum ers
ĠEs sex
ĠT y
Ġsuc ceed
Ġstrugg le
Ġe lsewhere
ĠT o
Ġdef ending
p art
Ġ ice
ĠC are
ĠSt oke
Ġchallen ging
Ġdog s
Ġallow s
Ġtrain s
Ġb on
ĠS ocial
Ġown ed
w hel
est y
Ġlawy ers
Ġdram a
Ġann iversary
Ġsuggest ion
Ġpil ot
Ġdis s
ard o
b ar
Ġrep orters
Ġsum mit
Ġste el
ĠDav is
st ead
Ġtell s
Ġb i
ver ty
Ġimp ressive
Ġfix t
ĠD i
Ġtr uth
Ġmanag ing
Ġmom ents
Ġear th
beat en
ĠBr ussels
Ġdiv ision
Ġentertain ment
Ġse ized
Ġdisc ipl
d a
Ġal ive
ĠM useum
ĠNet herlands
ĠP art
Ġun us
Ġ5 5
ap se
Ġob t
As ked
k er
ac cept
ĠB ern
Ġat mosp
ĠNew port
om a
ĠC ap
ec ause
ren ces
Ġh y
Ġ2 000
ĠCl ark
Ġg ather
Ġ4 4
lus ion
new s
Ġmain ly
Ġb ats
igh th
Ġrel ated
Ġfly ing
Ġloc ation
Ġgu ys
ok o
Ġimport ance
ĠR en
Ġcom ed
Ġmat ters
Ġg rew
Ġconc ent
ĠM od
Ġve ter
ĠMur phy
ĠFound ation
our inho
ob ody
ĠA uthor
Ġgreat est
Ġhistor ic
er ves
Ġnot e
Ġrefer red
ĠC ross
aut if
c ing
ced es
k in
m akers
Ġcontr acts
Ġoccas ion
e g
u an
i very
Ġ200 1
l ers
ĠS ome
ĠIn sp
Ġreven ue
Ġstrong er
Ġ15 0
u ine
Ġexchan ge
ĠD ou
ic ial
Ġevery body
Ġdestroy ed
ĠS har
Ġrap id
ĠVictor ia
ab s
Ġpet ition
Ch ina
Ġdes per
omm od
Ġeas ier
Ġhopef ully
Ġt ennis
Ġst ations
Ġheav ily
Ġsav ings
v in
Ġre in
Ġtechn ical
Ġpl enty
Ġdeal ing
Aust ral
t ar
Ġse venth
ĠIslam ist
ĠTal iban
Ġmed als
Ġamb ulance
ĠSt ar
Ġprogram mes
ĠChar l
Ġm ention
Ġar ms
he t
ĠG ordon
Ġappeal ed
Ġsurround ing
Ġst olen
ĠCo ast
Ġeuro s
Ġvir us
O ff
Ġbe lief
other ham
g al
Ġsc re
Ġpass enger
Ġconn ect
el ine
ĠIsrael i
Ġb reat
Ġg olf
ut ton
Ġun beaten
old s
Ġbr onze
Ġarg ue
Ġverd ict
est o
Ġlic ence
F P
Ġneg ative
ĠSe an
it ors
u ke
ĠCr ime
ĠBelg ium
qu es
Ġclos ure
ĠH aw
Ġtr u
ĠKore an
we ek
Ġ200 2
Ġnot ice
we alth
Ġcho ose
ĠWat son
s a
Ġdec line
Ġconsequ ences
Ġeff ects
ly ing
Ġassess ment
ar on
C on
Ġill ness
Ġpos itions
Ġmist ake
Ġtempor ary
ig el
Ġcut ting
Ġident ity
Ġdist rib
Ġjud g
Scott ish
e en
id a
Ġt icket
Ġr acing
ick y
ene z
Ġacc ommod
C ardiff
ag ers
Ġdef ended
Ġreach ing
Ġact ive
ol s
Ġimprove ment
at ar
R C
Ġp ool
Ġjournal ist
Ġm al
Ġthreat s
The n
Ġst ake
Ġstand s
ĠI m
Ġopp osed
ĠChar lie
Ġmet hod
Ġcr ashed
ĠM iss
ĠD ur
Ġgu ide
Ġreput ation
ĠSt ewart
C ol
b el
Ġhead s
Ġ4 1
ĠInd epend
Ġpo verty
Ġdiscuss ions
Ġfarm ers
Ġm ic
ĠH M
Ġprov ides
Ġcur rency
Ġrep lied
ul ham
Ġwing er
Ġc overed
Ġprof ession
Ġcour ts
s ign
Ġt ickets
in ter
Ġse asons
Ġdef icit
att le
Ġ19 5
stit utions
ĠL incoln
i est
Ġexc ited
c ri
Ġin formed
ad ian
ĠL am
ĠHol y
Ġ197 0
Del ay
Ġc oin
Ġregular ly
Ġv ari
rit ies
Ġperforman ces
ha ll
Ġr ing
i os
ro ll
Ġca ps
ĠV an
Ġsat is
M ark
Ġwork er
F our
p read
is hes
Ġintern al
ĠE b
Ġposs ibly
ides pread
Ġexp and
ĠCar ol
Ġsurpr ised
or ough
ĠF und
ĠB re
Ġtest ed
Ġreve al
ĠAmeric ans
ĠJapan ese
Ġha ng
Ġun ique
H aving
ĠĠĠĠ ĠĠĠĠ
ĠH uman
if orn
h our
Ġact s
u ction
ĠM ore
ĠJack son
Ġint ent
Ġbe ach
Ġprot ected
Ġreg ister
Ġpay ment
ĠMusl ims
z one
ag o
ĠS ant
Ġselect ion
a ug
Ġsc reen
Ġdist rict
b rough
Ġv ess
Ġbad ly
w ar
Ġminor ity
Ġp ound
ĠG reek
Ġple aded
Ġelectric ity
3 00
Ġre ading
Ġinterest ing
Ġdel ivery
ĠD irect
r ate
ĠQ C
Ġhous es
Ġinn ov
Ġc as
p ects
sec s
Ġwonder ful
r ig
Ġover night
ĠAuthor ity
Ġn or
Ġexcell ent
Ġmanag ers
Ġha ir
ly mouth
Ġse es
ĠSur rey
Ġeth nic
Ġwhat ever
Ġf led
Ġpoin ted
Ġaff airs
or ces
as ury
ĠD am
Ġher self
Ġbu ying
Ġest ate
Ġst ructure
Ġmot iv
Ġun ve
ĠVal ley
P aul
ĠArab ia
at ures
ĠChar les
Ġcollaps ed
Ġf ederal
ĠR ights
ist rates
Ġtr ained
Ġev ac
com ing
Ġrepl acement
ĠJ ason
accept able
ĠTrans port
les brough
Ġcontact ed
J ames
Ġ6 5
Bl ack
Ġatmosp here
pp er
ĠF ree
ak en
Ġra ising
Ġcoun ts
ol ve
Ġj ihad
Ġbas ic
Ġmag az
ĠB enn
ĠB rian
Ġappoint ment
Ġfeat ured
d is
Ġset s
m ers
el ines
et ic
Ġfinish ing
Ġtrans fers
os ure
ĠC ub
Ġst ream
Ġbl og
Ġfe et
iv ision
Ġman if
aly mp
Ġrel atives
Ġ7 5
Ġstab bed
Ġspl it
Ġcollect ion
Ġr ub
Ġeas ily
Ġang ry
Ġsched uled
ord s
W hy
Ġs ear
Ġsha pe
Ġbeha lf
Ġfal se
9 9
il st
ow ed
ĠD aily
Ġbre aking
Ġide as
ĠNor wich
it z
b ie
rest on
t a
Ġcr ack
Ġhar der
ĠH or
pp y
Ġmem ory
Ġd iver
sc ar
Ġl ay
ust er
Ġdel iber
Ġt act
Ġfor med
Ġt ies
Ġb orrow
Ġproper ties
ers et
Ġcontro lled
ĠL y
Ġpenal ties
ro s
ĠM ont
Ġr ally
Ġr aces
Ġpass ion
ĠB ob
Ġuncertain ty
Ġup set
Ġmost ly
Ġspir it
Ġimprove ments
Ġpra ised
ĠCommon wealth
2 6
ĠS k
Ġ4 6
ĠBo ard
Am ong
Ġin stitutions
Ġexpl ain
ind s
ony m
Ġsignificant ly
rel ated
ĠW right
Ġsol id
Ġb om
Ġd er
ĠS qu
orts mouth
ro ke
am ing
Ġr ural
ug g
Ġfre qu
Brit ish
Ġte aching
Ġball s
Ġc old
Ġsub stitute
Ġunf air
ĠRuss ell
Ġa ims
us ion
ĠG areth
Ġoff ensive
b a
Ġsuccess ive
ers field
ĠPat rick
Ġmult iple
Ġb ound
b ox
ol i
ĠM ax
autif ul
Ġdomin ated
um a
Ġimp ossible
l ock
in ct
ri ff
Ġcontrib ution
ĠD ons
ick s
own ed
ic i
Ġlow est
Ġem issions
Ġsub stant
Ġchan cellor
B efore
Ġend ing
oy d
Ġst uff
ce an
Ġthough ts
udd ersfield
N I
Ġus es
Ġind ex
Ġbus y
che ll
ĠCal iforn
el a
ĠR ow
Ġlo yal
Ġsh ops
ans ion
enez uel
Ġhighlight ed
Ġfl ights
ĠSus sex
C har
ĠS inn
T ube
am s
Ġw idespread
Ġp ub
ĠW ard
ra h
Ġlist en
Ġ #
in y
it arian
Ġg ri
ĠL at
Ġvisit ing
Ġthink s
ĠN ow
ĠSport s
Ġres ist
Ġconduct ed
Ġregist ered
ĠF ire
Ġdel ays
Ġmed ic
ĠP S
Ġhealth y
quar ters
ĠBl air
Ġpred ict
Mic hael
g g
Ġlar ger
ĠPol and
Ġresign ed
ĠM it
Ġad ults
Ġdeep ly
ĠSwed en
Ġscr utin
ĠGr ay
a ed
Ġp en
ut on
Ġcoll apse
Ġ +
pl ace
ĠP an
Ġfac ility
p et
ir a
l ies
ĠD ave
Ġdeg ree
f all
Ġf ashion
ant ic
ĠTh istle
Ġcamer a
Ġincred ible
l an
is le
ĠC oll
Ġpled ged
ĠRes earch
E uro
H ar
T e
Ġt ank
le te
Ġcomfort able
Re pl
Ġhelicop ter
ĠGl ouces
A rs
it ary
Ġ ut
Ġkid s
he ld
ĠS lam
Ġv ision
Ġdelay ed
Ġoper ate
ĠCast le
ĠT un
Ġint ention
ĠN I
omp son
Ġhon est
Ġb ra
Ġbl ame
Ġins urance
Ġmach ine
Ġf ish
Ġl abour
ĠG B
ver se
Ġdist ance
2 7
Ġc ode
Ġbeg un
Ġaut omatic
Ġt un
ic an
Ġrepresent ed
are t
Ġven ue
ĠE conom
Ġdemocr acy
Ġfore cast
ge red
ial s
Ġinn ings
ef ul
Ġass ets
ron ic
hold ers
Ġult imately
Ġmeet ings
Ġpost s
ĠMo ore
ĠPhil ip
ĠPar alymp
h ill
Ġse ed
ĠT oday
Ġsusp ects
Ġexerc ise
Offic ers
Ġli ber
ĠIn ter
9 0
Ġ5 2
Ġter min
ĠK elly
Ġrad ical
ĠWalk er
Ġ4 7
ĠArgent ina
Ġunus ual
Ġmo ves
Ġregul ations
ĠLanc ashire
Ġpurp ose
Ġimp osed
Ġes cape
Ġfun eral
Ger man
ie v
Ġhe at
ĠP ublic
Ġen force
Ġden y
ps wich
Ġm os
Ġcampaign ers
Ġwe b
ĠHe ath
4 00
Ġgen uine
ĠBay ern
Ġfact or
Ġconsum er
ak s
ĠRe ading
m ith
ĠMill er
Ġpre fer
ĠL ong
Ġwhe el
ĠMer cedes
Ġha ll
ĠK urd
S e
A ss
M ae
Ġst or
ĠV er
rew s
ĠT ories
ĠR iver
ades h
ic ts
Ġrecommend ations
ĠBar ack
Ġd raft
Ġcont ain
Ġste pped
2 8
D ef
o a
ĠGr ant
Ġun employ
Ġdepart ure
ĠEd wards
Ġinsp ired
ĠCol omb
Ġs ick
Ġun ions
W h
Ġre ass
ĠS ud
Ġs om
og rap
idd en
P eter
Ġwalk ed
b ours
un ning
Ġare n
Ġdep end
n ian
Ġappro val
com be
Ġfact ors
onn ell
Ġdisc rim
Ġprompt ed
Ġwe ar
Ġprom in
ĠBro ad
Ġpass ing
Ġsubs id
re ys
Ġmark ed
ĠA FP
um ber
fortun ately
Ġf atal
ot a
Ġcustom er
b ell
ri ers
ĠR ev
Ġact ress
ĠAir port
Ġcomb ined
Russ ia
Ġassoci ated
Ġtr aged
Ġkne e
Ġreport ing
anc ing
Ġro les
I A
ic on
Ġr iver
ĠW ork
ĠLib ya
Ġext end
ĠRe uters
wit zer
E d
Ġ4 9
G B
ĠD ean
Ġtour ists
Ġlif ted
Ġmanufact ure
ĠTre asury
ĠChan nel
Ġre op
ĠF Ã©
Ġsat ell
ĠAss embly
Ġl iter
Ġhas n
ord inary
Ġer a
un k
ĠCaliforn ia
Ġs ection
ĠIn vest
ĠJ ac
Ġdec lined
Ġn one
Ġe at
Ne ill
Ġli kes
ĠW ith
ĠSer b
witzer land
mark et
Ġsho pping
Ġmax imum
Ġgu ard
Ġw age
Ġsh out
ĠAn ton
. '
Ġy r
e z
Ġc ells
ĠYou Tube
Ġr at
ĠF oster
ist or
Ġcha in
bour ne
m und
Ġre lief
Ġpa rent
O r
ĠDemocr at
r up
Ġadv is
Ars enal
ĠG ill
ĠC ost
ĠCon st
ĠL ane
Ġsust ained
Ġmagaz ine
s ecut
ĠN ato
Ġsurv ived
Off side
Ġs acked
Ġabs ence
ĠOr gan
D P
Ġent it
Ġs ight
Ġth rown
act ion
Repl acements
Ġbird s
BBC News
Ġmult i
Ġreal ised
arn ock
Ġsym b
end a
ĠPhil ipp
Ġmix ed
Ġcouncill or
Ġover whel
ĠFÃ© in
Ġp ounds
Ġselect ed
Ġleg acy
Ġacadem y
Ġprof ile
Ġkn ife
Ġan c
ust ed
Ġval ues
Ġoccas ions
Ġe lder
Ġwrit e
Ġad apt
velop ment
Ġapp re
Ġre ward
Ġep is
ĠW y
ĠB u
ĠBr ighton
Ġcoll ision
Ġrestrict ions
og ue
ss on
pect ed
ever al
Ġargu ment
Ġapp lied
' ,
D e
ĠH unt
og an
Ġfin als
Ġcross ed
ec han
other well
ĠRo oney
Ġbre ach
ren a
emb ley
Ġa wards
Ġcompet ing
Ġre ducing
ĠD j
Ġsp ons
Ġrefuge e
Ġex cept
as tern
ĠG at
ĠW ater
Ġresc ued
ĠY emen
Ġperfor med
ank a
a el
Ġis ol
ri fic
C eltic
Ġemot ional
Ġs now
g ar
Ġdiscuss ed
w est
ĠD NA
ĠMal ays
Ġtrad ition
ĠCorn wall
Ġ201 9
ĠCan adian
Ġrail way
Ġsur ve
v ille
Ġt end
ĠM ourinho
os ite
Ġprov ision
r ant
ĠC hester
Ġstay ing
Ġcomm and
Ġprosecut ors
ĠSom erset
Ġc up
Ġd rew
P S
Ġvir t
Ġpro portion
ec es
ĠC all
ĠLe ave
ĠIn verness
Ġg all
Ġdes ire
L aw
F L
ĠG riff
ĠN athan
Ġsett lement
ĠDef ence
Ġst orm
Ġcolle ge
e or
Ġp apers
ĠJ un
Ġcap able
ĠSt and
Ġdiagn osed
Ġess ential
ĠB usiness
ĠW embley
Ġfriend ly
Ġ5 1
Ġaut umn
st ers
ĠF ernand
Ġca uses
ro c
Ġ5 3
ĠCath olic
ĠG al
so ft
Ġcult ural
ĠNort hampton
7 5
ab b
Ġt ech
Ġadv ised
o h
ĠT w
On ce
aed a
em a
Ġinte gr
N or
ul ations
Ġus er
Ġfund ed
Ġsurv iv
ĠR ec
ump h
ĠT a
Ġord ers
ĠKen ya
ul s
Ġph ones
Ġcross ing
Ġcapt ured
er r
Ġgovern or
Ġfund ament
ĠAdam s
o z
Ġarrang ements
ĠD es
Ġdes erved
j a
ĠJohn stone
ĠH end
ĠW ild
ib and
ĠPh ill
Ġm um
ĠC ur
Ġgu y
Ġrem ind
Ġarri val
Ġluck y
Ġg ained
ĠE lect
Ġspark ed
f oot
Ġst able
ov ak
Ġopen er
ĠW igan
Ġacc us
Ġapparent ly
m ph
Ġleg s
hel tenham
Ġreal ise
Ġcoach ing
l ow
Ġto w
Ġe ighth
Ġst uck
rex ham
D on
ort ion
ĠStorm ont
ĠE li
Ġacc ur
i ro
Ġc ore
ĠMcG u
m et
Ġentire ly
A pp
ow ell
Ġprom ise
cl osed
Ġan ger
li ver
ĠA y
ess ions
ĠC oventry
Ġconced ed
Ġb le
Ġd u
Ġdem ands
Ġvide os
Q aeda
ĠB all
ĠN igel
Ġcy ber
W ho
Ġl orry
ĠR ose
Ġcontro ls
Ġmount ain
cot t
Ġstore s
Ġf ault
Ġm agn
Ġmis c
ĠAsh ley
Ġn ove
Ġro of
ĠMor ris
it a
ri ent
Ġfound er
Ġcol our
Ġ199 9
Ġphot os
l ights
Ġext ent
h us
is a
Ġ( $
ĠSw iss
g ate
ch o
Ġdo ors
Ġcomp ar
ĠIraq i
Ġmonitor ing
Ġbe autiful
ĠI I
u ated
le et
Ġlead s
Ġcal c
Ġr ide
od es
Ġsp r
ian o
ha se
az on
Ġf aster
ret t
Ġtraged y
On ly
ass ador
ĠEx eter
ĠChan cellor
Ġpus hing
Ġpack age
in th
Ġm igration
Ġcons pir
ĠMil iband
ĠMin istry
Ġ19 4
Ġcons ecutive
Ġo dd
Ġdis ruption
p ass
Ġn eck
Ġpolitic ian
ed ing
Le icester
Ġs orry
Ġc ope
Ġguid ance
Ġw estern
Ġf at
Ġhelp s
Ch ris
ĠBar ry
Ġmanif esto
Ġas ide
Ġkn ocked
Ġpublic ly
Ġdrink ing
ĠB ournemouth
ĠFer gus
upp ort
Ġmic ro
N orth
Ġofficial ly
cha ir
Ġstud ies
n an
or pe
Ġflood ing
ĠBar n
Ġsuper b
ĠHen ry
ĠI P
Ġqual ify
ĠB ry
Ġsh ift
ĠD is
Ġv acc
Ġag ent
Ġinv ited
ind on
Ġdipl omatic
er ous
ut s
ap ore
Ġtot ally
c ol
an o
ri en
ĠG ib
Ġmilit ant
ĠBrad ley
Ġoccur red
hi an
Ġbank ing
Ġattempt ing
Ġcontr ast
ĠR onald
Ġout break
ven ue
Ġmanufact uring
ĠA llen
onn y
Ġmov ie
Ġab used
ĠHar ris
Ġthe atre
Ġqu iet
Ġdr ag
Ġdisc l
Ġrecomm ended
ĠHamp shire
Ġafter wards
Ġent ering
st ate
ond uct
Ġneighbour ing
B rist
Ġc ards
ff ord
Ġfin ed
Ġdetail ed
Ġrout ine
art on
ha i
Ġdead line
Ġprep are
w ent
Ġshe l
Ġassist ance
Ġesc ap
Ġcondem ned
Ġcompl ained
Ġt ort
Ġexam ination
ch i
Ġbr ight
ĠH ung
Ġrepresent ing
ĠCommission er
Ġcou p
ilm arnock
Ġfast est
f und
Ġcomplain t
ĠSud an
Ġeuro zone
Ġg rown
Ġart ists
ĠLad ies
f ree
Ġpun ish
Brist ol
Ġind icated
Ġer ror
Ġsett le
w r
Ġcy cling
if ying
Ġmurd ered
g a
ĠGeor g
Ġintro duce
Ġexhib ition
e ast
en ham
Ġknow ing
Ġche ap
augh t
ra pped
Brit ain
l im
r ative
Ġre duction
Ġh itting
ro od
ort on
Ġconvers ation
k g
b led
ter y
ĠAs ian
ĠNic ola
ĠH od
Ġperson nel
re z
Ġtown s
P ar
Ġgener ally
Ġnorm ally
Ġrem ote
Ġscore s
Ġst ated
Ġdifficult ies
Ġlif t
ĠP ost
ĠIndepend ent
ĠB ru
Ġcal m
T oday
ĠW als
Ġins pir
st e
Ġl it
Ġun its
Ġ5 4
lo ad
ĠD ivision
Ġcelebr ate
Ġl ock
ĠB ull
Ġro yal
ham ber
Ġtra ff
L A
ĠDev on
Ġcl ar
Ġsm oke
Ġvolunte ers
Ġpl ot
Ġar ticle
ĠGreat er
Ġfl ow
Ġhor se
he nd
Ġc ool
Ġincre ases
ĠA aron
Ġcar bon
ke ep
ens on
Ġcampaign ing
Ġun n
Ġresult ed
Ġencour aging
Ġpoll ution
c omm
ĠHol land
ĠF estival
Ġopt im
c ue
im p
Ġprep aring
Ġa uction
Ġneigh bours
c ious
Ġsupp osed
Ġind eed
M in
el d
ĠLe on
Ġ5 6
Ġfor g
ĠTh ompson
Ġsuggest ing
Ġpre par
ĠCC TV
ol as
Ġr id
Ġtax p
Ġadv ance
ĠPr ot
Ġpl us
Ġguarant ee
Ġproceed ings
Ġw icket
se ason
ĠL ow
F A
Ġcomp rom
ĠQ atar
Ġdro ve
Ġtre es
Ġbomb ing
ĠM SP
ĠAlex and
Ġunve iled
ly wood
a per
ĠM ull
Ġworld wide
ac o
Ġc ry
aren ess
Ġdoz ens
Ġreg ions
ĠB uck
Ġan t
ĠLo an
w ater
Ġk it
Ġunder t
Ġchampions hip
S out
Ġy ours
Ġother wise
ĠV enezuel
Ġmem orial
Ġacknowled ged
Ġr ich
um ed
Ġsh ocked
Ġlo ans
b les
Ġw id
Ġco ff
Ġwatch dog
ĠAcadem y
ĠPortug al
ar lets
Ġsport ing
Ġappl ications
L ord
i ences
Ġdeal t
ĠF BI
Ġexpect ations
Ġam end
Ġspec ulation
ag ic
Ġrele vant
oper ation
C an
vious ly
m o
ĠDar ren
Ġconstitu ency
ar ch
Ġpl ants
al ia
ĠN ich
c hester
ore s
Ġcheck s
Ġinter vention
ri ors
In stead
ĠV ir
Ġob lig
rews bury
Ġclin ical
Ġprom ote
Ġtax es
w ith
ore r
ess or
Ġshar ing
Ġchem ical
Ġtru ly
rah im
Ġless ons
Ġstay ed
Ġh ole
Ġdiscuss ion
Ġwere n
Ġchan nel
Ġfact ory
ĠB ig
Ġha te
Ġshar p
R eal
Ġqual ified
Ġretire ment
re es
il and
ĠD ist
Ġhe ight
ĠR em
Ġt ree
Ġent ry
Ġ âĤ¬
Ġtrans pa
ik a
Ġem pt
ĠIn s
p at
Ġbr ings
sp reys
id ges
ĠCamp bell
Ġun ex
ĠK at
Ġall ies
Ġbirth day
P art
ĠAr t
Ġrel ation
ĠSy d
ĠM ack
ook er
ĠEn vironment
E U
b ot
Ġconv iction
E C
Ġconn ected
ĠLou is
Ġgard en
Ġorganis ers
op her
Ġex cess
r as
arr ass
S everal
Ġs ham
alk irk
Ġhealth care
Ġlet ters
ĠPl aid
ner gy
Ġ199 8
5 5
ab ilities
Ġmot ion
ĠC ru
Ġattract ed
A meric
Ġst ruct
Ġens uring
Ġphot o
w rit
Ġweap on
Ġprosecut or
Ġsome body
Ġm and
Ġbill s
ĠÃ ¢
ĠS witzerland
ĠE ll
Ġag enda
Ġtour ism
ad er
Ġqu it
ĠMic hel
Ġwrit er
Ġdisapp ear
ĠJe ff
ĠSout hern
Ġpers u
sign ificant
Ġexp ansion
f ast
Ġbab ies
Q ue
ĠB illy
Ġun acceptable
ĠBrad ford
Ġestim ates
Ġrout es
He re
Ġany where
Ġ5 8
Ġg ender
ĠSyd ney
oy le
Ġinter im
ĠAt l
ĠBang l
m aker
Ġto m
c ons
Ġw edd
Ġman ner
ag an
Ġv ac
Ġdisc overy
Ġanalyst s
Ġexp osed
ĠSt aff
Ġst ressed
ĠF lor
aur a
ĠI RA
Ġelder ly
us hed
Ġinquir ies
Ġgl ass
Ġwat ers
os is
Ġstat ements
Ġpolic ing
ĠS pe
Ġgr adu
iber nian
pp o
ĠF ed
Ġad ult
app ing
ĠO wen
r ating
ab ul
is closed
ter ling
ĠP ower
ĠE very
ack s
Ġspot ted
prof ile
on ia
ĠC ont
Ġ199 7
Ã Ń
Ġfix ed
I reland
l ist
es co
ĠCh ildren
Ġhead quarters
ĠAlex ander
in os
Ġexp ress
Ġequ ival
ĠEb ola
Ġappre ci
Ġan x
ĠAb u
ĠShi a
ĠSqu are
ĠScot s
Ġfl u
Ġloc ations
Ġintern ation
or ate
Ġbl ast
Ġdis ag
ĠInd ones
is ive
Ġp hase
ec ent
Ġ2 50
ĠG un
Ġincred ibly
or ney
m aking
id ency
Ġnot es
Ġmiss ile
Ġdeter mine
Ġtro phy
ĠFar age
P R
oun ter
Ġconserv ative
2 9
Ġhold s
Ġnot ed
ĠBa iley
s k
Ġfor get
Ġla id
ĠDr ag
Ã ¢
Ġfor ms
ĠW orces
Ġaw areness
or ation
ĠSt ev
Ġcy cl
Ġris en
Ġl isted
Ġhand ling
Ġdeliver ing
ister s
Ġcoll abor
Ġc yn
ĠB os
ik h
ĠM ass
ĠA ston
ber y
Ġgr ass
ev it
Ġmist akes
el er
em ed
Ġunc lear
Ġrev olution
Ġp al
Ġrep orter
Ġb ond
ĠF ederation
Ġoffic es
ĠMil an
Ã ĥ
Ġcouncill ors
B A
Ġto ile
ĠSt ock
Ġencour aged
D undee
qu ir
il a
Ġdeploy ed
Ġsustain able
ĠBrazil ian
Ġter rible
Ġcl ashes
ĠK yle
Ġappro ached
ĠCo oper
ĠLord s
ĠSar ah
Ġco aches
Ġexplos ion
f ighters
N orthern
Ġwork force
Ġins ists
vent us
Ġg e
Ġarrest s
Ġhuge ly
Ġr ough
Ġmark s
Al so
ĠBenn ett
Ġav o
Ġsupp lies
sh ore
ĠC at
Ġinf ection
Ġextra ordinary
ĠKurd ish
B en
u able
Ġ6 7
Ġbre ast
Ġm echan
ĠP ope
ĠSing apore
Ġcollect ed
F ive
Ġsym pt
ĠF ab
ird s
off s
Pro secut
ĠStan ley
Ġcas ual
M ay
Ġw ounded
Ġcommission er
Ġsuspic ious
ĠJ en
ĠK enny
ĠSen ate
r age
Ġown s
ĠM ount
Ġtarget ing
Ġtack ling
elect ion
Ġproced ures
Ġc ell
Ġm ut
ĠD y
ath s
Ġelect oral
Ġremark s
B S
ĠAnd re
Ġsuff icient
Ġmigr ant
Ġremark able
es c
st ed
ĠB et
ĠD ick
Ġpred icted
M P
Ġaccommod ation
ter ror
Ġbl aze
Ġaband oned
3 6
o is
ĠB at
Ġsy mp
ĠO scar
She ffield
Ġtyp es
ĠFor ce
Ġent hus
Ġair line
E P
Ġachieve ment
ĠPri x
v y
Ġ5 7
ump ed
olog ist
Ġhom eless
Sw ansea
Ġel ig
ĠN az
Austral ia
ĠH o
z ab
Euro pe
Ġl ap
Ġli e
Ġact ed
Ġcommun ications
Ġcor oner
Ġform ally
ĠMit chell
Ġentit led
ĠG ab
p ed
Ġrel ating
Ġrestaur ant
Ġpract ices
M A
im ir
ore n
oc ate
ic y
ri ve
ew ork
Ġball ot
Ġperform ing
ĠDerby shire
B rien
ĠHar am
Ġre li
Ġsuccessful ly
ĠMer kel
Ġmaint ained
Ġpat tern
Ġmoment um
Ġsp ring
ĠUS A
Ġt a
ot ic
hi e
Ġsubm itted
6 00
M ill
Ġequival ent
ounc ing
Ġsecond ary
Ġbats man
le vel
Ġcan n
S im
ag g
y e
Ġengine ering
Ġdoll ar
H amilton
Ġe c
Ġur gent
ĠSt at
Ġsong s
Ġ5 9
Ġemploy ers
ĠHoly rood
Ġmed all
Ġsold ier
Ġin form
Ġg ym
Ġret ain
Ġamb assador
Ġconc ert
Ġcomb at
Ġcamer as
pre ced
ot hian
ĠAr ch
Ġinvestig ators
Ġreturn s
Ġsk in
Ġswit ch
preced ented
Ġc rown
Ġintro duction
m atch
Ġatt ending
Ġpart ly
Ġbr ut
Ġel ite
ĠPalestin ian
ĠP C
ĠO per
Ġadd ressed
Ġthreat ening
y ard
iol a
Fr ance
ĠWat ford
Ġexperi ences
J on
Q u
f olk
Ġregul ator
Ġemp has
Ġrepresent atives
Ġst ick
Ġexpl ains
Ġresign ation
D onald
Ġto ug
ĠFergus on
s hip
oc key
Ġup gr
Ġext ensive
Ġguid elines
Ġsatis f
ĠS av
el son
ipp er
isc al
Ġswim ming
ing ly
anc he
ĠR otherham
Ġstat istics
Ġoppon ent
Ġjudg ement
ĠR om
ĠJ ay
Ġsp in
Ġcateg ory
Ġde leg
Ġher itage
Ġsche mes
Ġy m
Ġch ose
Ġtransfer red
le igh
ĠP ear
Ġla ugh
Ġunemploy ment
ĠS ri
Ġcons ent
Ġ8 00
I l
Ġw ave
Ġoff enders
Ġcont ained
Ġleg end
igg ins
ĠEuro pa
ĠCost a
ĠSt ud
Ġsupp lied
ĠD um
han a
Ġcampaign s
ĠAle ppo
Ġin evit
Ġex ports
i pe
Ġh its
th orpe
rop riate
Ġdes erve
Ġind ic
Ġfore st
h igh
Ġex port
win ning
Ġb orders
ct or
Ġus ual
g io
Ġbroad caster
Ġgr ab
Ġrecruit ment
ĠFer r
ĠL t
cha e
Ġpregn ant
ĠM and
ass y
ĠIs le
Ġadm its
Ġrecogn ition
Ġres olution
Ġcontrovers y
Ġtri als
ĠI b
rent ford
Ġput s
Ġfound ed
Ġath lete
re hens
Ġm ine
Ġdis abled
Ġen orm
Ġwarn ings
l u
w ill
har m
ĠJo han
Ġscen es
t hen
ut ing
Ġbur ied
Ġbrother s
Ġearn ings
ha w
Ġ6 6
Ġpriv acy
Ġn inth
ĠT er
ĠAss ad
Ġcontrib uted
Ġadvert ising
lad imir
as ure
ent ure
az a
8 00
Ġshould er
Ġemb arrass
olit an
k ing
Ġsusp ension
ai ro
ro soft
Ġan onym
Ġc hat
est yle
Ġdev olved
te am
Ġexp ects
Ġscrutin y
Ġnew ly
Ġ196 0
ip al
ĠAr gy
Ġimag ine
Ġsubsequ ently
as y
st ream
ĠS aints
Ġr ig
Ġne ither
tr im
T om
p han
or ious
ill ion
Ġ6 4
Ġshould n
Ġtrig ger
Ġany body
sp ur
ĠJ ean
ob e
en a
Ġsurv ive
Ġsens itive
Ġyours elf
n am
Ġp ed
is ons
ĠO liver
Ġfl o
Ġempt y
3 8
Y et
ĠH y
Ġsex ually
Ġl ibr
Ġf itness
ĠT an
Ġpe ak
ier ce
N S
S ix
Ġl ies
ĠWh y
Ġwild life
S am
Ġt all
ess ed
Ġen able
Ġhum ans
Ġc in
Ġtra il
Ġint ense
Ġres ort
Ġis lands
ate ful
G u
j an
Ġm ent
ĠK n
it ious
ĠB ath
r idge
un al
Ġv ig
Ġsuff er
h or
re we
ad o
Ġmod els
ĠW rexham
Ġt iny
ĠO ut
anc er
Ġdemand ing
b ast
Ġn erv
ter ing
Ġtra pped
Ġbon us
Ġreg ret
Ġwebs ites
ĠWh it
ĠT ai
Ġcamp s
Ġe ating
Ġsett led
ĠDur ham
3 4
Ġd im
if fe
Ġplan et
Ġcompet itions
Ġfort un
r ors
ĠSh ow
Ġiniti ative
et her
ĠA k
Ġcare fully
in ness
Ġphot ograp
ĠBol ton
Ġd oping
ov iet
Ġvol unt
est one
ĠF ro
Ġadv iser
Ġphotograph s
Ġenforce ment
R o
ing ham
Ġto ler
Ġhuman itarian
ĠEx ecutive
Ġatt itude
Ġunderst ands
ĠPhill ips
us al
ĠWar riors
Will iam
Ġres olve
ĠAn n
Ġtalk ed
ĠHot spur
Ġsa nd
ĠS in
ĠS pr
Ġe u
Ġst ability
ĠN as
ĠK ane
Ġarri ve
ĠNet work
Ġconver ted
ĠP ac
Ġins ist
Ġdefe ated
Ġass ociation
C ur
b ott
Ġemploy ed
ic ing
Ġexpect ing
tern al
l on
ĠDel hi
ig ation
Ġag ric
ĠAm azon
ĠEl li
ĠTra fford
Ġpromin ent
Ġapolog ise
L ike
W ork
Ġrest ore
T ottenham
Ġg y
Ġopp osite
Ġconst ruct
Ġinn oc
ĠBurn ley
3 2
L ondon
Ġp it
ĠIs land
ĠAh med
pect ive
Ġclot hing
w as
ford shire
Ġs am
st ar
ĠM ess
Th ousands
Ġw ages
Ġl ights
ĠLuc as
c am
Ġc art
pp ers
ĠThe se
ec ial
ĠRe id
ĠJew ish
i at
Ġjun ior
3 7
i ation
on so
Ġclear ance
Ġconspir acy
Ġrep ublic
he m
ĠW ayne
Ġsent ences
i ece
us ive
Ġkick ed
Ġround s
Ġh undred
ol ly
ĠC le
ĠL iving
Ġover turn
Ġteen agers
Ġstrateg ic
b ab
Ġarri ving
Ġsubstant ial
oc ated
Ġprov iders
b ing
zab eth
W orld
ĠB y
ĠBer lin
Ġhigh lights
ĠAf ter
Ġagg ressive
Ġk ing
Ġdisapp eared
ĠGriff ith
T ur
in ate
s ed
Ġemail s
ĠA ff
Ġprotect ing
Ġcrew s
Ġkill ings
Ġsurviv ors
as ion
Ġr ider
ĠJust in
Ġansw ers
Ġy ard
Ġrec on
i y
Ġam ounts
Ġnetwork s
? '
m ir
Ġ6 2
Ġra id
ĠRes cue
Ġm ae
ĠJose ph
Ġarg ues
Ġdirect ed
Ġ199 4
Ġbox ing
Ġcolle ague
Ġteen age
Ġsatell ite
L ocal
Ġd ad
Ġnum erous
Ġn obody
ĠKing dom
Ġf lex
Ġre ject
ac le
ĠL anka
Ġeng age
Ġregard ed
ĠM ah
Ġfr act
Ch rist
ĠMag istrates
Ġdoll ars
ĠBangl adesh
Ġsympt oms
Ġper cent
Ġclot hes
Ġwin ds
Ġrequ ires
rop olitan
Ġt ens
Ġc oc
ick ed
ĠCol in
Ġdemocr atic
ĠC rystal
ĠP lymouth
ly de
Ġb ike
Ġinst ruct
go vernment
ĠTun is
ef ully
Ġdet ention
Ġrecord ing
Ġoper ator
ĠKe ith
ĠRod gers
Ġcha rities
d es
Ġren t
ĠS af
Ġdis order
Ġhistor ical
Ġconsist ent
am ents
ĠJ ersey
w ydd
Ġto uc
Ġd a
ĠT ro
ĠL and
c ar
ĠL es
ĠO ur
pr ise
ĠComm un
ĠBlack burn
Ġdesper ate
Ġf ake
Ġcre ation
Ġscient ific
R ic
ĠP reston
man n
ult ural
Ġprevent ed
Ġproduc er
leet wood
c er
Ġfr anch
ut ies
anc ial
Ġconc lusion
Ġpi eces
ĠG ir
ĠWar ren
A lex
4 4
C o
Ġf ishing
Ġal ert
ĠL ig
ĠL yn
ĠO rient
Ġpresent er
ĠFerr ari
Ġal er
are r
ĠD al
iam ond
R ep
ĠCon or
Ġdisapp oint
ĠR ay
ĠGer m
Ġdescrib es
f ire
Ġimp ressed
ca pt
ĠT s
iv an
Ġtrans ition
E verton
W ar
Ġint ens
ĠHam mond
ĠMidd lesbrough
ak h
New castle
it i
ident s
ath on
Ġland ed
ĠH un
Ġ6 00
ĠT ex
u ations
Ġp od
ef a
ĠNor folk
ĠDist rict
ĠE aster
ĠFr aser
Ġrefe rence
Ġamb ition
ĠL os
ib s
Ġinter ven
ĠDem s
Ġnurs es
Ġpred iction
ou b
ĠM ail
Ġaccus ations
r ance
raw ley
ĠM ot
av al
oot h
ĠCar m
Ġprofess or
Ġn om
Ġcomb ination
Y es
ĠLl oyd
G A
aw a
Ġap ology
J udge
ĠJ er
Ġext ension
Ġsm oking
Ġdiv ided
as ters
Ġun known
Ġregard ing
Ġar ts
Ġrank ed
z ech
Ġan tic
Ġveter an
uster ity
Ġhead lines
Ġdescrib e
Ġconv in
Ġfair ly
Ġearth qu
ĠHear ts
ir ts
ĠJ udge
ĠAm b
Ġdoub led
ur se
Ġst one
Ġscr um
B ecause
Ġwedd ing
Ġowners hip
Ġt ensions
ĠM ans
un thorpe
ĠNor way
Ġton nes
uild ing
z i
ts hire
ĠR AF
ov il
Ġinst ru
Ġcomed y
ĠT erry
Ġfil med
Ġcorpor ate
A ber
st an
ĠS utton
ĠS oviet
Ġattack ers
Ġpress ures
Ġbudget s
Ġassault ed
Ġelig ible
do ing
Ġwh ilst
Ġtax i
Ġmet al
Ġupd ates
Ġanc ient
ĠIn f
ĠHill ary
Ã ¼
Ġ icon
it o
Ġle vell
ĠN ob
ĠO ffic
Ġtr agic
ĠMay or
Ġmet res
Ġconvin ced
ir ates
Ġen han
ĠIran ian
ĠA v
ĠE ric
Ġdam aging
Ġf ighter
ar o
dd ie
C onn
p ing
Ġha bit
Ġen em
Ġreven ues
Ġtr uck
Ġconserv ation
Ġantic ip
ĠP ortsmouth
wick shire
B arn
ĠQue ens
if ted
ĠAn trim
Ġdipl om
ĠMar sha
dog an
P re
ĠR ory
ific ations
Ġchallen ged
Ġdev olution
Ġmem ories
Ġmort g
Ġfundament al
' ."
H undreds
Ġwh istle
Ġleg it
Ġinspect ion
G r
ĠB orders
ren e
ĠV ill
Ġrespect ively
e ovil
Ġl ying
ograph y
ĠRos berg
Ġqu e
Ġpublic ation
Ġ6 8
ĠHar rison
ĠHer itage
Ġhousehold s
ĠFr ont
Ġpred ecess
Pr ime
Ġsudden ly
D an
R angers
n esty
Ġd ies
up s
Ġmin ds
ĠAss oci
Ġcomput ers
ict ions
Ġdiffe rences
Ġ199 6
ver hampton
ĠJ ake
Ġrep air
ĠUkrain ian
P at
ir m
ĠE nergy
ĠLe ban
ned y
ĠIs lands
Ġ7 2
Ġconsult ant
ig ers
ĠMcD onald
Ġt we
Ġacc omp
Ġhar ass
Ġbom bs
ĠHeath row
ĠFlor ida
Ġb es
be ing
ĠN a
Ġsurpr ising
Ġvess el
er a
th rough
Ġfe ared
Ġtemper atures
f riend
ĠC op
ĠD omin
m ort
Ġh ur
Ġche st
Ġsurv ival
Ġ12 0
g aret
Ġhost ed
Ġbar r
ĠBelg ian
M art
aw ay
Ġf od
Ġlo b
Ġtrig gered
4 8
re ck
Ġrec alled
Ġobt ained
ĠB udget
Ġsing les
ĠBlack pool
uff olk
h ow
M ur
Ġpl astic
ĠWar s
Ġple ase
Ġcharac ters
g t
Ġa er
ĠV inc
Ġprom ises
gl as
e ff
Ġb are
ĠBl ue
cel and
Ġm aster
ri k
Ġins ur
Ġdescrib ing
Ġfac ts
ĠDown ing
ĠD a
qu al
Ġz ero
p arty
Ġrem emb
Ġsearch ing
Ġeng aged
Ġsli p
Ġbe ar
ĠF al
ham es
Ġcrow ds
ĠE ven
ĠG C
ĠK erry
Ġfil ed
ĠEr dogan
il it
ĠA rena
ra v
ale y
c les
on i
Ġf u
Ġp ip
Ġstr ing
Ġdevast ating
Ġescap ed
ay ing
Ġgr ateful
Ġepis ode
ĠD ie
Ġcy cle
Ġw ard
an ne
ok ovic
ĠGl en
ĠJan e
Ġinst alled
Ġmus ical
ĠDun can
ol o
Ġsign al
ĠAust ria
Ġappeal ing
Ġcreat ive
ĠC ow
Ġpr in
et ime
ĠT op
Ġris es
ĠCar ter
y o
Ġview ers
ĠTe leg
ĠA yr
Ġmurder ing
Ġst eal
B e
r um
Ġprinc iple
Ġadv anced
Ġconstitution al
ow ay
7 00
ut t
ĠL aura
ett el
ĠMun ich
ĠL ocal
ĠColl ins
Ġoverwhel ming
f a
Ġf ill
ath y
Ġpromot ed
E m
iff s
ĠCole man
le pool
Ġprom ising
6 5
Offic ials
e le
Ġd ress
ĠK irk
Ġext rad
at i
act ive
Ġdem ol
ĠEgypt ian
Ġmedall ist
Ġrequ ests
Ġc ul
Ġre ly
Ġcon g
ra id
g son
in ating
ĠD erry
Ġpost p
ĠT ower
j ust
Ġrelationship s
id al
Ġdisc har
Ġel im
Ġcover ing
M att
W elsh
ill ance
Ġrob ust
Ġcont ext
illing ham
ĠCo x
Ġmisc onduct
Ġsur ge
M F
A T
Ġcomm ander
Ġacadem ic
Ġequal iser
Russ ian
ĠS el
Ġactiv ist
Ġadop ted
ĠEli zabeth
ĠB oko
Ġsil ence
C hief
ĠS now
ĠF e
ester day
N ort
b i
Ġtrack s
Ġpres idency
Ind ia
ĠL et
Ġg ar
Ġstud ying
iz z
Ġdevelop ments
ab we
Ġdemand ed
Ġbow ler
p apers
ĠF ulham
Ġrepresent ative
Ġpain t
Ste ven
Ġd ates
Ġyoun gest
Ġwitness ed
G eor
Ġvis its
Ġele ments
ĠE C
ĠFre edom
Ġmarket ing
imb abwe
n els
ĠJim my
P er
Ġc ours
leg g
ĠKen nedy
I V
ĠJ ess
ĠSp ace
Ġdead ly
Ġmach ines
4 7
ac he
ĠF red
ĠBrom wich
ĠRog er
ĠR af
Ġnove l
b ec
i op
s en
ĠM any
Ġse aled
Ġfin ances
Ġnews papers
ĠF inn
Ġwant ing
pa id
Ġcommission ed
u z
Ġde emed
Ġ199 5
ach t
Ġr um
ct ic
ĠBrit on
Ġbusiness man
Ġshare holders
ĠIn formation
ĠAlexand ra
Ġth orough
Ġrelig ion
Ġdocument ary
ul ous
Ġun p
Ġdec ent
z b
re k
Ġno ise
ĠH ove
Ġfall s
Ġlim its
iven ess
i pping
Ġp in
Ġd ry
En ts
in ations
Ġcivil ian
BBCNews Ents
Ġm ap
Ġperson ally
ĠAngel a
Ġw ha
let t
d on
Ġw ound
ĠG il
og ether
Ġbur st
ĠH ind
Ġcrim inals
Ġt rem
as ef
Ġtri umph
Ġsuccess or
ĠSer vices
ĠVir gin
Il roy
ac ens
ib ilities
ĠBro ok
Ġag ents
Ġ6 3
Ġarg uing
ĠAngel es
Ġstr ict
Ġsafe ly
d ef
ell a
ans l
Ġemer ging
ĠCha llen
ĠD et
Ġso le
ĠPakistan i
ĠA z
ell i
omet imes
Ġemb assy
ĠMet ropolitan
Ġdiscrim ination
Ġfir ing
ĠV ol
Ġrest ored
Ġval uable
Ġstreng then
H ull
Ġf ierce
Ġbow led
ĠW enger
ĠJu an
ĠMcL aren
ol es
Ġpriv ile
Ġimpl ications
ĠComm unity
Ġord inary
Ġst amp
ĠL uk
au x
ĠMod i
ĠI T
Ġrest r
ĠWh o
as ps
ore st
ail ed
ĠR ome
Ġle aked
Ġj ur
Ġcont aining
ian ce
ĠSha un
Ġt ied
Ġd yn
ĠC legg
ĠV ladimir
Ġfrust rated
b al
ew ay
Ġcontrib ute
R ob
in ster
Ġe gg
Ġcl ock
ĠC av
ĠB rend
Ġcomm em
Ġpup il
C omm
Ġj et
Ġ6 9
Ġce asef
ĠAff airs
ĠB ush
ĠMir ren
Aber deen
Ġt or
ar ms
Ġst roke
han e
Ġme at
Ġaw a
Ġto ll
app ropriate
ĠHol lywood
Ġrun ners
igg s
M o
g reat
k inson
ĠJ av
Ġadop t
Ġupd ate
Ġunex pected
ĠGriffith s
ĠI pswich
li p
Ġ199 2
as p
ow ered
ĠI v
ĠH az
Ġinvol ves
Ġnomin ated
ĠTex as
Ġsupport s
aul ts
Ġthe ft
ĠH u
Ġcapt ure
ĠBor is
ĠCall um
b ound
Ġun w
Ġtake over
ĠRepublic ans
Ġamb itious
mort em
Ġhand le
Ġgun s
work s
Ġconsider ation
Ġfor th
Ġdr one
Ġre ign
fer m
alys is
Ġrapid ly
ĠAl liance
Ġrock et
W at
ne g
yr one
Ġsam ples
c asts
ĠS n
ĠB ed
ĠDe velopment
Ġmaterial s
r ish
Ġp ensions
ĠH ard
umb ria
Ġtalent ed
Ġcomp rehens
ices tershire
Ġrel ax
German y
Ġenorm ous
Ġf ulf
Ġn urse
Ġsol ar
Ġsuper market
Ġf illed
ĠL i
ĠBurn s
Ġevac uated
U p
j o
an ia
ad ers
ĠB ark
ĠB aker
ĠA ud
Ġout put
Ġlong est
Ġnation als
Ġde port
Ġ8 5
co ver
3 1
Ġd ance
Ġl unch
Ġsp ells
ĠRoberts on
Ġton ight
Ġarch it
Ġnerv ous
ĠD ug
Ġg ains
In vest
ĠMoham med
Ġfr ag
Ġbr anch
Ġtreat ing
Ġcelebr ated
ĠTai wan
en z
ic ious
Ġg an
Ġpubl ish
Ġsal ary
Ġdeliber ately
D L
ac ter
um es
Ġoper ators
P ort
Ġpled ge
r ich
ian ts
Ġcontro ll
ĠMon itor
ĠMalays ia
E A
am in
ĠL an
op efully
Ġab ortion
Ġfootball er
ess ing
Ġsc an
Ġpurcha se
ĠH S
Ġest imate
b u
ĠI TV
ull ivan
Ġcommun ication
Ġthe rap
ĠC zech
et ary
ĠF ife
Ġus eful
Ġmin ing
ĠH uddersfield
ond a
Ġ6 1
Ġsurve illance
Ġdirect ors
Ġabs olute
Ġrank ings
ac her
ab et
Read ing
ro kes
Ġact ual
ĠAt t
ĠC heltenham
ĠDon caster
Ġt um
Ġinvest ed
ov al
Ġfeat uring
ĠJac ob
B ur
ĠR aj
Ġlat ter
Ġfixt ure
ĠTeleg raph
Ġresult ing
Ġob st
ĠE th
Ġappear ing
Ġstrik ing
Ġsom ewhere
Ġdisappoint ment
ĠS aint
ĠEd ward
ims by
Americ an
ĠP o
Ġcl ients
har ds
Ġwall s
ĠSher iff
Ġfamil iar
Ġstud io
Ġlands cape
Ġin stitution
ĠP y
ear ing
âĢ Ļ
Ġ iron
Ġt urb
Ġc ited
Ġd ying
ĠAr ticle
Ġconsider able
Ġm ir
Ġm ood
Ġtrans l
y wed
ĠCr icket
] ,
ĠTha iland
O ut
f ries
w h
ĠT ri
Ġun precedented
Ġwithd rawn
Ġfle w
ĠP a
omm y
Ġold est
Ġur ging
Ġple a
Ġfun ction
Ġnecess arily
Ġjump ed
B rad
Ġpol ling
Ġbl ind
Ġvari ety
Ġh ung
ĠL ove
th ur
th reat
Ġli qu
Ġur ge
ĠCub a
ĠArgy le
ĠHe re
Ġdefe ats
ens us
ĠTh ree
ĠIb rahim
Ġal ly
Ġeff icient
Ġmod er
Ġm ile
Ġr ang
Ġtour ist
ully ing
Ġland ing
ĠSil va
ĠD or
lf riend
Ġnom ine
C han
ĠR ich
Ġtom orrow
cam be
x ual
Ġcl ient
Ġceasef ire
Ġh idden
ĠMarsha ll
at ri
Ġd ial
Ġplan es
f ather
em e
ĠL as
ement ia
ĠStaff ord
ĠB ale
ĠT ime
ĠK ings
Ġprofession als
ĠT ok
re te
bre aking
Ġw ounds
hed ral
G reat
ro lled
ĠE ve
Ġproduc ing
Ġexc lud
Ġilleg ally
Ġeng ines
Ġdist urb
ns ic
ĠMed ical
ĠChrist opher
3 3
Ġgather ing
C onserv
ĠI A
hel ess
ĠPr ice
Ġinterview s
Ġpark ing
at ter
ĠL ar
be y
ĠHow ard
Ġcours es
ĠK ier
ient ists
Ġrare ly
Every one
Ġesc al
im a
ĠB ishop
Ġl ocked
ro v
ĠB ul
if er
Ġgr ad
Ġsubsequ ent
Ġb in
Ġp hen
Ġsug ar
Ġtemper ature
ĠD aw
Ġv owed
Ġqu ant
Ġsa ving
ĠL ittle
Ġfrust ration
ro ve
ĠT echn
rent ly
Ġreason able
C amp
el and
re ement
ĠD ub
Ġbo ards
Ġproced ure
ir ty
ear ly
Ġsched ule
ĠS uffolk
ab is
Ġqual ification
Ġtrib unal
et te
amil y
ĠNot ts
J ack
c ia
ĠA ut
b en
Ġt ur
ĠN avy
Ġinf ect
Ġbow ling
E l
Ġst aged
ĠSp urs
C om
Ġin box
Ġd ating
ĠR ock
ned d
Ġimm igr
ser ious
âĤ¬ Â
g ood
Ġst ance
ail s
are z
Ġche aper
Ġe ase
we red
Ġeconom ist
ĠB an
Ġpunish ment
ore y
Ġth rew
Ġmed ium
ĠDou glas
ext reme
Ġto ols
Ġd uties
ĠM otherwell
ĠL ady
ansl aughter
Ġresist ance
Ġ9 5
st ance
Ġbat ting
Not tingham
ywed odd
i able
Ġm anslaughter
ĠL au
tr ick
Ġp osed
Ġobs er
ĠA ld
ĠGu ine
Ġinterview ed
A S
ha ppy
Ġse al
Ġrepe at
Ġmedic ine
ĠE ddie
de ep
ĠHend erson
p es
Ġjud icial
Ġboss es
Ġhol es
ĠParalymp ic
u ous
Ġser v
lus ive
cri ption
B el
l ar
Ġa usterity
Ġe lement
ol an
Ġloc ated
New port
Bar celona
d em
Ġs ac
Ġreview ed
Ġcelebr ating
ĠDrag ons
Ġdepart ments
H ear
ot te
Ġdisc over
ĠAssoci ated
% )
s m
ot ten
Ġca ution
Ġinvest ing
ĠBr other
uth ors
Ġ198 9
ĠMos ul
ĠSerb ia
an es
ay a
ĠM EP
Ġvol ley
S er
Ġh yd
ĠTh om
abet es
Ġal t
ĠT ests
Ġgener ate
Ġafford able
Ġhopef ul
R ober
Ġl ad
ri v
Ġrap ed
Ġsymb ol
ĠI van
w yr
Ġd at
ol y
Ġphys ically
Ġqualif ier
W here
Ġco vers
Ġt ears
re c
Ġn ative
ir ling
uss ia
ĠHung ary
p ress
Ġaim ing
z en
Ġh ors
Ġkill er
Ġsk ipper
Ġenjoy ing
Ġfixt ures
ener ation
Ġmar g
Ġdraw ing
ĠH ills
ĠF ood
ond ond
ĠMic rosoft
Ġwrong doing
E v
R oss
f r
im al
ondond erry
Ġs essions
an ied
Ġsh irt
Ġbr ands
ĠMc N
Ġdep ression
Ġcomment ed
Ġaf raid
Ġleg ally
olog ies
3 9
he im
ĠBr id
Le eds
ĠComp any
Ġrec k
Ġtrans form
ĠGeorg ia
t wo
ĠT em
ag han
S underland
ĠG ulf
Ġer rors
oy ce
Ġexam ined
ĠPol it
ĠArm strong
2 50
m b
ĠSer gio
Ġfin es
s ung
or i
ud s
ferm line
Ġp ock
ĠThe atre
Ġdep th
e als
Ġg w
ous se
Ġchar t
And rew
bel iev
ha u
ĠF T
ĠSt one
Ġhand led
Ġstret ch
ĠMas ters
ĠAnton io
Ġwar ming
P C
Ġ7 1
Ġdrink s
ab e
o om
ĠC air
ĠN ik
Ġsub jects
Ġpar ade
Ġvis a
Ġhost ing
Ġbar s
Ġpick ing
Ġnomin ation
ist ent
oc ol
li est
Ġrec all
ĠDavid son
ĠChallen ge
ac ular
Ġslow ly
Ġc ro
Ġnot iced
bur ton
ĠWol ves
d el
Ġf o
Ġacc eler
Ġoper ated
upp er
ĠSom alia
Ġreg ulation
O b
Ġapp s
Ġprec ise
ĠR ac
Ġ7 7
ĠGlouces tershire
Ġpercent age
is ers
ĠL uton
Ġinflu ential
D erby
M al
Ġcon ven
lect ed
ra ising
ber ry
Ġrun ner
ĠMar ia
Ġsl ot
Ġdefend ant
Ġretail ers
ĠCap ital
Ġt aught
ĠL ife
ĠBur ton
M idd
S mith
ot al
back ed
Ġfranch ise
f it
Ġvict ories
Car l
p son
Ġsec uring
Ġimplement ed
Ġs q
Ġdon ations
Ġmar gin
ĠColomb ia
âĤ¬Â ¦
Ġm outh
ĠJ enn
ĠLe g
Ġtrust s
Ġdetermin ation
ĠPS NI
Ġtun nel
4 6
B ol
ĠA M
ort mund
Ġtr ace
Ġfl own
Ġsafe guard
ĠMus ic
Sout hampton
Ġthe ory
ul pt
Ġexpl an
Ġinst all
ĠSc ience
Ġrank s
B irmingham
b c
Ġan k
od ed
Ġblock s
ĠMarc us
B r
Ġpo ison
Ġsqu are
ĠSha w
ĠMcGu inness
Ġgener ations
ĠI celand
ĠL ive
Ġinc or
ce ived
ĠN ep
ĠV iet
ĠSp ecial
Ġur ban
Ġspecific ally
olog ists
Ġgener ated
rep rene
s elling
Ġd ementia
ĠS um
ĠF ederal
Ġimp ose
ĠAl onso
ple te
Ric hard
m ath
p m
Ġd ressing
Ġneighbour hood
Ġaffect ing
8 5
Ġas pects
Ġy es
Ġscore r
Ġrefer ring
ĠCharl ton
h u
Ġal liance
ĠR ad
ĠMc In
Ġturn s
Ġexam ine
rup ted
id ays
ut her
ri pt
Ġbreak s
ade qu
ĠP ier
ĠU g
Ġover come
ign ed
Ġind ecent
ĠRonald o
ĠB M
m ade
Ġbo ats
Ġresident ial
ĠPri ze
Ġt ast
Ġem br
Ġreleg ated
ĠSun ni
ĠWall ace
Ġpurs ue
Ġtraff icking
Ġcontin ent
Ġrel uct
o ir
p resident
p ret
Ġmean while
Nort hampton
ĠB ally
Ġsent encing
Ġworry ing
y ang
ĠC ons
ĠA venue
ĠG hana
av in
f ar
Ġre de
Ġpro ven
ag on
og g
Ġafter math
Ġcelebr ations
B E
ten ance
Ġrespect ed
Ġroom s
âĢ ¢
Ġtouc hed
Ġ199 3
ĠFin ancial
Ġsmart phone
b ig
Ġca el
Ġqu ot
ink ing
Ġdevast ated
Ġspons ors
han k
ĠB T
Ġy esterday
Ġex ternal
less ly
ĠZ imbabwe
Ġpeace ful
4 9
Ġfire fighters
Ġaw ful
ĠL ondonderry
ĠR y
ĠMar garet
Ġrepl acing
Ġvill ages
Ġrecover ing
ĠBern ard
n on
Ġa str
Ġ199 1
Ġrememb ered
ig en
Ġmotiv ated
Ġpredecess or
g hai
Ġf inger
Ġh ub
ĠJ onny
Ġpass port
Sha res
ĠGuard ian
p o
es h
ri ving
Ġ7 8
ĠPer th
Ġsli pped
ĠPl an
Ġmethod s
ĠM ersey
ĠMar ine
Ġstat ue
Ġang le
Ġoff shore
Ġpopular ity
C omp
Ġal arm
Ġbroad band
ĠTok yo
ul ating
Ġover t
Ġpr isons
Ġdep os
Ġsect ors
E ach
T w
Ġa uthors
Ġd ub
Ġj ack
ĠGl am
ĠTw enty
ĠBru ce
Jon athan
ĠK y
Ġshe ll
ĠHel en
Ġmar ch
Ġprior ities
Ġre un
ind er
Ġfoc using
ĠCarl isle
ĠDen mark
Ġres il
Ġeconom ies
J ones
ĠW he
ian a
ĠPol ish
ĠVenezuel a
ĠMonitor ing
S ource
Ġb bc
Ġfor cing
Ġfl aw
ĠCr im
ĠC E
Ġr ic
Ġbar riers
ĠDum fries
Ġh ide
ĠU efa
reg or
Ġrem anded
ĠMel bourne
F ar
Ġrem oval
Ġship s
Ġrequire ments
Ġconsist ently
ĠDj okovic
R yan
Ġt ap
ag ger
Ġearthqu ake
Ġimp rison
ĠIn t
Ġin mates
ac hers
ĠIndones ia
Ġhon oured
ecess ary
Ġd ict
Ġl ux
ĠF air
ĠN ev
ar io
anc ies
lyn n
Ġf ro
Ġdist inct
Ġemploy ee
Ġclos est
Ġvolunt ary
ĠC hile
her ty
St ephen
Ġestablish ment
I C
Ġf iscal
Ġbus es
Ġsm ugg
ran ged
Ġle ct
Ġact ors
ĠH IV
Ġpr ide
Ġsy n
W he
ĠK ilmarnock
Ġpet rol
Ġlevell ed
Ġun if
Ġsk y
L ee
in er
Ġe cho
Ġm as
Ġpolit ically
Ġperiod s
ĠRh ys
ate ur
Ġj e
back s
ĠC T
ĠK ir
Ġcann abis
r ome
ĠBar ns
Ġnegoti ate
Sc ientists
is ure
Ġpro be
Ġpro hib
Ġoper ational
Ġkeep s
ĠRic hards
ĠMon aco
Un ited
M on
ion e
ĠC ome
Ġdis ad
Ġadminist r
uc cess
Ġdeter ior
ĠGa al
Ġmention ed
ĠN ad
ĠHod gson
Ġvig il
C ity
Ġcha os
ĠSw indon
ffic ient
ere r
Ġcoin c
0 5
ac re
ĠF ort
ĠCh ic
Ġmiss iles
ĠMess i
Ġcoc aine
Ġthem e
Ġlo ose
ĠSpr ing
S ar
ĠS upt
ĠF our
Ġweek ly
And y
ĠCro at
Ġf oss
ĠR udd
ĠH ann
ĠK os
Ġinnov ation
ĠFernand o
" [
Ġpe ers
ĠSt ep
ĠThe n
enn a
Ġcelebr ation
Ġprem ises
Ġign ored
N C
c ut
if ts
Ġstr ange
Ġbit ter
ĠJen kins
Ġshort age
Ġamb itions
Ġfind s
Ġland mark
Ġs id
ĠP re
Ġsp aces
ĠK i
Ġsc rap
ian g
Ġsw ift
ĠLu is
arth y
ĠLaw rence
Ġgra ve
Ġtim ing
Mur ray
ĠBarns ley
Ġcon cept
Ġfl ank
Ġconf ront
Ġisol ated
F rench
Ġg ross
Ġinf ected
ĠPeter borough
Ġfield s
ĠNottingham shire
ĠTurn er
ĠB eck
Ġinst ance
Ġengine ers
Ġhack ing
ĠR ub
Ġpr on
ĠThe ir
Ġconst ant
Ġprepar ation
Ġsc ared
Ġso il
Ġmain tenance
ri el
az z
Ex per
ĠV ettel
ĠCh ild
aff er
ĠPal mer
ĠCong o
Ġcomprehens ive
Ġdraw s
Ġcasual ties
] .
Ġm aths
Ġsh r
ĠGuine a
Ġcompl icated
Ġaut onom
Ġargu ments
ĠShan ghai
Ġdiscipl inary
ĠGlam organ
b us
Ġf erry
ow ing
ĠLe igh
Ġaud iences
J apan
Ġsc ulpt
ĠLt d
v ised
ĠD uff
Ġgir lfriend
Ġenc ounter
Ġreflect ed
l isted
Ġb ath
im id
ĠG DP
Ġdro pping
Ġto ol
ist ant
ĠK al
Ġprocess es
Ġbag s
Ġdisp uted
Is lam
W omen
ĠF orm
Ġcons ol
Ġquestion ing
ĠBrend an
Ġt ier
Ġl oud
oll ah
Ġ0 9
a uty
Ġout rage
Ġproduc ers
ĠT yrone
Ġrob bery
Ġdomin ant
ĠMex ican
ump ing
Jo e
Ġrac ist
Ġautomatic ally
Ġp ending
Ġmil k
st ep
ĠB ox
Ġdis ability
Ġent reprene
Ġfle eing
f air
up er
ag s
Ġfavour ites
cont in
ĠUnion ist
Ġbrut al
Ġs ons
Ġd iversity
Ġgu ards
Ġpers pective
ĠHolland e
Min isters
ĠEth iop
Ġj oy
Ġk m
ĠSt okes
Ġjun ction
Ġt ear
Ġaccept able
D C
L et
re ts
Ġview ed
Ġlist ening
Ġjihad ist
st yle
ĠM aid
ĠF alkirk
rou s
Ġtele phone
ow ys
et a
ens hire
Ġevery where
Ġdifficult y
ĠMan uel
Ġpract ical
Ġt u
Ġwithdraw al
ĠG went
Ġnegoti ating
Ġinc ent
Ġfrequ ently
Ġh o
ĠD ortmund
Ġdec iding
Ġexpl ore
Ġlif etime
Ġsatisf ied
Ġank le
f light
r d
ro se
ĠH an
ace y
ĠNiger ian
row ing
Ġstud ied
Ġred und
Ex eter
Pl ans
Ġlic ens
Ġhal t
Ġlob by
Ġo cean
Ġathlet ics
ovak ia
ĠN elson
Ġcare ful
p in
Ġl od
Ġsupp orter
Ġattract ive
oc ation
lo pp
ĠM aur
ĠC hes
Ġequ ality
ĠDe rek
Ġlove ly
Ġaccur ate
f i
j ud
Ġloc ally
me re
vere ign
C ouncill
Ġin appropriate
Ġne ut
ĠMar s
ĠSe bast
Ġfrust rating
ĠGall oway
Ġse qu
li ers
ĠTr ade
Ġpr int
ĠGo vern
ĠRob bie
Ġrestr icted
1 50
I m
s ur
ri ends
Ġhad n
Ġchild hood
Ġsing ing
Ġamong st
Ġweak ness
ĠRem ain
B rexit
Ġindust ries
Ġtaxp ayers
le ton
ĠC her
ĠP owell
art ed
Ġres erve
is i
rit ics
Ġ7 3
Ġprinc ipal
Ġr iders
Ġfore ver
Ġinnoc ent
, '
con f
Ġexecut ives
ĠW el
ĠL ion
Ġpain ting
Ġodd s
ĠT hames
Ġsub stance
Ġbreak through
Ġsear ched
Ġtwe ets
ĠDie go
adequ ate
m ile
u ay
Ġst unning
ĠAmb ulance
S to
Ġres olved
Ġunder min
ont a
Ġ7 4
ĠCount ry
ĠTal bot
ĠGuard iola
Ġtow er
Ġ0 8
ĠU ber
Ġequ ally
ĠWood s
Ġliqu id
h t
Ġg yd
ĠB ent
Ġsc ream
S uch
or an
an im
ĠD uke
iz ation
Ġmove ments
ĠPro g
ĠC rist
ĠK ey
Ġpros pects
Ġbrief ly
t own
it ure
ĠW ind
Ġcha p
raz y
Ġborrow ing
ĠConst able
Ġre hab
ĠB ost
ĠN i
B urn
ĠM Ã¼
ĠP ay
Ġhead line
Ġsto pping
Ġpull ing
aug han
b ut
Ġcl oud
ĠPart ners
c ase
or a
Ġover c
Ġapp eals
ĠRo ch
crib e
Nor wich
b ull
Ġrestaur ants
Ġreop ened
Ġc ert
Ġrequest ed
Ġavo ided
W ol
Ġcour age
ĠGP s
Ġ upper
Ġs ounds
ain st
Ġli ked
Ġ7 00
Ġsit uations
ĠW in
Ġtechn ique
ĠSh rewsbury
letic o
h ur
ĠM ick
ĠT ommy
for ced
Ġ7 6
ic als
Ġwe igh
Ġterror ists
ows ki
or se
ir i
oc a
Ġcampaign er
Ġmanufacture rs
Europe an
ors et
ull ah
ĠBar cl
Ġprevent ing
Ass ad
or ous
Ġdeb ts
Ġsear ches
ell o
ne ys
Ġmy ster
Ġconc rete
Ġd erby
Conn or
ing ing
ĠA wards
Ġtoile t
S ur
ĠT igers
ĠOld ham
Ġun law
Ġdevelop ers
ĠSing h
ra ham
Ġcl ash
ĠSt ation
Ġper pet
Ġend ors
ather ine
Ġmem or
add y
ĠLincoln shire
ĠAtl antic
n is
Ġcont em
Ġso vereign
Ġbuy ers
Ġswit ched
News beat
m un
ĠM em
Ġthan ked
ĠMo on
Ġcoff ee
B right
Ġpack ed
Other s
Geor ge
let ter
Ġcitiz en
ĠT esco
Ġear ning
Ġcheck ed
Ġman ip
Ġcome back
Ġfil es
Ġdi abetes
4 2
O xford
p iece
Ġf ires
ons hire
Ġill ust
Ġtyp ically
Ġun believ
Ġgen etic
s end
ĠM ost
Ġte a
Ġwindow s
Ġicon ic
ĠMc Ilroy
Ġsol ve
Ġassess ed
Ġscre ening
Ġmortg age
Ġbbc news
Ġun rest
min s
ĠPr im
Ġf ights
ell er
Ġspect acular
Ġprefer red
oll s
Ġfar ming
sc ale
ĠL in
ĠVinc ent
Ġbbcnews ents
Ġfr uit
ĠSc arlets
Ġstreng the
Ġmos que
ĠGat land
Ġsuggest ions
ĠSam sung
ĠThom son
ĠK il
ier i
ĠSha h
ĠPac ific
ĠA id
Ġexper iment
Ġvo ices
olit ical
Ġliber al
ĠB ury
Ġfre ed
Ġcommit ments
ĠNick y
E R
Ġf asc
im ise
ĠB ad
ĠProf essor
Ġkid n
c lear
ĠMcC arthy
ut er
lin ing
ĠEn ter
Ġin equ
Ġyoung sters
Ġsol utions
f ront
Ġre vers
Ġelect ronic
extreme ly
C am
N et
Ġun ity
A c
O C
ĠLe icestershire
ov o
Ġsm ashed
Ġaff air
Ġc iting
Ġattack er
ock s
Ġtourn aments
ĠSaf ety
Ġarchit ect
t hat
re ed
ĠW atch
Ġcent uries
run ning
Te am
c u
ĠW ay
ĠM edia
ak u
Ġatt rib
Camp aign
Ġlux ury
Sto ke
h ot
i ety
Ġp ages
Ġint imid
Ġoper ates
ĠBar row
Char l
Ġtrem end
M S
Ġtact ics
S y
W ell
g or
ĠM all
Ġrec y
Ġwar rant
br idges
af i
Ġremo ving
Conserv ative
g ian
ĠL is
Ġped est
ĠW ells
Ġlast ed
ĠBor ough
i h
ĠO ther
UK IP
I rish
Ġt ired
man uel
Ġconvers ations
Ġtempor arily
Prosecut ors
DL P
enc ia
Ġfound ation
ph ones
Ġbur den
Ġd ign
Ġr iding
Ġacc using
Ġph il
Ġdoz en
Ġsuit able
Ġp ure
ri ft
ĠGl obal
Ġpros per
Ġwheel chair
E ast
ust ing
Ġcl er
Ġmain land
Ph il
Ġin aug
Ġre verse
Ġmother s
foot ed
Ġcol on
ĠJu ventus
ĠHigh land
Ġbail out
Ġt as
ĠF all
Ġeduc ational
ĠAll an
Ġhol idays
Ġtort ure
ues e
Ġret ained
ĠWar burton
Ġrenew ed
b oy
ĠI ain
aw r
ĠWar wickshire
Ġre vel
Ġr u
qu ality
Ġpe er
Ġmar ine
ĠBas har
Ġob jects
b est
i ques
Ġconv ictions
Ġclin ic
L ater
on ly
ĠP rison
chan ge
Ġintegr ity
g un
Ne il
Ġad equ
Ġgovern ance
Ġinspir ation
Ġt ail
ant e
ili ation
ĠAcadem ical
ĠFro ome
igen ous
F in
ar med
ig ious
ĠG aza
ĠAl ger
Ġ13 0
Ġobs erv
A A
Ġh yn
ĠD ow
Ġdemonstr ated
Ġswe ep
Ġt ally
ĠM ills
Ġal ter
ĠR SP
ĠO w
Ġres ume
ĠMoham ed
Ġf est
Ġp harm
act ions
Ġexplan ation
G iven
Ġg rey
ĠA j
other ap
earc her
Ġharass ment
Ġb ullying
Ġar chae
Ġpromot ing
na pped
Ġreflect s
ud es
Ġcou ples
sh ot
Ġalleg ation
ĠL im
ĠF itz
ĠAn ti
Ġthrow ing
D ep
ĠM oy
Th omas
Ġl ung
ĠI MF
He alth
Ġregard less
l og
Ġfr ame
Ġreview s
agh d
Ġinspect ors
ĠOper ation
ĠGC SE
b ul
Ġany way
Ġ19 50
i ples
ĠLe one
Ġdec isive
ind ing
Ġtreat ments
Ġbel t
yl an
ĠI ng
anc hes
Ġrespond ing
ĠSim pson
Ġp ig
Ġ198 4
ĠRob in
Ġcho ices
Ġclass es
Mart in
m other
ĠC ard
Ġguarant eed
Ġvirt ual
er ies
Ġc hamber
ĠL enn
ey mar
h uge
Ġn ick
ĠM ul
Ġnews letter
ĠProt ection
W igan
t ra
Ġb acter
it is
ĠK u
Ġcl im
Ġapp rent
ĠHe ad
let cher
Ġseek ers
Ġlaunch ing
ĠShan e
Ġtoug her
Ġn i
ĠB on
ĠB oth
Ġadm it
Ġide al
Ġpun ished
S en
Ġstock s
Ġpregn ancy
ĠM aj
Ġr all
Ġcar ri
Ġfirm ly
Ġeng agement
ĠDep uty
Ġdest ruction
Ġbed room
Ġcomprom ise
ĠFT SE
Ġair ports
Ġbill ions
M embers
Ġfollow ers
ĠCru z
im ents
Is rael
ĠMu ham
Any one
Ġw ishes
ra f
les ex
Ġfore nsic
ĠDub ai
Ġsol ic
ĠAb bott
Ġart ific
f ound
Ġl ads
ol and
ĠJ ournal
An alysis
ĠMor ning
Ġmurd ers
ĠPhilipp ines
c ard
ĠD uc
ĠWe ek
ĠChrist ie
Ġrob ot
Ġdemonstr ate
ĠP otter
Ġstr ain
ik es
Ġparticip ation
Ġsham e
Ġdr ones
Que en
ĠElli ott
enal ty
Ġdiv isions
Ġgrab bed
Ġdon ated
abs olutely
Ġhors es
Ġhun ting
c or
ĠI d
ĠW inter
uck y
ĠX i
Ġele phan
ĠRoch dale
Bright on
bridges hire
N HS
Ġdec e
Ġunder ground
Ġbur gl
ĠDomin ic
s ley
ier ra
ĠCl aud
ar ity
Ġrep ay
ook ing
William s
Â ©
ĠB ond
ĠP emb
ater al
Ġund isclosed
Ġdies el
he ss
Ġb idd
am ework
ĠE ag
ect ive
Ġsupp liers
Ġimp ression
ĠAl bert
Ġunc overed
ĠLl an
ĠHot el
y ne
le an
ĠR ou
ĠK ay
ĠPro s
Law ro
Ġcin ema
P M
ew ell
pl us
Ġbox es
Ġshock ing
d am
Ġun happy
Ġsqu ee
ĠP ot
ĠR ef
ris ing
Ġvis ible
ĠSal ford
ĠFranc ois
Ġw et
Ġg ro
ens es
Ġrec ession
ĠV ar
Ġhard ly
ĠPalestin ians
Ġdist ract
gr at
ĠThat cher
Ġconst antly
Ġtranspa rency
w yd
ĠM orton
ĠW ell
Ġsc ar
Ġrev ised
6 6
H and
ri ved
ĠMad uro
Ġg ram
ĠMar co
A dd
art hen
ĠU s
asc us
Ġbra ve
Ġregul ators
Tur key
ĠSp ani
Ġve get
es b
R el
Ġw reck
Ġland l
Ġgall ery
Ġsa fer
ĠInd ies
Ġretail er
Ġanx iety
ĠC ancer
ag a
ump s
onn a
l ay
ĠSe v
Ġdest ination
Sha bab
b ish
x y
A ston
ĠGre ens
Re port
Ġengine er
K e
ĠM ason
ĠA ri
Ġfr ight
ĠSte el
Ġburn ing
Ġbare ly
9 5
ĠC as
oc he
apt ain
op ular
ĠJ ong
Ġmed d
the re
Ġd angers
Ġinspect or
Ġdistrib ution
Ġforth coming
it ime
ĠO cean
Ġph r
col m
Ġimmigr ants
ut ory
ĠO spreys
ĠPr in
Ġconsum ption
ĠMersey side
M e
Ġf ate
ĠB ra
ĠL ang
ĠK ash
Ġprison er
F urther
Ġg ig
Ġshe et
ec raft
umb arton
Ġsto pp
Ġcontrib utions
ĠGlouces ter
anche z
c oin
f our
ĠL ind
ling ton
ev a
Ġhold ers
Ġdise ases
Ġdisappear ance
g ame
ĠS terling
Ġpersonal ity
Ġd rown
ĠH ibs
ĠMor rison
bo at
Ġgang s
ici ency
d oor
z o
Ġs ch
Ġdis placed
Ġgr ants
Ad am
B ack
c hers
Ġs cept
er ia
ĠC atal
ĠH ans
Ġback s
Ġdeb ris
Ġt one
Ġcon ce
ran ean
Ġprinc iples
Ġhack ers
Ġst im
ĠMar io
Al most
ĠCamer oon
ĠG ove
ĠF el
ĠCl ass
Ġmain stream
Ġlibr ary
H igh
J u
ĠH ass
elect ed
Ġdial ogue
Ġra ids
Ġb eds
ast on
ĠV aughan
ĠI ts
Ġinter ior
Ġbul let
Ġcompar ison
J am
ul um
ĠP ais
Ġcru el
Ġexcept ional
ĠLig a
A E
Ġf isher
ĠM en
ĠH at
ĠE ar
Ġdiagn osis
A ct
at on
ĠG ates
Ġinte g
Ġgl ad
ĠSwed ish
Ġlegit imate
Ġbook ed
Ġgun man
Ġexpert ise
Ġplat forms
Ġswe pt
Gl asgow
threat ening
n ity
ĠE astern
Ġun anim
ĠDam ascus
Ġt ension
ak i
Ġmid night
Ġagre ements
ĠMal i
Ġd ust
Ġcon grat
ĠH ibernian
Ġfil ming
Ġaff ects
Ġsurround ed
Ġenthus i
Ġp ose
ĠM ik
ĠC ivil
Ġstrong est
Ġperfect ly
Ġcong ress
H O
Ġas pir
Ġacc ord
Ġfle et
Ġinternation als
b od
Ġpro of
ue z
Ġjoin s
Ġdoub les
ĠPear son
am m
ĠD u
ĠF ield
Ġfeel ings
ĠMor oc
P enalty
r ical
re ly
Ġb ug
mer gency
Ġdam ages
ĠSand ers
ĠT ob
Ġmotor way
ĠJosh ua
ĠPortug uese
N L
in ity
Ġd ivers
ĠO bs
Ġtechn iques
Ġsepar at
Ġport ray
Ġintro ducing
Ġgun men
ĠApp eal
ĠOf sted
Ġven ues
Ġnarrow ly
Ġappreci ate
re ading
Ġw aves
ĠG et
Ġ0 7
Ġdi et
Ġclass ic
Ġstor age
Ġamend ment
C rystal
R ec
ight ing
Ġab ol
ins ula
Ġshar ply
Ġd ressed
ĠH ou
ab lo
ia u
Ġpre ca
F ulham
Ġf ile
Ġd inner
st ration
Ġgu ests
Ġdist ress
Ġste pping
ĠHigh lands
Ġm aker
est on
Ġadm itting
Ġop ens
Ġmand ate
C ouncil
b ank
ro id
un a
ĠT ata
ĠS ale
Ġex ceed
Ġex ception
Ġout lets
Ġun t
Ġrec ip
Ġprompt ing
Ġlength y
D un
ha ul
ĠR et
th irds
Ġdeb ates
Ġrank ing
Res earchers
Ġclimb ed
Ġvacc ine
P I
ĠA ction
ab out
Ġshort ages
g i
Ġr iot
ag her
Ġcont ains
ĠUn it
Ġfail ures
Ġimport s
Ġwrit es
ĠMichel le
F ire
c m
o vers
Ġb ol
ĠC os
enc er
Ġass aults
Ġsure ly
ĠEm ma
Ġpron ounced
Ġsolic itor
p ot
Ġst em
Ġcamp us
Ġexp anded
Ġcompet itors
ĠMed iter
A C
o j
Ġc ig
Ġind ication
Ġdub bed
on ents
ĠF isher
Ġco ok
Ġsa il
ĠK l
Ġexplo itation
Ġunn ecessary
Ġforg otten
g ol
p ower
Ġo edd
Un fortunately
Ġpostp oned
Exper ts
B ournemouth
l othian
qu ay
Ġout lined
Ġcomp ly
g ir
ot y
Ġinevit able
Ġf itted
Ġs add
ed ed
Ste ve
g ender
s es
u v
w icket
ant ed
Ġsc rapped
Ġoptim istic
ĠB est
qu ins
Ġens ured
ew n
Ġcampaign ed
cl ub
Ġshout ing
C ha
ĠA st
ĠH outh
ĠD orset
Ġscen ario
ĠEconom ic
W rit
Ġto x
han i
Ġprov ider
ĠJohn ston
ĠConn or
ĠTurn bull
ĠIP CC
Ġoverturn ed
ĠMediter ranean
est ed
ab il
Ġad rift
Ġres earcher
Ġref using
Ġdefend ants
B et
K evin
O pp
b ow
es ity
ham bers
Ġ198 8
Ġte ach
ĠBr un
Ġopp ose
Ġcrack down
ĠChes hire
D F
M iss
Sub s
ĠEll is
Ġr ating
Ġ7 9
ĠAn ne
let ics
ĠNews night
Ġfun ny
Ġh unt
ĠTh orn
Ġtechn ologies
y st
Ġpar amed
Ġbench mark
ĠBost on
p ost
ĠM ajor
Ġun com
Ġexam ples
Ġtyp ical
ĠKier an
W atch
al ing
ous and
ĠSt irling
Ġchild care
L ew
ay ed
ĠH ur
ĠMan agement
ĠMid lothian
ĠCarol ine
H uddersfield
ĠK ate
Ġte eth
ĠRuss ians
Ġbar rier
ĠForm ula
L ead
i ac
k ill
Ġ9 2
Ġbatt ling
ĠLeban on
Ġaccomp anied
mb uds
Ġm it
Ġst un
ĠR ash
um m
ĠRober to
het or
it udes
Ġref use
Ġtrans pl
Ġpass es
Ġkick ing
Ġrep ly
ĠBar b
com plete
Ġfire arms
onn ie
Un til
mbuds man
I an
ĠS lo
ab ad
ĠAr n
Ġagre es
Ġvisit or
ardy ce
Ġ ing
ĠC ulture
Ġinv asion
ĠLe y
Ġam ateur
ull s
Ġlif estyle
ĠCha p
Ġemot ion
Ġkit chen
n chen
Ġsp are
kes pe
Ġconcent rate
ĠMÃ¼ nchen
5 9
Ġtrans m
Ġform at
work ing
Ġimm ense
ĠWals h
I ran
ab y
Ġatt orney
Ġrun way
ste in
it ement
Ġatt ached
ĠAndrew s
ĠTunis ia
I N
b es
ĠR eds
ĠO K
ĠK o
ord in
ĠIs a
Ġbre ached
ĠCam bridgeshire
ĠCarl os
Ġtim et
kespe are
Ġha ul
Ġun fortunately
Ġoccup ied
Ġant ib
6 7
S ullivan
c ur
ĠL ine
Ġcha sing
ock ing
Ġmonth ly
St aff
Ġpurs uit
Ġcorpor ation
ĠOrgan ization
ĠM atch
ĠU nd
Ġed ged
ĠEm irates
T alk
Ġre ception
us hing
Ġfore casts
ĠAs hes
Ġachieve ments
Ġmaint aining
Not ts
fund ed
Ġr ush
um s
um ing
Ġrespons ibilities
Wat ford
M C
k et
le quins
Ġan s
ĠT am
Ġext ract
ĠMur do
Ġegg s
ĠSebast ian
l ene
Ġk il
Ġreal istic
Ġi Ph
Ġvess els
Rep ublic
B O
b ishop
Ġhe ll
Ġunbeliev able
N ick
c r
Ġbe ll
ĠC lyde
Ġr hy
Ġpoin ting
ĠCol chester
Ġwa ited
wy nedd
ĠC umbria
ĠI CC
ess ional
ĠV ik
Ġsur f
ĠPro ject
Ġhot els
T im
ĠChrist ians
ĠCy cling
Ġdiver se
l ink
ĠD one
av en
Ġscient ist
ĠFin ance
ĠOl iv
ĠCarol ina
Ġlect ure
p an
Ġl aps
ĠF letcher
Ġro lled
Ġsm ile
E lsewhere
com es
Ġappl ic
Ġboost ed
ic ulous
Ġh iding
Ġbl ank
s ub
rem lin
ah u
Ġbreak down
Ġcustom s
Ġbreat hing
oub ted
) :
s ers
ĠW asps
Ġab duct
ĠSt ra
Ġfl ats
Ġsleep ing
ĠS P
ĠB rentford
Ġse iz
Ġcar ries
ur a
Ġchan nels
Ġinvest ments
Ġrum ours
J ordan
ĠD ra
Ġdes c
Ġmark ing
crib ed
amb ia
Ġarrang ement
Bol ton
m ail
ob ally
ric ulum
ific ance
cont rolled
ĠRev iew
ĠC hi
ĠB i
ĠA P
un ction
Ġass ured
Sp ain
i ef
ers en
ĠP enn
Ġpan ic
Ob viously
E T
ce eds
Ġle ak
ĠV en
Ġdes erves
ĠNor man
Ġr hetor
Ġun ited
Ġass et
atic an
Ġdemon stration
Ġcop y
Ġaband on
ĠStafford shire
ĠS ierra
ĠD ame
ĠE st
He ad
yan mar
Ġdemonstr ations
ĠC rewe
Ġcrit eria
oph ob
ĠK lopp
Ġme als
ĠEuro s
Ġg al
ur ation
ul es
Ġmon arch
Ġfund raising
ĠWil tshire
Ġcoast al
Ġtherap y
Ġcha se
f od
m ind
Ġfr amework
Ġhand ful
Ġrac ism
ĠSen ator
Ġdrag ged
Ġstopp age
Ġex ecution
Ġhar sh
Ġbas ically
Ġdiv or
ĠSl ovakia
Ġtremend ous
Ġn a
ot o
Ġpost ing
Ġh urd
Ġint ensive
terror ism
x imately
Ġc ock
Ġd il
Ġre lie
ĠS anchez
ĠH ert
Ġsp ac
Ġshe d
Ġgr id
Ġextrem ism
ĠViet nam
ĠDuff y
ĠNaz i
Ġinstru ment
ĠB air
ĠT oul
Ġcare ers
Ġcondem n
ĠR oot
Ġj oke
ĠK az
Ġhear ts
d i
Ġw ire
ain ment
ĠSer ge
ĠCrime a
ut ious
ab a
Ġwar ns
Ġsub mar
cl air
Ġaddress ing
Ġflag s
Ġpsych iat
Ġstruct ures
ĠInd ust
Ġfail ings
Ġnurs ing
fortun ate
ĠHills borough
h w
r ary
Re fe
resp ons
Ġpil ots
ĠCarm arthen
ĠJ es
ĠWe b
P al
ĠA lf
ag anda
ĠGe off
Ġprem ium
ĠArm agh
Ġp ione
ĠH old
ĠG as
Ġex ha
ĠK as
Ġexp osure
Ġcred its
Ġz oo
ĠEC B
F ore
t han
Ġg amb
ol ph
for ward
ĠMag u
Ġtri ps
str ing
Ġconst able
Ġrenew able
G et
le ading
Ġbe auty
ĠS gt
if ting
Ġmed ication
ĠAn field
Ġpo orest
Ġpark s
ĠWorces ter
ĠB attle
ĠH onda
Ġdifferent ly
Ġdoub ts
Ġconcer ning
ĠRod rig
ĠChic ago
N ational
ĠCon f
Ġpri est
ĠR MT
Ġpar amil
Ġdefend ers
S ometimes
ĠCar ney
alyst s
4 1
ĠF lin
red it
Ġsub jected
ĠRe port
ĠDaw son
Ġf ur
ĠP erry
act or
Ġtest im
Ġconv ent
Ġut ter
ar ia
Ġd ual
Ġnot orious
Ġneut ral
Ġans wered
5 7
Ġw ore
ab i
Ġbott le
ĠBlack s
mark ed
Ġaddress es
Ġhang ing
ĠStat istics
Ġenem y
Ġt ip
Ġc razy
Ġstar ring
augh ters
Ġabs ent
Per haps
ĠSpani ard
5 6
er g
Ġcon vert
iss a
ĠCent er
ĠBe at
Ġexplos ives
Ġpurp oses
it ar
cl iffe
Ġpassion ate
E ight
u its
am i
under ing
ann a
Ġexplos ive
Ġwealth y
Ġdat ab
ro ph
ĠI mp
ag en
ĠAt letico
Ġroll ing
ĠBuck ingham
Ġbarr ister
ĠTechn ology
ĠP ed
Ġquick er
19 9
ĠRoman ia
ĠR el
ast air
Ġsign ificance
Ġpriv ately
Ġachie ving
Ġexpand ing
rokes hire
ĠNep al
Ġartific ial
8 8
J osh
c ap
ĠF lynn
aw are
Ġdu o
Ġth ousand
em eter
ag enham
A g
Ġt ent
ĠD iamond
ĠV eg
Ġwar s
Ġemploy s
C ritics
U C
Ġf ed
ro at
ac co
ĠH ig
ĠG avin
ak a
hi a
av an
Ġunder mine
Ġconduct ing
urt is
Ġrub bish
D em
s ome
u fficient
Ġover d
Ġdis rupt
pen se
Ġ14 0
ĠHay es
Sim on
Ġanonym ous
Ġflood s
ĠWals all
4 3
Ġn ights
and y
ĠP el
ĠV atican
Ġann ouncing
Ġval id
ĠFar rell
Ġtradition ally
Ġin her
Ġcollect ive
ĠMill wall
Ġvolunte er
Ġfoss il
ĠD eb
Ġout s
ix on
ĠBl atter
Ġcirc uit
cri pt
Ġa st
Ġn ut
Ġl ists
ĠCar wyn
ĠFrancis co
ĠOrgan isation
t ry
ĠR T
Ġcar ing
Ġsho es
ĠAg reement
ĠCharl otte
Black burn
O s
Ġmeas ured
Ġty res
Ġvol ume
Ġpain ful
Dan iel
ro ck
Ġcar rier
Ġopen ly
Ġed ition
Ġform ula
Ġ198 3
Ġexam s
Ġattract ion
Ġdyn am
ĠPais ley
ĠH ugh
Ġins ult
Ġreact ed
B usiness
in ts
ĠW olf
Ġsk ill
ĠDirect or
ĠHol mes
ĠMac ron
ĠHear t
c ially
Ġt ipped
Ġg ent
Ġpr ayers
Ġsign ings
Ġpat rol
Ġsucceed ed
ĠM K
Ġpop ulations
tt es
ĠLat in
otherap y
G ary
e astern
av our
Ġlast ing
ie ge
ĠY es
Ġexist ence
ĠLan ark
Ġ0 4
Ġtar iffs
Ġnet ted
Ġclass room
Ġtrou bled
ĠSar acens
quir y
ĠGovern or
Ġnow here
ric a
Ġent rance
ah rain
Ġlet ting
d ie
l aim
Ġb ure
um er
ck er
Ġste ady
Ġregul atory
ĠRog ers
Ġpersu ade
ĠPrim ary
' ,"
Ġl ady
ĠM I
ĠP ers
s har
Ġtrain er
Ġdismiss al
A ng
v it
ĠS ene
Ġr if
em ic
Ġask s
ĠCl if
Ġpo et
ĠCommun ist
D ywedodd
ec ute
ĠB ou
Ġr ans
ĠJ ama
Ġassault ing
Ġdisplay ed
Ġpra ise
Ġapprent ices
id i
Ġconf usion
Ġgu ided
Ġc raft
Ġag es
are ttes
ĠAsh ton
Ġbe er
Ġg reet
ĠF leetwood
Ġdis gr
Ġdep ends
Ġcop ies
ĠWorces tershire
Ġdischar ged
ig ate
Ġcons cious
Ġ8 2
Ġbackground s
a uthor
n ia
ĠF le
ĠTown send
Ġ198 7
Ġexecut ed
P akistan
Ġb rib
ĠB uc
Ġgrand father
ĠBob by
om er
Ġ8 6
Ġqual ifications
ĠAbd ul
0 9
b in
Ġc os
ĠPl ay
ĠG wynedd
ĠSt am
ĠSha kespeare
ĠD over
lo aded
Ġpubl ishing
Ġdecl ar
Ġcounter part
ĠRac hel
ĠR acing
Ġv enture
we gian
ĠQ ual
Ġbomb ings
Ġconfident ial
Whe ther
ĠPros ecution
Ġb row
ĠA C
ri or
Ġres erv
Burn ley
ĠP ent
ĠJ ud
ĠA dd
ĠL ake
Ġcont am
pe red
Ġcond ol
elt a
Ġshel ter
keep ers
ousse ff
on ess
ĠAd rian
Ġdisp os
ĠMSP s
Ġupgr ade
Ġres erves
pr us
ĠPark er
Ġsevere ly
Ġagric ulture
Ġcon gest
ĠT u
ĠZ ika
ĠGl enn
Ġconv ention
Ġrequire ment
Ġnick n
ĠC old
res hold
Ġneed ing
Ġair lines
atur ally
Ġmotor cy
Ġextrem ist
Ġobser vers
Ġpass w
Tr ans
Ġconnect ions
ĠSant os
ĠIA AF
b ling
ong yang
Ġrep airs
ĠMatthew s
O ld
ĠM ak
ĠW ool
ous ing
ĠSy stem
Ġ9 6
Ġob esity
lo ved
Ġobs erved
Don caster
ĠIns pect
ĠM LA
Ġr h
ne ver
ĠBr ady
Ġform ation
ĠVal encia
Ġadvis ers
ĠMurdo ch
Ġind icate
Ġjud ged
Ġsol o
Ġbail ed
Ġment ally
Rober t
Ġsha ll
ĠWe bb
Ġc ous
ĠSt ef
ib re
Ġhal ted
Ġreli able
ur i
Ġr ated
ĠLo ch
M id
Ġ .
ĠM umb
Ġj ets
Ġout look
ĠJew s
Ġcollabor ation
Ġnomine e
Ġgyd a
is ms
ac on
Ġth ick
Ġeff iciency
Ġ8 7
Ġdiscuss ing
A re
at ched
ĠA T
ĠW a
ĠJ ar
Ġdec re
Ġdef ences
Ġnight club
âĢ ļ
Ġliter ally
Ġmoder ate
B razil
ĠL ough
Ġcomp uls
Ġca pped
Ġnomin ations
Ġgu ess
Ġfar ms
Ġaccept ing
ĠChief s
ĠJul ian
ĠWol verhampton
Black pool
quir ies
Ġfro zen
A ir
ĠO mar
Go ogle
lus ions
Ġdeleg ates
y ch
re f
Ġth reshold
ĠA ge
ict ory
Ġtra uma
Ġrhetor ic
H opefully
Ġg ut
Ġh ip
our se
ĠF amily
ĠO d
Ġsc ra
ĠLib yan
Ġprosecut ed
Midd lesbrough
y ers
Ġw ine
Ġexp enses
Or gan
Ã ³
rug uay
b et
h r
h ost
ĠH as
ĠK el
Ġcho osing
Ġrock s
sha w
b as
Ġt ag
ĠHart lepool
T A
Ġs ke
il ateral
Ġout fit
With out
ĠSu arez
Ġinterven e
zb ollah
8 9
E s
t op
Ġg est
ĠR ousseff
Ġout comes
ĠK ur
Ġsim pl
Ġfinanc ially
Ġclos ures
âĢ ¦
ĠH us
Ġv iable
hold er
Ġwithd rew
Ġcycl ist
Ġrough ly
Ġtu ition
c al
Ġinc on
Ġexcess ive
Ġs orts
Ġsa ves
Ġac ute
round er
Ġsupport ive
Ġdet ain
ĠSp encer
Ġav iation
p ond
le ague
ĠC oul
Ġcont ention
It aly
Ġsha ke
Ġpo orer
Ġreview ing
Ġimm une
Brad ford
M K
a en
s ki
in j
ĠC airo
ĠI C
ĠR uth
und ers
Ġsub urb
Ġcry ing
Ġtimet able
P lymouth
il itation
ĠM ous
Ġint r
Re g
Ġbat tery
look ing
Ġdramatic ally
Ġb one
Ġf ence
Ġd ivid
Ġwor ries
Ġinc omes
Ġinter val
erm ain
usal em
ĠKash mir
Subs cribe
om pl
ĠB ot
ĠB art
ass ion
Ġexam ining
ĠPat erson
om ach
ĠH iggins
ĠAnd rea
Ġban ning
ĠStev ens
Ġb orough
Ġre ar
av on
stitution al
ĠSw ans
D anny
Ġc attle
ĠB it
ick en
ĠMcG regor
Pl ayer
Res idents
w ould
Ġbatt les
ĠMal colm
Ġult imate
e a
Ġs oul
Ġs ample
Ġd aughters
Ġh ill
Ġper ceived
Ġchar ging
Ġcons ensus
Ġlangu ages
P P
R otherham
j amin
Ġappro ximately
Ġmod est
Ġstream ing
Ġto pped
Ġh ire
ĠN eymar
rif ied
I pswich
Ġwh is
In ter
Ġacc ompl
Ġdef ined
Ġass ass
Ġgl obally
Ġattend ance
k ara
Â ¬
om ot
ĠAr ts
Ġra ises
Ġnational ist
dis app
ĠArgent ine
ĠUg anda
Ġsp reading
ĠK er
ĠNic olas
Ġparticip ants
ĠTro phy
Ġextrad ition
G M
ĠK aren
ĠPol icy
ĠOxford shire
abor atory
a o
Ġb ang
ĠD im
Ġca utious
upport ed
D A
ĠE FL
Ġchampions hips
Ġjihad ists
Jam ie
P ortsmouth
Ġa x
us k
Ġwe aker
ĠN ight
ĠSc unthorpe
âĢļ Â¬
S C
ĠS DLP
ĠM ead
Ġwor s
we ather
Ġsw ing
gu ards
Ġstab bing
Pr ot
Charl ton
B or
ol ving
ĠG ay
ĠO NS
Ġdet ected
Ġcelebr ity
Ġbom ber
ĠLenn on
´ l
am o
Ġhas ht
Ġint end
Ġdis pl
Ġind igenous
te en
ĠRob son
Ġlack ed
Ġclimb ing
ĠFed erer
K en
ch ildren
Ġar tic
ĠUn ite
Ġbet ting
Ġtri o
Ġdep ending
upp orters
Ġrat ings
Ġaler ted
c har
Ġs its
ĠM ug
ĠC yn
ĠR ah
Ġcr ude
ĠLanc aster
ĠGa el
Lew is
D ay
Ġb ands
Ġg raph
ĠP res
Ġ8 4
ĠSout hend
oubted ly
Ġp ave
ĠS ave
Ġcur riculum
Ġtrans gender
Ġcomment ary
oph ist
Ġconf ron
ĠAnd roid
Ġprior it
ĠMu ir
ĠLanark shire
C oventry
F U
in ney
ĠG ren
ĠG ame
ĠU r
ĠSc he
ĠMcD onnell
Ġprivile ge
Ġst ored
Ġle isure
deep ly
D I
Ġb ones
Ġan aly
ĠR w
ĠF ilm
Ġpip eline
ĠCroat ia
s pe
ĠC ad
Ġen abled
ĠY eovil
Ġstr anded
Ġstat utory
Ġrece ives
Ġmat ched
par ts
ho le
ĠRes erve
Ġphil os
C hester
M or
Ġp orn
Ġfor wards
Ġappro ve
Ġmotor ists
ĠJer usalem
ĠPemb rokeshire
Ġtox ic
ĠB aghd
ĠA FC
Ġex empt
ĠK night
Ġ8 1
Re ports
Ġund e
Ġsn ap
Ġdetect ives
Ġinnov ative
Ġgri ev
stan bul
M us
v or
ĠF o
ĠLe inster
Ġdon ation
Ġstri pped
Ġpress ing
Ġmount ains
H ibernian
v oy
ĠB ald
ĠH ague
ĠO k
ĠBrit ons
Ġsign als
Ġbox er
Ġcomple t
Ġf are
ĠC abinet
ĠB und
pl an
Ġspe eds
ĠBut ton
Ġproduct ivity
fort able
Ġbreat h
Ġmut ual
A round
n orm
z es
re ated
Ġst omach
Ġpl un
ist ory
Ġrespons es
ĠEm manuel
ĠNob el
Ġreluct ant
ĠA ward
ĠP ep
Ġexpect ation
Ġdisp utes
Ed inburgh
ĠMagu ire
7 7
H art
P ublic
th ink
ĠD id
ok en
Ġlif ting
Ġcolle ges
Ġfortun ate
ĠMumb ai
g ie
v ine
w orld
le ase
ĠW es
ĠFar c
Cur rently
ĠCrim inal
Ġbidd ing
Refe ree
g ess
ĠC rawley
Ġas pect
ĠP ayne
Ġ8 3
Ġvol at
ĠSin clair
Ġdisad vant
emeter y
In verness
ĠFrench man
Ġ197 9
Over all
Ġb ans
Ġfree ze
Ġopt ed
Ġreass ure
h it
Ġd iving
Ġpl a
ant a
Ġformer ly
Ġext ending
Ġinter cept
Ġaccess ible
add afi
Ġacadem ies
GB T
Ġspr int
l t
Ġimp acts
Ġfl ash
Ġsl ower
Ġenc ry
ĠMcC l
oper ate
ĠGerm ain
M otherwell
c asters
l ings
il ic
ĠC O
ĠBr ig
Ġgener ous
Ġcol umn
ĠAth letics
Ġfeed back
ĠGen eva
v als
ĠP i
ĠU p
ĠEd en
Carl isle
P reston
k ar
it ored
Ġcomm itting
ĠAr thur
Ġsuccess ion
Ġap artment
ĠEx press
Tr ump
qual ified
5 8
N early
l av
al le
Ġg ift
ĠL ock
An alysts
Ġproduc es
Ġinternation ally
ĠR oma
ose xual
Ġprof ound
ĠDug dale
R ed
Ġc ow
ĠO x
Ġoff ender
Ġunder lying
Ġ198 6
Ġer up
ĠGar cia
ĠD ylan
ew hat
um ar
end ar
ĠK remlin
Ġbr anches
Pr ince
ĠPrin cess
W y
Y ork
Ġby dd
Ġun l
Ġup coming
ĠAr ctic
Ġlearn t
ĠHart ley
iv a
Ġsepar ated
wick enham
Ġjour neys
Ġgrad ually
C ons
N ever
Ġfr acking
Ġacc use
ĠAn y
itness es
Ġz ones
Ġcomed ian
6 8
y ou
Ġc hip
ĠB ook
ith uan
An n
Ġqualif iers
Se ven
ha ri
ĠCha d
Ġbroadcast ing
Ġgu est
Ġturn out
ĠBar r
Ġbott les
ĠMark et
Ġobt ain
o es
ar ound
le e
Ġint ends
Ġsm ooth
Ġspe aker
Ġstop s
Ġsto le
Ġcounter parts
Ġacqu ired
Ġinequ ality
C he
C ont
ĠM yanmar
ĠJ ur
Ġslow down
neg oti
6 9
M en
f ol
ĠR an
Ġrequ iring
Ġclar ity
Ġcontroll ing
B ay
C ent
ĠT hi
Ġsu p
Ġfail s
ĠCa pe
Ġdiscipl ine
Ġscre ens
t ax
on ic
Ġc ord
Ġn av
ĠP iet
any ahu
Ġ8 8
Ġprop aganda
por ary
ĠPe ace
Ġanalys ed
Pl aid
Ġmer ger
Ġtast e
Cam bridge
Ġs weet
le ep
Ġle af
ĠN av
Ġpre st
ĠAm nesty
ĠLiber ty
Ġham string
O spreys
ion a
ous es
ĠAn na
Ġdr unk
Ġbow lers
Ġpsych ological
W als
Ġm ewn
Ġbre aches
Ġpo le
ĠSer ies
pro v
ĠDo ctor
Ġdesper ately
R ail
Ġr ot
Sc arlets
d ev
Ġn hw
ĠD oyle
Ġpre lim
Ġcollect ing
Ġargu ably
Ġdim in
ĠCE O
0 8
c at
ou re
ĠT wickenham
ĠL ight
ĠIn n
Ġtra um
Ġbas ket
Ġg aining
ĠH ob
Ġemer ge
Ġm ad
Ġha iled
ac han
ĠAir lines
Ġbelong ing
May be
9 00
Ġin adequate
ĠQ PR
Ġreb uild
Ġintens ity
ing u
Ġm our
ĠI stanbul
ĠN ap
ĠK iev
Ġinter pret
Ġ9 9
Ġexperi encing
Ġfle e
ĠProg ram
Ġr ushed
Ġse g
ĠV ardy
Ġgreat ly
ĠCon te
sp ec
enz ie
ĠJ os
ĠJ oyce
ĠWe ir
Ġbar rel
ĠStand ards
Ġcert ific
5 3
C raig
Ġs ed
ĠSw ift
Ġacqu is
Ġbound aries
Ġsymp athy
n ock
ĠP ool
Ġde eper
Ġmar athon
Ġhum our
Ġflood ed
Ġdeg rees
Ġhero in
Ġbond s
Councill or
L a
R oy
ac er
Ġexp ression
ĠMun ster
Ġgri p
Ġtranspa rent
Ġth in
Ġy ield
ul ent
to o
ĠSal mond
Ġapply ing
Ġveter ans
Ġpain ted
Ġfulf il
Ġs in
ig ures
Ġres umed
Ġmon u
aw i
Ġloc als
ĠGra eme
S em
p os
ĠB in
ĠH em
mer ce
ail ing
Ġbo ot
ĠĠ Ġ
Ch ildren
ĠNet anyahu
ĠS op
and om
Ġse as
Ġrel ay
Ġbroad er
Ġcitizens hip
Ġobject ive
ĠGun ners
w od
or ms
Ġy ng
Ġj ersey
Ġab using
Ġmon itored
Ġdep rived
Ġstaff ing
Ġantib iot
ĠD C
Ġsome how
Ġsub mit
ĠBar nes
ene ath
Ġaccident s
Ġphen omen
Ġme ets
Ġconv ince
gr ade
Ġp und
Ġsoon er
ias m
ĠPolit ics
Ġover th
ven ia
Ġ10 1
Ġ9 99
Ġeng aging
Ġgold en
Ġrad ar
Ġinsp ire
M uch
R ef
f in
r ard
art ial
ĠTha i
istor ic
Ġremind er
Ġpod ium
n ast
han t
oc us
Ġun fortunate
ĠPl ace
Ġsubsid ies
Mill wall
Ġm el
ĠZ uma
Ġshort list
ĠR u
og o
Ġpres erve
Ġappoint ments
ĠGold en
Ġham mer
Ġanticip ated
ĠPartners hip
K K
f ed
ĠCh o
ĠBr and
be an
Ġdevelop er
Ġval ued
ĠCal ais
ĠWy combe
ĠStand ard
ĠHert fordshire
ve t
Ġex pense
Ġear liest
go al
Ġgrand mother
Ġtaxp ayer
ĠBox ing
S inn
b ike
ĠK am
ĠAll ardyce
c ould
re b
Ġca fe
Ġ18 0
Ġunc le
ĠOn ly
Ġprelim inary
B orn
on gh
man agh
Ġsc ript
Ġchem icals
ĠRy der
5 2
t heless
Ġre iter
ĠM ol
ĠP ul
ĠL iz
Ġcomm od
Ġact ively
iz on
Ġemploy er
ĠSteven age
ĠUnd isclosed
L uton
ĠP in
Al an
Ġhelicop ters
ĠCy prus
Ġadj ust
w m
Ġn erve
Ġbod ily
Ġbow l
Ġenter prise
K ilmarnock
ort ium
Ġbo ge
Ġass isted
Ġcost ing
istor ius
Ġinfect ions
W il
t le
im m
Ġfl owers
ĠHe zbollah
Ġconc lusions
Ġref urb
Ġhuman ity
Ġcle ver
ĠKen yan
Ġsister s
ĠGall agher
b rities
Ġb old
pl ed
Ġar ranged
ĠWar ner
Am os
Ġshout ed
Ġcommem or
Ġb ru
Ġab uses
Ġim per
are st
Ġ8 9
F S
Ġst ead
ĠD J
up id
Ġsal aries
Ġsan ction
Austral ian
Ġmanufacture r
ĠSpe aker
shar ing
M ah
m ajor
ĠRam sey
Ġir re
6 2
a fe
ĠR on
Ġdis g
ĠFr om
Ġcomple ting
ĠMed ic
Ġcompuls ory
t ake
om ed
ro gen
ry d
ĠCar roll
Ġexc itement
ĠiPh one
F l
el lect
ment ed
con n
Ġlink ing
A FC
C all
G en
m id
Ġl ending
ill ery
ont o
Ġfar mer
ĠGr imsby
inc ing
Ġseem ingly
Ġi Player
Ġcredit ors
Ġparticip ate
Sh rewsbury
S us
h ran
ver ts
Ġr amp
ĠH ad
ĠNew ton
Ġrepresent ation
Man ager
Ġextrem ists
Ġgent le
se e
te rest
ĠBer k
Ġacknow ledge
Ġregist ration
ĠP orter
Ġab usive
row d
Ġaff ili
ĠMo D
Par is
v ation
am an
ong a
ĠK err
Ġdepend ent
Ġdatab ase
ob i
ĠHam as
ĠPier re
ĠBarcl ays
Writ ing
Ġb uck
Ġpr ince
ĠSyri ans
ĠGu y
yr ne
Ġspac ecraft
a uc
f ell
Ġf ame
Ġg yn
Ġatt itudes
Ġcontrib uting
Ġsmart phones
G old
he red
ur ches
Ġtrans actions
Ġgl obe
Ġdign ity
m and
Ġr aw
Ġr aced
ĠW ik
Ġmin i
ax y
Sec urity
Ġport ra
Ġconfirm ation
Ġcarri ag
ĠVeg as
D own
N ic
N iger
ing ers
Ġinvest or
Th rough
Ġcontest ed
ĠParalymp ics
in ted
on en
ĠS hel
est ab
pl aints
ĠJo el
Ġlist ened
Prof essor
ĠPet ro
Ġsatis fact
H ome
Ġ3 50
Ġadv ocate
ĠPy ongyang
L ib
L iam
m ill
ĠJ a
Ġmar ry
Ġsk illed
Ġtreat y
cha l
Ġpres ents
Ġconvers ion
ĠHun ter
ĠCome y
Ġphr ase
R och
her d
ĠN ice
Ġun paid
ĠY ard
G re
m m
Â ł
Ġm akers
st ow
ĠCar rick
ĠWar rington
ĠChester field
6 4
Ġg ate
os er
ĠR ick
th ree
Ch inese
Ġenthus iasm
g ently
ar ts
Ġcol ours
Ġcred ible
Ġdiscl osed
Ġta pe
ĠEthiop ia
Campaign ers
Ġbacter ia
5 1
D id
Ġs ophist
at an
Ġcomp atri
Ġve to
Ġmusic ian
h um
ĠB ec
Ġfr ank
ĠD ennis
ĠG M
Ġdomin ate
Ġsom ewhat
Roch dale
A uthor
in ction
and ro
ĠJ r
Ġall ocated
Ġcomp are
Ġeconom ics
Ġhard est
Ġdesign er
Ġspot light
Ġmag istrates
Ġign ore
ĠPed ro
m od
ing e
Ġha z
ĠC lement
ĠH ogg
ĠN ature
Ġsur rend
Ġmor al
ĠAlex is
Ġassess ments
Ġspeak s
Ġport fol
ĠSur vey
Ġconsequ ence
ĠMcK ay
Ġjur ors
U lster
ĠB ann
Ġpress ed
Ġfac ilit
ĠRh odes
Ġconver ts
f rom
w el
Ġf ert
is hers
ĠF ive
ĠN atural
ond er
ĠK a
ib bean
ĠMidd lesex
m are
u zz
nd rome
ĠB ahrain
ĠP ap
ĠW hile
ern sey
ĠCar r
Ġless on
Ġunc ons
Ġbillion aire
Ġmedic ines
F ull
le f
ĠT rou
ra ud
Ġ20 22
Ġcomp ound
ĠJohn ny
ĠNor wegian
ĠMack ay
Invest ig
Ġunif orm
ĠMuham mad
ĠObs erv
F acebook
q a
ĠB udd
Ġbl own
pr int
Ġtestim ony
5 4
7 4
p age
ĠMc A
Ġgu itar
umb led
Ġconfl icts
Ġequal ised
ĠRen ault
Ġvirt ually
Ġrehab ilitation
B rentford
Ġt empt
ĠO ak
Ġlo ving
Ġexpl icit
ĠBen jamin
Ġboy friend
Ġhun ger
Ġagric ultural
t im
Ġle ap
Ġfl our
Ġ0 6
Ġ198 2
ĠCor por
Ġste ep
Acc rington
Ġtermin al
m al
ot ing
her iff
Ġbl oc
ath lon
ĠAr lene
ĠAl astair
ĠBurn ham
Ġsteal ing
ra eth
Ġdef lected
With in
ĠAng us
NL I
ur ances
rit ion
ĠV i
Ġdon ors
Ġadv oc
Ġforeign ers
Ġcoast guard
Ġagg reg
Ġcondol ences
Ġh i
pt onshire
Ġfl ames
Ġ198 5
Ġreven ge
Ġrac ial
ĠBow ie
Ġmagn ific
ĠMand ela
ĠMans field
Ġawa iting
Ġflank er
ĠG addafi
Ġcare rs
Ġprocess ing
Ġconstitu encies
Ġphotograp her
Ġdeclar ation
e very
ham ptonshire
ĠY outh
Ġassist ing
D irect
ĠC hambers
oy ds
Ġposs essing
ĠAd v
ĠSam uel
ĠEnglish man
Ġc ub
Ġc able
ĠS ony
Ġrec alls
Ġsy dd
Ġimplement ation
ĠRail way
Que ens
Ġt iss
ĠM end
ĠA Ms
um ption
Barn sley
ĠDone gal
or ge
ĠG illingham
Ġbre eding
Ġtravell ers
ĠFl an
otter y
ĠGib son
Ġpal ace
ocol ate
ĠNad al
affer ty
Ġdisadvant aged
Ġerup ted
T en
d ist
m is
ve z
un ting
ĠIs les
duct ions
Ġsl im
ĠOr der
or ia
st ri
ĠM old
Ġup rising
Ġevery day
Ġcred ibility
Ġattract ing
Wh ilst
keep ing
Ġpreca ution
Ġare na
ĠCl are
ĠÃ ´l
Sem it
H al
Ġs oc
ore ham
ct ors
ĠN airo
ine z
ĠTh ose
Ġrel ate
ĠSe x
ĠCup s
Ġexc use
Ġcontract ed
ĠMcC all
Part ick
d id
ic ians
ĠW yn
ĠR ud
Ġwrit ers
Ġcycl ists
ĠIbrahim ovic
Ġgram mar
ĠC IA
ĠI B
ĠU C
Ġgenuine ly
Ġlod ged
L ive
Ġb eneath
ort ed
our g
ist en
Ġcont enders
Ġsc am
Ġchair s
Ġ197 4
Ġenhan ce
r ank
ĠF il
Ġex ists
ab ling
ong o
Ġreg eneration
Ġread ers
ĠFin land
Ġfrequ ent
ĠLey ton
S pec
Ġon d
ĠH op
Ġsent iment
Ġrecru ited
Ġopin ions
Sw indon
Ġundert aken
Wy combe
re ls
ĠH utch
ĠD er
ĠD onn
if ax
Ġsh ore
ist air
Ġdiv ide
rop shire
Col chester
Peter borough
ĠGab riel
Ġpattern s
ĠM agn
ig hed
ĠF as
ĠK onta
iver se
Ġprog ressed
Ġadm ission
Ġsect ions
Ġpark ed
Ġmotiv ation
ĠMoy es
Ġf urn
Ġpl ain
lect ion
ĠCon vention
ĠAust in
Ġnation wide
Ġhasht ag
Ġto b
Ġg am
ĠK ean
Ġover haul
Ġgovern ors
ĠShe ikh
ĠSec ond
Ġcal endar
Ġvers ions
ĠJun ior
w hat
Ġh ired
ĠC irc
ĠD emb
Ġjust ified
Ġch ronic
Ġthreat en
ograph ic
ĠE xt
ĠFr ances
Ġimportant ly
Ġve t
Ġcommun icate
Ġapproach ing
Ġuns upported
ĠFox es
Ġb out
ri ans
Ġpart ially
Ġcount ed
Ġsect arian
Ġcap ability
Ġflex ible
Ġt ide
ig o
Ġst ones
Ġwhere as
Ġadv ise
A P
R U
y th
Ġs iege
ĠC N
ob s
St ud
Ġ198 1
ĠLy on
Ġuncons cious
Ġb ases
ic he
im ental
ĠL othian
all as
Ġsc ope
ĠCast ro
Ġthr illing
Ġat roc
ĠN ation
ĠU ruguay
ber to
Ġres ur
Ġmin ers
ĠV W
Ġrest art
Ġkid napped
Ġdream s
ĠAtt orney
J e
ake field
Ġw rapped
om i
ill on
ĠT en
ĠUn ivers
Ġins ight
ĠBut ler
Ġpolic eman
Ġdecl are
Ġlands l
ĠRaf ael
S al
Ġb rown
Ġcross bar
ĠElect oral
Ġscream ing
? ?
Ġn aturally
ol ar
ĠH uss
Ġshe ep
Ġadm issions
ĠCa er
ĠGard ens
ĠKat ie
u ity
ĠB arton
ĠT ay
Ġwor n
Ġtr icky
ij i
Ġfort une
BBCNews beat
d oping
Ġsp ray
ord inated
Ġev al
Ġstr ongh
Ġreve als
Ġemot ions
Ġdetect ive
ĠTan z
Ġcar go
ĠCar ibbean
ĠSh ort
Ġgradu ate
heim er
Ġcarriag eway
Q C
Ġm aid
Ġre j
Ġrest ruct
de enshire
cl aim
Go vernment
Ġmusic ians
Ġtable ts
Ġrelax ed
Ġtranspl ant
B ury
at y
ig ion
ĠL GBT
Ġdis rupted
Ġconv oy
ĠFor rest
Ġrob ots
bro x
abul ary
Ġparamed ics
g ence
w agen
Ġhe d
ie re
com p
Ġstar red
int end
Ġdemonstr ators
Ġunn amed
ĠSnow den
Ġtob acco
L iber
b igh
f L
ha ve
Ġv ocal
ĠY an
Ġconc uss
Ġconcent ration
Ġanx ious
ĠAyr shire
ĠIv ory
Ġserv ants
Ġpock et
z y
Ġp ill
Ġn ose
Ġor bit
ĠHar v
augh lin
Ġquar ters
Ġhon ours
ĠSa unders
ĠCat hedral
C rawley
o pp
Ġup held
ene y
Ġhor rific
Ġcongest ion
6 3
G eneral
ĠD rive
ast y
Ġj ewell
Ġtrad ers
Ġslow ing
ĠCub an
c hest
h ou
t an
w ear
ĠP og
Ġv ary
ett a
Sha dow
Ġburn ed
Ġess entially
Ġastr ona
7 8
o ons
ĠL ottery
ĠO ver
Ġwhere ver
Ġdon or
ĠPaul o
irst y
Le ague
Ġlegisl ative
Ġpurs uing
ĠAcc rington
Tw enty
Ġg ates
ĠH on
Ġcl ause
Ġcl ashed
ĠV ice
Ġviol ations
Ġval ley
ks wagen
mark ets
Ġbat ter
ĠRam s
C lear
t aker
Ġd ancing
Ġbe ef
ac les
ĠH ew
ĠV iew
Ġann ually
Ġdeliver ies
Ġpoor ly
Res pond
Ġperpet r
F ootball
M ans
f ly
ĠP GA
ĠL ag
ĠG on
ĠG olf
Ġprev ention
be it
ĠRe es
Ġage ing
Ġdeliber ate
Ġalt ogether
Ġburgl ary
7 2
ĠC ou
Ġgo all
Ġappro aches
ĠQu est
ĠBor ussia
Ġrecommend ation
Ġf itting
ill er
ĠG ul
ĠK enn
az ed
Ġgr ades
Ġknock out
Ġmyster y
ĠBaghd ad
f yd
v ens
Ġm amm
ab ric
Ġne uro
ĠCo al
Ġview ing
ĠLu x
rie ve
Ind eed
ĠDis ney
Ġsac rif
Ġresil ience
ĠN ico
Ġla pt
Ġsk ull
Ġnegoti ated
âĢ Ŀ
App le
Ġmechan ism
C rewe
F alkirk
Ġs ends
ri que
Ġmo on
ĠMcG r
Ġmater nity
Ġsens ible
Ġperm itted
ĠMoham mad
ĠHM RC
Matt hew
ĠHaz ard
ĠAlger ia
S il
S chool
Y oung
Ġg ear
ĠD aly
Ġsu ms
Ġam mun
Ġsign atures
ĠMo ors
Ġsurv iving
ĠĠĠĠ Ġ
Ju ventus
ĠObserv atory
ig ital
ĠA my
ĠU t
An thony
Ġfootball ers
ĠRe bec
ĠWill ie
ĠOf com
Ġadj our
Ġsolid arity
sk irts
ĠBrid g
Old ham
ĠI brox
Ġpro ving
ne x
Ġcele brities
Ġshoot ings
ĠWat kins
Ġhor ror
Ġheavy weight
Ġten ants
ĠGerm ans
Ġsovereign ty
F igures
hat e
In s
Ġpre ced
Al ong
Ġisol ation
Ġrans om
ĠRebec ca
n et
ĠF inal
ĠRe yn
Ġaccount ing
ĠPat el
Ġbur ial
Ġlaws uit
MP s
Ġunlaw ful
Ġuncom fortable
ĠBerk shire
H I
Ġbo om
Ġdisc ount
Ġcompet ed
ane y
ĠDen is
Ġcat ast
ici ary
Ġrecon c
L uke
u ate
st ruction
ĠH it
ĠAl li
Ġrecogn ises
Ġstret ched
Ġcateg ories
ĠMore cambe
ĠBM W
wod raeth
re ally
ĠP owys
Ġinv ent
Ġdec or
Ġbre ad
Ġund oubtedly
Ġuns uccess
ĠPart ick
Ġemphas is
H C
ĠP erson
ra ve
Th ough
Ġwell being
har t
Ġopp osing
ĠTe hran
Ġ197 2
Ġfortun es
ur u
Ġr ivers
ham ed
Ġbreak fast
ĠNi all
Ġadequ ate
ĠSene gal
D en
F ree
it chie
op ed
ĠK rist
Ġret iring
ric ts
iz ar
ĠAng l
ĠBur gess
ĠNich olas
Ġoblig ations
C heltenham
H ill
ĠI l
tern et
ĠCl aire
Go vern
ĠAng les
ĠLuc y
Ġadjour ned
E nd
en i
ĠB od
ĠP istorius
ĠW oking
Ġexpl oded
Ġmid w
ik k
sh ould
Ġspot s
ĠCha se
ĠKen y
Ġsho ppers
Ġbelief s
Ġreop en
Ġh ooker
Ġout skirts
Ġsc ram
ĠAt hens
ĠLam bert
ĠRev olution
Steven age
c hard
ers hot
ĠD od
Ġpl acing
ĠO range
ĠFar m
Ġspect ators
Ġammun ition
U krain
ĠM S
ĠB ak
ĠL ithuan
Ġser ves
ĠLe ader
Ġmanag es
Ġalbum s
Dep uty
ĠFlan agan
F e
in h
ĠC ob
alk ing
Ġtrans formed
ĠAb bey
ĠVirgin ia
ph ies
ĠAir bus
ĠHind u
Ġabduct ed
B T
F ellow
am ine
res pect
E D
T hank
he e
un s
ĠP ic
Ġpl ate
Ġhar bour
ĠAn other
Ġcomfort ably
Ġunivers al
irm ary
ro ft
Ġcost ly
ĠGard en
Respond ing
z ing
Ġp el
ĠC otter
oc ide
ust ain
Ġro ots
ey ton
Ġdesign ated
Ġtrust ed
Ġkind s
Ġunf old
Ġcalc ulated
ĠBrun o
ĠProgram me
ure rs
hen ko
Ġref und
omet hing
ĠGer ry
Ġgoals c
Ġtro phies
Ġcro ps
C r
our ing
Ġcomp iled
Ġdef ault
Ġhand ing
ĠRed bridge
Ġdefin ition
ĠColomb ian
Bur ton
Ġa ver
Ġm a
Ġass ume
Ġpled ges
roph ic
z ed
Ġy en
ĠD ale
Ġvir al
ĠDun fermline
ĠMcL aughlin
ĠWild life
Ġric hest
Ġm un
Ġn aval
ĠF ury
Ġelect rical
ĠMc Man
emb ourg
ĠInst ead
7 9
at is
ĠP ensions
se in
Ġdomin ance
Sc unthorpe
ĠHel ens
ĠCom plaints
S ep
er th
Ġf er
Ġf el
ĠC urtis
ĠH av
Ġnot ably
se ille
Ġrest oration
Ġneg lig
Ġsadd ened
d ec
Ġl ane
ol son
Ġwas hed
Ġun aware
Ġper ception
Ġbr anded
pr om
Ġbar red
Ġblock ing
Ġmov ies
found er
Wals all
S L
v ity
ĠM ain
ard ed
ll a
Ġremain der
Ġassoci ate
Ġjack et
S m
Ġres idence
ob ile
Ġass ert
Ġgr ade
ĠAn t
Ġla undering
Ġhor rible
0 1
G reen
Ġo wed
qu ito
Ġac id
Ġtr ick
Ġlife boat
ĠSh ropshire
Ġbuy er
ĠHS BC
Ġconvent ional
F leetwood
L ou
S aturday
Ġw are
le ft
ĠA BC
Ġas h
th is
ĠG or
Ġsp an
Ġhalf way
Ġ0 3
Ġsusp end
ĠHal ifax
Ġrecru iting
Ġbrief ing
Sh ort
u is
ĠN at
Ġsl a
af ter
Ġcomment ator
ĠBoy le
Ġstruct ural
ĠR NLI
Ġcreat es
Ġreward ed
B rown
T or
Y eovil
z ens
it an
ĠB yrne
Ġsp y
Ġdis abilities
Ġpublic ity
Ġcor rupt
Ġinqu ests
ĠMcG inn
Ġ196 7
Ġsophist icated
Ġt ense
ĠW inds
Ġpro long
pe ople
Ġlo ves
Ġdes p
ĠBl ake
Ġmus cle
Ġtw in
reg ular
bro ken
G C
et ch
Ġcon cess
ĠR ee
ĠD agenham
row s
Ġagree ing
Ġdistrib uted
Har ry
Ġtoile ts
ĠHuss ain
P ass
Ġp ays
Ġd uck
Ġse eds
ach ment
ĠTr an
Ġ16 0
Ġhold er
ains bury
Ġpun ched
ĠK abul
ĠAn s
Ġevent ual
Ġ9 00
the m
Ġinsist ing
E S
s ocial
in ery
Ġwas ted
Ġle agues
Ġme al
Ġseek s
Ġeditor ial
Ġprepar ations
Ġrang ing
Ġportfol io
d ep
on ian
Ġh ook
Ġj oked
Ġun con
ĠHe ather
ĠAl un
Ġindepend ently
Ġswit ching
Ġflex ibility
ĠInf irmary
Ġimprison ment
Ġrevel ations
D ar
J im
L uc
Ġo xy
ou g
ĠM ann
Ġev ident
Ġpat ience
Ġtack led
ĠJul ie
f ive
t ier
Ġf ydd
ac hi
ĠA I
op es
ĠG ro
Ġjust ify
Ġadv enture
ĠHam mers
Ġclass ified
ĠTom as
Ġiniti atives
Ġgamb ling
P a
T ra
l op
ĠA gu
ase y
enn ie
ĠParliament ary
Ġbul k
U N
b its
l ane
Ġb ounce
Ġp atch
Ġd od
ut o
ĠM L
ĠE cu
air y
Ġmeant ime
ĠFer managh
wy th
Ġtum our
M ike
he tic
Ġg aps
ĠB us
ĠO z
ĠCl ose
ĠAustral ians
Ġbank rupt
Ġ197 5
Un like
Ġsil ent
Ġ 00
Ġg iants
ĠC ass
ĠH il
Ġwho ever
Ġsp o
Ġunder cover
Ġdes k
ĠTr ident
ĠPro v
hab i
ĠBrother hood
Ġchap ter
T ony
or ne
ĠP un
ick ers
vi ation
ĠSom ali
Ġaggreg ate
w al
Ġe ased
Ġsub stances
Ġinf ring
ĠAn tar
adem ark
Ġhear ings
Ġbal anced
hand ed
ĠNas a
Ġs ew
Ġw ip
Ġw ished
or ries
Ġl one
Ġal beit
ĠE mp
oin ts
ĠV AT
att a
Ġlaw makers
Ġrest rain
Ġple asure
Def ence
B eing
Ġw rest
Ġc ats
im mer
Ġen voy
Ġsur plus
Ġcirc le
Ġconsult ed
Bet ween
Ġdispos al
Ġdispl ays
7 3
ĠB ir
op en
ub a
ĠK oh
Ġlic ences
pat rick
ĠDuc hess
B re
f ull
m ass
Ġr andom
ĠG ram
Ġdes ert
Ġsur geon
Ġtop ic
ĠAir ways
Ġsad ly
Ġthr illed
bro ok
Ġhat red
Ġmand atory
Ġinsur gency
Sen ior
G illingham
L eyton
R I
k ney
Ġb ub
ĠM ade
if ies
Ġv ent
Ġany more
ĠMount ain
Ġmagnific ent
7 1
ĠC ork
ĠT ube
ĠL isa
Ġad verts
ĠK ath
ĠAl z
Ġorgan ising
Ġstraight forward
Ġharm ful
Barn et
Ġincor por
P rem
w l
Ġs oci
ot ton
Ġh ij
ĠS ab
ĠM oss
ĠL amb
Ġ20 21
Ġright ly
Ġresp ects
inc ial
Ġcoun sel
sec ond
ĠBoy d
ĠB eng
ul us
Ġcomp assion
Ġass umed
att ack
Ġrepublic an
Ġphenomen on
Ġa ston
li x
Ġbomb ers
Ġprim arily
Ġtank s
ĠC ab
Ġhost age
Ġconv incing
Ġstor ms
ĠMoroc co
Ġd ug
ag u
ĠG ot
Ġcha ired
Ġch urches
Ġunder go
Ġsha le
Ġur gently
Ġsuper markets
ĠRichard son
Ġvo iced
Ġrecy cling
Ġcountry side
Ġexpl aining
ĠDan ish
ellig ent
ĠStam ford
auc r
Ġgoall ess
6 1
a ired
Ġd inos
ĠS ad
ir man
Ġminister ial
ĠGr ade
Ġcontract ors
Ġmag ic
ĠMir ror
Ġprest igious
x ide
Ġj ockey
ĠK hal
Ġwork place
ĠBl oom
Ġfire works
Ġaccount ed
ĠMart inez
angu age
ĠAber deenshire
Ġfeed ing
Ġinevit ably
ĠGates head
âĢ ľ
ĠJohan nes
ĠInt elligence
hur st
Ġcous in
Ġple as
ĠHol t
Ġbid s
ĠTor onto
Ġmarg inal
R W
ha ra
Ġbe aring
ĠE ti
ĠF ir
Ġint ellect
Ġmilit ia
What ever
Ġcap abilities
ange red
ĠSlo venia
Mans field
ĠP ass
li b
ian e
itt ees
Ġmass acre
Ġeth ics
ĠSil ver
Ġfract ured
Ġthorough ly
R os
ĠH orn
ect ives
Ġnight mare
Ġin ner
ĠM ors
ĠA de
ĠH um
ĠJ ak
Ġpol ar
Ġsm ell
Ġ9 8
Ġlab elled
Ġavo iding
iy ad
Ġl uc
ĠA re
Ġcha ins
Ġass urances
ĠSc ar
Ġemb ark
Ġcul min
Ġtas ks
le ted
ĠR BS
Ġim pe
Ġprogress ive
Ġstab il
Ġmeaning ful
ĠHou ston
Ġjewell ery
l b
Ġp owered
ro ls
ĠN olan
Ġtri ple
ĠShe p
Ġcoll ided
ĠIrish man
Ġhack ed
bigh shire
Ġre negoti
Ġmiss ions
Ġref usal
Ġ9 4
Ġcontr ad
hol m
ĠShar p
D is
D oping
b ai
m illion
ec hes
ter bury
ĠB ast
Ġind ef
Ġjump ing
Mar c
Ġprec ious
Ġinteg ration
Ġdivor ce
C ount
in itely
Ġe ager
ĠBr is
Ġslow ed
ĠRich ie
complete ly
ĠWilliam son
ĠBe ach
Ġavail ability
Ne xt
ĠMalays ian
b ably
st roke
Ġsh ipping
ov an
Ġident ifying
Ġtre asure
R S
ĠS oc
ĠM ich
ĠC ah
ĠC PS
ĠW elling
amp ed
Ġsk i
ĠCol umb
Ġinflu enced
Ġpun ch
Ġlab el
ur red
ĠW here
ĠG ran
Ġreg ain
Ġbroad ly
Ġpred omin
Ġ197 6
ĠMac Donald
ude au
Ġconclud e
ĠMaid stone
mind ed
Ġoxy gen
k ov
n ational
Ġd ent
ĠL land
Ġtr ademark
Ġsen ator
uff ed
rif ying
ĠBarn et
ĠLion el
ĠPog ba
T aylor
Ġm ate
N obody
R em
k ers
ou f
Ġme rely
ĠStef an
ri ately
ĠR ig
ĠR itchie
ĠG iants
Ġpro l
Ġcor rid
Ġfact ories
Ġeduc ated
ĠRep resent
ron ics
ĠFor ces
zer bai
ĠNort hamptonshire
ĠKar im
f on
Ã ¶
Ġd ish
as a
Ġan nex
ĠP addy
Ġad verse
ons ense
ĠCl ay
Ġbre aching
Ġwr th
ĠMcC ann
ĠDonald son
ĠKar l
ĠGreg ory
Wol verhampton
ĠMem orial
Ġdrown ed
b one
Ġreflect ion
ĠBol t
p it
Ġin ex
ĠS i
ĠS ub
ĠV ic
ĠMar cel
Ġneg lect
ĠEast leigh
j i
es y
al o
Ġst ark
ĠP oint
Ġapp alling
ĠCon ference
Ġident ification
ĠAbd ullah
Ġreveal ing
Ġoptim ism
f ts
t land
Ġm ild
Ġcanc el
ĠWinds or
D S
g ans
er ted
Ġo usted
an u
ĠS ig
qu et
Ġcont ing
ĠAfric ans
umb ling
Ġcred ited
ĠSol ih
Ġcomplet ion
ou led
ar at
Ġsa iling
ĠB ain
Ġsp inner
ia h
Ġdes cription
Ġdet on
Ġrele asing
app en
Ġcertain ty
More cambe
Ġcheck ing
Ġmob ility
Ġembarrass ing
ĠSev illa
ĠSolih ull
d ays
Ġstrugg les
ĠLou ise
Ġepis odes
Ġgradu ates
ĠP il
ĠH ope
Ġcha sed
Ġ9 3
Ġprem ature
Ġparamil itary
J P
Ġf abric
Ġres ource
Ġ0 1
Ġaccount ability
ĠMon etary
Ġclean ing
iad au
Ġsurve ys
ĠLyn ch
Ġdiplom ats
ĠHann ah
d in
f al
h on
l estone
ĠT oy
ĠW o
ĠW ight
Ġinc lusion
As h
ĠHu w
ro b
ĠF ull
Ġun re
we in
Ġter rific
Ġcomment ators
ĠEx change
Ġbird ies
Ġinstruct ions
Ġprosper ity
Ġrestruct uring
Ġ ,
Ġm ud
st able
ĠS ark
ĠS add
Ġv ibr
ĠV o
Ġexpl oration
omin ated
que z
Ġmount ed
Ġ id
en ary
Ġf ouled
ac ent
hen tic
Ġpass age
Ġorgan ise
Ġwelcom ing
Ġexchan ges
Ġaler ts
Ġecho ed
Ġentreprene ur
c ern
r ants
he y
ul u
Ġmil estone
Ġ0 2
iam i
ĠGu ild
Ġunfair ly
Ġble w
ikk onen
H M
Ġp has
ĠA be
ne ath
ĠTr udeau
Ġpa ed
ĠGu ernsey
Ne ither
Ġacqu itted
Ġcoin s
ĠCair ns
Ġrall ies
Chester field
H el
us c
ĠK end
ĠY our
Ġmilit ias
Ġinst inct
Ġtrack ing
Ġaud io
Ġmist aken
Ġexplos ions
inds ay
wh ich
Ġhung ry
ĠBit coin
spe ed
Ġl ined
own ers
Ġtr am
av i
ĠWar nock
Ġviol ation
Ġrap ing
ĠVictor ian
Ġrid iculous
Ġexclud ed
S ee
st appen
Ġl ag
Ġst ew
ch in
ĠHar vey
Ġcritic ally
ĠInvest igation
ĠStud ies
b ach
m ons
ol er
Ġev olution
Ġclaim ants
Ġinter pre
Ġunc han
ĠX I
ĠBang or
ĠTor quay
ĠSocial ist
Ġapplic ants
Ġbure aucr
ot ti
ro ots
Ġcont acts
Ġbus iest
ĠBar oness
Ġaut om
Ġspeak ers
Ġdiver ted
Ġmos quito
Ġsculpt ure
s he
re r
Ġbe aches
Ġn od
Ġn aked
ĠF Ãĥ
Ġch ocolate
Ġpros ecute
uk a
Ġgen ocide
Ġpan els
ĠQu inn
Ġmemor able
ĠEnter prise
i eth
it ated
ĠF a
Ġk iss
Ġmin imise
Ġsupp lier
Ġfront line
Ġabs or
Ġinspect ions
I B
N one
Ġ x
Ġst ays
ĠP on
ĠH istory
ĠBut t
Ġpredict ions
Ġit em
Ġan gered
ĠJ in
Ġfin ishes
Ġper mit
Ġev il
Ġra ided
Ġmanager ial
Ġdesign s
D ec
p ha
Ġt orn
ent in
op hy
ĠF riends
ab outs
Ġj u
ĠY e
Ġbelie ving
Ġmis leading
Ġprosecut ions
S ev
re ach
Ġc rop
Ġf ool
Ġl aboratory
ĠM ove
el le
Ġst upid
ĠB ack
ide o
Ġdead lock
Ġpaint ings
ĠM ata
ĠD ob
ĠD habi
Ġend ured
Ġvis ual
Ġaccount able
ĠTe le
Ġsurvey ed
Ġnar rative
Ã¡ n
Ġc ake
ĠP u
Ġpl ug
ris k
Ġchief s
Ġadv ances
ĠMal ta
Ġlack ing
Ġtrend s
ĠArch bishop
Hear t
Ġdistinct ive
3 50
ĠT T
ĠAss ange
sp ace
ĠMah m
ĠVill iers
ĠJes us
ĠTrou bles
et ies
Ġby pass
Ġdri ft
ĠFar ah
Ġpen insula
Ġrelie ved
ĠReyn olds
ĠR ight
ĠD ud
Ġne arest
Ġte x
ĠY ates
Ġdown load
elf ord
Ġpat rols
ĠSm all
Ġexplo ited
Sout hend
ĠHass an
Opp osition
Mid field
Ġunchan ged
L isten
Ġr uth
ĠP ur
Ġhigh s
Ġann oy
ĠSw inney
ĠChan ge
Ġfamous ly
ĠWhy te
Ġe rect
ĠK on
ĠV e
ĠMar sh
ah oo
Ġ9 1
Ġ197 1
Ġsad ness
Ġburn s
lig a
ĠAlz heimer
Ġluc rative
T S
g re
ig e
ĠG round
ĠU AE
han ks
Ġim min
stit utes
ĠAngles ey
he alth
ĠC ust
atch ing
Ġcur t
ĠAl ison
Ġstri p
ks and
ĠCan terbury
ĠArs ene
Ġexplo it
Ġcin em
ar us
Ġbe ars
ce pts
Ġshare holder
ĠLib rary
Ġcatch ing
ĠLow e
Ġautonom y
Ġunde rest
d rop
ĠT rent
ite z
ĠGer rard
Ġwha les
ĠTri p
ĠB ert
Ġimp ress
ĠMar r
its ch
Eng lish
Ġtrib utes
Ġindic ates
ĠBrook s
ĠRSP CA
Ġb ull
Ġf ederation
Ġn avy
st ruct
el esc
ord e
ace ut
ink a
Ġche f
ĠFar ron
ci ardo
ĠTran mere
is d
Ġp ink
Ġl orries
ay e
ĠB ott
ĠN ovak
Ġunder going
Ġ11 0
Ġconsult ants
Dav ies
Det ectives
C aptain
Ġc ens
ĠC out
ke ys
ĠG ian
hi o
Ġsc are
Ġinj ect
Ġequ ity
Ġconsult ancy
ĠMil ton
Ġpartnership s
ĠGard ner
s ized
Ġo m
Ġn est
ĠM ust
ĠB ecause
ĠL ans
Ġv it
ĠComm unities
ocr atic
Organ isers
Ġcompatri ot
Author ities
f lix
Ġf ares
ic ating
Ġeconom ists
Ġconsider ably
ĠOr kney
ĠDev ils
Ġamend ments
ĠStev enson
Ġdisgr ace
Ã³ n
ĠCorpor ation
G ermain
ĠP ick
ĠR ennie
Ġpr icing
ĠV ote
Ġhelp ful
pr ot
Ġtrans formation
Ġcontract or
respons ible
is k
Ġd rought
Ġr om
Ġwhen ever
ĠV ern
Ġaut ism
Ġfu elled
Ġrede velopment
ĠKos ovo
ĠS ong
ĠM es
ĠE cc
Ġbut ter
Ġpre y
Ġelect orate
Ġrepl ay
Ġdeploy ment
Ġutter ly
Ġgreet ed
Hart lepool
ĠMcMan us
B ank
J ul
k h
ĠC u
ĠC ock
ĠF eder
Ġschool gir
Ġdr illing
Ġcat hedral
ĠCrist iano
Ġlandl ords
E mergency
M er
d r
Ġf ingers
qu est
Ġbl aming
Ġexc lusive
Ġpurs ued
Ġguarant ees
ĠAh mad
ĠSant a
F ifa
Ġto dd
and als
ĠL oc
ĠR ab
ĠG y
ĠG ear
ĠO g
Ġequ ipped
idd le
Ġfriends hip
Ġinflu x
ĠPet ers
Ġperman ently
Ġbound ary
Ġenem ies
Ġattrib uted
ĠOliv ier
J an
c ock
r ations
s im
Ġs terling
ut ter
ĠM oney
ch w
ĠR icky
ast rous
ail able
Ġset back
Ġconf used
Ġclear ing
Ġauthor ised
ĠEd mund
Ġden ying
Ġur gency
ĠLuk aku
ĠRodrig uez
Ġconfron ted
mid t
O S
ĠC aled
ĠC unning
Ġwe ighed
ĠD R
ish ops
Ġfree ly
Ġbre ed
Ġ197 8
ĠEm ily
ĠStr achan
Ġnurs ery
M orton
Ġc od
Ġth us
ĠL ing
Ġbu zz
Ġallow ance
ĠBo eing
Ġhom osexual
ĠChe ck
Ġstrengthe ned
ĠBund es
he art
Ġw rist
ond da
Ġinc ons
Ġli ver
Ġche er
ĠSp ot
Ġty re
ĠWork ers
chi ef
Ġsettle ments
ĠBos nia
Prosecut or
ĠSav ile
ĠCarmarthen shire
S unday
ĠC e
Ġdist ricts
Ġdest ro
ĠPe rez
ĠBur ke
ĠBu hari
Ġinstru ments
ĠKean e
Je remy
D ave
Ġt ables
ĠM und
Ġbr idges
Ġarri vals
Ġwrong ly
ĠMcC orm
Ġoccup ation
Ġoverwhel med
Ġmarg ins
0 6
k ward
v on
Ġc rem
ĠC atherine
ĠB erry
ĠT ed
ft a
Ġturn over
Ġviol ated
reg ation
ĠRan ieri
r ise
er ving
st ill
ĠM iami
ast le
ĠSer ie
m ay
v o
w i
y er
ĠW iggins
ang led
eff ective
ĠOw ens
E gypt
d y
Ġc am
op ard
od ox
Ġca red
Ġsec ular
ĠEng ine
Ġhost ile
Ġcy f
Ġtable t
Ġsatell ites
fund ing
Trans port
M il
d isc
k ina
m atic
Ġp ier
Ġcont ender
Ġrec apt
Ġen cl
ĠBar ca
St ep
Ġappl ies
ĠLiber ia
.' "
ĠQueens land
S a
Y our
Ġs ink
ie ves
leg r
Ġyoung ster
Ġbenef ited
Ġobs c
Ġoccasion ally
Ġloyal ty
Ev ans
ĠEag les
Ġincon ven
Ġacquis ition
zerbai jan
b ane
ĠM ach
ĠR and
th m
ĠE state
han g
Ġbo ast
In it
ative ly
ĠShe tland
ator ium
men a
Ġadminist rative
mo il
G roup
H uman
he em
Ġs ank
as ive
ĠB and
ov ation
aff ected
Ġins ufficient
Ġinter ference
uck er
Ġweekend s
Ġrecru its
Ġswift ly
ĠGren fell
A R
M ajor
ĠB ird
Ġen quiries
az i
Ġprosecut ing
Ġacadem ics
Ġmount ing
oe uv
ĠConst abulary
Ġsponsors hip
ĠCah ill
c ross
l en
Ġd iamond
us ra
ĠP ablo
Ġle vy
Ġwork sh
ĠShe ll
Ġcritic ising
ĠDe ep
Ġvol can
sc he
Ġboy cott
Ġtele vised
Ġfort night
Ġanc est
ĠVol kswagen
dev ast
ĠLux embourg
0 4
g one
s mith
ar ak
st airs
ĠF u
oll ing
Ġcanc ell
tt ino
B o
ĠB ure
ĠW id
Ġcur b
ĠCl imate
Gr imsby
ĠAut umn
Ġlicens ing
Dun fermline
w ys
Ġf oster
ĠW HO
ĠR i
ered igion
ĠSouth port
Ġcard iac
Ġmot ive
Ġmental ity
Ġuns afe
Ġadapt ed
ĠSel by
Ġdetain ees
L anc
ĠBl ood
Ġreb ell
Ġaut hentic
ĠGall ery
ĠGat wick
on ing
ĠI OC
Ġcon str
ĠT rib
ĠSt ones
we ud
ĠPl ayer
Ġminor ities
ĠDen bighshire
Ġdisag ree
Ġdemol ished
Ġreck less
Ġmonu ment
ĠBundes liga
0 2
7 6
K ing
Ġb its
le c
ĠO t
Ġapp et
Ġexpl oring
Ġread s
ĠChurch ill
Ġto urs
ar ming
ĠR un
ĠR edd
Ġsh ield
ĠSt ars
Ġprot e
tic o
20 14
ĠPer u
sa fe
Ġcontem porary
ustain able
i ate
Ġw ings
an ing
ĠT reat
Ġprotest ing
ĠCamp aign
ĠInvest ig
ĠBry an
ĠW W
red ict
Ġhel m
Ġhel pl
Ġexc av
Ġ197 7
Fr ank
ĠEn nis
Ġwood en
Ġsymp ath
Ġdynam ic
izar re
T C
f ig
p owered
st ated
ĠS upport
ĠR onnie
ia o
Ġcomp elling
Ġinv itation
Ġmy th
Ġqual ities
Ġspecial ists
Ġart istic
ĠFor bes
Ġnegoti ation
ĠLl oyds
Ġsafeguard ing
Ġtiss ue
W orces
f ix
el ing
Ġal ien
ĠT ier
ung le
ĠRow e
Wh ite
ĠStra uss
R et
S pa
Ġs acking
ĠB ash
ĠAl berto
iz a
ĠZ e
Ġalle ges
Ġbrilliant ly
ĠMot or
Ġembr ace
ĠMous sa
chest ra
O lymp
U sing
ĠS ue
ĠM ell
Ġshe er
Ġinf ant
ĠCar son
Ġpartic les
ĠHar per
Ġdism ant
Ġelim inated
Ġtur moil
Ġreun ited
ĠClaud io
ĠVi enna
S ocial
ĠL ed
ĠG em
ect or
ope z
Ġperform ers
Ġestablish ing
ĠOffic er
norm al
Ġg re
Ġg rief
ĠS ina
ĠP it
ĠL en
ĠF ind
so ever
ĠAl istair
ĠIr on
Ġcommon ly
ĠJun cker
Ġwha le
Ġincor rect
f are
ad el
yr ight
Ã© tico
ĠHamp den
ĠWind ows
ĠRw anda
A head
s ix
us aders
Ġsh orter
Ġcl iff
Ġoff set
ĠK ear
Ġpi pe
Ġsens ors
ĠMcIn nes
Ġing red
ĠDonn elly
Clear ly
ĠJohannes burg
C amer
p ay
or ama
st orey
Ġg aming
Ġfor um
Ġst ating
ĠT on
og y
ĠV ince
Ġdirect ions
Ġent ries
Ġdeb ated
Ġcerem on
Ġdiss ent
Ġtru ce
oca ust
Ġmaid en
O l
Ġd read
le w
st ad
ĠT ill
ĠK ha
Ġwhat soever
Ġmat hem
St uart
Ġjur isd
Ġconfront ation
Ġphilos ophy
C al
h ma
Ġp upp
Ġhe ating
ĠB HS
Ġnot able
ĠN atal
port ing
Ġrel ent
Ġspec ially
Ġult ra
Ġroutine ly
Ġconsol ation
Sep ar
b enc
l ash
w estern
re ra
ĠS ince
Ġex isted
ĠO m
Ġen abling
ĠCon way
Ġexp end
Ġspe eches
ĠGer ard
ĠSal man
Pre vious
Ġdemol ition
Ġbatter ies
ĠBure au
v ia
Ġl enders
Ġint elligent
Ġunder neath
Ġsl ide
ĠBank s
Sh ould
Ġtact ical
Ġgest ure
Ġse am
ĠO DI
ĠInd ians
ĠPl at
ĠMon aghan
Ġwilling ness
aire r
Ġrevers ed
ĠPent agon
w ho
il er
st y
ĠK now
ĠSt ade
ens ington
og a
Ġcount ies
Ġ197 3
Ġcomprom ised
writ er
Ġantibiot ics
H en
Ġb unch
or g
Ġn erves
st own
Ġg ael
ĠC ull
ec urity
Ġun av
ĠDo herty
EC D
f ried
s burg
Ġb ust
Ġd irty
Ġl ig
Ġl ake
Ġfac ial
Ġbar g
ĠMo een
ĠFor um
Ġdiss ident
Ġenhan ced
ĠAj ax
ĠKaz akh
ĠPiet ersen
c ourt
Ġb und
ĠM H
ill o
Ġhost ages
Ġquot es
Ġoverc rowd
Ġelephan ts
p ol
q qa
w ind
am med
ish ment
Ġdon ate
ĠPark inson
Ġpos it
ĠHow e
ĠWhite hall
Ġanalys es
ĠHaw kins
Ġintegr ated
Ġfrag ile
Ġre ductions
ĠB ax
ĠH ospitals
Ġburn t
chan ging
ĠHM P
Ġpersu aded
Ġsole ly
f yn
t able
Ġe ag
ĠC ly
Ġor gans
ĠK h
ĠK in
Ġdec ides
ĠAust rian
Ġdr um
Ġpil gr
ĠStur ridge
Ġep ic
ĠBrom ley
Do zens
Ġtort ured
ĠLuk as
ĠNev ille
Ġsmugg ling
oche ttino
m igration
an z
ic able
am us
ĠB ren
Ġth roat
ĠA w
ĠT ib
ĠY s
Ġchar ter
Ġinst ant
Ġord eal
Ġcontr ary
Ġwid ow
aux hall
Gre ece
9 8
d riving
Ġs ib
er als
ĠD ream
oth y
aid law
ĠAber yst
Ġpurcha ses
Ġhabit at
Fore ign
ĠMors i
ĠAberyst wyth
ĠD umbarton
ist ically
Ġbet ray
pen ny
add ing
ĠMEP s
Ġprecise ly
Islam ic
,' '
L ooking
Ġ ...
nd ra
ac ies
Ġst icking
ĠA p
ĠR iyad
ĠN y
rit able
ĠComm and
Ġaw kward
Ġyouth s
Ġbasket ball
F F
L ife
is ha
ĠD ixon
end ish
Ġab st
Ġres erved
Ġrem embers
Ġimp osing
Ġcr ashing
ets k
Ġconsult ing
Ġaud it
Ġpurcha sed
Ġcul p
S ean
en ko
Ġc hi
or os
Ġd ock
ve rend
st age
Ġl ia
ly wodraeth
ĠM og
ĠC hen
ĠP age
ĠT ax
se ek
fe rences
Ġcons iders
Ġsy ndrome
Ġcompl ications
Ġnation ally
igg ar
ĠCom merce
Do ctors
Ġcos m
itsch ko
A yr
M ac
b uilding
iv ic
ĠO hio
Ġli kel
Ġfour s
by e
Ġbroad casters
ĠRh ondda
ĠĠĠĠĠĠĠĠ ĠĠĠĠĠĠĠĠ
Ġintent ions
H E
im ated
Ġst int
so le
Ġvot er
Ġgl ory
Ġfire arm
ĠWelsh man
Ġste am
rict ly
Ġbes ide
Ġf olk
ĠL ike
if ty
ev an
Ġpers istent
Ġagg ression
ĠFall on
ĠTanz ania
H ugh
S l
S gt
Ġp ir
ol t
ĠT alk
ĠR oc
Ġboost ing
Ġsal t
Ġtrigger ing
cor ruption
ĠLithuan ia
Ġr i
Ġ17 0
Ġoblig ation
ou ri
Ġwas hing
ĠH om
ĠN FL
Ġun e
per ial
Ġrec re
In c
Ġend angered
ĠMar seille
form ing
Ġkick s
Ġdel ight
Ġpar ish
Ġexper iments
ĠWil kinson
ĠTre vor
ĠBoy s
ĠCont rol
Ġbrib es
ou ds
Ġfor ming
ri ages
Ġco ached
Ġaccommod ate
ĠNairo bi
ĠCunning ham
The resa
ĠD und
ĠIsa ac
I I
ĠH ogan
Ġcor ners
Ġaltern atives
ĠRa ikkonen
Gl ouces
Ġpedest rian
lt imately
Ġm erc
Ġan them
ĠP KK
ĠF iji
Ġout going
Ġ19 30
inc red
Ġtre ble
int ro
ĠWood ward
prof it
Ġbats men
Ġlibr aries
Ġpure ly
f ish
Ġg or
ĠL ogan
ĠF ocus
Ġfound ations
Ġass emb
Ġpar alle
ĠRe ed
Ġcle arer
Ġcollect ions
Ġcast le
ĠPhilipp e
ĠVenezuel an
i ary
ĠS amp
ĠB rent
art a
Ġv andal
Ġreb ound
Ġsweep ing
ĠArn old
u f
Ġs ter
Ġd airy
ĠC hamber
Ġcomp onents
Ġcons ortium
Ġbatt led
Ġlight ing
Le inster
ĠSo chi
Ġassoci ations
Ġdeport ed
ĠBuc han
m oon
t ure
ĠB ears
em on
Ġle ase
Ġchar ts
Ġcare taker
Ġimport ed
Ġer ad
r in
r acts
ĠT ar
Ġcompl aining
Ġcapital ise
ĠAng lo
ĠOl lie
Ġbelong ed
ĠInvest ment
ĠNich olson
Ġaer ial
C y
ĠK id
Ġpresident s
ĠJan et
Ġeas ing
respond ents
ĠFernand ez
Ġtoler ance
Ġpsychiat ric
Ġartic les
Ġappet ite
O h
b eck
n ar
ĠR ap
ĠH os
ĠJ enny
Ġman oeuv
Ġqu ake
Ġfound ing
ĠSe lect
Ġcourt esy
ĠCon wy
ĠAd minist
ĠWal ters
rec ord
Ġincent ive
Ġconcuss ion
legr ini
N ine
es p
Ġshould ers
ĠAl though
ik i
yl van
Ġjudg ment
gar ia
h uman
Ġto ward
ĠL indsay
Ġtele com
ĠEconom ics
ĠIndones ian
ĠElli ot
ĠBark er
Ġkil omet
ĠFle ming
et heless
ec onom
us en
Ġpro c
Ġ20 30
og s
Ġsur pass
Ġdri ves
ĠMay weather
Ġexp ed
Ġcritic ise
Ġpresent ing
Ġfun ctions
Ġten ure
Ġcorrect ly
ĠLau rent
Ġstun ned
Ġreiter ated
H all
Ġres ett
Ġreg ards
ĠSal v
Ġsubsid y
Ġcler ic
ĠSop hie
Ġre nd
Ġh ood
Ġtrack ed
Ġconced ing
Ġdeleg ation
ĠJenn ifer
Ġbath room
Ġfasc inating
p ired
er aine
ĠC ash
field s
Ġrefe rees
Ġsw orn
Every thing
Ġagg rav
Ġspect rum
Just ice
Ġbra very
Ġfur ious
ou ble
ĠA rea
Ġr up
Ġpre jud
ĠAr d
Ġoverse e
ĠPan ama
high ly
Ġmedd ai
Ġrej oin
ict ures
Ġsuccess es
cha llen
Ġmaint ains
Ġconsol id
ĠKur ds
R E
ok s
ia z
Ġpost ers
20 15
Ġovers ight
Ġgard ens
0 7
1 20
G ood
om enal
ad r
Ġdec lining
ĠMar athon
enn ium
ertain ly
ĠChar ter
Ġfre estyle
ĠBre ak
ĠBarn ett
Niger ia
Ġhaz ard
ĠMcGr ath
Ġw oke
ic io
ĠC uth
ĠE ston
Ġout door
In ternational
ĠSl ade
ĠJer ome
Ġmir ror
ĠRet ail
ĠDra ke
York shire
ĠBridg end
Ġpredomin antly
Ġh oney
ad ly
Ġst ir
ĠB ab
Ġy uan
Ġv oc
ry n
Ġrep ro
eb re
ĠSh in
Ġdd im
Ġir regular
ĠRa qqa
Ġadvis ory
ĠAud it
ĠW akefield
Ġcom ic
ise ley
Ġinj uring
Ġair l
Ġfav oured
Ġdisp ers
ĠMac cles
Ġassess ing
mond s
Ġscept ical
J ason
d irect
Ġf old
ĠH umph
Ġsign ature
anger ous
ĠDan i
ĠEvery one
Ġconstruct ed
Ġwhistle bl
r ace
Ġc emetery
Ġg ren
ur ry
im ming
Ġcl ick
ĠO val
ict ing
ĠIn quiry
Ġret ali
Ġprov incial
Ġinst ability
Ġquarter ly
Ġautonom ous
ĠCaled onian
ĠMaccles field
F ort
ĠF at
ĠK umar
Ġac cepts
Ġref ers
Ġsupply ing
Ġjoint ly
Ġconsist ency
ĠVer stappen
Ġentreprene urs
Ġcig arettes
ĠDemb ele
h ours
Ġb ikes
is hi
Ġhe fyd
ĠH ab
Ġadd iction
Ġrem orse
Ġturn around
Ġamount ed
aint ree
ĠLeban ese
O pen
c oll
ut sche
ĠN ag
Ġso ap
Ġkn ives
St ate
ĠTe achers
ophob ic
ĠEmp ire
i hood
Ġl yr
ĠS id
ĠD ew
ĠK ill
Ġar son
ĠBr aintree
ĠArab ic
Ġclin ched
ĠJess ica
Ġprohib ited
Ġimmin ent
W ood
ĠD allas
Ġcar n
ip ras
Ġban ner
Ass istant
Ġflaw ed
ĠEcu ador
Ġcl ip
ĠMay be
yd on
Ġcal f
Sw ed
Ġble eding
] ,"
i w
t or
st op
ĠL ink
Ġover look
Ġen forced
Ġinter act
ĠMcC art
Ġtouch ing
ĠDon etsk
Ġaccur acy
Ġgym nast
Ġda wn
Ġpock ets
Ġdepos it
y ll
Ġw ards
Ġst ig
ĠL opez
Ġ19 40
ang a
Ġcru ise
ĠGar ry
ser ving
ĠJeff rey
ĠHus sein
Ġri ots
o ise
ĠP ant
itt en
Ġart work
adi q
ĠLiving ston
Ġstrongh old
Ġhed ge
ylvan ia
P G
ĠC S
un acceptable
if ficult
Ġro ot
Ġback lash
Ġdel ivers
raw ford
Ġprocess ed
Ġstrik ers
Ġsn ooker
ĠTy ler
B rian
F ans
y es
ĠI g
Ġas leep
ul ances
ĠT amil
Ġsp ends
Ġbo ots
Ġdef er
Ġlet hal
ĠChrist ine
uff le
ĠRoss i
Ġcrown ed
Sar ah
0 3
C E
L ine
Ġd ive
Ġn it
Ġlot tery
rend ous
ĠMo or
Ġren owned
Ġdemonstr ates
ĠConn acht
Ġrub ber
Ġliter ature
Ġhurd les
Ġperpetr ators
r at
at ics
Ġre aches
Ġg ene
ĠC eredigion
et e
ĠP oll
Ġpolic emen
Ġdist ant
oren t
Pre viously
Ġvigil ant
Ġbrow ser
Ġsatisfact ion
Y n
l atan
t ech
ĠC ran
Ġwh oles
Ġse ize
Ġun se
Ġvis as
20 12
sp oken
ĠHol ocaust
Ġprogress ing
ĠDutch man
Ġmal ware
ĠLis bon
Ġanaly se
Ġgriev ous
B ron
u er
id en
our age
ĠD ary
Ġshe ets
ib o
ile e
Ġch icken
Ġcomm ittees
lo e
sh ow
ĠProf essional
ĠHor se
K ent
P A
l ain
Ġp osing
Ġe t
ri ot
Ġinc omp
Ġca ve
Ġpart ial
ĠV el
Ġfe ver
Ġpass ports
Ġexp ressing
Ġ0 5
Ġgener ating
Ġmid way
ĠEd g
itiz ens
Ġstor med
ĠHouth is
Direct or
G areth
J ose
Ġm aj
ĠN k
ft en
Ġsuper ior
Ġdisp ro
Ġkid ney
Ġwond ering
ĠConn olly
p ical
Ġh ockey
Ġacc uses
gl ers
Char lie
Sar acens
R ight
Ġe ld
ĠR aith
Ġrec ons
Ġatt ainment
ster dam
ĠSha rif
Ġjournal ism
edi at
Sim ilar
bott om
friend ly
Ġundermin ed
O per
Ġinc lusive
pe ace
Ġcur led
ocr acy
Ġmess aging
sw orth
ĠOn ce
Ġpub s
aston bury
Ġcruel ty
Spec ial
Ġsla very
V al
g eneral
Ġs ounded
Ġsu its
ĠV is
Ġgl o
ĠGr ace
Ġque ue
ĠFas o
Ġruth less
A h
j e
il ia
ĠG and
ry s
ĠNew town
acc ur
ĠTs ipras
Ġreign ing
Ġpla que
Ġprolong ed
Ġlikel ihood
B ath
en ne
Ġo k
es la
Ġd umped
ĠP itt
ĠL ah
ĠL ook
ĠH ousing
ĠPar ry
Ġ196 6
Res earch
Ġs ore
Ġc atal
ut en
ĠA viation
ĠI ll
un ct
ĠT ennis
qu is
Ġdis qualified
ug glers
Ġtri ump
ĠZ oo
ĠGre y
Ġproject ed
Ġcomput ing
Ġarch ive
ernand ez
Ġcertific ate
Ġexpend iture
V is
g ents
Ġy w
Ġne at
ĠK ensington
ĠLe anne
Ġwhere abouts
ĠAl ice
Ġprotest ed
rang ing
lar gest
Ġhyn ny
ĠJin ping
8 6
H A
] ."
id y
ri x
epend ent
Ġcanc ers
Ġamb ulances
rap ova
icit ors
ĠBern ie
ĠGal axy
ĠAgu ero
S om
Ġp iv
ic ular
id an
Ġcont ents
Ġmix ture
Ġimplement ing
Ġswim mer
oz y
ĠHung arian
ĠLeon ardo
ĠCN N
B ig
f ew
Ġt une
Ġback drop
Ġfe ather
ral tar
ĠCl ive
head ed
ĠCam bod
Ġalleg iance
inn ie
Ġhistor ian
Ġpension ers
ĠFre eman
Ġremind ed
ĠGir l
V an
c ost
is an
ĠC redit
ĠO mbudsman
Ġtr aced
ĠV auxhall
ĠAb out
ĠIslam ists
Ġcreat ures
Ġep id
Ġvac ant
Ġc ater
Ġc ement
or ary
ĠS ainsbury
ĠN g
Ġout right
ult y
Ġlo op
Ġart ef
Ġaccord ance
ic ism
Ġl aser
Ġh ug
Ġover head
Ġdis astrous
iss an
ib e
ĠCl ough
uck s
ĠRic ciardo
ĠWhat s
Ġfat ally
Ġundert ake
bu ilt
Ġlandsl ide
P olit
S audi
n al
Ġc ull
Ġl un
el u
ĠB ear
Ġshort fall
ĠAm sterdam
Ġste re
ĠBen itez
Ġexerc ises
ĠStat ement
Ġpedest rians
ĠGon z
z uk
Ġt elesc
st art
ĠP ad
ĠW ade
Ġad s
ual a
ĠWest wood
Ġmar ched
off icial
St ri
uther land
Ġcolon ial
umm ings
R aith
d ri
w art
Ġto pp
Ġha bits
Ġst aging
Ġbut ton
ror ism
ÃŃ n
Ġflo ating
ĠQual ity
Investig ators
E conom
Q s
ent on
ĠS ally
qu ite
az io
Ġterrit orial
Ġcart oon
ĠLi u
Ġinaug ural
ĠExt ra
B ob
ha il
Ġcomp liance
ap h
Ġsha king
Ġpost er
Ġdr ain
Ġconcer ts
Ġcorrespond ents
Ġcop yright
Ġrub ble
Ġdiscl ose
c ry
he arted
in f
ĠW ang
ĠG iles
iz es
Ġchair woman
ĠMart yn
Ġtweet ing
ĠEn rique
Ar gent
Ar thur
ĠClark son
Def ending
ordin ator
Ġware house
F er
K at
c hat
g os
ve land
ĠS ana
ĠM ub
Ġj okes
we ed
ened d
Ġmar itime
Ġbook ing
Ġpun ct
Ġevac uation
ĠAld ershot
Sur rey
Ġfrank ly
M ex
Ġg ifted
am pton
ĠL aidlaw
res cent
ip ola
Ġ12 5
Ġconced e
ĠFrank f
En vironment
ĠMcGu igan
Ġstrengthe ning
Ġlecture r
Hal f
ĠWelling ton
ĠMove ment
Ġb ite
Ġm aps
ĠB ud
og en
Ġreg rets
Ġsha ken
Ġhighlight ing
ĠSus an
Ġcoff in
Ġunp opular
Ġturb ines
Ġinstall ation
Ġresil ient
ĠRef orm
t ree
Ġb izarre
ĠB il
ĠB rett
ĠT usk
Ġlo ad
Ġcross es
ĠLu iz
Ġflag ship
ĠCoast guard
Ġtoug hest
Ġprin ted
ĠWeb ster
ĠTib et
b ag
g ue
Ġto y
Ġto ys
Ġin put
ig ue
ĠI V
Ġal lied
Ġde leted
ĠG ym
tr ack
sha dow
athe tic
ĠGray ling
Ġunemploy ed
ĠElect ion
Pa rents
Ġtodd ler
M ourinho
a ha
s uper
ĠC BI
et ts
and an
ĠH ack
omm ission
ĠSe oul
Ġorganis er
Ġunanim ous
ĠCust oms
ic ian
ĠM is
ĠB rew
ch t
Ġwork load
Ġdeal ers
Ġrecord ings
Ġperfor mer
Ġjud iciary
ĠSol ar
Ġknock ing
writ ten
7 50
om y
Ġmon itors
At l
ĠBl ast
br id
ĠIr vine
ĠRes ources
Ġgen es
Ġhero es
Ġadvis or
ĠFab io
Ġlegend ary
Ġdisturb ance
esb itt
Ġpund it
Short ly
C onnell
T ake
r ice
Ġt att
ĠA S
Ġpr ayer
uc ed
uck land
Cor respondents
Ġunion ist
Ġcolour ful
Ġdisturb ing
Fire fighters
b ase
s ylvania
Ġex ile
ie val
Ġeconom ically
ĠAn kara
Ġfact ions
ĠHar lequins
ĠAd eb
af a
gr adu
Ġsepar ately
Ġ196 4
ĠWal ter
Ġspons or
ĠKey nes
Ac ross
Ġcontam inated
v ol
on ce
em er
ĠF actor
Ġint rig
Ġmin es
Ġsl og
Ġhard ware
Ġlaun ches
Ġcrowd ed
run ner
ĠEconom y
Ġadopt ion
ĠMedic ine
Ukrain e
N athan
f ant
ĠP ochettino
ĠH ud
ĠD ark
ĠF ur
ord ination
20 13
Ġrisk y
Ġclar ify
ĠLeon ard
ĠGeoff rey
Ġinterpret ation
Ġairl ifted
b order
Ġin ha
ĠB order
ĠL amp
ĠK ee
Ġpre ference
Ġbr ace
Ġret aining
ĠSe ven
hel p
ĠHer ald
Ġconstitu ents
ĠLad en
Ġpassw ords
ĠPul is
Ġfurn iture
Ġwip ed
O wn
f old
k ok
p hew
ut or
Ġsh y
for man
ĠGu id
Ġaccident ally
Ġblood y
ĠMill ar
ĠSa o
ĠGold smith
Ġbi ological
ĠChap man
ĠDim it
Ġboge y
Ġreconc iliation
Ġf illing
ĠM b
th rop
ĠK irsty
row th
te o
Ġexpect ancy
Ġsuper vision
Ġplant ed
Roy al
ĠHit ler
g ro
at ley
Ġbe es
Ġre lied
ot ally
ĠS on
Ġhe s
Ġr ipped
und i
Ġmon etary
ĠAnd r
ho edd
Ġrob bed
Ġprem iere
Ġlaugh ing
Ġkidn apping
Ġwhis ky
ĠSex ton
R od
n ie
r ac
w right
at ised
ĠS aud
ĠC rawford
ak ar
ĠSt rictly
ĠCh il
Ġaccept ance
Ġcreat or
ĠNet flix
Ġsymb olic
Law yers
ĠBarb ara
ĠToul on
m ember
Ġc ables
ĠB ened
ĠW BA
Ġinc hes
ty re
Ġfinal ists
Ġgold s
Ġobject ives
umber land
Ġpit ches
Ġdestro ying
R a
S hane
Ġh orn
ith io
Ġwh ip
ĠE rik
ab ies
Ġsc ans
ĠBr on
Ġdist ingu
lo ads
ca pped
Ġinstruct ed
ĠBark ley
Ġrhy thm
Ġrif le
Ġoverth row
' '
R ecent
b irds
ĠL av
ough lin
Ġsystem atic
ĠRe verend
Ġinst ances
ential s
ĠMor ay
Ġeffect iveness
ĠMon k
K ey
b art
g rown
o gh
Ġc abin
Ġre wards
ol ars
ĠA zerbaijan
ĠI D
Ġne phew
ĠInd ex
20 11
Ġ9 7
Ġvol umes
Ġren ted
employ ed
ĠIm perial
ĠBeat les
M at
a ver
b ecause
Ġ umb
ĠSouth gate
ĠSp ieth
ĠCo oke
ĠAb raham
ĠBro k
Ġ196 8
ĠSch midt
Ġprofit able
Ġgar age
ĠKl itschko
Sil ver
S upporters
ĠW att
ĠO ECD
Ġbl ows
hel an
St ill
pa res
ĠAt kinson
Ġsal v
SP CC
Ġpension er
Ġbul lets
ĠJenn ings
ĠStep han
on el
Ġf y
Ġd io
ic hael
ac ha
un n
Ġcom a
ĠRe venue
Ġpop ul
Ġide ology
sc ars
Not hing
ĠBroad way
Ġmagn itude
ĠNob le
ĠBax ter
E ducation
ol is
ĠB P
un ion
Ġsu ed
Ġser vers
Ġear s
She a
ĠZ ur
Ġobject ions
ĠMax well
ĠKo eman
Ġcommod ity
Ġportra it
Ġdispro portion
L incoln
M E
ag ne
ĠR ank
ĠY ann
ĠRo ver
ris is
Ġstand ings
sh ine
Ġcoun selling
Ġrev ive
ĠBer g
Ġhy p
Ġgrass roots
Ġoverwhelming ly
ĠSn ap
Ġtex ts
or r
Ġp uzz
ou ch
as ha
am ount
th odox
Ġde af
ĠN esbitt
ĠY ous
ĠLiber ation
Ġrain fall
Ġtruck s
Ġtraum atic
Lanc ashire
f an
l ast
he id
Ġm ask
Ġhe n
ĠW is
ĠL or
ĠF orth
ĠK ris
Ġlo ads
Ġinter fe
Ġtrad ed
Ġdiplom at
ĠTay y
ĠKenn eth
ĠSark ozy
s l
w ad
y t
Ġt ale
Ġa ired
Ġc ab
Ġd amp
Ġl ion
ĠS chal
Ġfr action
Ġoff ending
Ġco oking
ĠAl t
Ġembarrass ed
ĠPenn sylvania
ĠJur gen
Ġunsuccess ful
H amp
r ot
in ces
Ġret reat
ĠMar ie
Ġexc lus
Ġprotect ive
ĠBol iv
Ġham pered
ben ch
Bel g
Ġlyr ics
G P
a han
Ġl anes
ĠS utherland
Ġfr on
ĠF CA
ĠGl astonbury
Ġregul ated
Ġbelong s
Ġexecut ions
ĠIndepend ence
Ġsick ness
Ġinsur gents
Ġsquee ze
Ġfright ened
T ER
es ome
Ġun well
ult ane
ĠHe aly
Ġiss uing
the y
af odd
Ġround ed
Ġfood s
ĠMet ro
Ġspeed ing
Com ment
inh ua
J ud
T est
d ated
d ifficult
z ona
Ġt ips
ĠC QC
et ition
ad an
ĠH opefully
Ġle aks
port ed
Ġbr ink
ĠMar itime
ĠEurope ans
az ar
ĠPr inc
Ġprop osing
Ġdiv isive
Ġrein force
Ġforest s
ĠTem ple
Ġincent ives
Ġinher ited
ĠTayy ip
Ġb icy
Ġp orts
ĠJ ade
iv est
ile aks
my th
ĠEast wood
Ġpers ons
Every body
ĠCare y
ĠPear ce
Ġembarrass ment
Ġseparat ists
Ġaston ishing
ĠTrip oli
Ġf airer
ĠB ey
ĠT oure
ĠW ag
ch ild
ĠH adi
ĠG ur
Ġnot ing
qu er
Ġun ite
Ġen vis
Ġpre pares
Ġind ict
ator ies
ĠMer c
Cl aud
Ġemp ire
Ġmal icious
Ġwicket keeper
Ġfu els
Ġphen omenal
Hear ts
Ġlicens ed
H Q
P olitical
g rove
on ent
ĠH ales
ĠF iona
han ts
ist a
In sp
ang el
Ġtrans itional
Ġcreat ivity
tr ans
Ġtrib al
Ġrad iation
Ġweak ened
Ġimag ination
Ġpoison ing
ĠSum mer
Ġdio xide
R eb
he ll
ĠE rit
ge ant
Ġmod e
ĠWat ers
Ġhom eland
ĠAg ric
ĠFl oyd
Ġunp redict
Ġintellect ual
din and
ĠA uckland
Ġan ch
ĠW ada
ĠE sp
Ġmotor bike
Ġparticip ating
Ġsubstant ially
ĠConf ederation
ar go
Ġl esb
el ve
ul ator
ĠW ick
ĠD ing
ĠK ab
Ġser vant
ĠV un
Ġunder went
Ġprov isions
Ġhar vest
20 10
Ġded ication
.' '
ĠTem er
Ġsacrif ice
M ed
Ġg ifts
ĠC hel
ĠW age
od ge
um per
oc c
act ed
Ġfin est
Ġback wards
Ġcompet itor
Ġalle ge
Ġclass ed
Ġoverse eing
ĠStr at
Ġstream s
Sy ria
Ġast hma
ĠFo ley
T rent
Ġs ang
Ġf ut
Ġr ha
ĠJ ord
ist ical
ĠY ahoo
Ġche ating
ĠAd en
ĠJack ie
erm aine
ĠAle ksand
Pat rick
ĠBally mena
sub stant
ĠShep herd
ĠAdminist ration
m iss
p olitical
ar ry
ĠL abor
port ant
ĠLe ver
Ġfree zing
pr ising
Ġnational ists
Ġappl aud
Ġrail ways
Ġreflect ing
Ġtrou sers
Ġquiet ly
Ġphotograp hed
Dar ren
B est
S ign
u ilt
al ion
ĠS at
ĠN are
ast ings
Ġbr ig
Ġev olved
ph illy
Ġinter rog
Ġ11 1
Ġbeha ve
Ġtem ple
Ġhous ed
Ġfocus es
Ġpod cast
Ġnickn amed
ĠRah man
Ġunl ucky
Ġimpe achment
Belg ium
8 3
L ong
Ġpro ceeds
Ġcl adding
ef n
ric ane
Ġtar iff
Ġhum ili
ed e
um ble
It a
ĠBr anch
omet own
ĠBang kok
Ġwood land
ĠBed fordshire
m i
u ir
re asing
Ġs hat
er ick
ou p
ou st
ur bed
ĠR ace
Ġde er
Ġv ar
Ġse af
Ġsec rets
Ġsupp ose
ĠBul garia
Ġimprison ed
Ġunanim ously
ĠBren nan
l ah
p ack
ĠC hat
th yr
ĠG os
ĠF ors
ĠK it
Ġsc andals
Ġprov inces
Ġexp elled
Ġtw ist
Ġdev oted
Ġappl ause
Ġspirit ual
Ġelephan t
V ictory
g rowing
z man
st ock
ĠC re
os ity
Ġv ic
ia eth
Ġam ended
Ġdown turn
ĠAl v
Ġfair ness
Ġsecret ly
Ġnomine es
gi ene
author ised
Liber al
Olymp ic
Ġstere oty
F orest
H ave
b uild
w ark
z ia
Ġn aming
ĠC rescent
ĠB iggar
li ances
ĠRam os
Det ails
ĠCarm ichael
Never theless
Ġto uring
Ġp ump
Ġh ills
ow an
Ġcl ay
ĠIn side
Ġair space
Ġcre am
Ġtw ins
Ġemphas ised
Ġsubmar ine
cript ions
aceut ical
9 6
r and
ĠB att
ĠL A
our ced
Ġrel ies
br as
Ġprogram ming
Ġrespond ents
Ġ196 9
Ġclin ch
ĠPri v
Ġendors ed
ĠRash ford
D UP
D onnell
G iving
H am
H ad
ig i
ĠR oland
ĠK em
Ġcount ing
ĠCl wyd
Ġball istic
Ġchallen ger
not hing
sp ons
Ġscr atch
ĠHug o
Ġcompens ate
Ġdeport ation
step s
ĠClif ton
ĠIB F
ĠBott as
Ġt ire
Ġh inted
Ġh ometown
ĠP ok
Ġbo o
ĠAr men
duc es
ract ed
Ġlight ning
Ġcred entials
Ġhol y
Ġfo et
Ġatroc ities
j ah
v ic
Ġ iv
Ġb ilateral
Ġc ure
Ġre lying
ĠS enedd
ow ler
ĠB evan
op hile
Ġar bit
tr ained
Ġaccident al
ĠMcL ean
Ġdece ased
Ġcinem as
8 2
S ent
U ltimately
he ro
ir med
Ġout line
ĠEuro vision
ps y
Ġrisk ed
lam m
Ġmis use
Ġrespect ive
Ġsort ed
ĠAg ainst
ĠPet e
ĠGib raltar
ĠGab on
Ġque ues
in ha
ĠS ho
Ġacc um
oot s
ĠHe b
Ġtechn ically
Ġcapt ained
add en
Ġtransport ed
Nic ola
Ġrebell ion
s ky
Ġthe at
ĠC ummings
Ġal tered
ant ha
Ġcomm uters
Ġmed ics
Ġtrain ers
Ġpres cription
oper ative
Ġpers ecution
Ġsan ct
Ġdisag reed
zb ek
Hamp shire
I raq
Ġ ia
Ġp ard
Ġj aw
Ġcha ritable
Ġreg ained
Ġconf essed
crib ing
ĠCo e
vent ions
ĠBel arus
erm ont
ĠCav endish
Ġslot ted
Ġdepos its
Ġhe ated
ĠN urs
Ġ19 45
ĠBr an
Ġinvestig ator
Ġadv ising
Ġgreen house
ĠĠĠĠĠĠĠĠ Ġ
Prem ier
N ET
T witter
d al
Ġb inding
ot ers
ok ers
pl ained
Ġsc ary
ĠThe o
ĠMil ner
chen ko
Ro edd
ĠPel legrini
ĠGand hi
f il
Ġd ys
ĠS ham
ĠM other
ĠG az
Ġnot ion
Ġun lock
ween ey
Ġbar rels
Ġdeter rent
ĠBrown e
Ġexcell ence
Ġanonym ity
M un
S B
c ount
on ation
Ġf its
ĠL er
Ġsu ic
ren c
Ġinc umb
Ġfe as
ĠJo ey
Ġgr at
Ġtrain ee
ĠTom lin
Ġannounce ments
Ġdecl aring
ĠRa heem
rep resent
ĠRec ep
Ġoblig ed
Ġweigh ing
Ġinconven ience
ĠKazakh stan
W itnesses
l li
n od
ĠH ough
ĠF ather
Ġsm iling
Ġcommun ist
ĠCr abb
Ġbon uses
aret te
ĠAndre as
bast on
Ġconstruct ive
Ġfest ive
Ġplun ged
D eb
m ake
p ies
ha ka
Ġd ated
ĠF illon
ĠO tt
Ġdec ommission
Ġsm ugglers
Ġcirc ulation
Ġtack les
Fr anc
Ar t
ĠMat teo
ĠCyn on
Ġneglig ence
mass ive
Separ ately
ĠS adiq
os a
Ġke ys
Ġdro s
Ġemb argo
erm ott
Ġmuseum s
ĠPo ole
ĠLin field
gor ith
ĠAri zona
Ġseparat ist
ĠMug abe
Ġvolat ile
P owys
ĠA mber
ĠT B
ĠW orth
ĠF ell
Ġsix es
eter min
Ġhon orary
Ġrev ival
200 9
Ġvill agers
Ġexchan ged
Ġbarr acks
R en
s chool
w er
ĠS ach
ol in
ĠC er
Ġal ike
ĠT ake
Ġca f
Ġexper imental
Ġpres cribed
Ġconver ting
Har lequins
ĠAud i
ĠMaur icio
Ġbol ster
Ġstead ily
D umbarton
J ur
b ad
Ġp ets
ot to
Ġg roc
ĠS ara
Ġwe ird
Ġup hold
rit ical
Ġcha otic
ason able
Ġmat ure
ĠPr adesh
Ġaccomp any
acer b
ĠBuchan an
ĠMub arak
W estern
Ġt ends
Ġf iction
Ġre he
ĠS ign
Ġnot ified
all ana
sec urity
ĠHouth i
d ate
Ġt idal
Ġg ad
ang le
Ġcur ling
Ġbenef icial
ĠAb bas
Ġsimilar ly
ĠX ia
Chan cellor
ĠRash id
ĠBris bane
Ġartef acts
9 2
e ke
Ġm ice
ĠT yn
ĠD om
ĠE ur
ub bs
ount ered
Ġdec ider
IP CC
Ġconclud es
Ġsurviv or
ĠKy i
Ġveget ables
pos itive
ĠRee ves
ĠFrankf urt
L ook
Ġinv al
Ġcar pet
oper ating
Ġphys ics
Ġvers us
Ġspir its
Ġstrateg ies
awr inka
Ġtransm ission
I T
S uper
m uch
Ġc her
Ġd weud
Ġn odd
ĠS ak
ĠS hen
ad own
ĠB ooth
Ġth rive
ĠD ata
Ġcomp osed
Ġte e
rib ly
ĠWest on
ĠConserv ation
ĠMac K
Ġtal ents
ĠHM S
ĠInter ior
Can ada
ĠLim ited
Ġaspir ations
Ġmour ning
ĠVun ipola
3 70
c roft
h is
Ġ ump
Ġth ieves
os ers
Ġab ort
ra er
Ġcomp osure
Ġ4 50
Ġbr ains
Ġcr ushed
ĠTh r
Ġmet eor
Ġpos es
ĠStan ford
Ġstret ching
Ġelim inate
ĠFel ipe
Ġfisher men
Ġiv ory
T op
ar ter
Ġl oses
ri p
ra ven
Ġlight weight
Cl ub
Ġsequ ence
ĠWhats App
F ra
R L
Ġa ide
Ġf ond
Ġg room
ĠS aw
ĠA NC
and ing
Ġint ake
ne eded
Ġsim ultane
Ġenc ountered
ĠSam oa
Ġclin ics
Ġterrit ories
ĠKu wa
Ġgro oming
ĠUnivers al
T y
m ans
Ġw ary
Ġto oth
an ium
Ġe ve
un ton
and owski
est ine
ĠT odd
ĠE t
Ġfin ale
Ġrec laim
Ġtrans action
Ġpat ron
ĠDe ila
Ġmass ively
Ġdest inations
Ġshoot out
Ġflu id
Ġadministr ators
ĠTob y
ĠQuest ions
ĠTreat y
P lease
R T
R ather
c ode
Ġc hips
ĠB MA
ĠG amb
ĠN umber
ĠJ oint
Ġli ability
ĠSe rena
Ġche ek
Ġbase ball
Ġinspir ing
ĠJane iro
IN TER
ĠSerge i
ĠToy ota
ĠCuth bert
1 30
U s
W asps
Ġs ights
ed y
Ġp ile
ĠS und
ĠD V
ĠF on
amil ies
Ġcent enary
Ġsign alled
Ġdet rim
ĠDec lan
Ġboard ing
oid s
Ġillness es
Ġfundament ally
Ġplot ting
Ġdecre ase
Ġa unt
ĠW ils
ĠE p
ĠE qu
ĠN SPCC
ach us
Ġbr ick
ip ur
Ġfore front
Ġconfir ms
Ġconfir ming
Ġstre ak
ĠMe h
ĠSu u
Ġlisten ers
Ġinterven ed
Es sex
A li
f irst
o en
Ġre ef
ĠF uture
ms ford
ĠTr inity
Ġsub sc
ĠGCSE s
Ġsubmar ines
ĠHig her
Ins pect
spons ored
achus etts
N D
W P
p ers
Ġm ales
ĠM ey
Ġhe ct
land o
Ġac res
Ġprov oked
Ġkill ers
Ġpri zes
ĠZ ambia
Ġdist ressing
Ġinfl icted
ĠMil es
ĠMer thyr
ĠMos es
Ġvolunt arily
Ġtoler ate
Ġinnoc ence
INTER NET
Ġb other
ĠD igital
aced onia
ĠWh ich
Ġta pped
Ġscra pping
Bron ze
H ol
Ġb ay
Ġb ishops
Ġh iring
ĠE oin
Ġun authorised
Ġmed ieval
Ġmid week
inn ings
ĠMon mouth
Ġpack aging
Ind ian
Ġemp hat
ĠSol om
ĠPan orama
ĠGriff in
ĠGib b
Port ug
ĠWin ston
ĠIndust rial
ĠCoal ition
ĠEdg baston
M ond
Ġs em
Ġo we
at tered
Ġn ad
ĠC ym
ad ic
Ġas hes
Ġpl ight
Ġdef ine
Ġtra p
ĠWill is
Ġinst antly
Ġorder ing
Ġhistor ically
ĠBor o
Ġeth ical
ĠWal ton
Ġconcent rated
Ġastr onom
Ġenthusi astic
8 7
M O
Ġp ond
ĠC hampion
ĠI ce
ra eg
Ġdes cent
sc reen
reg as
ĠFer dinand
Ġdocument ed
Ġstrength s
f rew
h ome
o ard
ĠC um
im o
ĠH ernandez
ĠN aj
ĠY ar
Ġelect ronics
iol ence
ĠPro p
cast ing
Ġlim iting
Ġpres erved
ĠCr usaders
alys ed
rim inal
Ġrad i
Wh ich
Ġjurisd iction
Ġpiv otal
ed ge
Ġo ught
Ġl ayer
ĠB JP
os y
ĠD z
ĠD ee
Ġwin less
Ġcr ush
Ġev asion
Ġfinanc ing
Ġmor ale
bl ack
Ġentertain ing
Ġfest ivals
Bor ussia
ĠPon ty
Ġglo ves
N usra
Ġf ox
Ġal ight
ĠD f
ĠN utt
Ġnew ydd
Ġshow case
Ġinj ust
ret ion
ĠCar s
ĠCol eraine
Ġsw all
Ġreb uilding
Ġsquad s
Ġcommission ers
Ġrival ry
Ġdiscipl ined
Ġtact ic
disapp ointed
ĠBrok enshire
l as
Ġr ice
ĠP es
ri vers
ĠO scars
Ġover shadow
ap est
Ġbl unt
Ġden ial
Ġadm ir
Ġprob ation
int osh
ĠSl ater
ĠAy ew
Ġdiscl osure
Ġredund ancies
Ġsch olars
Ġblank et
Ġtelecom s
ĠNare ndra
T un
Ġw ise
ĠR ain
Ġweek day
Ġchar ism
Ġcons c
ploy ment
Ġshort listed
Ġimpact ed
Fr iday
Ġreact ions
Ġ196 5
ĠHalf penny
Ġgra ves
Ġdraft ed
Ġintimid ation
ĠBair d
c ig
Ġ /
ĠC asey
Ġsa ke
ain ted
ĠSe vern
Ġeng ulf
Ear ly
Prof ile
ĠAbd el
Ġstake holders
Ġexceed ed
Ġconcess ions
Ġumb rell
B elfast
Ġcan al
Ġgovern ed
ĠFr ampton
Ġcent red
Ġloc ate
Ġmis ery
Ġrecomm ends
ĠBuck ley
Ġcontem pl
ĠRou hani
Ġpave ment
D ur
Ġle ts
Ġunder water
ĠMill ennium
ĠHere ford
Ġrecons ider
Ġo mbudsman
Ġcon j
ĠL ear
ĠD rug
ĠJ orge
Ġsh irts
Ġless er
ĠMart ial
Ġshar k
ĠAcc ording
Ġglass es
ĠJama ica
ĠSina i
it ate
Ġl b
Ġl le
ĠS ometimes
ĠM ut
Ġ" [
Ġal gorith
pe y
Ġam p
Ġ19 16
Ġext inction
ah l
Ġimm unity
Ġscre ened
Ġmal aria
ĠII I
Ġmas ked
ĠFlin tshire
F I
G raham
h yd
r als
Ġb ri
im portant
em ble
ff iti
Ġhapp iness
Ġdet ection
Ġdr ill
Ġlow ered
ĠCor oner
Ġsafe guards
Ġwalk s
cons ider
ĠWars aw
ĠHutch inson
9 3
B illy
t otally
he avy
ac ious
ĠN SA
Ġsh ifts
own s
ict ims
Ġser ver
gr and
ĠX inhua
Ã© s
Ġclean er
Ġfant asy
ĠCro ft
Ġspark ing
Ġacknowled ges
Ġsurprising ly
ĠEag le
Ġportray ed
Ġapprentices hips
Ġassass ination
cern s
en k
as i
om ers
am ara
Ġst alled
ard ew
per forming
fore st
ĠMar vin
Ġdist ressed
Ġlight ly
Ġdefin itive
ĠWol ff
Ġmort ality
Ġblog ger
Ġcompar able
ĠBru yne
ĠAv on
ĠRSP B
Ġintercept ed
ĠBudd h
K ar
a vers
g ia
k irk
u ce
w at
Ġs ells
Ġb ishop
Ġc ows
Ġf a
Ġf ict
el ds
ter son
ast ically
Ġex acerb
ick eter
Ġdis orders
200 8
Ġmach inery
Ġtun nels
Ġarchitect ure
ĠCaer philly
Ġvibr ant
ĠTill erson
N on
W ednesday
g em
l anguage
ĠM BE
Ġend uring
Ġcr ashes
ism ith
Ġdr illed
Ġaccess ed
Ġgrand son
Ġsid elines
Ġwreck age
ĠKend all
ĠKear ney
f ires
s aving
ĠB ass
ĠB efore
Ġconf isc
Ġlaw ful
Ġsl ogan
lin ers
Ġpresent ation
Ġpositive ly
urd sson
ĠAg new
ĠSen ior
ĠGard a
Ġdesc end
Ġlapt op
ĠCout inho
F ew
V ol
g rave
Ġf ancy
ĠS ang
ĠB alls
ĠH astings
ĠN ash
Ġsh ook
own er
man y
ink ley
ĠDr um
Ġsexual ity
ĠCal der
Ġsuperb ly
Ġheight ened
Ġrall ied
ĠEuros cept
ĠHop kins
Ġprol ific
ĠEcc lestone
A aron
p ur
Ġs inking
ĠB am
ĠA K
ant i
ug ly
ĠRo hing
ĠIs is
20 16
ran raer
ĠMurray field
Ġcontent ious
Ġrenew al
Ġadministr ations
ĠBrig ade
estab lish
M ad
m ust
Ġn onsense
ĠM am
ĠL allana
ch urch
Ġsmall est
ĠPe ake
Cl ose
Ġsustain ability
roll ing
Ġlay ing
ĠIns urance
Ġrig orous
ĠMah rez
ĠHarv ard
School s
f ill
w atch
Ġb ounced
Ġn asty
ĠS ug
ĠA er
ĠH and
ub ilee
Ġear marked
Ġins ects
Ġproduct ive
ĠGe a
Ġaccess ing
pro of
ĠGP S
ĠSand y
ĠCle veland
Ġseiz ure
ou m
le ven
ĠC ec
Ġy s
ĠT ian
ĠN issan
ĠMc F
ĠNew ry
Ġoper a
br ide
Ġsocial ist
Le od
Ġmer it
Ġ195 8
ĠStock holm
ĠFlin t
ĠDary l
g ical
u ously
il ised
ent er
Ġwe e
ĠT el
Ġres on
Ġtime ly
Ġmo lec
Ġsum mon
Ġsw ung
Ġmis er
Qu est
Ġdeterior ated
Ġcatast rophic
orde aux
il ation
Ġst icks
ul ative
ĠR ush
ĠD aley
Ġsh ifted
Ġsp ying
Ġdis respect
for mer
Ġtop ics
Ġstud ios
Ġnational ity
Ġrefe rences
Ġfavour able
ĠCha vez
ĠKing ston
cent ury
ĠRoman ian
ĠReg iment
ĠWith out
Ġhomeless ness
Ġprivile ged
Mo ham
ĠEve rest
Ġgraph ic
er k
Ġf ibre
Ġst al
Ġas c
ast e
Ġen ables
ĠDr ink
Ġpubl ishers
Ġreason ably
vent ually
Ġdom ain
Ġfreedom s
Ġcommand ing
Ġlobby ing
ivest ock
c lyde
s un
Ã ´
er an
Ġm ock
ĠT iger
ĠG ate
ĠF y
ĠF ry
oc ese
Ġour s
ĠTr ott
Ġinj ection
ĠAnd er
Ġfinal ised
Ġpri ests
Ġworth y
amb a
Ġloyal ist
chair man
ĠMass achusetts
Tur kish
ĠMans our
Ġinaug uration
Ġexha usted
Ġgoalsc orer
Ġlb w
C ook
T O
a eth
in ch
ou k
ĠM i
Ġab ilities
Ġun armed
Ġcomp onent
Ġunder way
Ġend e
ĠY o
ĠZ latan
ĠPar ade
Ġdro ps
ĠMcC ull
ij u
Ġfem ales
Ġvulner ability
onym ous
ĠSpe ech
Ġincumb ent
Ġs ne
ar in
id el
ow a
ĠW as
ĠR ural
uc ci
ĠY ang
io v
ĠTr ains
ĠCor p
medi ate
isl av
Ġcast ing
ĠSk ates
Ġpreced ent
M et
r ics
as ant
el ong
ra u
ans as
ach o
Ġind oor
ĠCon c
sh ocked
Ġmeas uring
Pl ayers
ĠBoy ce
Ġreli ability
del ighted
Ġoverc ame
ĠClif ford
ĠInspect orate
claim ed
Ġwholes ale
C hampions
G lam
M a
k ind
Ġp act
un ted
ra il
ĠO y
Ġstr anger
ĠSe amus
Ġemb ry
ext ra
lim ited
Ġdischar ge
Ġc ym
ĠT itan
ĠL ud
ĠG h
ĠN BC
Ġover weight
ib ald
Ġche ese
Ġsk ies
lo ading
ĠNews beat
Ġrecogn ising
ĠMcG e
Car ol
Do es
Ġcheap est
ĠGir oud
Ġsquee zed
ĠEston ia
ĠChel msford
S ports
Ġin accur
Ġst akes
Ġth under
ĠD oc
ĠN G
up ert
Ġab oard
ound ing
ib b
ĠIn ternet
me h
Ġrest oring
Ġpubl isher
play ed
Ġund ers
Ġgrand children
do es
Ġverd icts
ĠRen frew
Ġunw illing
ĠNutt all
Ġ ??
ĠC aptain
ĠD uck
ĠG i
um pt
Ġcl aw
Ġout spoken
ĠK r
Ġbu ff
ĠAr cher
Ġmay oral
Ġ15 00
Ġpack ages
ĠRos en
ĠMcD ermott
Ġbreat he
ĠFred die
def ence
Ġunw anted
Ġje ans
Ġunlaw fully
ĠOther s
conn ected
ver ting
ag ged
ĠH oll
ĠD art
Ġsp inal
In side
ĠPS G
econom ic
Ġaggrav ated
forman ce
G reg
H P
N igel
V enezuel
V ideo
s peaking
t aking
Ġc ad
Ġp ause
Ġm ail
ĠR iley
Ġpl ag
Ġab und
Ġar ray
Ġqu ad
reat h
Ġcr icketer
.. ..
Ġav al
Ġsum m
Ġmem o
Ġadapt ation
Ġobst acles
Great er
ĠRub io
ĠGay le
ĠAde le
Ġrelent less
- -
a head
Ã ±
at able
le ments
ĠC D
ĠT oni
ĠF ish
ong ue
lud ing
Ġexp ired
Ġden ounced
ĠJul ia
ĠBent eke
Ġcock pit
Ġpriorit ise
ĠKeny atta
Ġlesb ian
p ell
Ġdis gu
Ġro de
ĠIslam abad
uter te
Ġbankrupt cy
Midfield er
Ġhomosexual ity
Ġlig ament
Ġrup ees
f ering
g ov
p oints
st at
ĠC able
Ġwas h
ĠP rit
ens ed
Ġind ec
Ġind irect
ĠHe y
ĠAr k
Ġpar as
Ġident ities
ĠGu iseley
Ġcomplex ity
ĠTor res
ĠShar ks
ĠHaw ai
Christ opher
Ġextrad ited
Ġtas ked
ĠFitz patrick
ĠMcCorm ack
Ġposit ives
f ight
g ener
Ġp airs
ĠS weeney
ĠL ist
ĠD ij
ĠD iana
Ġad min
Ġres isted
app y
Ġmur de
ĠEl lie
Ġrenew ables
comm un
Stud ents
ĠSalv ador
Line ups
8 4
l ove
m aster
Ġse ab
Ġpr ay
og lu
year s
Ġmatch ing
Ġob jected
osp ace
Ġcomb ine
Ġrow ing
Ġoverse en
ĠCro ydon
Ġinspir ational
ĠCommun ications
ĠRich mond
Ġcaution ed
Ġencry ption
Ġsib lings
! !
k usen
ur ities
Ġle aking
ĠF alk
ĠJ ed
Ġout cry
Ġres emb
Ġmar riages
ĠMo z
Ġhor rendous
Ġrat io
ĠBreak fast
ĠBened ict
S ources
n ut
r ust
y g
Ġw al
Ġto ss
an j
et ti
Ġr ational
ĠN est
ĠU zbek
Ġsp erm
ĠMc M
Ġtax ation
Ġexc lusion
Ġsuff ers
gr ass
iest a
Ġinform al
Ġwound ing
Mon aco
Sy rian
Ġsurrend er
Ġgam ble
Ġdeton ated
Ġepid emic
L at
S S
h ift
ĠS ullivan
ill es
ĠP op
ĠT ate
ass er
Ġrel ates
Ġcontact ing
Ġtrou bles
ĠSky e
Ġacqu ire
Ġobserv ation
Cent re
ĠTier ney
Ġunav ailable
ĠSaud is
Glam organ
P rior
l ive
u i
it aries
se at
pt ed
ure ment
Ġexp ires
ĠRes p
ĠIsrael is
Ġrock ets
Ġtraff ickers
Ġrepublic ans
ĠPerson ality
Ġingred ients
Ġcatal ogue
u y
z ai
ell en
Ġind ications
att led
duct ive
ott age
Ġpeace fully
Ġhom ework
ĠBry ant
Ġindic ating
iffe rent
Ġquant ity
B ased
c ation
d ates
e h
s upport
Ġfor b
Ġwh olly
ĠN ama
Ġla ug
Ġign oring
Ġcommand ers
Ġsufficient ly
Christ ian
capt ain
ĠNa ismith
ĠML As
esp ie
D j
L l
i enced
om ic
Ġon wards
ĠM ob
ĠP rest
ĠT elford
ĠL yd
ĠD il
oun ters
iv ated
ell ar
Ġcan v
Ġam put
oy ne
Ġrem it
Ġinter ventions
Ġsl aughter
Ġob ese
Ġpers ist
Ġstadium s
Ġpredict ing
Ġdecor ated
ĠVo ice
Ġpaed ophile
Ġparalle l
Ġexclus ively
D ev
a wn
b ly
i ak
s ham
Ġd ip
el in
ĠR as
Ġex agger
omm e
ĠMc Al
St r
Ġarri ves
Ġpred icts
ĠBa fta
Ġwithdraw ing
Ġcontain er
ĠLiving stone
Ġrent al
Republic an
Through out
8 1
Ġt ended
ĠN gh
Ġback ers
ind a
Ġtra iled
Ġtra iling
att ie
Ġpar alysed
be ath
Ġcol ony
ĠShe arer
ĠDe ath
Ġoccas ional
Ġsid el
ĠRepresent atives
Ġstew ards
l ost
t orn
ĠR est
ĠK ro
Ġar range
Ġlo aded
Ġli ed
Ġback benc
Ġshow er
ĠAd vice
Ġi P
Ġpict ured
ĠBo at
Ġapprop riately
Mc C
Ġflow ing
Ġundert aking
ĠDa wn
Ġoverlook ed
K n
c ond
Ċ ĠĠĠĠĠĠĠĠĠ
Ġal arming
ĠR ivers
ĠN orm
Ġdis reg
ru ly
Ġrel ocate
Ġrepl acements
Ġpost al
ĠAd vis
Ġmod ified
viron ments
Ġavoid ance
ĠVal ent
Ġcateg or
da q
Ġpromin ence
Ġgy fer
Ġbes ie
ĠDug gan
ĠKir by
Ġobserv ations
Argent ina
Ġbri bery
g as
Ġm aul
ĠS ay
Ġst unt
Ġr ings
Ġpl um
ĠF IA
ĠIn c
Ġgr ace
ĠHar bour
Ġcirc les
Ġ196 3
Ġpaper work
ĠRh inos
ĠGar ner
Mic rosoft
Ġrecip ients
Ġfacilit ate
ĠCull en
G ordon
H ouse
ĠS aid
ĠB oreham
Ġth igh
Ġtr illion
ep ing
Ġcar riers
ĠOr lando
Ġbomb ed
Ġdeep est
Ġgrand pa
Col in
Ġupset ting
ĠGir ls
agger ing
ĠLlan elli
ĠLever kusen
V ictor
w alk
Ġ u
ĠC row
ĠB orn
ĠO pp
ĠY et
Ġposs ibilities
to ine
Ġcho ir
Ġtrad itions
Ġattract ions
Mc G
ĠRen ew
ĠDam ien
Fin ally
Ġdread ful
renc ies
w edd
ro d
ĠB alk
Ġv om
Ġcomp aring
Ġli k
ie ber
Ġdef l
ting u
Ġdeal er
Ġsha ped
Ġgun fire
Ġconnect ing
Council s
ĠWik ileaks
Init ially
Ġunpredict able
R ory
W rexham
ĠM ate
ĠP CC
ĠU l
Ġsupp lement
Ġfl ows
te gr
Ġexp ose
ĠAs da
Ġserious ness
Ġclos es
Ġsepar ation
Ġbird ie
turn ed
arch y
Sus sex
ĠPetro bras
le m
Ġre jects
Ġg ru
ĠB ac
ĠW it
ĠR C
Ġcont empt
Ġdef ect
Ġprof iles
Ġadv ant
Ġboard ed
All ister
Ġver bal
Ġwond ered
ĠDo ha
iar an
Ġdiplom acy
wh ite
Ġgut ted
Ġdimin ished
ĠHav ana
Ġdish on
9 7
s ell
Ġa ides
in ning
is se
ĠE mergency
ĠJ od
ust ers
Ġint oler
Ġinc oming
Ġen vironments
Th ings
Ġgu ilt
ĠZ ucker
Ġmet ro
Ġhum ble
Ġorig ins
Ġpurcha sing
ĠYoung s
ĠJac ques
Pat ients
ĠBald win
ĠDud ley
Ġkilomet res
o edd
p here
u ley
il ot
Ġbe loved
Ġst ub
ag i
ain i
our ne
ĠF irth
ry ing
oy e
olog ically
inc ome
lo an
den beath
Ġdepart ed
Ġgra ffiti
ĠWal cott
intend o
ĠAntar ctic
Ġerect ed
ĠPlat ini
ĠM ental
Ġst y
Ġr ains
ĠP ret
iv o
Ġint act
Ġtr aces
Ġrele ases
uk o
ĠHam burg
Ġbul lied
Ġliter acy
Ġfunction ing
ĠVik tor
Ġmonarch y
ĠBair stow
Ġexha ust
ĠInspect or
ĠNatal ie
* *
a urs
Ġ idd
Ġw i
at em
ĠC ats
ĠI k
ĠT esla
Ġnew born
ĠLe o
ie g
ĠRe y
ruct ive
Ġsen ators
ĠSchool s
ĠBow l
ĠRec ords
Ġmechan ical
Ġking dom
Ġrecon struction
P ost
T R
Ġb ik
Ġre intro
Ġh orm
ĠD mit
Ġex tingu
Ġinv ite
Ġ10 5
Ġdisc retion
iz er
ĠĠ ĊĠĠĠĠĠĠĠĠĠ
Ġaff ection
ĠWh itting
Ġemb ro
John son
Ġchem otherapy
ĠTer rorism
ĠCav an
ĠMaj esty
link ed
T urn
T rib
z ema
as hi
ĠA lder
ĠR ing
ĠJ ab
oll en
uss ed
Ġcare less
ĠAss istant
Ġdefensive ly
ĠSha rapova
Ġcaptain cy
kn app
Ġprem ier
Ġrac ially
Ġpen et
Ġupgr aded
ĠFe in
ĠThorn ton
Ġrehe ars
C ust
E lect
H ug
R ac
le ader
ay o
Ġnew com
og ging
ĠBl aen
Ġemploy ing
ĠBe ir
ĠMon te
hol es
Ġsle pt
ĠRod ney
Ġthr one
ĠNas daq
Ġmortg ages
ĠEven ing
ĠColumb ia
adel p
Ġslog ans
ĠHud son
E xt
ĠM az
ig uel
ĠB og
ce ans
ĠD uterte
ident ified
Ġacc ent
Ġbl asts
rib y
Ġadv ancing
sh irt
ĠFer riby
Ġphotograph y
Ġconnect ivity
Ġprovision al
abb ing
Ġaccus ation
ĠRom ain
Ġtoler ated
ĠJav id
dem ocracy
Semit ism
Ġsoc ially
rank ed
A B
D ame
P op
S port
a um
Ġc odes
ĠS ikh
Ġst rokes
ĠP av
Ġwhe els
Ġun marked
ition ally
Ġass urance
Ġpar ole
velop ed
And re
Ġadv ent
cl ock
ĠLam ont
Ġmos ques
Ġminds et
Ġmun ic
osy stem
os ion
ĠW awrinka
ĠR al
Ġbu oy
ĠQ at
ĠSp ence
ĠNe ath
ĠMil itary
Ġsett ings
ĠBur kina
ĠAlb an
ĠNo el
Ġgra vity
ĠMat ty
ĠEnd a
Ġsubm ission
Ġweakness es
Cha irman
adelp hia
b ah
Ġf f
or ado
ot elli
ĠM ind
ĠB rough
Ġr ides
ul ates
Ġor ange
Ġhar ness
ĠCl in
sp inner
Ġpenal ised
Ġcoast line
Ġsal mon
ĠMiddle ton
ĠMont g
ĠOffic ers
ĠHat ton
Ġske leton
ĠMund ell
Mond ay
S ky
S NP
in vest
Ġl ivestock
ĠP od
ĠN am
Ġcomp ares
ird rie
ĠZ ak
Ġple asing
ĠMad d
Ġtrack er
osp ice
ĠNe xt
Ġundermin ing
ĠMcCart ney
O T
P oland
p i
Ġs izes
Ġp ac
ĠD ad
Ġcl ues
ĠIn ver
Ġhapp ier
cept ions
ĠPr ide
ks en
Ġexam inations
Ġenjoy s
Ġtravel s
Ġdog ged
ĠMag pies
Ġagg ress
Ġrein stated
Ġinstrument al
Ġinsult ing
Lou is
Portug al
J ake
S ham
f elt
is bury
Ġin ability
ĠB uff
ĠW inc
ĠN ord
ess e
ick i
Ġser ial
Ġcourt room
Ġsl ump
Ġce iling
Ġdead liest
eng u
Ġlist ing
Ġalleg ing
ĠSc iences
Ġdest abil
ĠLew andowski
quar ter
ĠBroad casting
ĠLig ue
ĠBec ky
Ġastrona ut
K yle
L o
s ens
v ili
an ning
ic er
ent e
ot ion
Ġpro st
Ġsh ores
ome z
ĠUn iverse
Th irty
Ġcur few
Ġpa ediat
ĠDun n
Ġport ion
Ġinspect ed
ĠPan el
ĠEnter t
Ġabol ished
ĠEti had
ĠPeters burg
Ġsidel ined
F und
Ġan a
Ġfr ames
ĠJ P
Ġinc iting
ĠSt ory
iss ance
wn e
ĠLondon ers
Ġcritic isms
ĠMan or
Ġboy cot
ĠPort o
ask a
ĠKn ox
ĠBlue birds
Ġembr aced
ĠVen us
Ġmotorcy cle
Atl Ã©tico
Ġp oured
ĠS z
ĠG ambia
ĠF iscal
anc ers
ĠRe ece
Ġtimes c
Ġlive ly
ĠCo hen
Ġtot alling
Ġpresent ers
ĠTra vel
Ġele v
Ph ot
ĠCur ran
Ro oney
Wol ves
ophob ia
B road
S adly
Ġd y
ĠB j
ĠB ee
Ġcr acked
ĠHard ing
Ġporn ography
chw ane
ĠA ins
ĠP te
ĠH inkley
Ġ6 50
Ġgl orious
co on
ex am
ĠMan x
Ġ196 1
ĠLau ren
ĠZur ich
ĠHough ton
t ter
ĠP ence
Ġsp ill
Ġmin imal
ounc es
Ġimp artial
Ġclass ification
ĠSa fe
ĠGreg or
ĠCons umer
ĠSig urdsson
I M
T hanks
b usiness
le vant
et ing
et au
ĠB agg
ĠN ine
ne red
Ġgu err
uk ov
Ġconsum ed
ĠQu int
ĠShi eld
ĠBull s
bab a
ĠCos by
Ġstig ma
H ung
M ont
N ice
T er
e ah
v antage
z ig
at isation
le in
Ġh ob
Ġsur real
Ġresp ir
att en
Ġcou pled
ĠMark s
che ng
Ġrepe al
ĠSal ah
Ġtrib es
Ġbat ted
ĠUnder ground
Ġhy brid
ĠDes pite
Ġlunch time
Ġescal ated
ĠSnap chat
ĠNgh ymru
T uesday
g ement
n ation
he rent
ĠN aval
Ġad vers
rent ial
Ġco at
Ġra ft
Ġball ots
Ġmid day
ple x
epend ence
Ġsw ydd
ĠBlack man
Ġbomb ard
ĠPort adown
Ġey ew
ĠMe g
ĠMarc os
Ġescap ing
Ġarchae ological
Ġfright ening
B R
L ar
R oma
U V
Ġt iger
Ġb ore
Ġre think
Ġwh it
em ia
ĠH ang
Ġab us
ĠO BE
ord inate
ult imate
ors hip
ĠBrit s
ĠWe ibo
Ġmet re
over whel
ĠDun lop
Ġver ge
ĠHen ri
ĠEvery thing
Ġhur ting
rec ogn
Ġpassw ord
Swed en
ĠZucker berg
a us
Ġd ose
id able
Ġst airs
ĠA D
ĠA u
ĠF oyle
ĠN ov
ant on
Ġdis l
Ġrec ur
200 7
Ġdoor step
Ġrevolution ary
Ġbreast fe
Ġquot as
ĠCambod ia
Dur ham
iju ana
H ay
er ring
Ġd ear
ĠS myth
ĠA B
ĠE quality
iv ik
ĠScot Rail
ern ar
An ti
Ġthreat ens
Ġtechn ological
Ġanim ated
ĠPhil adelphia
tr ue
Ġphys i
ĠBur undi
Ġfraud ulent
Ġimag ined
Ġlength s
ĠPen insula
ĠHo oper
Ġendors ement
ĠClass ic
ĠLamp ard
substant ial
oen ix
ĠRohing ya
V er
j et
ac as
el od
ĠB es
ĠA kin
ĠG w
Ġab duction
ĠO il
Ġres h
Ġup loaded
Ġsl id
ĠHar ri
ĠNe ed
Ġencour ages
Ġchem istry
Ġacceler ate
C ould
G at
l ifting
in ist
Ġm ast
Ġm wy
Ġd ire
im acy
ec ca
ĠT i
ĠH oy
Ġpro port
Ġv icious
Ġover r
ĠLe aders
ĠSy l
ĠGer aint
uck ed
Ġcust od
Ġeduc ate
Ġwat ches
Get ting
ĠHew itt
ĠClay ton
K im
en ha
ĠS ee
ol utions
ĠC V
ĠH ul
Ġpro ves
ess a
Ġsh ifting
Ġun res
Ġpr ag
itt e
Ġhel met
ram s
Ġprot oty
Ġtest ament
ĠStephen s
Ġsens it
Ġsn ake
ĠMull er
Out side
ĠSadd am
Ġschoolgir l
D i
h istoric
Ġ ugly
ĠM aster
ĠO p
Ġun ear
ans wered
Ġunder gone
uss ions
ĠPar s
ĠGl obe
Ġmus cles
ĠDe le
Ġimm un
Ġmakes hift
ien a
Ġroll er
Ġaccur ately
uther ford
omot ive
ĠMich igan
C ole
l ade
Ġs heriff
om ent
Ġl ender
Ġg a
ĠS SE
Ġcon sole
Ġout p
Ġdis par
ons in
Ġro edd
Ġdec k
Ġcar maker
ip ality
Ġcontin uous
ris ons
Ġ11 6
inn on
Ġhonest ly
ĠNaz is
Ġintens ified
Ġclim bers
Ġdistract ion
ĠBuckingham shire
ernar fon
F O
S har
S heriff
Ġf og
Ġm elt
ĠP ardew
Ġnot ices
Ġgood bye
Ġprev al
Ġgr im
Ġviol ating
ĠRob ins
Ġfav ours
ĠMan ning
Ġdoub ling
Ġthr iller
ĠMun ro
Ġimpl ants
Ġsight ings
?' "
ĠGC HQ
ele br
Ġcommem orate
Ġinstitution al
Ġd uration
ĠM ort
ĠT ah
ĠR ut
ann on
St ar
ĠSh ir
Ġmisc ar
cur ator
Comment ing
M ax
ou ane
ĠM ow
ĠJ ubilee
ist ar
Ġchan ting
Ġconf ined
ĠBr iggs
Ġsm ash
Ġkill s
Ġexception ally
O N
R og
b ra
ĠB ake
Ġas hamed
ĠR olls
ĠD ancing
Ġde rel
ĠG iggs
ĠU igh
Ġup s
Ġcomp an
ĠSe ym
Ġinf amous
ĠNorth umberland
sp ecial
ĠRob ben
Ġsil ly
Ġ196 2
isc onsin
ĠJam meh
Ġdark ness
ĠNathan iel
Ġpharm aceutical
Ġcongress ional
Ann ouncing
ĠDrake ford
C are
W al
d ydd
r hy
u um
in fl
Ġb aker
Ġf t
or f
or us
Ġd olph
ĠC it
est e
ĠT ru
man ned
Th ursday
Ġcontin ually
16 0
ograph ical
Ġtouch line
ĠGra inger
ĠOn line
cho ice
imp se
Ġec osystem
Ġgy f
ĠTunis ian
ĠJav ier
Mun ster
D ean
M os
a qu
s ided
as se
ĠT as
ĠW M
ĠL ab
Ġplan ets
Ġsl umped
Ġbreak away
Ġpick s
add ington
ĠHer rera
Ġeat en
Invest ors
Ġsoci eties
gradu ate
Ġnodd ed
ĠSeym our
I D
f en
w hen
Ġre formed
Ġst all
ĠL ille
Ġsh ine
Ġsp ike
Ġcl ergy
itt al
ĠV R
ister ing
Ġmen u
nes ota
Ġprop ose
ĠMor i
Ġste ering
ĠMal ik
ĠHealth care
Ġrefer ral
Ġadvert ised
Ġlog o
Ġreass urance
ograp her
with out
ĠEnvironment al
ĠDick son
Ġdisad vantage
Ġcondemn ation
Pass engers
ĠP as
ĠH ook
Ġsu ing
ak is
ek o
Ġli able
ĠV az
ĠMc Govern
wit ch
Ġgl ac
Ġjud ging
ĠPro secut
Ġir responsible
Ġlab els
Con or
ĠArch ibald
Ġtrail er
ĠMaur it
ĠWo akes
occ up
F oot
T aking
ha nder
ĠM anc
ig s
un precedented
ĠL oren
um bers
It alian
per fect
Ġinv iting
ĠUn esco
ĠMc Allister
Ġgl impse
Ġland fill
ĠMark ets
Ġbattle field
ask ell
Ġuns ure
Ġsle e
hie u
Ġreject ion
ĠLet ter
Net work
ĠRef uge
Ke ith
ĠButt ler
Ġdefer red
A th
h ig
at ible
Ġde gr
Ġsp ar
li o
Ġcont ests
ĠMc Br
ov istar
Ġreact or
ĠKe zia
ĠShi elds
Ġvacc ination
Cur rent
Ġserv ic
Ġdil ig
Ġcord oned
Ġseas ide
Ġumbrell a
Ġbesie ged
t ics
Ġb un
Ġp ob
ot es
Ġl end
ut ting
ĠC i
se ly
ian i
ĠCar lo
ĠRe ad
Ġcross ings
ĠTur k
ĠSam ar
ĠCha l
ĠGrand e
Ġdivid end
fix ing
Stri ker
O il
P an
Ġt ighter
Ġm artial
Ġre ct
im pro
ĠA A
Ġcl ips
ign ment
ount ed
act ing
Ġqu o
Ġunder lined
pr ints
iz za
Af rica
Ġsuper vis
ĠNor ris
ari os
Ġgen et
Ġanalys ing
Ġimpl icated
ĠCop a
Ġredund ant
raf ts
Ġstim ulus
ĠWolf sburg
Ġsup rem
Ġindef initely
Ġinjust ice
ĠHawai i
J ay
d aughter
Ġp enny
ĠS ou
ĠH ed
ack er
od ing
ud ed
Ġres usc
ass ed
Ġback room
Ġform ats
ex pected
Ġpo em
Ġroad side
Ġfield ing
Ġbirth s
Ġperm its
Ġemp ower
Ġhy giene
col oured
Ġaffili ated
Ġt ube
Ġst iff
ĠP ont
ĠT at
ĠL ower
um in
red o
ok er
ĠSt orey
ip zig
Ġwar fare
Ġdirect ing
Ġcol oured
Ġce ase
Ġes p
play ing
ĠPhill ip
ĠBet ter
Ġawa it
ĠWel beck
stad t
E r
T ory
r ons
en os
Ġb ins
ir l
Ġr it
pp s
Ġsu ited
ĠN A
ĠJ ill
Ġout law
Ġthem es
Ġinj unction
ĠSec ret
Ġart illery
Ġstrugg lers
Ġcru cially
ĠTy son
Ġtor ch
ĠHans on
Ġgentle man
oise ach
T echn
c led
r aged
Ġg ases
ĠG AA
Ġcl ouds
ays on
ĠSt ee
get s
ĠBr ight
Ġopp oses
ger ald
head s
Ġscore line
cl ist
Ġswim mers
Ġcollaps ing
Ġmax imise
F riends
Ġt ender
Ġt ongue
Ġs ack
es ar
ic z
Ġg ol
ĠC ounter
ow der
ĠB h
ĠP aper
Ġun le
Ġus age
ĠSt age
Ġfl ies
Ġpat ent
Ġhospital ity
ĠCol orado
Ġround about
Ġident ical
Ġdebut ant
ĠÃ ģ
Ġfault y
Ġnove ls
Ġcompar isons
ĠPlan et
ĠEthiop ian
Ġcig arette
ĠPun j
W ater
_ _
f u
v iol
in id
Ġthe ories
Ġl l
us p
oc ative
Ġover time
itt y
Ġnum er
ĠAr med
Ġph oned
Ġnet ting
Ġel abor
ĠCan al
ĠTe ess
Ġtro pical
Ġver ified
ĠLaw son
Ġsli pping
ĠStr ath
Ġwood work
ĠRay mond
Ġlad der
Ġpione ering
ĠSche me
Mus lim
ĠDod ds
Ġindict ment
wne ud
D erry
m oor
Ġy acht
ĠL ula
ĠG omez
ĠK ob
hamp agne
Ġball oon
ĠShe eran
Ġgun shot
Ġver ify
Ġtim eline
Ġhal ved
uls ion
Ġremote ly
Ġflaw s
Ġkidn ap
Down ing
ĠSana a
O NS
al ways
ĠW er
ĠF owler
ĠN ou
ĠN ever
ĠJ ermaine
ll un
reat ing
Ġacc laim
Ġ19 20
Ġworld s
Ġ11 5
Sha un
ĠDaniel s
Ġsilver ware
Ġreject ing
ĠOffic ial
Mal ays
Ġadequ ately
Ġnickn ame
Prot esters
Ġgrandpa rents
K ane
P ark
V ery
it ches
Ġd ywedodd
om o
Ġg we
ad ish
Ġst agn
ĠH BO
ĠD ock
ĠK yr
Ġgr asp
Ġche que
Ġbroad casts
Ġmis under
ĠPat terson
reg on
ĠEr n
ĠMod ern
Def ender
Ġappreci ated
Ġreli ant
Ġru ined
Ġinteg ral
ĠFull er
Ġeag le
Ġshat tered
Jur ors
Ġabort ions
C ost
S outhern
j andro
l uck
w omen
it iveness
st aff
ĠM ald
ĠC ald
os lav
Ġpro x
Ġatt racts
An ne
Ġexc uses
ĠWar wick
ai res
Ġbook makers
Ġhom icide
real istic
ĠJess e
Ġpoet ry
Ġvolat ility
ĠAleksand ar
Ġmiser able
m us
ol ves
ĠSt akes
man agement
ales e
Ġcur rencies
Ġdel icate
Ġ7 50
ĠBl ind
Ġadv ises
Ġform idable
ĠFor mer
Ġpract ise
udd y
ĠStr ong
ĠMcK enzie
ĠSant i
Ġcontain ers
pat ient
Ġalt itude
Ġneighbourhood s
Mah on
ĠBeir ut
P et
m at
on str
Ġb ias
is io
or ously
Ġl ayers
ĠM athe
Ġhe els
Ġwas t
us ch
Ġgrow s
com pet
ĠBe g
Ġsens ational
Ġflag ged
Ġsun shine
Ġbra ke
Ġradical isation
ĠBarcl ay
Ash ley
Ġw is
il ise
Ġl ighter
ĠS ound
ĠM acedonia
ĠW isconsin
ĠL lywodraeth
end y
rent ice
Ġdep ressed
ex c
rie ved
ĠFl oren
Ġovers aw
ĠCastle ford
ĠMcIn tyre
Ġgro in
ĠAngl ia
Ġprejud ice
Ġtatt oo
D y
P ope
ĠS ime
ĠS omme
ol ics
ĠB un
Ġth riving
Ġr han
ke i
Ġjust ification
Ġunder pin
Ġam nesty
Ġbro ker
eb an
Ġocc urs
Ġtrust ees
Ġnegoti ator
ĠPeter head
Ġpromot ions
Ġansw ering
Ġsn atched
ĠHen rik
ĠNeil son
War wickshire
Ġru ins
ĠLav rov
ĠRenfrew shire
Ġlaug hed
M el
O nd
d ominated
n ydd
in ally
ĠD ead
Ġsu ck
Ġcl amp
Ġun answered
li ad
we re
Ġshot gun
Ġspec im
Ġcard ed
Ġencour agement
Ġsat ir
Ġfix ing
ĠNort on
ĠGill espie
Ġdisag reement
Ġconven ience
big gest
Ġredund ancy
ĠToul ouse
Ġconscious ness
Ġax e
Ġbub ble
Ġautom ated
ĠWinc hester
adish u
C ap
D ue
O M
u ers
ar ians
ĠT os
ĠR us
ĠU UP
Ġsp ate
Ġche ering
my ra
sp ot
BBC Amos
Ġdest ined
Ġbal con
Ġang en
Ġdefin ing
Ġoccup y
Ġprospect ive
ĠSerb ian
writ ing
Ġje opard
Councill ors
ĠCatal an
ĠNap oli
ĠGem ma
icular ly
Sent encing
T ime
i ated
l it
Ġt urt
re cy
ha ven
Ġm ac
ĠI ss
ĠR ath
ĠK oran
Ġfoot steps
con i
olog ne
Ġrepl icate
ĠMay o
Ġinter action
Ġmar ijuana
Ġdist urbed
Ġnegoti ators
Ġbow el
ĠSil icon
Ġhang ed
ĠAtl anta
lip se
sm all
Israel i
ĠLind a
ĠMcCl aren
Ġcorrid or
ĠTele vision
Mer cedes
Ġeld est
enk amp
G e
O P
R h
S ch
n ell
at ra
il o
Ġn ail
Ġl ining
Ġl osers
ĠB A
ĠR upert
se vere
Ġfl ower
Ġinf lamm
Ġdi ary
Ġquick est
200 5
ĠIm migration
Trib utes
w ch
Ġp ills
id h
Ġhe mis
ĠC itizens
han na
Ġcl ocked
Ġ20 25
Ġar rog
Ġfe ud
Ġret rial
Ġwar rants
ert o
Ġsm okers
Ġgl oom
ĠDe utsche
che str
ĠEm b
Ġsuspic ions
Ġsail ors
Ġbell s
Ġinher it
Ġinterfe re
Ġhect ares
D R
W enger
k an
in ers
Ġc ried
Ġin stitute
op ic
Ġpro state
Ġsc out
Ġbefore hand
gan non
Ġinvestig ative
Ġgl am
Ġsol ved
hic le
ĠBur ma
Ġsurger ies
lad bach
Ġkne es
level s
Ġment or
ĠKn ock
Ġrefurb ishment
atis fact
C S
H ong
m ist
Ġp y
ou i
Ġbe e
Ġr ats
ĠH off
ĠH ardy
Ġwor ship
Ġun stable
ĠSe pp
ĠSe attle
Ġdefe ating
ĠAm ir
hold ing
Ġassist ants
Ġstress ful
Ġut ility
ĠOper a
Ġinfect ious
Ġdesc ended
ĠGael ic
Glouces ter
Ġexped ition
Ġconsc ience
Ġfict ional
aum ont
l ived
t ank
on ville
Ġd ot
ĠC yr
et hau
ĠP R
ĠF un
ĠLe ighton
for cing
Ġexpl ored
Ġprogress ion
Ġvan ished
Ġobs erve
ĠDam ian
ĠHard ie
lar ge
Ġadvoc ates
Semit ic
Ġvar ied
Inspect ors
ĠBlaen au
9 4
L y
L ear
d angerous
f oc
h ouses
j in
Ġd war
ĠI owa
ĠH ut
Ġar ise
Ġcur ious
ĠCar n
raw l
Ġadm ire
Ġur ges
Ġur anium
ĠSal isbury
Ġtight ened
Ġspr inter
ĠFitz gerald
ĠHans en
ĠMog adishu
i ors
Ġo ceans
am ac
op les
ist ing
ĠBBC Newsbeat
Ġhigh way
ĠBut ter
ex pl
ĠGu zman
ĠPh oenix
ĠSte enkamp
Ġreb uilt
Ġmidfield ers
ĠFor ster
ĠRic a
Ġlif elong
ĠAcc ounts
Ġvari ations
ĠSudan ese
Ġhabit ats
ĠGil bert
ĠIndust ry
Ġleaf lets
ĠKuwa it
m ont
Ġc ensus
Ġp add
Ġin mate
Ġm ates
Ġd ental
Ġcon vey
ĠH ep
ĠH ollow
ĠG lyn
iv ists
Ġout we
mer cial
ng en
Ġcar riage
har an
Ġbusiness men
Ġdem ise
Ġwa ved
ho ea
ĠSam son
sc oring
Ab d
Ġconserv atives
Ġthr ashed
Ġlung s
ĠSche ngen
Ġmamm als
Ġtelesc ope
Ġsimultane ously
f ired
Ġs urn
Ġl amb
Ġhe al
ĠH aj
Ġpl ates
Ġab d
In t
Ġcount less
Ġbank er
ĠEx per
Am azon
bro ath
Ġrestrict ion
Ġscen arios
Ġhy per
Ġsymb ols
Ġsurge ons
Ġho ax
Add ressing
vet te
Ġbru ising
Ġmaj ors
ĠBud apest
1 10
L ean
g ios
Ġfor ged
ĠB ates
ĠA ch
ĠL odge
ĠG odd
Ġind isc
stit uted
ĠMin nesota
ĠGre ig
Ġsever ity
ĠNews round
edd ed
ĠYear s
Ġunus ually
ĠHod ge
Ġvac uum
ĠBos nian
Ġacceler ated
Ġalter cation
ĠYous af
Ġbicy cle
cig arettes
pell ier
Ġadvant ages
a pped
w ord
in atory
ĠG upt
ĠV il
ĠV iv
ĠY aya
Ġfl ick
Ġ22 5
ĠSte ff
ĠPol icing
ĠSo ares
Am nesty
ĠBre con
bet ter
ĠBrand on
Ġunfold ed
gov ina
L N
S ams
m il
ĠP ir
ĠT han
ĠN ike
Ġdown gr
ĠHe ading
Ġret ros
pr idd
Ġprev iew
Ġfather s
Ġste er
ĠSha dow
ĠMus k
ĠBen zema
ĠTom kins
Ġcorrespond ence
Ġuns ustainable
ĠRam adan
ĠConn ect
ĠBed ford
Tw elve
Ġmyster ious
Ġrevel ation
inj iang
Ġhelpl ine
Ġpaediat ric
D am
D ata
S ing
T ens
T rain
i ya
Ġo rient
al most
Ġl av
ĠM age
am ant
ĠP om
ĠE wing
qu iao
li ant
ĠLe ipzig
Ġco operation
omp any
Ġprotect ions
Ġrestrict ing
Mic hel
ĠReg ional
ĠTa unton
Ġfat igue
Ġphotograp hers
Ġrestrain t
Ġdinos aurs
Ġrom antic
L E
M od
b ands
d et
v ig
v iv
Ġm ant
Ġh ind
ĠS upporters
ĠB ingham
ĠT fL
ĠL em
Ġme re
man e
Ġass ure
ĠĠĠĠ ĠĠĠ
Ġarm oured
Ã¡ il
ĠMot ors
ĠJar vis
Ġinex per
Ġprote in
J ac
ĠS S
Ġst umps
ĠA me
ĠT roy
oc ating
pl anes
ĠMc Hugh
oul try
ĠBr onze
Ġcost ume
Ġcompet itiveness
ĠSw ann
lin er
Ġspecial ised
Ġbas ement
Ġer r
ĠMcG owan
ĠDick inson
ĠLyn n
ĠVill age
Ser b
Ġshr ine
ĠCoul son
gre aves
Hen ry
ĠThr ones
T hames
d est
e ven
g il
Ġb ury
or ient
and ra
ĠD ol
Ġend anger
ĠDun ne
Ġsatisf y
Ġprin ting
ĠGM B
ĠCars well
Sams ung
H R
b ay
Ġt ents
as ia
ĠC af
ĠC umber
ur able
ĠP opular
ĠL und
ĠH anc
Ġv ind
ĠO regon
li hood
Ġper verting
ang ling
Th ompson
ĠWe ather
ann i
Ġur ine
Ġel bow
ĠSm art
ĠMcC onnell
Ġcommission ing
Ġesc orted
ĠCa ernarfon
ĠHor ne
ĠKirk c
uis ance
fant astic
Ġbrig ade
amac are
f re
p ublic
r ays
Ġt ab
it on
Ġd re
ĠS essions
ig ating
ĠT hank
ĠL ot
Ġse amer
ĠK urt
ĠMc E
ĠBr am
Ġhand ball
na eth
Ġvir uses
pre p
ela ide
Ġcalc ulations
ĠCop enha
ĠLeg ion
Ġsequ el
ĠCopenha gen
9 1
B er
W ould
c ore
re ction
en ess
ut ors
ac hie
ĠS r
ĠC ech
ĠE y
ĠE du
ĠF ly
Ġpro stitution
ip hate
Ġsur gical
Ġrepl ica
Ġsw ap
ĠChar tered
ĠCr om
ĠWil fried
Ġpun ching
Ġrefer rals
Ġcat ches
Ġpen ultimate
Ġhyd rogen
Ken ya
Ġfare well
Ġnit rogen
B ang
f lo
Ġt ill
Ġc ivic
ĠM off
ĠB uilding
us a
ĠT ak
ĠT aff
ĠN aur
ĠO u
ĠK od
Ġrep aired
Ġra pper
Ġreal ising
ĠCor ps
Ġcandid acy
ĠAll oa
200 6
ĠSol ent
ĠFrank lin
Sp urs
ĠHear n
ĠKurd istan
Ġec st
Ġcart el
w s
Ġ âĢľ
Ġw ives
ĠS ection
hat tan
ĠT yd
ĠL id
ĠD yn
ĠSt ubbs
Ġunder dog
Ġind o
Ġcr ises
Ġ10 3
Ġprot ocol
Ġref uses
Ġsol itary
ĠBe es
Ġunderstand able
Ġclass ical
bour g
Con cerns
Ġcongrat ulated
Ġflour ish
Ġpopul ist
ĠSach s
R oyce
g age
s omething
u ating
Ġh ike
Ġst raw
ĠW oman
ĠE am
ĠN BA
ren s
Ġoff line
Ġbo bl
Ġins ect
Ġinf ilt
fic a
Ġens ures
Ġple ading
ĠSam my
pro bably
ĠRed knapp
Ġassoci ates
Ġir rit
ĠArgy ll
ĠFal etau
ĠCow an
Be ijing
Ġassemb led
L iving
M W
u ber
Ġa ch
en y
is able
Ġp ap
ĠC and
ĠB omb
ĠB iden
ĠH utton
ĠE ug
ays ide
ĠV as
Ġter rifying
Ġpo ised
Ġsqu ir
Ġground ed
Ġste ered
ĠWil lett
Ġcrowd funding
Ġcharacter istics
sha ped
ĠNic ole
ĠBal otelli
ĠRom elu
pret ty
Ġmit igate
Ġbund led
Ġproc urement
ĠMerc ury
lah oma
ĠPok emon
Ġt ick
ic ity
Ġh int
ĠS ax
ĠL om
ĠH es
ts on
Ġdown ward
ĠTh or
ĠAl ves
ĠBar rett
Ġfrequ ency
Ġresist ant
Ġsymp athetic
Mill ions
Ġcontroll er
Ġtransl ated
Ġimmense ly
Ġintr ud
Ġirregular ities
Claud e
Ġplum met
B al
B ill
b oth
ĠL it
ree p
ens en
ile m
ĠLe isure
Ġass umption
Ġtrans it
Ġfore hand
go ers
Ġproduct ions
ĠMor ales
Ġty coon
ĠHol ly
Russ ell
ĠGold man
ĠMull ah
Ġcoinc ide
Ġho ard
Ġconting ency
Ġderel ict
D ow
o os
r ab
w es
z yn
Ġo ath
Ġe in
ĠC ord
ĠH ub
od a
ĠK ids
Ġqu itting
Ġdec ree
Ġwar mer
ĠSouth wark
ĠPar a
Ġsit com
Ġlive lihood
Ġindivid ually
Ġblack mail
Ġstation ed
bed room
Ġhom ophobic
ĠDef oe
bel ief
Ġshell ing
ĠBeck ham
ĠAid an
Ġemotion ally
Sev illa
ĠBash ir
Ġovercrowd ed
iena ar
P ac
S et
r ine
Ġa ven
il isation
Ġre organ
ur bs
ĠL ump
Ġle an
ice f
ign ant
Ġen rich
uc hess
aw az
ĠUS S
Ġsur ged
Ġ10 2
Ġcomple ment
Ġinst alling
Ġsw at
ĠGu atem
Ġcult ures
ĠKar achi
ios ity
abul ous
Ġearthqu akes
Ġdict ators
ĠPers ie
Ġdesp air
Ġinterpre ted
ĠVern on
U ber
h ous
z mann
Ġw ishing
al ians
ro e
ĠM iguel
ĠA ires
ĠR out
ĠF O
ĠF ine
art et
um ably
ĠK ru
fe rendum
Ġch im
Ġco pper
Ġdef ects
Ġret ains
Ġcy bers
ĠChar ity
Ġmeasure ments
rea ved
ĠHa iti
ĠYemen i
Ġoutrage ous
ĠMahm oud
ĠStephan ie
cheng ladbach
ĠTeess ide
E ventually
d etermin
h op
m or
Ġw aving
Ġc age
it able
Ġbe reaved
Ġh id
ĠR id
ĠE ri
Ġsp at
Ġbr icks
ĠMc Mahon
ah ino
Ġposs ess
Ġbad ge
ĠPh ys
Ġlif ts
Ġcollect ively
Ġtem po
Ġrow s
Ġhopef uls
vis o
ĠCath olics
Ġfrag ments
Nottingham shire
ĠUt d
Ġwhistlebl ower
Ġrespir atory
ĠStee le
M ot
i orent
ed uc
Ġf ren
Ġp istol
le ine
Ġg rit
ĠS ke
ĠR ice
ĠR av
ĠH ors
ĠE llen
Ġout ing
ĠK inn
Ġso ared
ris coll
ex p
Ġhost ility
Un ite
ĠBel grade
ĠPri est
Ġsun k
Ġflo ors
ĠHy de
Ġtouc hes
riv ation
Ġunif orms
Ġcook ies
Ġastrona uts
Ġmidw ives
Ġcancell ation
Ġhazard ous
N ed
Ġf et
Ġd itch
Ġd uchess
Ġr upt
ĠW SL
ĠG ros
ĠF M
Ġfl uct
ĠTr uss
Ġcare r
Ġhealth ier
Ġthird s
ĠGer ald
Ġpres iding
ĠAm anda
eder ations
Ġprofessional ism
ateg ic
Ġliter ary
Ġmagn etic
Ġmechan isms
mir al
Ġlandl ord
Ġtempt ed
ĠFil ip
incred ibly
Ġsummon ed
ĠPrit chard
A le
C ertainly
D utch
E leven
G rant
L aura
P F
T our
Ġc ush
ĠC us
ad ou
ag ainst
ĠL ic
Ġv end
Ġad amant
Ġun just
Ġme g
cl usive
lo o
ĠX V
Ġ36 0
road s
ĠSher wood
ĠShar on
ĠGal way
ĠBat man
Ġfract ures
Phil ip
Ġsup reme
health y
iorent ina
c ritical
f ur
m oney
n au
Ġs napped
is en
Ġm ould
Ġd ump
ĠB ordeaux
ĠR utherford
ĠG ent
Ġpl ac
Ġgo d
Ġor chestr
Ġcar avan
app er
app ointed
ĠHar man
Ġren ov
ĠRed mond
worth y
Ġradical ised
Talk s
Call um
estab lished
ĠRig by
Ġceremon ies
Ġinha bit
ĠHeb do
Ġovershadow ed
ĠTitan ic
ĠGodd ard
P riv
Ġt sun
ic r
Ġre liance
ĠC apt
ĠI z
ĠR aw
ĠF us
ĠF inals
ĠJ ob
ĠK ad
Ġint imate
ob o
Ġacc ol
ap o
ĠTh ur
Ġown ing
rug by
Ġmod elling
igr ant
ĠEx cell
Bar ry
ĠShan non
ĠSher idan
ĠMorris ons
Ġcann on
cut ting
ĠPay et
Ros berg
ĠRank in
Ġsanct uary
A us
T rad
g encies
ĠM ang
ĠD iane
Ġsp ur
Ġass ists
Ġrel ocated
eal ous
Ġban ners
Ġsol icitors
ung a
bl ood
Ġ195 9
fund ament
Work ing
Ġpip es
Ġna ive
Ġmosquito es
ĠSamp son
uten ant
ĠNurs ing
ukov ych
Foot age
L L
S upt
s by
Ġm ansion
el ia
ĠB eth
ĠI HS
ĠT off
Ġ2 20
ant an
Ġsc o
ric ia
Ġgu iding
Ġfil ing
Ġfore most
Ġ11 2
int age
ĠPl ayers
ĠQu ay
ĠGood ison
ĠMcK e
ĠMont real
Ġlit ter
Ġfierce ly
Polit icians
ĠProp het
Ġdisreg ard
S ales
p oor
t n
Ġre per
ir us
ad minist
ĠK uala
Ġpol y
Ġqu ota
ĠTr ain
Ġdeal ings
Ġprot ects
Ġhand c
Ġrest ed
Ġrest arts
ĠCan nes
Ġdomin ating
Ġcasual ty
Ġaccompl ished
devast ated
Ġsubsc ri
ĠTyd fil
E nergy
Ġthe r
Ġd ancers
ot he
ĠL ub
ĠL afferty
ĠN ar
ĠU pper
ist ered
Ġqu ote
Ġexp ire
Ġinter active
ĠAn nan
Ġorgan ic
Ġemer gence
Ġbill ed
Ġsuper star
Ġren amed
Un ivers
ĠAlb ania
Ġmer its
Ġstret ches
ĠCorn ish
ĠMiss ouri
ĠRow ling
Ġ194 8
ĠStock port
terror ist
ĠFell aini
ĠPunj ab
U T
b irth
c os
x on
Ġp iano
Ġd ilem
ic ans
id ane
ĠS aj
ec astle
Ġle ather
ond ur
ĠK ov
Ġinv ented
Ġter r
Ġche at
Ġmarket place
ĠSport ing
Ġtransfer ring
Ġgen ius
Ġconced es
ĠCy p
Ġsubsid iary
comm on
ĠKir ch
ĠCoul ter
Bay ern
Ġfert ility
Ġhemis phere
J eff
Å µ
he el
Ġd ived
ĠM um
Ġcon ferences
ĠT ogether
ĠR ising
ĠE w
Ġor phan
Ġun official
Ġres ent
ass ing
ĠUn ison
Ġinter rupted
Ġfore see
Ġbank ers
ĠPat ri
ĠFranc o
Ġdemonstr ating
Ġmanif est
ĠBu enos
ĠDes mond
Ġunex plained
ĠNik kei
Che ck
Ġengulf ed
ĠDoc herty
ĠEntert ainment
4 50
p op
Ġw naeth
Ġf ences
ve red
ĠM ins
ĠB C
Ġr am
ĠP ole
Ġcom et
Ġsp ite
per or
wn g
ink s
Ġcar ved
ug s
ĠCon stitutional
ĠCourt ney
Ġdesign ers
cha nd
Ġpersonal ised
ĠDave y
Net herlands
Ġsew age
Ġvandal ism
ĠLump ur
S witzerland
f its
he ast
ĠC wm
ĠD iv
if teen
Ġplay ground
Ġbl asp
Ġdef raud
Ġexp orters
ĠAd elaide
Af ghan
Ġer upt
ĠCha pp
ij n
cont ent
Ġcondem ning
Ġparent al
Ġregret ted
ĠNev ada
ĠHeading ley
C hamber
a a
p ine
v able
ĠM uk
ad vert
ec a
Ġst a
ĠB av
ĠH yd
ond o
Ġun identified
Ġend less
Ġter rified
Ġmen ing
Ġsl iding
Ġlow s
Ġmanufact ured
ĠAle jandro
Ġshel ves
ĠIvan ovic
Ġadministr ator
PM Qs
Ġsanction ed
ĠYan ukovych
Ġgymnast ics
E st
Ġw reath
Ġst aggering
ĠR olling
Ġsh ipped
Ġsp illed
Ġup wards
ft y
ty pe
Ġsing led
ĠMan hattan
ĠEx pl
Ġill icit
Ġrob ber
ĠRh yl
Ġlit res
ĠLis burn
Ġreserv oir
ĠForrest er
ĠSpot ify
B ry
P olic
o ft
Ġd ash
le v
ĠC ond
Ġy ma
ĠD isc
Ġj oking
Ġcontin ental
ĠTr acey
Ġput t
Ġvis ibility
Ġbuild s
Ġproblem atic
Ġbook ings
Ġunderstand ably
ĠMcC lus
Ġpract ising
Ġpromot er
Ġrev oked
14 0
Ġremember ing
ĠSu z
ĠFal cons
Ġexclud ing
ĠKil bride
ĠAid en
ĠProv ince
Ġsumm ary
L ittle
R adio
S utton
T re
f ri
g s
p res
en heim
Ġf ib
Ġha em
ĠC MA
ĠR ak
ĠR eck
ĠH ain
Ġun sc
Ġcur ator
the tic
raw ling
Ġfall out
Ġsing ers
Ġhost ilities
ĠEast bourne
Some one
ĠPal myra
bo ards
Ġcommer cially
ĠChristian ity
ĠEs a
Ġdevast ation
Ġobt aining
ĠSpe ed
Ġunexpected ly
Ġquant ities
ĠPot ts
Ġhurd le
Ġnut rition
Ġdinos aur
ĠErit rea
W A
Ġl ump
ĠC ron
ĠC iaran
ul in
ĠG wyn
Ġse vens
ra pe
Ġpr one
ĠJo an
Ġstr ained
pr ises
ĠHar greaves
Ġneg lected
Ġide ological
Ġcirc ulated
ĠX injiang
Ġresc uers
ĠJohan na
ĠJacob s
Ġtransm itted
ĠSystem s
ĠWag ner
ĠTyn ecastle
Ġemphat ic
l is
er ts
ĠS FA
ĠH ave
ĠH oms
ĠD ise
ĠD eal
ĠN CA
ble m
Ġsl ashed
ĠPar ish
Ġpat ri
Ġtit led
Ġsk etch
Ġpled ging
cont ract
rog ate
aze era
Ġfalse ly
Ġborrow ed
Ġvac ancies
Ġbrut ality
Ġtum ours
Hel en
Cust omers
A part
F orm
K onta
e ight
j en
Ġ âĢ
Ġb io
Ġc roc
ha ck
or ah
it ative
Ġon board
ro it
est ing
ĠG ale
ust in
se en
Ġor al
ne um
Ġconf using
Ġschool boy
Ġmark er
min ton
ins pired
ĠCha nd
ĠJon as
Ġdig ging
Ġvers at
ĠPet r
Mc L
ĠNa omi
ĠWhe eler
Ġmas ks
ĠCirc uit
HM RC
ĠEngine ering
Ġintrig uing
Ġresh uffle
Chamber lain
T I
ha zi
Ġre duces
ĠM ong
ĠB B
ĠA qu
ab el
Ġ20 50
Ġpr iced
ib ar
Ġro ver
ĠV igo
Ġret ake
ĠCal um
ĠMu eller
Sp anish
Ġfatal ities
Ġmir acle
ĠMcN amara
ĠAT P
Ġelabor ate
R ay
f ought
f ounded
l ength
en o
Ġl ly
ĠS ame
ag ua
red ited
rou ch
ub s
ens haw
ĠIt alians
Ġauthor itarian
Ġpo aching
ĠSam antha
ĠSal t
Ġdangerous ly
Ġtight en
ĠProt est
Can adian
ĠBrother s
ĠMead ow
tim ore
Ġcub ic
b ags
g ot
in ational
re ira
om be
ac ock
ĠR ound
ĠE ach
fe at
ĠZ am
Ġpop ulated
Ġspecial ises
ĠGu ards
Ġweak en
ĠHel mand
Mc Ilroy
Ġthank ful
Ġpool s
ĠElect ric
Ġlegit imacy
Ġefficient ly
ĠSale h
Ġencl osure
ĠWid nes
Ġet c
d ig
m ars
Ġo vation
or ig
il ion
ad os
ri ver
ĠW ald
our cing
ĠE asy
ĠJ ans
um mer
Ġsp ear
Ġout er
ĠSt ill
Ġbl ames
So on
ĠBe aumont
Ġfre ight
Ġrespect ful
12 5
Ġselect ive
ĠOs lo
ĠMed al
Ġtight ly
Ġadj usted
ĠBow en
Ġconspir ing
Ref erring
oros henko
ĠIV F
Ġstub born
Ġwis dom
Ġbalcon y
6 50
F err
P ol
r att
Ġhe ights
un z
ĠP ugh
ĠT err
ĠW BO
ĠL ov
ĠR HI
Ġbut t
Ġsp ine
Ġend ure
az or
wit z
ĠOlymp ian
Re illy
Ġpur se
Ġrev amp
Ġemb edded
Ġhor izon
Ġweak ening
ĠNort hants
Ġspons ored
ĠMass a
ĠKn ights
ĠFred er
clear ly
ĠFind lay
ĠBoliv ia
Ġdetrim ental
Ġaval anche
foc used
h unt
t w
ĠM ats
Ġsa vers
ĠB ilic
ĠN obody
ard e
Ġun manned
Ġres idency
per ty
Ġstat istic
Ġcoll isions
ĠEl gin
Ġcomb ining
lus coni
200 2
CC TV
ĠRam adi
Ġdrag ging
ĠInf ant
fig ure
ĠMonmouth shire
ĠQuint ana
G od
L ow
l if
Ġt ang
Ġr he
ri pp
ĠD uring
if iable
ĠU tt
li ps
Ġrem atch
Ġ10 4
Ġ12 9
Ġche ered
ĠSm alling
Ġjail s
ĠPer kins
Mar ie
Ġrein forced
Ġemphas ise
ĠFal con
fa en
Ġcontam ination
ĠFrances co
ĠMcBr ide
j ar
l le
Ġs ung
Ġh ier
Ġse ism
Ġup stairs
ĠLe go
ĠAr ms
erv ation
ĠMark it
Ġmis led
Ġpropos es
To o
Ġbat tered
ĠTim othy
Ġesc ort
Ġadop ting
Ġexplo iting
ĠReg ion
rup ting
ĠBry n
ĠLes ley
Ġturb ulent
Ġescal ation
Rel atives
ĠGuild ford
ĠCock er
Ġembro iled
Ġwhit ew
T ogether
p ath
ĠM oul
ĠC ologne
ĠH aving
ok ia
Ġout let
Ġun cover
ĠSt art
Ġshow ers
Ġdep rivation
isted d
sh ocking
Ġcy hoedd
Ġblock ade
rie zmann
ĠComp etition
Ġconcent rating
Ġut most
ĠCont in
Ġspin ners
Ag ainst
Ġbureaucr acy
ĠLans down
Ġtriump hed
ĠFloren ce
. )
O scar
Ġg host
ĠS of
ĠA Q
and ered
ĠT ud
ĠF en
od af
Ġch ol
Ġear ners
Ġear ns
att ached
Ġgr abs
Ġmid st
ĠSw imming
ĠRob ison
Go ing
Ġreact ors
Ġdig it
ĠMe gan
Char les
Ġreop ening
Ġoutbreak s
Ġfract ure
ĠId lib
Ġdisrupt ive
Ġdivid ends
Ġencry pted
rank ing
ĠBloom berg
ĠMes ut
Ġlik ened
ĠMcClus key
C ong
M u
he ed
ha p
Ġp umped
ar is
as d
im ity
ad ians
ĠP oroshenko
art ime
ud a
Ġun capped
we i
ĠY as
Ġshow c
ina pp
Ġla und
Ġtest ify
ann ah
Ġwalk ers
Ġcreat ure
Am id
Ġsens or
prof essional
ĠBu y
Ġtow ers
Ġtur f
Ġdict ator
ĠFel ix
ĠMold ova
Ġtsun ami
odaf one
G V
Ã º
Ġn uisance
ĠC our
Ġan gr
os i
em ate
ĠP ink
ĠD og
Ġout set
ĠK ou
li an
Ġsince re
Ġprev ents
ph is
ĠMay n
ĠZ aha
Ġpot ato
ĠFor far
Ġnetwork ing
200 4
ĠDun gannon
Ġring ing
Real ity
Comp anies
ĠOk lahoma
ĠInn ovation
Ġsympath ies
dri ven
emer gency
rhy w
Ġangr ily
D ivision
J ane
M ary
V ir
f aced
g iving
Ġal armed
ĠG ol
ĠK ag
ĠSt acey
ib i
Ġen quiry
Ġdown s
Ġpar amount
Ġinst al
Ġfear ing
ĠEl ton
Ġren ts
ĠAng ola
ĠMat hieu
ĠMcN ulty
Ġincons istent
W as
d uty
n ames
re aching
Ġs i
er get
Ġl ions
ĠM itch
Ġst if
us ions
ĠP irates
Ġun equ
Ġen erget
ob le
Ġro gue
Ġlong standing
Ġpar ach
Ġrest ing
ĠWest ley
Ġfootball ing
Ġmet hane
Ġprocess ion
de g
Ġbad gers
edd y
ocu mented
rop he
ĠZealand er
Offic ial
Ġtermin ated
ĠTa it
Ġcry pt
War rington
Ġobst ruct
Japan ese
Ġscept icism
ĠCatal onia
ĠOliv ia
ĠKel vin
ĠUC I
ĠGul en
ĠPonty pridd
ĠNaur u
B ro
H T
r ans
ĠC ell
Ġr ib
em pl
op he
ĠH istoric
ĠJ ol
Ġover l
Ġall ocation
reat ment
Ġfoot ing
ank s
Ġgu ides
An ton
Ġgener osity
ene gro
pro g
ĠGreen wood
Bl ues
Ġep ile
Ġtim ber
ĠMcK enna
ĠSher lock
Ġcorpor ations
Ġapart heid
wa ite
Ġdistrib uting
ĠDes ert
Ġsupposed ly
Ġgradu ated
Ġguitar ist
ĠDimit ri
Hug hes
Ferr ari
D rivers
R MT
f ighter
Ġt ablo
Ġb oring
Ġp oultry
at ical
ĠC onduct
Ġr age
Ġcon stitute
Ġdis asters
Ġapp liances
Ġqu ashed
Ġmed i
Ġimpro per
Ġdist ances
ĠCor onation
ĠRic ardo
Ġstre amed
Pl aying
Ġplant ing
Cl ick
ĠWall abies
Ġoccur ring
Ġevac uate
ugg age
oj e
mand u
ĠFir min
Ġcharism atic
N ato
t ham
w g
Ġp neum
Ġl ib
ĠP ell
ĠT ol
th ood
ĠD ai
Ġsu e
Ġv i
Ġv ault
ens ity
Ġbeing s
Ġper il
Ġimp aired
ull a
Ġsm ashing
ĠCl iff
Ġ11 8
Ġdest ructive
like ly
ĠMcG hee
Ġshar ks
Ġdig wydd
Ġsurround ings
ĠAli baba
Ġcat alyst
Ġmer cy
ĠPen a
Gl obal
ĠShar ma
Col omb
Ġvari ation
rav o
Midd lesex
ĠCard inal
Ġretali ation
Ġende avour
Ġmunic ipal
Ġaggress ively
% ).
D B
H ara
Ġp its
ĠC ode
ĠC ouncill
ĠP oul
ĠP ienaar
ĠL yle
ct ional
Ġv ague
ack et
ĠJ erry
Ġcl ue
Ġreg ener
Ġass uming
Ġcamp ing
Ġann ounces
ĠZ ar
ĠRe illy
Ġfun ctional
oper ated
win ner
Ġunf it
ĠHel p
ĠHay den
Ġspect acle
ĠAv iva
Ġsyn ch
Ġprosper ous
Ġsalv age
ĠWils here
ipur ic
Rog er
E ff
F amily
G S
R oman
a it
i i
r ar
s u
Ġw artime
Ġb ump
Ġp ounced
Ġbe ts
Ġl uggage
Ġg wneud
ĠP ast
ĠH omes
ĠN intendo
ĠJ as
ry ch
anc o
ind ependence
co aster
Ġ24 0
Ġheart breaking
Ġcomment ing
ĠDemocr acy
ĠOb amacare
ĠAfghan s
Ġpath s
Ġhall s
rific ation
ĠTaiwan ese
Ġsculpt ures
ĠRevolution ary
Ġpir acy
Ġia wn
ĠCum mins
ĠDmit ry
f ood
h tar
or st
Ġm im
ac comp
ad z
ter weight
ĠB rem
ĠH ood
ĠN eal
ĠU ll
ĠY u
ip ts
Ġstat ues
br and
crib ers
Ġadm ired
Ġaccording ly
Ġsw earing
Ġconsult ations
Ġpromot es
Ġdetermin ing
Ġadvert is
ĠSk ills
ĠLes lie
ĠRad cliffe
Ġdistract ed
Lead ing
prov oked
Ġrecapt ure
Ġtire lessly
ĠEuroscept ic
Ġinaccur ate
ĠMadd ison
g ang
Ġs icr
Ġc ogn
ĠM igration
ĠD ane
ff e
so on
pl ain
Ġter rain
ĠBr unt
ĠIs mail
ama ha
Ġaw esome
ca o
ĠTur ks
Ġabs urd
rain e
ĠBank ing
ĠBrad shaw
Ġsubm issions
Ġ194 7
ĠDy ke
Ġarchae ologists
ĠResp ons
ĠSanti ago
ĠEri ksen
D riscoll
l ic
m ered
t hed
t imes
Ġa il
in terest
Ġd ancer
il io
ĠR at
ĠD elta
ist ance
Ġor chestra
Ġte ens
ob y
ap le
Ġend orse
Ġmy nd
Ġext inct
Ġintern ally
ĠGl ass
Ġ11 7
Sub stitute
Ġmot h
ĠOr thodox
Ġloan ed
Ġclean ed
ĠOs man
Ġcharacter ised
Ġwind ing
Ġmer ged
Ġtrend ing
Ġblow ing
Ġ195 3
lu ent
Gu ard
Ġlad ies
ĠMik el
Ġfer oc
ĠKath mandu
Ġannex ation
Ġbarg ain
Ġplag ued
C pl
V iew
d eb
Ġa rose
en han
Ġp ouring
Ġat e
ĠW RU
ĠR ot
ĠE ss
ĠG rove
ĠK iss
ĠSt ranraer
ne ider
ĠAl uko
Ġrece ipts
ĠSp it
ĠWh ites
ĠGu ang
ĠGu inness
Un less
iet o
ĠEm m
asc ar
Ġwood s
Ġmicro sc
Ġextensive ly
Ġanticip ate
Ġmour ners
Ġstabil ise
Worces tershire
accomp anied
F ord
J ess
V oters
W ayne
g ay
m ese
o itte
ĠS ut
ĠC F
el o
ter ior
ĠE DF
ast ed
Ġser geant
ĠV ery
Ġcr acking
Ġfinal ist
Ġdevelop s
Ġdeb ating
Ġwa its
Ġbatt leg
Ġlack s
Le on
Ġbat on
ĠIndian a
Ġsn iff
ĠBal tic
Ġdiscover ing
Ġpig s
ĠRal ph
G ar
e i
s i
v oc
Ġb end
id is
ol ese
ĠB enson
ill as
ĠP enny
ĠH ockey
ĠG om
Ġv oid
ab al
ra ught
ens ual
ap olis
Ġmon ster
ip her
Ġsuc c
Ġche ers
af ur
ivid ual
ĠMan u
Ġaut o
Ġ27 0
ĠNot hing
Ġtrad er
Ġcriminal ity
Ġdelay ing
Ġhack er
ĠBoy cott
ĠFrank ie
Ġvast ly
ĠAcc ies
Con f
ĠDirect ion
ĠSqu ad
Ġ194 4
Ġtransl ate
fr ame
Ġovert aken
Ġenthusi asts
Ġju ven
Ġworksh op
Ġprototy pe
istedd fod
l ittle
Ġc ordon
or o
ic hel
ĠC omb
ill usion
Ġr ip
ul ing
ĠN el
Th ird
ov ich
app rop
Le igh
sw inging
Ġmult inational
Ġtrou bling
erm o
Ġblast ed
Ġec lipse
Ġexplicit ly
ĠTrib unal
ĠRiyad h
Mex ico
Ġboo ed
C roat
n ik
u h
w yl
Ġb enc
Ġb atch
ĠC art
im an
ĠG ut
Ġpl ots
ate gy
ĠK ompany
ure ate
ĠNew man
Ġpri x
.. ."
ĠGre ening
ĠSw an
au er
Ġhon esty
ĠHow ley
Ġcreat ors
Ġbal ancing
ĠDou g
Ġflo ated
Brad ley
Ġescal ating
Ġcarri ages
cr ime
HC R
ĠKoh li
ĠDil ma
ĠExcell ence
H istor
P up
c ad
f ighting
Ġp owder
as ures
ĠI FS
Ġr idden
Ġr ibs
ĠR oth
ĠG ust
od o
Ġchan ted
Ġind icted
ĠAl ess
ets i
ades hi
ĠNor wood
Ġrev ived
ĠWat ts
Ġresign ing
ĠBer cow
Ġdom est
ĠCom pton
met re
rett able
comm itted
ĠMack intosh
Ġhur ts
Ġvalley s
Ġworksh ops
Hung ary
Ġb itten
Ġp ains
al ities
ir it
el i
ĠB ard
ĠL ie
ĠH ands
ĠN em
Ġse als
Ġsc attered
ĠLe es
ĠV ital
Ġvict orious
Ġsub urbs
ph oon
ĠRe a
Ġrul er
Ġhard ship
Ġemer gencies
Ġdetail ing
ĠPal estine
Le g
Ġcal ibre
ĠHall am
ĠMa o
ĠFl ood
Ġstock p
ĠKim i
Ġbright ly
Gr ady
Ġaer ospace
Ġcong regation
ĠCatal ans
Ġimper ative
Ġmanoeuv re
Ġok ay
Champions hip
Ġunear thed
antan amo
Ġbattleg round
H as
M I
f alls
p riv
al is
at ollah
le um
ĠC A
ur gent
ĠT owers
ĠE E
Ġab rupt
Ġcl uster
ĠK atherine
ĠV alls
Ġter ribly
ĠGr id
Ġfront man
Ġenc ounters
Ġunion ists
ĠRyan air
Ġradio active
ĠBol lywood
ĠSky pe
Ġstret cher
Ġdiscrim inatory
Up dates
Ġsac red
ĠDid ier
ĠMcA uley
Venezuel a
ĠAdvis ory
usch witz
Ġt abled
in ite
ĠS em
ĠA ur
ĠT weed
ag ons
ĠW helan
ĠD haka
ĠN ess
um acher
all i
land er
Ġun rhyw
Ġbl aid
Ġem ulate
Ġstr ains
ern ess
ĠAl so
On line
ĠPr ague
Ġprop osition
Ġdist inction
Ġregul ate
Ġuns ett
ĠJordan ian
Ġthr ust
Ġlog istics
Ġgrad ual
Ġshell s
Ġdeterior ating
Hill ary
Ġcorrid ors
ĠFeder ico
extra ordinary
Ġtimesc ale
Ġgol fer
ĠMoff at
B ydd
N G
T esco
he my
re ements
or ie
an ie
ĠH P
ĠF ee
ĠN ieto
Ġun accompanied
Ġpol io
ĠY oun
Ġstr angers
ĠAn imal
Ġnational ism
ĠSer ious
ĠSte in
Ġlim bs
ĠMad ison
Ġsett ling
Ġdecl ines
Ġdecl ares
Ar m
ĠPer haps
Ġir ony
ĠComp osite
Ġadj ud
Ġlands cap
ĠBall ance
Par liament
ĠNich olls
Ġobst acle
Ġquant um
ĠMoroc can
Ġpund its
ĠHarv ie
ĠMarcel o
Rod gers
Moham med
K ier
S ale
b ucks
f illed
g roup
w C
Ġw ra
ion age
ĠS ian
ĠS pect
ĠC ant
im ag
ĠT aj
ri o
ĠE k
ĠO c
ne ud
lud ed
Ġbot hered
Ġseason al
Ġhar med
Ġhard line
ple asant
af ety
ari us
Ġself ie
Ġrob otic
Ġspeed y
rie ving
Ġoverse es
Ġprec ision
ici encies
Ġvac ancy
ĠPac quiao
was ana
Ġexclud e
Ġdiscover ies
Ġneutral ity
ĠRon an
Ġprecaution ary
Ġpilgr im
Ġapplaud ed
ĠHanc ock
W ada
d ed
l ass
t ail
z on
Ġo v
al ore
an throp
ig ated
ag ging
ard ly
ĠK ild
ure ly
oot ing
Ġhand gun
ĠSp icer
ĠAs lef
ĠAm os
Le icestershire
Ġanim ation
ĠLib or
Ġlimit ations
Ġnice ly
Ġlog ic
Ġwid ened
Ġpal m
government al
Ġprin cess
Ġpoison ed
Opp onents
Sa haran
Ġvom iting
Ġprox imity
D O
G ov
P erson
S k
d an
w ife
Ġd up
ver ley
Ġr ushing
ĠE ly
ive ira
uc as
ger y
ĠAb use
Ġpres umably
ĠMcG ee
Ġadminist ered
Ġcomplain ant
Ġgrant ing
Ġimag ery
Ġcrack s
Ġcoinc idence
contin ue
conf idence
Ġmotorcy clist
Worces ter
ĠNk ur
Ġfron ts
ĠMathe son
g oti
t aken
Ġc oping
ing le
Ġha ted
Ġe Bay
ĠS et
pp e
ĠW ing
Ġ2 30
ĠG ould
ĠF ear
Ġover ly
Ġcomp oser
ng or
ĠScot ch
rib ution
ĠIn ce
ĠMc Arthur
Ġstr angled
ĠSyri za
Ġsum med
Ġapart ments
Ġintegr ate
Alex ander
Ġpredecess ors
ĠChile an
Ġdisg usting
End ers
ĠClin ical
tter i
Ġswat hes
C as
D omin
I mp
J ean
M ess
l eston
he ard
Ġo wing
nd ez
ac ons
ĠM ae
Ġhe ir
ir re
and ering
ĠW onder
ud no
Ġk in
li aments
pl ess
Ġsec recy
Ġback log
itt on
Ġrel ocation
iz oph
ĠComm ander
Ġsl ice
Ġdi pped
Ġmor atorium
ĠMcC onville
Ġavoid able
Ġmag ical
ĠChe m
ĠRa onic
vin enko
ĠAlger ian
Ġrecip ient
ĠGuid olin
Ġaccompany ing
izoph ren
L and
M L
P arty
R B
a ert
i qu
Ġb iod
Ġc ough
ĠC emetery
am ation
Ġr ou
ĠP aw
ĠG ree
Ġv intage
Ġne o
Ġro pe
atur ity
Ġcompl acent
Ġbeha ved
Ġunc omm
Ġaud itor
Ġcontr ace
18 0
Ġapolog ies
ĠAg ain
employ ment
ĠHold ings
intend ent
Ġrenegoti ation
inapp ropriate
l ley
w ara
Ġto e
Ġp or
Ġn urt
ĠS ands
ĠP sych
ĠR ip
ĠH urd
ĠN im
Ġch unk
har med
ram id
br ay
ĠAs cot
Ġbit ing
Ġtreat s
Ġcirc ulating
Ġpeace keepers
Ind ependent
Ġmer chand
Ġham mered
ĠBal timore
ĠCC G
Ġreass ured
Ġclassroom s
Ġrh ino
ĠCho i
Ġcater ing
prising ly
Ġenerget ic
B rend
F ro
L oc
M oney
a q
Ġw o
Ġw ield
Ġo ed
Ġf abulous
Ġn ets
Ġn ifer
Ġfr ail
ĠP ound
ĠP orth
ĠR FU
ign e
Ġcapt ivity
ĠAm bro
int ree
ĠRic o
ĠKore ans
ĠGreen ock
Ġcontest ants
unte ers
bbc rugby
Ġscrutin ised
Ġseed ed
Ġvacc ines
Ġarchit ects
Ġfoss ils
Ag ain
char ge
ĠNav as
Ġaffili ate
asd air
names e
F ernand
L ess
V eter
g odd
i q
in adequate
Ġs way
al in
Ġwas ting
ĠB ach
ĠA ids
ĠL ives
ĠG riezmann
ĠK ush
Ġco hes
uss en
Ġtop s
Ġsub tle
ĠCl ermont
ĠZ hang
ĠZ idane
Ġed itors
Ġtax is
Ġmot ors
Ġcelebr ates
reg istered
Ġdisplay ing
ĠGood man
zz i
ighth ood
Ġcheap ly
Ġindic ators
Ġmistaken ly
Camer on
ĠBey once
Ġbreastfe eding
Ġsubscri ption
Ġcroc od
bbcrugby union
C la
P ay
R ev
T ha
c z
m art
u ja
is y
is ations
ĠC un
am mar
im et
op ened
ist on
ĠK or
Ġdown loaded
Ġbus h
Ġsha ping
Ġmar red
Ġmar ching
Ġpot ent
ĠGu antanamo
ĠPh D
ĠPort land
200 3
ĠMid land
Ġwarm th
Ġdim ension
lib aly
ĠScar borough
ĠBatt alion
Lar ge
ĠFirmin o
ĠNkur unz
B ern
B ishop
G ab
M organ
N orm
m ings
ĠB irk
ĠH ondur
han sa
Ġun related
ĠV ass
ood y
ĠY PG
ĠHe at
Ġ10 6
Ġext ends
Ġbox ers
az er
ex cept
ĠAmeric as
ĠGo al
Ġread er
Ġreact ing
ĠDun k
Ġsell ers
Ġexplo its
Ġshel ters
ĠPre vention
Ġcongrat ulate
vit ational
Ġcommod ities
Ġpilgr ims
Ġcarn ival
ĠFors yth
Ġorient ation
ĠEdu ardo
Ġindo ors
A ge
E ric
M obile
S in
g ged
h rs
w ild
in qu
is man
ĠM use
ĠJ ared
Ġab normal
Ġres olving
ĠTh ings
She ikh
pr ing
Ġfund ra
Ġ11 4
Ġproject ions
Ġpred ators
do ors
Cl arke
ĠFl ower
Ġoccup ants
Ġsubs cribers
Ġque uing
ĠIv or
ĠAst ana
Ġsurf aces
ĠAlf ie
Ġoverd ue
disapp ointing
Ġwors hi
Ġcolumn ist
ĠOx lade
Ġlapt ops
ĠOz il
Ġlone ly
Ġcaf es
ĠMoz amb
ĠBagg ies
H od
L ady
u ve
Ġb erth
ay i
Ġon shore
ĠS eng
ĠC ors
im ble
our a
ĠD ak
ĠJ obs
Ġper f
Ġdef ied
ĠAl aska
Ġent ers
ĠZ ebre
Ġallow ances
Ġbit coin
Ġsex ism
Ġname ly
Ġbehaviour al
ĠDun bart
Ġreform ing
ĠStr ategy
ĠMas sey
Ġstrateg ist
ĠTy nes
ĠRen zi
ĠBre ivik
Ġrat ified
ĠTer rit
Ġovert ake
Ġscar ce
Ġunt ou
Ġneuro log
Ġdefl ation
ĠShir ley
ĠNkurunz iza
ĠDunbart onshire
A ctor
S aints
ĠC BS
ĠA uschwitz
ĠT av
ĠW BC
ĠD U
ĠN ant
Ġro pes
Ġsign alling
Ġwar planes
leg al
Ġins urers
Ġvis ibly
Ġspec ulate
bs olutely
cl ose
Ġalle vi
ĠSim one
ask et
ĠÃ ĵ
ĠHaw k
Em ma
Ġfulf illed
Ġscram bled
Ġcompassion ate
ĠSoc cer
Environment al
Ġanch or
ĠBuddh ist
ĠQat ari
F ood
S un
b illion
c ible
f unction
k ington
ha ir
al al
Ġbe am
ĠW ir
iv able
Ġne ur
ft hansa
Ġbl essing
tern ative
ĠY ing
ĠY vette
Ġev olve
Ġfound ers
ĠGu er
book s
Ġbeha ving
Ġkind ness
Un ion
ĠBer ahino
US A
ĠBell es
Ġproportion ate
Ġmicro phone
Ġrid ic
bal ance
ĠSn od
Ġvolley ed
Ġric her
Ġfisher ies
Ġbug s
ĠCad wal
Ġirre levant
ĠPu erto
ĠHollow ay
ĠCouncill or
G hana
N O
in ley
Ġto ured
st ood
am y
ir able
ĠB ony
ĠW elfare
ĠL ark
ore t
ct ica
ĠN ote
ess ment
han sk
iv ities
Ġres olutions
ise xual
ip el
aj a
Ġair stri
Ġbar n
Ġdi arr
Ġ26 0
ĠMcG ill
ĠEm ployment
Ġpret end
Ġprim aries
Ġtask force
Ġcaps ized
Ġaer op
Ġsmugg led
Ġpione er
cap acity
Ġapprentices hip
Wil son
B as
D isc
T H
Ġf aded
Ġp umping
Ġm wyn
ic ia
le ased
ĠC PR
Ġsa iled
ĠP all
ĠP ict
ĠE than
ub en
Ġun iverse
Ġup beat
oin ing
Ġen velop
Ġfl urry
du ed
ĠMar ino
And erson
ĠMin ster
ald y
ĠAd miral
ho ven
ĠOr chestra
ĠIran ians
ĠAlb a
ĠSch neider
zz ard
Ġsucceed ing
ĠMore no
Ġdiver t
Te achers
unk ett
ĠWater loo
izz y
Ġcoinc ided
contin ental
Ġcertific ates
Ġunderest imated
ĠTomlin son
Ġsurn ame
K anu
S u
f red
p olit
Ġw neud
Ġbe head
Ġl amp
ĠM are
ĠB ieber
Ġj umper
Ġsp ared
Ġcomp lied
Ġapp ointing
fe it
Ġdef iance
yn n
Ġold s
af ia
ĠPl uto
Ar ch
ĠHart e
ĠAbd es
De velop
Ġconven er
Ġreluct ance
Ġcongrat ulations
ĠRel ief
Ġembark ed
Ġconstr aints
Ġmurde rer
ĠKro os
Ġdilem ma
M aking
T ax
T fL
h orn
ĠC esc
ĠA U
em uir
Ġj ew
ib ia
Ġcur ve
Ġsl ave
Ġposition ed
ĠPl us
Ġren ting
Ġhands et
ĠSand ro
Ġjun ctions
Ġsmugg le
Ġsimpl er
Ġphas ed
ĠBert rand
Ġcush ion
Ġmening itis
ĠAbdes lam
F re
V ettel
W HO
Ġin effective
ĠR ae
ĠG ross
ĠN ile
ĠU FC
Ġout dated
ĠLe ah
ater nity
Ġhead set
ĠAr bit
ves on
Ġ' '
Ġland owners
Ġval uation
Ġsw ord
ze govina
ĠMark o
ĠSh innie
ĠMad ag
ĠFar mers
ĠMac har
ĠBur mese
ĠArab ian
ĠMa it
Ġsho e
ĠTre k
Ġmiddle weight
Ġdd ydd
Ġintention ally
Ġappreci ation
Ġstrict ly
Ġinfring ement
Ġabsor b
pi eces
Ġcustod ial
G ra
l iss
Ġt ipping
in v
ar real
ĠM ist
Ġsa ga
ĠB aby
her ic
ĠF uk
Ġnew est
Ġbo asts
lf i
ĠY ellen
Ġfl ame
Ġgood will
Ġcontin uity
Ġrep atri
ins ki
Ġdep ot
Ġcoll usion
ĠMcC abe
vi ours
Ġaward ing
ĠEl vis
ĠQue bec
ĠBer lusconi
ĠMag ennis
ĠSuper bike
Ġremark ably
ĠMod el
Ġrecon struct
Ġsch izophren
Pal estin
Ġtheat res
ĠLoren zo
hig hest
E L
F red
ĠA irdrie
un ched
ĠH Q
Ġex h
Ġun int
Ġpol led
Ġam azed
Ġmay ors
Ġfear ful
Ġcheck point
che ck
ĠDaniel le
ĠNic ar
ĠMu ammar
ĠSand ra
Ġess ence
Ġregister ing
ĠGeorg ian
Ġmanip ulation
Ġstim ulate
Ġnav igation
Ġlag oon
Ġerad icate
Ġgren ades
ĠDf E
Ġana est
chwane godd
McL aren
Ġuncomm on
ĠCadwal adr
L in
O liver
ha j
Ġf aults
it ic
es on
st ra
ĠC rouch
ill ie
ĠP addington
ĠR aul
ĠD rog
ĠF oot
ĠN ixon
ies on
Ġor b
per ing
Ġso fa
Ġch ick
Ġ10 8
There fore
Ġtrans mit
Ġgener ates
Ġ12 3
Ġpat ches
ĠPaul a
ĠMcC lean
Ġtransport ation
Just in
Ġliber ty
Ġble ak
Ġcool ing
ĠHun ting
Ġhyd ro
ĠCair ney
ĠSpring b
Ġconj unction
Ġpneum onia
f eld
g art
w ave
Ġf encing
ac cess
ur gan
ĠA intree
ĠT ipuric
ĠR ib
Ġest ates
Ġcapt ive
ĠSam ir
ĠSha ria
ĠMcC ain
sc orer
ĠX box
Ġcal ories
ĠSal azar
Ġrelig ions
ĠNiger ians
asc al
Mar garet
ĠStud ents
Call aghan
Ġphas es
Som erset
commun ications
Ġguerr illa
ĠLit vinenko
ĠSnod grass
B a
c ru
h urt
Ġt in
om ery
ac io
ac ency
ĠS A
ĠL ance
Ġab ide
Ġtheir s
ost al
reat ive
ĠV eter
oy al
ug oslav
ĠBrit t
Ġstat s
Ġair field
ĠHar old
ĠLu hansk
ĠNic ol
ĠDel aney
Ġiniti ated
ugg ish
Se a
Comm ittee
Ġconce aled
Sm all
Ġannoy ed
Ġvit amin
sim ply
Dj okovic
! '
2 40
O rig
R FU
g reen
m el
Ġc ess
Ġc ra
Ġp anc
Ġd wind
le en
art ing
Ġlo oming
Ġimp air
ind e
Ġdirect ive
stand ard
elt ine
over ty
Ġtre k
ĠCan adians
200 1
ĠHay e
Ġign or
ĠMcL oughlin
Ġbon fire
ĠCur rie
Americ a
ĠRaj oy
East leigh
Josh ua
Ġwors ening
cat ast
ĠNaj ib
Ġprag matic
Ġsatir ical
W ild
b il
c ertain
e fficient
h ull
p hab
w on
Ġt ub
Ġb isc
Ġf rog
ig ree
ĠI o
Ġal ley
ĠT in
ĠD ann
ist rate
Ġaf ield
ĠK R
Ġdis rep
Ġrec ipe
Ġar ising
Ġ19 0
Ġdisc arded
iz en
Ġcapt uring
ender fyn
Eng ine
ĠTre viso
ĠFin ch
Ġbi ology
Ġcalm ly
Ġda unting
Ġnotorious ly
Ġouts ider
Ġnav igate
ĠLland udno
Ġconfisc ated
Kn own
zyn ski
ĠMayn ard
N ad
R onald
c els
Ġs ul
an other
un ed
ĠT af
ĠW r
ĠW har
ĠN RL
Ġsp ider
Ġun affected
ĠK op
Ġover sp
ix ed
ĠMar quez
ient ific
ĠAd il
ĠMal one
Ġholiday makers
Ġtight ening
Ã¡ ndez
Ġfaith ful
ĠRec ord
ĠFab ian
Ġlaugh ter
ĠHind i
Ġattrib utes
Ġgroc ery
Serb ia
M ass
g ross
Ġp estic
ut an
ac a
ĠD h
ĠF urn
ĠN on
Ġun ra
Ġpe oples
rit t
Ġcr unch
Ġass igned
air n
ern Ã¡ndez
Ġrep aid
ret ched
ĠInd eed
Ġgener als
Ġpo ppy
Ġpolicy makers
Ġglobal isation
Ġpeace keeping
Ġselect ors
Ġgra pp
Ġdistrib ute
ĠTa vern
Ġcalc ulate
ĠAntar ctica
ĠBeng hazi
ĠJord i
ĠPriv ate
Ġump ire
Lat est
Rac hel
ĠToff ees
ĠTerr ace
F amilies
N ap
R io
d rive
v ital
Ã £
re ars
ĠS uch
ĠM ission
Ġst ip
ĠP isa
pp ies
ag uay
ri ous
ĠL ank
ab ane
ess ential
Ġj azz
ham a
Ġdis illusion
ĠMar ouane
ĠTr ading
ĠMal awi
Ġheav iest
udd en
respond ent
tar io
ĠLy nd
ĠDes ign
ĠDy er
ĠDy fed
ĠFinn ish
Ġimmigr ant
Ġabol ish
Ġabandon ing
Ġreserv ations
ĠKer ber
Ġportra its
Ġrecapt ured
Ġgren ade
F ed
F ox
L F
S an
d itch
i per
j ee
s low
u il
Ġa ster
in as
Ġc ripp
ĠS everal
ĠB ravo
ri ott
ĠG le
Ġup side
Ġadd ict
Ġli p
Ġbr ide
ran e
atic ally
ĠBen fica
Ġfun erals
Un iversity
igg ers
ino is
Ġshock s
ni ad
Ġstress es
ĠStud ios
ĠCow denbeath
Rel ive
ĠMade leine
Count y
ĠDob son
Ġbutter fly
Ġhen ce
Ġseaf ront
umpt ions
Ġsensit ivity
Ġdictators hip
J une
S O
V illa
v ie
Ġf iance
ing o
ĠS ow
ĠA led
ren ched
ans on
Ġar rears
ru ff
Ġlo bb
ile en
Ġend urance
Ġret ention
Ġbot ched
orth wick
Ġsus cept
Ġhost el
Ġsex ist
inc reasing
Ġemer ges
Ġquar ry
Ġath letic
ĠVal tteri
ulner able
Ġshut ting
ĠStr as
Ġir res
Ġborrow ers
Ġtom b
Ġcyn llun
Ġmedall ists
Ġfu elling
Ġtransform ing
Ġsyn thetic
ĠLine ker
major ity
Along side
orig inal
B ow
D ou
b ird
on ium
Ġw rap
Ġb ung
ha f
Ġd ar
ĠS ide
am azing
ĠP lease
ĠT oner
th ird
ĠF ay
ack ers
port ivo
Ġmin us
Ġper ceptions
ĠY ong
Ġbr ighter
Ġfe eds
ĠIn stitution
Ġday light
Ġschool children
Ġtra w
ash vili
Ġtest ified
Ġ11 3
work ed
Ġ17 5
St ation
Ar med
uct ed
ĠDev lin
Ġsize able
Ġsight ing
Ġgall eries
ĠKat y
Ġru in
Ġdrown ing
Ġboge ys
Ġski ing
entin el
Ġcens orship
ĠDund alk
Ġsurpass ed
ĠLear ning
ĠKirkc aldy
Ġdiarr hoea
phab et
8 50
J un
Ġthe fts
er ie
Ġd orm
Ġn uts
ot on
Ġl ord
ĠS ul
el come
ĠT ask
ĠG am
ĠF N
ĠN u
ich i
Ġun pleasant
ail ure
Ġqu artet
Ġind uced
oul os
Ġsub stituted
ĠRe x
Ġmur al
Ġdam ning
sh irts
ĠDe eney
ĠPl ant
ĠTe es
19 90
ĠCha irman
Ġcover t
Ġrepe ating
ĠLouis iana
Ġstring ent
ĠDet roit
ĠCher ry
ĠMick elson
ĠWeb ber
Brazil ian
Ġunderest imate
ĠOm agh
Ġincomp et
ĠAgric ulture
Non etheless
ĠDrink water
ĠBoat eng
Ġinhabit ants
3 20
t em
in ting
Ġf amine
Ġd uke
Ġn an
Ġh ospice
ri ad
ĠR az
th y
ĠG hani
Ġro d
Ġro oted
ĠY ugoslav
Ġreg iment
ĠTh ird
Ġshort s
com ings
Ġwa ist
ĠCor rea
Ġpersonal ities
ĠEl ite
Ġenjoy able
Ġrev is
Ġbroke red
ĠGra ves
Ġpsych ologist
Ġunve iling
Ġpredict able
Ġwid ening
Chan nel
ĠLar ry
Ġconfidential ity
Ġtraum atised
ĠEti enne
ĠMell or
Ġdisproportion ate
Ġdecommission ing
Ġservic emen
Pup ils
C ru
c ity
f ashion
f ailed
g ive
l ack
ĠC lear
ĠC BE
ĠA R
Ġy oga
ul atory
ĠP end
ĠT all
ag ulls
ĠH ic
all owed
Ġup he
Ġup right
Ġher ald
Ġdis arm
Ġso aring
ĠV u
Ġass umptions
ĠAr chae
Ġexp osing
Ġfact ion
ĠRoy als
ĠMcC r
ĠOr mond
ĠCha ir
Ġsurpr ises
Ġworth while
Ġvulner abilities
person al
Ġprofit ability
ĠSil k
ĠMcGu ire
Mill an
ĠRom ney
Ġdict ate
Ġchap el
ĠEar l
Act ivists
Ġshall ow
Ġbydd ai
Thank fully
Ġcancell ations
Jose ph
Ġpard on
Ġadmir ation
Ġbombard ment
ĠArbit ration
A ld
C oll
T E
s ize
y i
in z
ĠT ab
[...]
