#version: 0.2
Ġ t
h e
Ġ a
i n
o u
Ġ .
Ġ s
Ġt he
r e
Ġ o
Ġ y
Ġ c
Ġy ou
Ġ w
e r
Ġ b
Ġ ,
Ġ f
Ġ p
a t
Ġt o
Ġ i
n d
in g
Ġ m
o n
Ġ d
l e
o r
a n
e s
e n
l l
i t
Ġyou r
Ġ in
a r
Ġa nd
Ġ h
Ġt h
Ġo f
Ġ n
Ġ l
e d
o m
s t
i c
o t
Ġ e
Ġ g
s e
a l
v e
Ġb e
Ġ u
i on
Ġ re
a c
Ġo n
o w
e t
Ġo r
i s
Ġi s
a y
Ġf or
Ġi t
k e
Ġs t
Ġh a
i ll
en t
l y
r o
Ġa re
i d
o o
i g
it h
Ġth at
Ġw ith
Ġi f
c t
u t
Ġc an
l d
Ġw ill
Ġn ot
a s
Ġd o
Ġa n
Ġa s
v er
i r
a m
ou t
he r
i m
c h
a d
Ġ r
Ġs h
i l
Ġs u
Ġs e
c e
a ll
Ġw h
a ke
Ġ le
Ġn e
ig h
Ġ he
Ġf r
p e
Ġha ve
Ġc on
Ġm o
t er
Ġth is
at e
Ġc h
at ion
u r
Ġl i
g e
p p
a in
igh t
an t
b le
Ġe x
Ġt r
Ġc om
Ġs o
Ġa t
er s
Ġa l
Ġp ro
s s
Ġc o
n t
Ġp l
u l
ou ld
Ġw he
Ġd e
om e
q u
i ve
a p
Ġ v
Ġw e
u m
Ġm ake
p le
es s
u re
ar t
Ġc l
Ġa d
i f
Ġ out
Ġfr om
u s
i e
Ġu se
es t
e l
Ġ j
Ġu p
Ġp o
id e
Ġthe m
in d
ic k
oo k
Ġm ay
ar d
f e
Ġa b
Ġin t
in e
or t
Ġ k
Ġthe y
t her
Ġf e
all y
a k
e p
oo d
ac k
ac e
Ġt e
Ġg et
Ġb ut
o re
r ou
Ġa ll
g h
t h
Ġw or
Ġu s
r a
Ġwhe n
Ġp re
a re
on e
u st
i st
Ġne ed
Ġs ome
i p
Ġs p
u n
m ent
c k
Ġli ke
Ġb y
s o
Ġt im
Ġsh ould
i es
Ġo ther
a st
m p
at er
i le
a ble
Ġmo re
ic e
ac t
Ġg o
Ġab out
a ge
l o
i re
Ġan y
ac h
Ġon e
Ġl o
Ġm e
Ġ en
Ġad d
ow n
Ġw ant
Ġs c
ion s
Ġa pp
Ġp r
a nd
Ġint o
ou r
Ġd r
Ġcon t
a b
Ġhe l
Ġal so
Ġb o
Ġhel p
i z
Ġa c
u d
Ġtim e
Ġ ke
a g
i v
Ġb r
it e
Ġo p
t ing
Ġh ow
on g
c i
Ġf o
Ġwor k
am e
Ġtr y
it y
Ġp e
e m
ver y
Ġin c
Ġre m
Ġw ater
re at
Ġk n
nd s
Ġof f
a il
Ġwh at
Ġd is
Ġo ver
Ġl ook
Ġthe n
Ġsu re
a u
Ġs m
in k
Ġke ep
o l
Ġf l
Ġd own
a se
Ġe v
Ġthe ir
Ġt ake
ou gh
as s
c ess
Ġs pe
Ġ qu
h ing
Ġ ro
Ġthe re
Ġc he
Ġu n
b er
u e
Ġa f
Ġf ind
l f
Ġcom p
ing s
a v
i ld
f ore
Ġp art
Ġm an
Ġin st
re ss
ou nt
re e
Ġc le
or m
rou nd
ic h
Ġ 1
Ġbe fore
Ġt w
Ġg r
e ct
Ġw ay
Ġb ot
Ġb ack
Ġs k
Ġb l
Ġthe se
d u
le s
Ġex p
an ce
Ġco l
ul t
nd er
Ġbe c
o s
re d
Ġp er
f t
Ġfe el
Ġp h
Ġcon s
Ġre s
Ġwh ich
Ġj ust
Ġpl ace
Ġha s
Ġg ood
o ple
w ay
Ġst art
an s
Ġth an
Ġpe ople
ation s
Ġb u
Ġp ers
Ġs et
Ġh o
Ġse e
x t
le ct
se lf
g et
it ion
he s
ig n
Ġa v
ou s
t e
Ġi mp
au se
Ġe ach
Ġs l
ak ing
Ġha ir
Ġd if
Ġus ing
Ġd ay
ur n
Ġa r
Ġev en
Ġw r
an g
u b
Ġpers on
Ġne w
Ġm in
Ġmo st
i al
o se
a ve
Ġbe t
o ve
Ġkn ow
Ġaf ter
at ed
Ġa ct
Ġf ir
er t
Ġex am
Ġst r
c o
Ġr ight
in t
al k
om et
en s
w e
Ġyour self
Ġwh o
Ġto p
fe re
u p
rou gh
ar y
Ġle t
Ġas k
fe ct
ent s
u ll
is h
Ġa g
or s
c es
d e
Ġe very
Ġt y
Ġwh ile
Ġth rough
Ġcl ick
r y
Ġfr ie
i ly
o p
Ġtw o
Ġc re
Ġu nder
Ġac c
Ġa round
Ġs omet
Ġcle an
Ġch ild
ic al
Ġm ight
oo se
Ġ her
Ġwe ll
iz e
i b
Ġa m
Ġs he
Ġon ly
Ġfir st
Ġsm all
f orm
Ġdo g
Ġsu ch
Ġl ong
l ud
Ġs im
Ġc ut
ar k
Ġexam ple
Ġha nd
id er
Ġre l
oo l
Ġm u
Ġinc lud
Ġs er
Ġon ce
Ġf ood
Ġpl ay
Ġcom m
or d
Ġn o
v ing
Ġm ed
le d
Ġto o
Ġat t
Ġu nt
ow s
Ġp ut
i ble
l ic
ul ar
at ing
t le
o id
Ġin s
Ġbec ause
Ġe as
Ġop en
b s
ar n
d y
Ġli st
Ġdif fere
Ġs y
Ġwhe re
w n
Ġre ad
u ally
Ġunt il
Ġche ck
as h
Ġfor m
Ġman y
p l
Ġd es
Ġlo c
Ġg ive
f ul
an ge
Ġw ould
Ġop t
Ġc at
Ġm i
Ġc ar
ou nd
Ġdr y
t en
ow er
Ġb est
Ġre c
Ġmu ch
i se
Ġc r
re ad
er m
Ġe y
us h
Ġdo es
Ġn um
Ġs ide
Ġav oid
n er
Ġde c
w ard
t om
ll ow
en ce
ap er
Ġ ve
if ic
Ġch oose
Ġe m
Ġ ent
Ġdiffere nt
Ġmin ut
g g
Ġi m
o d
Ġp ain
Ġsomet hing
Ġc or
Ġc ould
ar s
al s
f f
t s
Ġsk in
ment s
Ġs ay
Ġcons ider
on s
ot her
d er
Ġd et
Ġs a
Ġh ome
ad e
Ġre qu
ter n
Ġc are
Ġs it
re en
Ġre g
Ġrem ove
Ġth ink
ar ch
Ġse lect
Ġg l
ct ion
ver s
it s
Ġbo dy
Ġe nd
l ine
ar m
Ġo wn
ci al
Ġa p
n g
Ġ very
Ġimp ort
ot h
Ġc al
Ġsu pp
Ġcom ple
Ġd i
Ġall ow
Ġl ar
Ġhe al
Ġth ings
Ġt alk
Ġfe w
Ġs ign
Ġj o
Ġo il
Ġin form
Ġf in
i er
Ġ 2
Ġb re
Ġsu r
Ġl ight
Ġpro du
Ġh igh
Ġare a
Ġs ame
g r
e ad
Ġminut es
Ġapp ly
a x
Ġst ore
Ġhe ad
u al
Ġimport ant
Ġl it
ro p
Ġcre ate
t on
e ver
Ġm et
Ġpro v
Ġg u
Ġt urn
Ġb as
Ġp ur
at ch
Ġfo llow
Ġpo ss
y s
Ġ ed
at her
Ġp aper
Ġp ie
Ġho ld
j ect
Ġc ard
ur ing
Ġr un
i a
g in
Ġa way
i ous
Ġf ile
he d
Ġinform ation
Ġpre ss
Ġt reat
Ġpo s
Ġheal th
or y
Ġan other
Ġit s
Ġc ook
Ġinclud e
v es
r ic
at es
Ġag ain
Ġa ble
p t
Ġp ay
Ġf ree
Ġus ed
Ġnum ber
Ġbe ing
Ġcol or
Ġd ra
Ġof ten
Ġrequ ire
Ġinst ead
at ive
at h
Ġy e
n e
n ing
Ġty pe
Ġn ame
we en
Ġbet ween
Ġp ot
Ġle ft
pe ct
Ġf ace
Ġex t
Ġc ur
get her
Ġw ind
a ir
Ġd ire
Ġg en
Ġm on
Ġmo ve
Ġfrie nds
a pe
ak es
Ġsu b
Ġbot h
Ġpl an
Ġint e
Ġle arn
at ure
en c
Ġin v
Ġpro cess
Ġto gether
Ġ1 0
Ġwe ar
Ġsome one
Ġhow ever
i ed
Ġen ough
Ġcont ain
Ġh ard
Ġpo int
m e
ic es
it ies
Ġpre v
i ate
way s
Ġt ap
Ġgo ing
Ġre p
Ġre st
th ing
nd ing
Ġf am
Ġin d
re s
Ġbot tom
Ġposs ible
Ġst ep
Ġacc ount
em s
re n
Ġam ount
Ġbet ter
Ġbu y
Ġsp r
n ot
Ġle ss
g er
Ġlit tle
e k
Ġmi x
Ġbe gin
Ġs w
b o
Ġl ot
on t
p s
Ġm us
Ġe l
Ġcomple te
f er
ou se
ie w
Ġi de
re st
Ġh im
Ġd uring
h ip
Ġw as
Ġch o
Ġ 3
Ġv is
v ice
p o
Ġbut ton
ve l
Ġpro p
Ġal ways
Ġne xt
Ġdis c
ic ally
Ġwith out
Ġsh ow
Ġo b
Ġh our
m s
Ġm aking
Ġbo x
Ġspe c
Ġp ass
Ġs ch
ic t
Ġlar ge
Ġcont act
Ġch ar
Ġexp er
Ġ es
Ġon line
v ed
Ġfrie nd
ar i
ct or
Ġbe en
ent ly
Ġprodu ct
r act
Ġs al
Ġst ill
is s
in ess
Ġc up
Ġle g
Ġg reat
Ġst ud
Ġn ow
Ġch ange
Ġf un
an k
Ġc ert
Ġpr ot
Ġcan not
Ġsc reen
Ġap pe
Ġro om
Ġt est
Ġb us
it ing
Ġb ook
ir t
Ġus ually
n ess
Ġty p
f ort
Ġte ll
Ġle vel
Ġm ust
Ġgen er
g ar
Ġl ay
Ġl ine
Ġth ough
f fect
Ġsch ool
in es
Ġc ent
Ġbe l
Ġco ver
ant s
y le
Ġwor d
if y
Ġcon f
Ġse co
Ġb ow
er g
Ġinte rest
am p
ou n
Ġe ffect
Ġdire ct
Ġpro ble
Ġcom e
Ġc a
u ct
Ġfo ld
Ġhe at
Ġm en
Ġpro f
Ġso l
Ġc all
Ġst ick
Ġsh o
Ġst re
l ing
Ġlike ly
st and
n ect
Ġp at
Ġst ra
Ġor der
Ġdo ing
Ġco nd
Ġle ave
b e
Ġth ree
et s
Ġte mp
Ġle ast
Ġwe ek
Ġse arch
Ġst and
Ġtr ans
xt ure
il ity
Ġh is
Ġcl ass
one y
Ġbe h
ag es
i ence
Ġd ist
Ġget ting
at ur
Ġh ot
ain ing
Ġin ter
Ġopt ion
Ġdo ctor
Ġpr act
are nt
Ġs n
Ġw a
Ġtim es
em ber
Ġm ark
Ġf ull
r ow
Ġli fe
id es
Ġa ir
ent ion
Ġqu est
Ġp ick
Ġs le
Ġwr ite
Ġst ay
Ġme m
ci ally
Ġcomp ut
Ġe mp
Ġp an
et y
Ġpre p
able s
lo ad
a w
Ġother s
Ġcl ot
i ents
Ġfam ily
pp ing
or k
Ġcl ose
t o
Ġpre s
Ġre t
c us
Ġbr ing
u g
gr am
Ġspec ific
Ġrem ember
Ġo ld
Ġqu ick
Ġset ting
Ġcon nect
it her
Ġb all
Ġwe bs
Ġm ind
Ġph one
Ġs qu
i ent
Ġex er
t ed
ip s
Ġha pp
Ġb lo
i or
w are
b r
le ss
Ġf ing
ot s
Ġp age
Ġm ain
at ter
Ġst ate
ac ter
ng th
Ġas s
Ġre f
Ġdra w
Ġp arent
Ġwh ite
Ġe at
Ġw arm
Ġpro gram
ail s
pe cially
Ġwhe ther
Ġpur ch
Ġh al
Ġey e
Ġes pecially
Ġph ot
Ġe ither
g an
pl ay
c r
Ġso ft
Ġg iv
Ġha ving
Ġde pe
Ġg rou
a le
Ġse c
Ġf ill
el s
Ġbre ak
Ġv al
Ġins ide
Ġcomput er
c on
Ġloc al
Ġav ail
t y
Ġprov ide
Ġha nds
Ġth ose
Ġd one
Ġcont in
Ġbus iness
Ġi d
Ġinc re
ir c
ab ly
Ġact iv
Ġcom b
f ic
Ġbow l
Ġunder stand
Ġa ut
Ġprev ent
e ll
Ġre du
Ġsh ort
v en
Ġp ast
Ġcomm on
c hes
in s
Ġent er
Ġcomp an
Ġc irc
as on
Ġdr ink
Ġne cess
Ġm ade
Ġavail able
Ġsc r
pp er
ic s
Ġb ag
Ġsupp ort
Ġn atur
Ġl ow
Ġbu ild
Ġac cess
Ġfo cus
Ġsm o
Ġs in
s ure
Ġsur f
en se
en e
Ġe qu
Ġi r
Ġcle ar
Ġcont ro
Ġw alk
it ive
Ġb ab
Ġreg ular
Ġs we
Ġpain t
g n
Ġsle ep
Ġb it
Ġs ize
is k
id s
Ġre d
Ġre ally
Ġdis play
Ġit ems
i o
Ġc reat
Ġg ame
Ġp ull
Ġ ing
Ġpart ic
Ġme as
s ide
p ly
Ġe ar
av or
Ġappe ar
ce pt
Ġmet h
Ġdet erm
Ġsy st
c ed
Ġsp ace
Ġb ed
Ġc our
ac es
Ġb le
Ġmen u
Ġpo st
Ġres ult
Ġc ool
Ġcom fort
Ġsim ply
ion al
Ġdes ign
Ġhour s
Ġw ash
Ġm oney
Ġey es
Ġh ouse
Ġhal f
Ġmeth od
i um
Ġwe ight
c c
Ġpos ition
Ġm ess
Ġoff er
Ġmi xture
u es
as es
ci se
Ġadd ition
Ġl ast
ve lo
Ġst e
Ġopt ions
Ġchild ren
Ġar t
Ġnot e
Ġbec ome
Ġfr ont
Ġadd ress
as k
Ġneed s
Ġcert ain
ut ion
Ġke y
Ġperson al
Ġse ver
ast ic
um p
o y
Ġprep are
Ġm ater
Ġst op
Ġmed ic
Ġl im
Ġmon th
p h
Ġpie ce
Ġre pe
Ġb ar
Ġsin ce
Ġle ad
Ġim m
Ġp et
w ork
b ers
Ġf lo
Ġb ig
Ġf il
Ġmater ial
i x
ent ial
at or
Ġbl ack
Ġal ong
iz ed
Ġo pp
Ġe gg
Ġor gan
Ġbr ush
Ġpract ice
at s
Ġsl ow
Ġgr ow
ro ss
read y
Ġal ready
it ch
Ġf it
Ġing red
Ġre al
Ġw atch
Ġme ans
t he
Ġde p
Ġon to
Ġpo p
Ġnecess ary
Ġsever al
t c
Ġany thing
Ġprot ect
Ġcontro l
Ġte xt
Ġf ound
Ġr ub
Ġb reat
Ġp ack
Ġ z
Ġday s
Ġto w
ou ch
Ġne ar
Ġad v
Ġt aking
w he
Ġc ount
g le
Ġd am
Ġme et
Ġdif fic
Ġd rop
ure s
Ġdiffic ult
Ġrel ations
Ġen sure
Ġapp lic
Ġt erm
Ġan t
ou ble
Ġ2 0
Ġbab y
Ġqu al
Ġsyst em
Ġc ase
Ġsu gar
Ġf ab
Ġch ang
ap s
Ġeas ier
Ġwebs ite
Ġph ys
velo p
am es
Ġrelations hip
Ġext ra
Ġpro b
Ġfab ric
m on
Ġde f
Ġdown load
Ġrem o
Ġlook ing
Ġatt ention
Ġco st
Ġpie ces
Ġto ol
i an
Ġseco nd
ward s
Ġne ver
Ġl ower
Ġcent er
Ġen g
Ġsa fe
Ġspe cial
im es
Ġsurf ace
Ġexer cise
Ġsy mp
Ġv ide
Ġcon c
id d
Ġm ult
Ġre se
Ġk ind
Ġsit u
Ġb ir
Ġprof ess
t ain
Ġeas y
Ġspr ay
Ġfood s
Ġse ction
Ġv ari
Ġle ngth
Ġb ase
il k
Ġc red
ull y
Ġh or
Ġin tern
Ġstra ight
Ġhe re
Ġdeterm ine
Ġcontin ue
Ġingred ients
Ġid ent
Ġde velop
Ġout side
ight ly
Ġpo l
Ġpl ant
ut e
Ġ3 0
Ġso cial
ill s
Ġen j
ro om
Ġnatur al
Ġinst all
Ġwa it
f ully
Ġsymp tom
Ġre ce
m o
Ġfe et
Ġs ave
Ġm akes
Ġw all
is hed
Ġinst r
Ġread y
Ġlong er
Ġn orm
Ġhealth y
Ġcomplete ly
Ġn ight
Ġcre am
Ġexper ience
Ġfollow ing
Ġfr u
b ook
Ġsim ple
re nt
Ġme an
um e
Ġro ll
Ġf act
Ġmeas ure
Ġjo b
ter s
Ġdec ide
e e
Ġgl ass
g es
Ġve get
Ġd ress
Ġwind ow
Ġeas ily
Ġ ver
Ġquest ions
Ġsu n
Ġmus ic
Ġfo ot
Ġenj oy
le t
ire d
Ġin f
Ġtemp er
Ġb ene
o g
Ġco p
Ġcomm un
Ġle av
Ġem ail
Ġp ower
Ġw ood
Ġst ress
i qu
Ġbl ood
Ġ 4
Ġl ab
Ġprop er
Ġp ict
i pe
lo y
Ġcon vers
Ġc ause
Ġd ark
ar r
ie ld
v iew
or ies
Ġcor ner
Ġd ate
Ġrec om
Ġmo ist
Ġwork ing
Ġide a
nd ed
Ġsal t
Ġis s
Ġrecom me
Ġgrou p
Ġr u
Ġapp ro
Ġredu ce
Ġpl astic
Ġb ra
Ġfe ed
enc y
Ġel se
Ġdepe nding
Ġr isk
u se
Ġe tc
Ġf our
lo g
Ġs ing
Ġco ld
Ġp our
Ġpr om
p ar
c um
Ġpurch ase
u ck
Ġlo ve
res h
Ġcompan y
Ġlist en
Ġprob ably
Ġexp l
Ġm y
Ġn on
Ġt ouch
Ġh y
Ġnot ice
Ġg ently
out h
Ġde g
Ġab ove
Ġst ain
Ġc ust
Ġm ot
Ġg round
Ġsymptom s
Ġquick ly
Ġchar acter
Ġcomfort able
Ġwe re
Ġparent s
Ġde ep
Ġbeh av
Ġsomet imes
Ġsh ape
Ġsetting s
Ġemp loy
Ġc ap
Ġimp ro
at o
o ck
Ġo cc
u ff
Ġtry ing
ie ve
Ġst ir
Ġtemper ature
c ing
un ch
Ġn ut
Ġrepe at
in al
Ġne g
Ġca us
a z
Ġg ra
Ġan im
Ġbut ter
Ġare as
Ġway s
bo ard
Ġproduct s
Ġcred it
Ġt ape
Ġth ick
c he
Ġp ub
Ġs our
Ġword s
Ġpartic ular
Ġt able
Ġg reen
Ġrec ord
Ġf ast
Ġ1 5
ac ing
Ġsh are
Ġn et
v ices
pp ed
Ġper form
Ġblo ck
Ġf re
Ġbas ed
Ġh ang
Ġg re
Ġm ilk
Ġbo ard
il ar
Ġ 5
Ġc oun
Ġye ar
Ġproble m
Ġstr ong
Ġcond ition
Ġp le
Ġb ad
Ġb aking
ap h
Ġagain st
Ġcol ors
re ct
Ġb al
Ġp ort
Ġwh y
Ġf resh
i od
Ġwind ows
ar ing
m er
Ġsim ilar
iv id
Ġwho le
Ġh um
ed iate
an ces
Ġi con
Ġdi et
Ġse par
st r
Ġst yle
Ġc ra
Ġevery thing
rop r
pl ace
ast e
Ġin ch
Ġj u
Ġwork s
Ġmo d
Ġpart ner
Ġper iod
Ġen c
ropr iate
Ġr ather
Ġl ink
Ġloc ation
Ġcust om
Ġj e
Ġf all
Ġe lect
Ġent ire
Ġres p
j ust
Ġcur rent
Ġimm ediate
l i
n ce
Ġob ject
Ġbot tle
Ġincre ase
Ġse ed
it ions
Ġphot o
idd le
Ġrel ax
c le
Ġfl at
it ed
ate ly
Ġv iew
Ġd a
Ġp ow
Ġgl ue
Ġwith in
Ġs ides
Ġin fect
Ġm outh
Ġre le
Ġi ce
Ġdo cum
Ġpress ure
Ġv ol
Ġtyp es
Ġproble ms
Ġfl ow
Ġde vice
Ġre ach
Ġhe art
Ġ est
Ġal tern
Ġpos itive
Ġinc hes
Ġk it
Ġsc he
Ġthe r
Ġwr iting
Ġte ch
Ġdirect ly
Ġde al
f fe
Ġm ic
Ġg ar
Ġ vers
Ġem ot
Ġhelp s
Ġm iddle
Ġr out
in ation
Ġvide o
oo p
Ġbr own
Ġclot hes
Ġinclud ing
Ġ ess
l s
Ġbel ow
Ġad just
Ġim age
n s
Ġspe nd
w ord
on es
Ġw ire
iv es
Ġp in
Ġvis it
Ġsl ightly
Ġb ro
Ġre co
Ġeffect ive
Ġtow el
Ġf at
u ss
Ġapp ropriate
Ġpre fer
Ġd ig
Ġse ll
ore d
s w
Ġb and
Ġclean ing
Ġh ig
Ġflo or
Ġcor rect
Ġcontain er
Ġsp read
s p
h ol
Ġret urn
Ġtech n
Ġse nd
Ġprofess ional
Ġe ating
d r
Ġat te
st er
ip t
in se
Ġc m
Ġdr ive
os ed
Ġspe ak
Ġd id
Ġtreat ment
Ġb ath
re es
Ġf ur
Ġsol ution
Ġli qu
Ġser vice
Ġfeel ing
Ġf avor
Ġdam age
Ġar r
Ġb urn
Ġc and
Ġconvers ation
Ġbl ue
it es
Ġl ater
ic le
Ġex pect
Ġcl oth
im e
Ġli ve
c ol
id ent
Ġso ap
Ġf ish
Ġevery one
Ġ1 2
Ġs ound
Ġaf fect
Ġlay er
Ġs au
Ġan sw
Ġg ir
Ġth ing
r it
Ġphys ical
Ġcom es
Ġte am
r ies
d o
Ġsmo oth
0 0
Ġda ily
Ġpat tern
z e
Ġadd ing
Ġs and
Ġne ck
Ġsmall er
Ġse lf
Ġwr ap
Ġact ually
Ġf ire
in ed
y ing
Ġf ield
Ġev ent
u c
Ġrese arch
Ġsitu ation
Ġleg s
Ġsche du
Ġtr ave
Ġr inse
Ġlo g
Ġo ven
Ġimpro ve
Ġl aw
Ġtr aining
Ġso d
if t
h y
Ġmed ical
Ġth in
Ġf ive
Ġdis h
Ġsec ure
Ġqual ity
o on
Ġimmediate ly
Ġsp ot
Ġpart s
Ġpres ent
es e
Ġapplic ation
Ġgener al
Ġch ick
Ġfing ers
Ġme at
Ġfeel ings
b it
Ġsc re
Ġpro ject
Ġrun ning
whe re
Ġcare fully
Ġfing er
Ġbehav ior
Ġneed ed
w ise
Ġp ar
Ġbas ic
Ġinstr uct
Ġp air
Ġg oo
Ġv it
l ight
Ġc ou
Ġinv ol
Ġv o
Ġgener ally
Ġc e
Ġnorm al
Ġmed ium
so l
y ou
Ġind ivid
Ġd at
er v
Ġclot hing
Ġser ve
co hol
Ġsho es
Ġre ason
Ġfile s
he ad
Ġpl ants
Ġlar ger
Ġal cohol
Ġm a
Ġso il
Ġm at
Ġhe av
ack s
Ġslow ly
Ġdisc uss
Ġu r
um b
Ġa ge
Ġm om
Ġbo il
ang u
Ġl ines
Ġm ag
Ġpart y
Ġr a
Ġper fect
Ġchang es
Ġw in
oo s
iqu e
Ġa ud
Ġsqu are
st yle
Ġcop y
ens ive
se l
Ġed ge
Ġp u
Ġd ouble
Ġl angu
Ġex cess
Ġoff ice
Ġveget ables
Ġd irt
Ġlet ter
Ġval ue
as ed
Ġp ush
Ġident ify
Ġresult s
Ġstore s
c er
Ġsau ce
Ġw et
Ġdo or
Ġf ig
erg y
Ġac cept
Ġg e
Ġte ac
Ġneg ative
Ġinst ance
Ġwor ld
d ing
Ġd iv
Ġmult i
ou ra
Ġtyp ically
Ġye ars
id ing
Ġbene f
is ion
Ġcard s
ist s
Ġintern et
al le
Ġhor se
Ġte a
Ġfin ished
Ġfru it
if e
Ġrep ort
c om
cr ib
Ġc ell
ou nds
Ġpub lic
Ġn ice
Ġw om
Ġju ice
ough ly
d ay
k ing
Ġt ight
se t
po on
Ġseco nds
Ġgoo gle
Ġhig her
Ġco de
Ġm atter
Ġsu c
Ġcook ing
et h
Ġsing le
Ġse x
th ough
Ġt ables
Ġar m
Ġpass word
Ġc am
Ġind ic
ur t
Ġt ab
Ġprop ert
Ġactiv ities
Ġvari ety
Ġfin ish
as ing
ation al
Ġinv est
Ġs ong
Ġther ap
Ġon es
Ġac ross
Ġcal m
Ġcal led
Ġm el
if ied
c l
Ġteac her
d s
Ġmo ving
ain s
Ġplay ing
Ġschedu le
h o
Ġatt ach
u nt
Ġcho col
Ġliqu id
Ġg lo
Ġa ware
Ġkeep ing
Ġleav es
Ġre view
Ġdog s
Ġspe ed
Ġbook s
Ġdisplay style
ul ate
Ġc y
Ġcol lect
Ġpow der
Ġfold er
Ġstart ing
so ci
Ġsign s
Ġshe et
Ġtr ack
Ġmess age
Ġcho ice
o log
Ġlook s
Ġha d
Ġinstruct ions
Ġw ide
Ġs ite
Ġm ach
m it
Ġv ac
Ġ 6
is es
Ġnet work
Ġfavor ite
Ġho le
Ġse em
Ġ er
Ġsk ills
Ġb atter
Ġtalk ing
Ġso on
k es
am in
Ġas soci
Ġo k
l ish
Ġm atch
Ġbeh ind
Ġlangu age
Ġe le
b y
Ġh it
Ġtr ust
Ġmo v
Ġchocol ate
Ġch r
en ing
Ġv ine
cr ipt
Ġaddition al
Ġsepar ate
Ġrequire d
Ġor ig
Ġse ason
Ġstre t
Ġal mo
r ib
Ġf ine
Ġit em
Ġto oth
Ġve t
Ġpr int
Ġfre qu
Ġg ard
Ġre act
Ġansw er
Ġphot os
Ġmonth s
Ġco at
Ġwe b
Ġs ens
Ġmin im
Ġorgan iz
Ġte nd
ub e
Ġread ing
Ġto wards
Ġpict ure
Ġweek s
ff ic
ph one
Ġfor ward
Ġmulti ple
Ġf ore
Ġmaterial s
Ġmet al
Ġen v
Ġe nds
Ġfe ature
Ġmem bers
Ġb ank
Ġf ro
Ġk ids
Ġex act
Ġpoint s
Ġm or
Ġal though
ate g
Ġins ert
Ġcor n
Ġt ask
g ress
Ġrequ est
ie f
ffe e
Ġtr ad
Ġface book
Ġdec or
Ġen ergy
Ġcour se
Ġall ows
ot e
b ing
Ġman age
Ġhand le
Ġte eth
Ġl ic
Ġrece ive
Ġvine gar
c y
un k
Ġlo ck
Ġenc oura
ent al
Ġdet ails
Ġpl aces
Ġsuc cess
Ġser vices
Ġco ffee
ate ver
Ġstep s
Ġcare ful
Ġess ential
t op
Ġbec om
Ġres pect
Ġre place
Ġtrans fer
Ġear ly
Ġm ail
r up
Ġegg s
Ġu pper
Ġwh atever
Ġgiv ing
Ġin j
l er
Ġche m
Ġdat a
Ġbr ows
Ġchick en
o f
Ġso ak
Ġr ound
Ġcoun ter
Ġsu m
Ġt ie
e es
Ġseed s
ver t
am s
Ġg ames
Ġt ree
Ġcal c
gg est
Ġche ese
in ing
Ġb ud
is m
er n
Ġth row
Ġsay ing
Ġgr ad
Ġget s
ar p
au gh
Ġsu ggest
ir on
Ġtr ain
Ġreg ist
Ġth or
Ġlevel s
Ġf ar
Ġactiv ity
ll ing
Ġaut om
Ġh ist
Ġm ass
Ġha m
Ġproper ly
Ġan x
Ġstr ing
enc il
Ġenv iron
Ġsod a
Ġnum bers
Ġpop ular
Ġstand ard
Ġl oose
c les
it al
Ġir on
Ġsu p
Ġd ise
Ġwear ing
Ġpr iv
Ġcommun ic
Ġun less
en ed
Ġte as
Ġst ory
Ġfur ther
Ġmain tain
Ġpot ato
Ġw ish
Ġkn own
Ġfig ure
Ġsw itch
ort h
Ġl a
Ġcut ting
Ġprogram s
Ġiss ues
Ġkn ife
Ġstret ch
ro du
d d
i ver
id ence
ne y
Ġch ance
Ġsub ject
en ces
Ġfl u
iz ing
Ġser ious
Ġcirc le
Ġm ar
pp y
s or
Ġexper i
Ġvers ion
n y
Ġswe et
ort s
Ġma j
Ġf ut
Ġp ad
Ġsa f
ort un
Ġle mon
Ġlim it
Ġopp ortun
Ġmark et
Ġstud y
Ġl and
Ġsm ell
Ġprot e
id ed
Ġte ach
Ġrecomme nded
Ġbre ed
Ġar ms
Ġcou ple
Ġcam er
Ġr ange
Ġto t
Ġtr a
Ġpr ice
m an
Ġt ax
Ġexp ress
Ġbir th
Ġm iss
Ġmake up
is ing
Ġapp le
Ġfl avor
Ġt it
Ġsh irt
Ġinf l
Ġthrough out
Ġdocum ent
Ġgo ld
Ġhapp y
Ġregular ly
Ġed ges
Ġaltern ative
a h
a f
Ġd ue
Ġresp ons
Ġd y
Ġb at
Ġd ough
Ġmaj or
Ġcomp l
Ġr ate
Ġsu it
e red
ul a
Ġs ent
g o
Ġt akes
il i
m ing
Ġp en
Ġfut ure
Ġfl our
Ġmed ia
Ġn ail
Ġplay er
Ġsub st
Ġap art
l ies
Ġnot es
Ġdeg rees
Ġli ft
Ġn ose
Ġdes ired
c ent
Ġw ipe
Ġsh ap
ur ance
Ġcons ist
Ġheav y
it or
ag ing
ct ions
Ġcon st
Ġcat ch
Ġpr in
r al
Ġal one
Ġc ases
Ġact ive
ro ll
Ġscr ub
m in
Ġocc ur
r ing
Ġad ult
ck et
ific ation
Ġsp l
Ġpot ential
Ġt ank
Ġb ul
Ġac id
Ġhelp ful
Ġdr ain
Ġfir m
Ġv ar
Ġve h
Ġc ross
Ġref r
er ing
Ġenviron ment
Ġsh op
Ġgiv en
Ġinterest ed
Ġmay be
Ġcomm and
Ġth ir
Ġacc om
Ġtrave l
Ġadd ed
Ġpur p
at ic
Ġwr it
Ġmedic ation
ou d
Ġt ar
Ġs av
Ġgard en
Ġc ake
Ġmach ine
Ġli p
Ġj ump
Ġsour ce
Ġf u
Ġf le
ac ed
Ġgo als
Ġask ing
Ġminut e
Ġpast e
Ġbal ance
Ġmus cles
Ġbreat h
Ġreco gn
Ġ our
Ġsh ower
Ġyou ng
ab ility
Ġscre w
Ġinfect ion
Ġt aste
Ġb i
il ities
Ġple nt
g round
im ent
a ut
Ġc ot
Ġquest ion
Ġwom en
an e
am m
ak en
Ġtr im
Ġst ock
Ġdr ug
Ġcont ent
Ġf ight
Ġy og
Ġother wise
Ġlo ss
iv ing
Ġplent y
Ġt ip
Ġcat s
Ġlo se
Ġlearn ing
ib ility
Ġir rit
Ġt en
Ġcl os
Ġr ib
Ġup d
Ġloc ated
Ġide as
Ġb acter
Ġprepare d
Ġwor ry
Ġst y
Ġanim al
Ġ 9
Ġs ense
Ġgo al
Ġag ree
ce l
Ġwr ong
Ġchem ical
b on
Ġflow ers
Ġsp oon
Ġmor ning
Ġb read
ist ic
Ġexpl ain
Ġp encil
a pp
Ġr ing
Ġm ac
sel ves
Ġw ax
Ġencoura ge
Ġthough ts
Ġf i
Ġfr ame
Ġa ch
i ally
er ve
th is
Ġst ates
Ġput ting
Ġorig inal
Ġcar ry
u gg
or n
Ġho les
Ġop er
f or
Ġres po
Ġindivid ual
Ġapply ing
Ġm ask
Ġthor oughly
Ġold er
Ġsl ide
Ġstud ents
Ġfull y
Ġme al
p r
Ġnut r
Ġint rodu
Ġm l
Ġ x
r ation
Ġit self
ang le
re t
Ġw ed
Ġcamer a
Ġtool s
Ġche st
iz z
ud e
Ġgo es
Ġsoft ware
Ġmedic ations
Ġcour t
Ġde le
Ġhist ory
Ġcol le
led ge
Ġbl ank
Ġwas hing
m b
re me
Ġsh arp
Ġan n
Ġform s
Ġacc ord
Ġhold ing
Ġtr ouble
Ġvo ice
Ġs ix
a ult
Ġdi ag
Ġaf f
Ġatt ract
Ġins urance
Ġprote in
Ġru les
Ġg ather
l t
is hing
Ġcond itions
Ġcup s
Ġprof ile
Ġto ward
Ġed uc
ir m
Ġbreat hing
Ġexer c
ck s
ast er
Ġ10 0
Ġcot ton
Ġth read
Ġw id
Ġsupp le
ig er
Ġany one
Ġdes k
Ġst uff
i pping
Ġin de
Ġth umb
Ġfun ction
Ġrequire s
Ġrele ase
Ġco ll
Ġlab el
Ġcont ract
Ġact ion
Ġk ill
Ġsh amp
Ġinter act
Ġcar r
cript ion
Ġr ad
Ġi p
ag ed
it ter
it ation
Ġappro ach
un g
Ġsh ad
Ġpr im
Ġr ice
i ety
Ġf ac
Ġlot s
ur y
Ġbrows er
Ġp ill
Ġelect r
Ġv ary
Ġthink ing
on y
Ġf urn
Ġh ook
Ġin it
Ġp ark
Ġstr ip
Ġdeg ree
in ate
Ġo bs
at ically
Ġfor get
Ġr ab
Ġr ot
Ġtar get
p ut
Ġye llow
Ġdra g
Ġsec ur
Ġi ll
Ġlo ad
Ġrecomme nd
Ġterm s
ile d
Ġfin al
Ġbr ight
Ġsit es
Ġg ot
ens ion
et er
ant ly
Ġf air
Ġm ist
Ġsh ows
Ġthem selves
Ġaccord ing
Ġrep res
Ġ 8
Ġdise ase
Ġcommun ity
Ġmoist ur
Ġev ents
Ġrout ine
im ate
Ġpropert y
ac hes
Ġdire ction
Ġsaf ety
Ġcreat ing
Ġstre ngth
Ġl id
Ġhe ight
Ġeffect s
Ġprev ious
Ġmom ent
Ġext reme
p or
Ġeven ly
Ġdist ract
Ġanx iety
igh ter
Ġy et
Ġalmo st
bo x
Ġwebs ites
Ġp a
Ġn ails
ang er
n ces
Ġpict ures
r or
Ġ 7
ce ed
Ġan g
Ġex c
Ġjo in
Ġse al
Ġm ap
Ġl oop
Ġi phone
ress ion
Ġh on
Ġab ility
is ed
Ġgiv es
b all
Ġj ud
p ort
Ġtot al
c ut
Ġtr i
Ġoil s
Ġpr ior
Ġsecur ity
Ġwalk ing
Ġpre gn
er al
Ġw orth
Ġthir d
Ġcomb ine
Ġd ust
ul ation
o x
Ġu t
p an
Ġrefr iger
Ġsee k
Ġt ail
Ġt aken
Ġback ground
Ġt v
Ġclean er
Ġvit amin
ac hed
Ġj ar
Ġfin an
i vers
Ġbuild ing
Ġrel ated
b t
Ġh arm
Ġto r
or ing
Ġst om
l ive
o c
ac y
Ġt ick
Ġto m
Ġmem ber
Ġnot hing
Ġde ad
an n
s es
Ġgar lic
Ġp al
Ġaut h
gr aph
Ġf ix
Ġdis p
po ons
g ing
Ġse w
Ġpe pper
Ġveh icle
iz er
Ġa head
Ġan gle
ition al
Ġmot ion
r ie
Ġrem aining
Ġb ur
Ġex te
Ġc ity
Ġtit le
um s
Ġform at
Ġex ist
Ġbr ain
Ġtr ick
Ġf an
Ġt ur
Ġatt ack
Ġab sor
Ġj ack
Ġch alle
i et
Ġexp ensive
Ġleav ing
Ġteas poon
us hing
est s
Ġcontain s
il t
Ġcom ing
Ġcl ub
Ġas ide
Ġrem ind
Ġmov ie
Ġim ages
Ġuse ful
Ġinclud es
Ġatte mp
Ġto ys
an ced
it ure
un e
Ġmic ro
Ġremo ved
Ġst at
Ġste am
Ġopen ing
Ġmoist ure
Ġprom pt
ari an
Ġclick ing
Ġdep art
Ġcol ored
Ġplay ers
m ake
Ġbuy ing
Ġbacter ia
Ġtw ice
Ġdist ance
Ġn ames
Ġp s
Ġcount ry
Ġto ne
Ġsign ific
Ġcons ult
Ġve ter
Ġshamp oo
n ow
Ġj our
Ġstom ach
Ġd ip
g en
fere nce
Ġbenef its
Ġpl ate
n am
Ġey el
Ġf acing
Ġfurn iture
Ġbu ll
iz es
Ġass ist
Ġrem ain
Ġg ain
Ġtr ip
Ġequ ip
Ġparticular ly
Ġtw ist
Ġr id
v al
Ġst ar
Ġgrou ps
Ġautom atically
Ġli ps
Ġe ff
Ġreg ard
Ġsm ile
Ġs il
Ġiss ue
Ġg ent
Ġwill ing
i est
Ġd on
Ġgu ide
Ġje w
as ons
Ġco ve
Ġopp os
Ġpay ment
Ġcompan ies
Ġcr it
g ed
Ġst itch
Ġcra ft
Ġbir d
Ġh urt
Ġsupp lies
Ġfor ce
Ġre fer
Ġro ot
Ġanim als
Ġconf irm
u ate
Ġh oney
le nt
Ġdes crib
Ġpu ppy
Ġfru its
ic les
Ġp ink
Ġtr ig
Ġpurp ose
Ġcove red
Ġfrequ ently
Ġsay s
Ġgra b
in y
Ġd amp
f act
Ġhe ar
hy dr
Ġtr ue
Ġdo ll
Ġa im
Ġmean ing
Ġle ather
Ġa w
Ġwrit ten
Ġcons um
Ġli br
Ġres our
ili ar
Ġd om
Ġrub ber
Ġest ab
o b
u it
Ġrequire ments
Ġres ist
Ġcaus es
Ġad min
Ġ2 5
er y
Ġc as
Ġper cent
Ġ5 0
Ġgrow th
ar ily
Ġpe el
Ġr ow
s c
Ġkit che
ag r
Ġbre ast
Ġass ign
Ġmo ld
Ġpol ish
m iss
Ġpotato es
Ġsour ces
o int
Ġgent le
Ġd est
Ġli f
Ġclass es
Ġbegin ning
Ġd en
Ġc age
Ġg as
Ġse ctions
Ġapp s
Ġrec ip
Ġvar ious
Ġp ump
Ġemot ions
Ġeng ine
Ġl ate
op en
s h
Ġbe ans
Ġmod el
Ġcost s
Ġpl ug
Ġho st
Ġocc as
k en
Ġo live
Ġveter in
im ately
Ġremo ving
Ġm ental
Ġfil ter
Ġoff ic
Ġinc or
Ġdy e
Ġm ir
Ġbud get
Ġrespo nd
Ġauth or
Ġsol id
Ġmo b
Ġok ay
Ġ2 4
er ic
Ġm ild
ve re
Ġd anger
Ġdrink ing
Ġlist ed
Ġme als
on ic
Ġte xture
Ġbe aut
Ġqu ite
Ġide al
Ġprodu ce
Ġgir l
Ġkitche n
Ġim ag
i k
ver age
Ġbel ieve
Ġwe ather
e x
Ġg ro
Ġsit ting
Ġequip ment
Ġpre t
Ġarr ange
Ġcl a
Ġmo der
ro id
o nd
Ġdrop s
Ġtherap y
Ġmeet ing
Ġout f
Ġc amp
Ġrecogn ize
Ġfind ing
Ġexact ly
Ġdr ied
c hed
il led
Ġlo an
k s
Ġfast er
Ġthough t
Ġjew el
Ġed it
Ġpo k
Ġs ort
Ġe arn
Ġrepres ent
Ġspr ink
Ġwid th
ho ld
Ġshould er
Ġje ans
Ġcar p
Ġloc ate
Ġli ving
Ġcomm it
Ġsqu ee
ure d
Ġmix ing
Ġcomp are
Ġfree z
Ġs ou
Ġun ique
Ġm ood
Ġ1 8
Ġus er
Ġp ig
Ġexperi enc
re ci
Ġlic ense
Ġmo de
Ġem erg
Ġsp orts
ile s
Ġs am
Ġdocum ents
Ġdiv ide
Ġb ake
Ġor ange
Ġfinan cial
Ġvol unt
Ġappear ance
ay s
Ġdesign ed
Ġsk ip
Ġemp ty
Ġre asons
in er
Ġh ide
Ġpriv ate
Ġsitu ations
Ġsc ore
Ġfe e
Ġchar ge
Ġc ult
Ġble nd
Ġbecom es
Ġcreat ed
Ġfeature s
Ġb oo
Ġde vices
Ġc ateg
Ġvol ume
u ction
Ġg ift
Ġmus cle
Ġmon itor
Ġbe at
ic ed
Ġant i
Ġstr uct
Ġref lect
Ġach ieve
Ġc ro
Ġpan el
Ġnorm ally
id ge
Ġlight ly
Ġdele te
Ġf ly
ion ally
Ġqu iet
Ġhapp en
Ġd ial
Ġob tain
ord er
Ġrel ative
Ġcal ories
Ġmic row
Ġt ag
Ġinvol ved
Ġsc roll
Ġd in
Ġr om
n ers
Ġw ine
Ġc ast
Ġad vice
Ġadmin ist
n al
z z
Ġth r
Ġstart s
f l
Ġsw im
Ġs ounds
Ġe ver
Ġam eric
Ġoppos ite
Ġbath room
Ġinc ome
Ġkn ot
Ġpro ced
Ġsho ot
b ble
Ġs ink
Ġre ct
Ġcr ack
Ġequ al
Ġmult ip
ci pe
ict ion
Ġre cipe
Ġlo ved
Ġs ess
Ġm ax
Ġw ra
Ġhum an
Ġcomp et
Ġs at
ar ies
Ġble ach
t ime
rie nd
Ġwant s
Ġacc ur
Ġstra w
Ġe ars
Ġexample s
l ook
Ġbe nd
Ġall erg
Ġman u
Ġt ub
Ġse vere
Ġopportun ity
Ġexerc ises
Ġre nt
Ġle an
Ġfl ower
Ġch air
Ġport ion
Ġc ab
Ġsp in
Ġtop ic
w h
Ġsome where
Ġshe l
ide red
Ġbl ow
Ġan al
Ġch oos
Ġout do
Ġwe ak
b al
Ġfeel s
Ġstand ing
Ġglo ves
Ġjo int
Ġnatur ally
Ġro ck
Ġg un
Ġleg al
at ory
Ġser ving
Ġatte nd
Ġp ants
Ġas se
pe nd
Ġbag s
Ġi gn
Ġt ips
if f
Ġcolle ge
Ġdepart ment
Ġun com
Ġdi am
Ġwin ter
con ut
Ġhon est
Ġc ash
Ġneed le
Ġm other
ch oose
Ġne igh
Ġpro gress
Ġte en
f ind
Ġg el
Ġco conut
Ġvolunt e
Ġex cel
lo ck
Ġneigh b
Ġlay ers
Ġcaus ing
Ġdiffere nce
Ġinter view
y m
Ġcons idered
Ġconnect ion
ag er
Ġsh ot
Ġne ut
s ing
Ġm ount
Ġconf ident
Ġrib bon
a ur
Ġcustom er
Ġdec ision
Ġinterest ing
Ġmethod s
Ġra ise
ill a
Ġpartic ip
Ġn av
Ġus es
Ġappro x
pp ers
Ġtom ato
st ick
Ġver t
Ġsa les
Ġorganiz ation
Ġform ula
Ġstart ed
Ġex h
Ġadv ant
h aps
Ġpo lic
Ġm arr
ra id
Ġwhen ever
Ġknow ledge
Ġr at
Ġhigh light
Ġfl ash
Ġch at
Ġsh own
Ġabsor b
Ġch ances
al led
Ġup load
ne ath
Ġcreat ive
Ġunder neath
Ġinterest s
Ġf ed
Ġem b
Ġimp act
or age
Ġtrad itional
Ġp ages
ir ts
Ġk ick
Ġpret ty
b its
Ġc ry
Ġexpl ore
ain t
Ġru le
Ġnew s
Ġte le
Ġmanu fact
Ġrab bit
Ġpl acing
Ġapp reci
Ġaf raid
Ġfam iliar
Ġshould ers
Ġsh r
Ġdec re
Ġc it
olog y
fere nces
li ke
Ġb an
Ġsub mit
b ack
Ġch ain
Ġdraw ing
Ġbatter y
Ġapp l
Ġbo y
p re
l ist
Ġprov ided
Ġu nd
m a
Ġsu ff
Ġatt or
Ġaud ience
Ġcla im
Ġspr ing
Ġconc ent
Ġappe ars
Ġfriend ly
Ġemot ional
Ġapp oint
Ġover all
Ġpat ient
Ġper haps
Ġad op
Ġad vert
Ġlet ters
Ġsp ir
on ent
Ġstain s
Ġlight s
Ġobject s
c ons
Ġsp ots
il ing
Ġstr ips
Ġmicrow ave
g s
Ġchoos ing
Ġjewel ry
Ġst orage
Ġstud ent
Ġmass age
Ġbut t
Ġbenef it
os p
Ġdef ault
Ġcol um
oun ce
Ġbe ll
Ġfe ar
Ġs ized
Ġre ward
Ġball s
Ġchang ing
Ġk id
Ġtables poons
Ġsp ouse
Ġcharacter s
Ġwed ding
Ġsur round
v ious
Ġsupp ly
all ow
Ġplan ning
Ġfound ation
Ġfle x
l and
Ġselect ed
Ġhor iz
Ġse ems
um ps
Ġo d
ure r
Ġconnect ed
Ġlibr ary
Ġv ir
Ġmag n
Ġelect ric
i ot
Ġjour nal
un es
Ġel im
Ġcho ices
Ġsa id
Ġar g
Ġincor por
Ġm as
Ġassoci ated
Ġcaus ed
z en
ig ate
k in
Ġgu id
he t
ens es
Ġcont rib
Ġob vious
Ġextreme ly
an a
Ġt re
t ail
Ġto ng
Ġy arn
at ors
Ġh u
Ġnut s
Ġeff ort
Ġaccount s
Ġhard er
Ġp ath
Ġscr atch
Ġdiag n
Ġc able
Ġde li
n ight
Ġs ad
ke y
i pped
Ġalternative ly
Ġvis ual
Ġpl ans
ic ing
Ġt iss
Ġf ash
Ġemerg ency
Ġcook ed
Ġcent im
Ġro ots
Ġcert ific
ad s
Ġev al
Ġant ib
Ġ6 0
Ġf el
br ush
Ġtest s
Ġr ich
Ġart icle
Ġwall s
Ġmob ile
Ġup on
Ġsum mer
h ood
ous ly
Ġthere fore
Ġd re
Ġy ard
Ġsh ake
Ġresour ces
Ġt ube
Ġsur ger
Ġcand y
Ġcl ip
a ff
Ġmove ment
n a
Ġ1 6
Ġf ail
Ġm ill
Ġdepe nd
Ġfl ip
ing er
Ġbox es
Ġoption al
Ġgrow ing
Ġbr an
Ġpattern s
Ġsam ple
Ġthem e
Ġen able
Ġconf idence
Ġeng lish
Ġindic ate
c her
as hes
Ġsl ip
Ġcon ce
Ġinj ury
iz ation
Ġkn ees
Ġinfl amm
n ed
Ġdef in
Ġp ul
Ġass ess
Ġinst alled
Ġhy p
Ġpl aced
iv ity
Ġpro ceed
Ġres id
Ġps y
a pping
Ġa verage
Ġwork out
Ġ4 0
Ġb un
Ġfash ion
Ġsm art
Ġnew sp
Ġe ight
Ġdin ner
Ġro le
Ġstr ain
Ġin se
Ġpr on
Ġstate ment
Ġtask s
f o
il it
Ġcontact s
Ġkey board
it ude
Ġsn ow
Ġwh isk
Ġtables poon
Ġdry ing
Ġl oos
Ġallow ing
Ġt er
ent ially
Ġex cept
Ġexist ing
Ġspe nding
Ġsup er
Ġsh ade
Ġpl us
Ġus ers
Ġunderstand ing
Ġamount s
Ġwhe el
Ġadv ance
Ġfi ber
Ġrefriger ator
Ġup set
Ġsens itive
on ge
Ġoff ers
le ts
Ġh ar
Ġsc iss
iv ed
Ġuncom fort
Ġ1 1
Ġeas iest
Ġsu s
Ġlo st
Ġany where
Ġeduc ation
Ġgr ass
u um
on se
Ġes c
Ġvide os
Ġse at
Ġop in
Ġkn ee
Ġexper iment
am ing
Ġsurger y
Ġboo st
Ġtow els
i ke
ib ly
Ġext ract
Ġmir ror
Ġrelationship s
ber ries
Ġcon str
Ġresp onse
Ġl ighter
ren ch
v ant
Ġsho pping
Ġexp os
Ġchr ist
Ġgo ver
Ġpersonal ity
Ġact ions
Ġn ar
Ġhelp ing
Ġr are
Ġspecific ally
Ġp ool
Ġwor se
Ġse a
Ġturn ing
Ġbra nd
is on
Ġrecord s
Ġcondition er
Ġmem ory
Ġpay ing
Ġd ance
os is
Ġhoriz ont
Ġspe aking
Ġl ap
Ġcustom ers
Ġtreat s
Ġsprink le
Ġask ed
Ġgu ests
c ome
Ġprov ides
Ġlisten ing
ab et
Ġuncomfort able
Ġdet erg
Ġvac uum
Ġpsy ch
d om
Ġher bs
an cy
iqu es
Ġh at
Ġtechn ique
ed ing
Ġcr ush
Ġfill ing
Ġcarp et
Ġsl ice
Ġveterin arian
Ġcl osed
Ġd ed
Ġst age
Ġadvant age
Ġde fe
Ġattor ney
Ġsciss ors
Ġmess ages
Ġde ath
um ent
Ġhy dr
Ġemploy ees
Ġshow ing
Ġag gress
Ġcalc ul
Ġcalc ulate
Ġlet ting
Ġsleep ing
Ġsp onge
Ġstr ateg
Ġl augh
Ġfact ors
Ġit unes
Ġv an
Ġbu bble
Ġwa ist
Ġsh ut
Ġto ile
p ir
Ġapprox imately
Ġin h
ol i
Ġdrink s
Ġg all
Ġche w
Ġrest aur
Ġchemical s
Ġtherap ist
Ġqu ar
Ġst ove
Ġst o
Ġwood en
Ġo x
Ġoutf it
Ġmax im
ap ers
Ġshap es
Ġsquee ze
Ġcare er
Ġfe es
Ġha bit
Ġpain ting
Ġrep air
Ġsubst it
o st
Ġreal ize
Ġst im
Ġveget able
Ġflu id
Ġ4 5
Ġm is
Ġneut ral
Ġfro st
Ġc ord
he at
Ġdanger ous
Ġle af
Ġgir ls
at t
Ġsignific ant
Ġli kes
Ġp ets
Ġout line
Ġb ill
ver se
Ġn ur
ac he
Ġen em
Ġt un
m ble
Ġm ouse
r ight
Ġp un
Ġsn ap
Ġcook ies
ale nt
Ġdesk top
Ġcl im
Ġh ol
Ġcorrect ly
Ġcy cle
Ġminim um
Ġcan cer
Ġbecom ing
Ġbas is
Ġyog a
Ġst ro
Ġs ick
Ġeng age
Ġtooth p
Ġact ual
Ġpack age
Ġmix ed
Ġcard board
Ġsc an
Ġtr ay
Ġform al
Ġrub bing
u ing
Ġt rees
Ġpl ain
Ġdr ill
Ġp ipe
ind er
u nder
Ġse en
le n
Ġso ld
Ġsc ar
Ġgover n
Ġgr ill
Ġhapp ens
Ġsuit able
Ġe ase
Ġper man
et ers
Ġvis ible
it ches
Ġinit ial
t r
il s
Ġbe e
o ver
ffic ient
Ġl unch
Ġgu ard
Ġlaw s
Ġatt ached
l ate
at ives
Ġto wn
Ġdr iver
t ion
Ġt all
Ġmanufact urer
Ġge ar
Ġw ild
Ġche ap
Ġcomple x
Ġdep ression
e led
Ġbig ger
Ġl oud
Ġsho e
Ġst em
Ġhang ing
r ate
bo dy
Ġp ier
Ġpo or
Ġsk y
Ġfriends hip
Ġho b
Ġto y
Ġpro of
Ġfreez er
b and
Ġcl ock
Ġbas k
Ġy es
Ġsc al
Ġbro ken
Ġsong s
Ġdirect ions
Ġsauce pan
Ġm id
Ġr aw
Ġle ns
Ġgu it
Ġcomb ination
Ġwatch ing
Ġp ony
ut ions
Ġc art
Ġand roid
b ar
or ter
Ġbl ade
Ġro se
Ġac ne
g a
Ġcon v
Ġupd ate
Ġshap ed
Ġdist rib
Ġde lic
Ġdis hes
Ġsy rup
Ġevent ually
Ġshe ets
p ro
Ġstat us
Ġcomm er
Ġbreat he
Ġreact ion
mb ol
Ġth ro
Ġb ound
Ġcall s
Ġag ent
Ġgr aph
um in
i ers
Ġpa id
Ġfro zen
Ġfil led
Ġtoile t
os en
Ġcle ans
Ġm ention
Ġro ad
Ġc d
ive ly
Ġpropert ies
Ġexp ert
Ġcorn ers
Ġham ster
Ġu lt
Ġch osen
Ġacc ident
Ġfl av
Ġsl ices
Ġv ent
Ġmel t
Ġ1 9
le y
Ġser ver
Ġequ ation
Ġtri angle
Ġex e
Ġg ym
Ġsy mbol
Ġtell ing
Ġd im
Ġdeterg ent
Ġm ort
Ġval ues
Ġgro cer
Ġce le
Ġv ia
Ġgr ip
Ġattemp t
Ġl ack
Ġon ion
Ġmultip ly
i us
Ġglass es
Ġmanage ment
Ġover night
Ġjo bs
Ġde bt
Ġre sol
Ġknow ing
Ġtechn iques
g est
Ġbr ow
Ġst one
Ġde br
Ġn ature
Ġa id
Ġhome work
Ġclear ly
t ake
Ġsur pr
Ġm ath
Ġc ow
Ġaccom pl
Ġmot iv
Ġw o
Ġdr iving
are d
miss ion
Ġprotect ion
Ġsupple ments
Ġbutt ons
Ġsh aring
Ġro pe
u als
Ġdirt y
a iled
t les
Ġcomple ted
Ġinv ite
Ġspe e
l or
Ġla unch
Ġtouch ing
Ġint ake
Ġ1 4
Ġbo ss
ad es
Ġperform ance
m ark
Ġdebr is
Ġstr ugg
Ġboil ing
Ġspl it
Ġbegin s
Ġown er
Ġsmo ke
Ġr ain
Ġbus y
Ġexp and
Ġsc ale
x ic
che ck
Ġe p
Ġc ub
Ġf ert
Ġli e
Ġtreat ments
Ġaffect ed
Ġch ips
Ġrest ric
Ġtiss ue
Ġdry er
Ġameric an
Ġbo ots
Ġfo il
Ġn ational
Ġd v
Ġpress ing
Ġlim ited
Ġdrug s
is p
l ier
Ġintrodu ce
Ġout er
Ġsil ver
g ers
Ġk iss
Ġfo am
Ġcall ing
Ġsal ad
Ġtemp or
Ġfeed ing
Ġgrad ually
Ġcele br
Ġst aff
ore s
ir ing
is hes
Ġro ast
ars h
Ġr ag
Ġyog urt
Ġn erv
Ġstud ies
ite ly
Ġin ner
Ġgovern ment
us ed
Ġfr act
Ġschool s
Ġdis sol
Ġproced ure
Ġaud io
Ġun s
Ġpay ments
Ġcommunic ation
h and
Ġh osp
Ġbu cket
Ġconc ern
u ed
ak s
Ġorgan ic
Ġconst antly
Ġang ry
Ġallow ed
Ġre in
Ġthro at
al ing
Ġcurrent ly
Ġfel t
Ġf ake
Ġmag az
Ġnar row
Ġsh ift
Ġmov ies
Ġgu y
Ġas pect
Ġs ib
Ġhol id
enc ies
Ġpregn ancy
d ed
Ġblo g
Ġsex ual
Ġcertific ate
Ġg um
Ġus b
Ġun ivers
in ary
Ġh i
Ġch ann
Ġappoint ment
Ġaccess ories
Ġt our
Ġst uck
Ġcontain ers
augh t
ur ch
Ġsh orter
Ġappl ied
Ġm aster
Ġhe aring
Ġpurch ased
it is
Ġsty les
Ġvert ical
Ġun w
Ġind ust
Ġfair ly
f ast
Ġclos er
Ġpres crib
Ġcolum n
Ġp ure
Ġcommunic ate
in a
Ġev idence
en ess
et ch
Ġh ips
Ġsun light
Ġemploy ee
m et
Ġhouse hold
Ġstruct ure
Ġguit ar
Ġs izes
Ġcommon ly
Ġrele vant
Ġset s
Ġaff ord
Ġnerv ous
Ġg room
Ġno ise
Ġcell s
Ġcas ual
Ġin put
Ġlit ter
Ġbra id
Ġopportun ities
Ġsent ence
Ġmo ves
Ġman ager
Ġtw itter
Ġthan k
Ġinstall ation
Ġapplic ations
il let
Ġw aste
Ġfil m
Ġmark s
d ra
whe n
Ġsc ent
Ġwe ap
i age
Ġp it
ll s
us ion
Ġcheck ing
Ġkind s
Ġinde x
Ġh orm
Ġexam ine
am ps
Ġtr ap
Ġexp osed
Ġar row
Ġbo ot
Ġspee ch
Ġr ack
Ġbr ief
Ġ9 0
Ġr ide
Ġcl ay
Ġpin ch
Ġyou t
Ġbo nd
Ġmonth ly
f riend
i ors
Ġpull ing
Ġp c
Ġrelative ly
Ġth reat
Ġsle e
Ġsat is
ro gen
Ġpill ow
Ġdig est
Ġsou p
Ġf its
Ġar ch
Ġd ent
Ġsk ill
Ġm er
Ġhard ware
Ġsuccess ful
Ġw ound
Ġsy n
Ġdis order
Ġre pl
Ġgr ain
gg ing
Ġgr ams
Ġste el
Ġestab lish
Ġdifficult y
Ġbi ke
as p
Ġyout ube
Ġexp enses
Ġill ness
Ġun like
Ġswe at
Ġexcel lent
Ġca ffe
Ġstick s
Ġcirc ular
Ġag ency
Ġst ation
Ġrel ig
Ġappreci ate
and om
m i
Ġl at
Ġ20 0
Ġcap t
re l
Ġfl ight
Ġman ual
Ġce re
Ġw ake
Ġele ments
Ġchalle ng
Ġp ed
Ġ3 5
Ġexpos ure
Ġdam aged
Ġm al
Ġphoto graph
Ġsn ack
Ġun it
we ar
Ġam az
pect ive
Ġmat ches
Ġnutr ients
Ġbask et
Ġal ign
Ġvan illa
Ġup s
Ġnewsp aper
Ġr oughly
Ġw al
Ġfact or
Ġemploy er
Ġcol our
Ġwa iting
ng the
an cing
Ġg au
Ġexperi ences
Ġbreak fast
Ġtong ue
is ions
Ġcirc les
Ġto dd
ire s
Ġtr ade
Ġsee ing
Ġfac ial
Ġho pe
Ġb one
ak er
re te
Ġind o
m ed
Ġst er
Ġpo in
Ġpl at
cl oth
Ġin k
Ġb or
Ġdepe nds
Ġd ro
Ġpol ice
c ra
Ġt ightly
Ġsupple ment
Ġun ited
r as
Ġfor k
Ġhe m
Ġcomp lic
Ġso ot
Ġsurf aces
Ġfr ac
Ġprin ter
Ġclass ic
Ġvolunte er
Ġsa le
Ġha bits
us es
Ġfed eral
Ġhy d
Ġnear by
for ce
ant ed
Ġsub t
Ġvo c
Ġeffective ly
he re
Ġsc oop
Ġmed itation
Ġt uck
Ġmin i
Ġal ert
Ġp ins
Ġhum id
Ġrelax ed
ar a
Ġtreat ed
Ġagree ment
Ġjud ge
Ġgo d
Ġc in
Ġtrig ger
Ġcirc um
Ġcro che
Ġof fe
Ġknow s
Ġel b
Ġconsist ent
Ġgre ater
n el
Ġto es
Ġfe m
Ġbene ath
ak ed
Ġus ern
Ġadv anced
Ġg inger
Ġit ch
Ġsk illet
ough t
Ġswe lling
st art
Ġ1 3
Ġminim ize
Ġregist er
Ġl y
Ġfirm ly
Ġde mon
Ġr ough
Ġyour s
Ġturn s
Ġv ict
Ġpo se
ch ange
Ġadult s
Ġca le
Ġdark er
Ġser ies
Ġcr u
Ġpost s
Ġch op
Ġwr ist
Ġver ify
under stand
if ul
b re
the re
Ġto ss
Ġapp les
Ġgr ains
Ġco re
Ġam ong
Ġloc ations
Ġal b
Ġcomb ined
Ġcale nd
Ġr andom
Ġtr ash
Ġl in
Ġguid el
Ġgrocer y
Ġsec ret
Ġantib iot
Ġdet ail
n ge
Ġinfect ions
Ġbu ilt
Ġcook ie
Ġbro ad
Ġcho pped
Ġpurch asing
Ġopp onent
Ġdes cription
Ġsmo king
Ġch art
ul ated
Ġb ite
Ġconc er
Ġt ension
Ġd ur
Ġdecre ase
Ġloos en
Ġre v
Ġdo ors
Ġsh irts
Ġaccur ate
Ġorganiz ations
Ġpo ly
gg ed
p g
as er
Ġimag ine
Ġli ves
Ġprim ary
am ed
Ġbel t
Ġf arm
Ġblock s
Ġtra ffic
Ġneighb or
Ġdescrib e
Ġfem ale
Ġsa w
Ġincre ased
ic y
Ġcab in
Ġch unk
Ġrespons ible
u x
Ġv i
Ġstay ing
Ġsk irt
on ents
Ġinse ct
Ġsn acks
Ġw arn
Ġgold en
Ġelim inate
Ġd ates
Ġad ap
Ġpony tail
k now
Ġusern ame
Ġbreak s
Ġsp ort
Ġad hes
w ood
Ġst itches
Ġres ume
Ġdevelop ing
Ġha z
Ġsim mer
air y
Ġroll ing
dd en
i ans
Ġfor th
Ġg erm
Ġan ger
Ġselect ing
Ġble nder
Ġpub l
Ġt ast
Ġtest ing
Ġdecor ate
m as
Ġbee f
out s
Ġble eding
Ġm ent
Ġoffic ial
Ġsu dden
Ġg if
Ġhorizont al
Ġg one
ic ian
Ġfor g
Ġd airy
Ġpolic y
Ġchalle nge
Ġmem or
Ġmarr iage
ist er
w r
Ġde l
Ġl au
ch ar
co ver
Ġcoun sel
d le
Ġstrong er
Ġconc rete
Ġh ous
av ing
ert ain
Ġpregn ant
Ġsubstit ute
Ġhigh ly
Ġdial og
Ġde m
Ġrel ieve
Ġcut s
Ġperiod s
Ġjack et
Ġfr ust
Ġab dom
Ġrep ut
Ġkeep s
Ġsu bs
Ġgr ade
Ġtrans port
Ġburn ing
Ġstick ing
Ġdeal ing
Ġscal p
Ġrec ent
Ġdevelop ment
Ġdemon str
Ġpal m
Ġus ual
Ġboy friend
se qu
us hed
Ġpres cription
in ct
he st
Ġpre ferences
Ġmas c
Ġcommer cial
Ġhe ld
Ġmeas uring
Ġh ire
Ġindivid uals
Ġteacher s
Ġbeaut iful
Ġc ough
il ize
Ġcomp ress
Ġbr ace
Ġro d
ber ry
ra se
Ġlap top
d own
Ġgra nd
Ġexte nd
Ġab sol
Ġgr ay
Ġinvol ves
ant ic
Ġselect ion
Ġsol ve
ci ous
Ġco vers
ur al
p ress
Ġear lier
Ġpur ple
Ġsess ion
Ġnav igate
b u
Ġpr ices
Ġeval uate
Ġtooth brush
Ġex f
Ġdisplay ed
mo st
Ġh ip
Ġp ra
Ġd ab
Ġperfect ly
art h
Ġcl ient
Ġcom ment
Ġab use
p ts
Ġst ories
Ġan k
am b
Ġfe ver
Ġm ush
an ut
Ġdi abet
Ġde ck
Ġv om
Ġdet ect
Ġchrist mas
Ġobs erve
Ġac ce
Ġpe anut
Ġmaxim um
Ġb es
Ġfree ze
r om
Ġm ale
Ġl ad
Ġsyst ems
ens ions
omet er
Ġmel ted
Ġabsol ute
os es
Ġj pg
Ġcover ing
Ġdr am
Ġke ys
Ġback up
Ġmin or
Ġcolor ing
Ġaut o
Ġvac c
Ġscrew s
Ġgre ase
Ġcr ow
Ġcom ments
Ġent ry
Ġbir ds
l ines
er o
re m
Ġinclud ed
Ġfun ny
Ġmeasure ment
Ġn ap
Ġorgan ize
Ġto day
Ġgl itter
Ġdig ital
Ġscre ens
Ġche ek
Ġoper ating
Ġcaffe ine
Ġperman ent
zz le
Ġbe y
us hes
Ġconf lic
Ġpo cket
Ġsell ing
Ġre ference
Ġcon vert
Ġproject s
Ġbl ind
Ġman ner
Ġfollow ed
Ġblank et
ke ep
l ings
Ġmedic ine
im p
Ġread er
Ġlight ing
ch an
Ġwe e
Ġor d
d et
v est
Ġbe ach
Ġj ell
Ġcour ses
het ic
Ġpain ful
Ġscr ap
Ġret ail
Ġur ine
Ġtomato es
Ġstre ngthe
Ġd il
Ġde hydr
ify ing
Ġv ag
Ġlab eled
Ġcentim eters
Ġs ne
Ġth us
Ġh ur
er k
be fore
c ast
ad o
Ġprov ider
Ġdisc ount
Ġp unch
Ġele v
Ġh om
Ġst ead
Ġcur l
in ations
Ġpot entially
Ġon ions
Ġmoistur izer
Ġst ack
Ġaccompl ish
Ġinflamm ation
Ġhosp ital
Ġcin nam
Ġevery day
d es
Ġsp o
Ġsafe ly
Ġmot or
Ġmist akes
Ġs ight
Ġadhes ive
in o
Ġbrow se
g age
Ġr hy
Ġanal y
Ġstre et
dra w
Ġlit er
Ġcinnam on
Ġb ac
Ġlink s
Ġinde pend
Ġphys ically
Ġcompl iment
z y
Ġown ers
Ġincre ases
Ġwom an
Ġregard ing
de c
Ġcut e
m od
Ġt ou
b age
Ġv en
ard s
ib ilities
Ġfeed back
Ġincorpor ate
Ġp atch
Ġexperienc ed
Ġde v
Ġac qu
Ġpos itions
oun ces
e qu
ific ations
Ġchr ome
um es
det erm
h as
Ġdet ailed
Ġbre aking
Ġclose ly
Ġnecess arily
Ġte nder
Ġun able
Ġign ore
Ġple ase
Ġbr ushing
Ġpick ing
am ins
Ġcond uct
Ġeven ing
Ġrec y
Ġpast a
Ġbehav iors
Ġre ve
Ġs atur
Ġal arm
Ġstick y
Ġip od
Ġme chan
Ġde b
al th
so ft
Ġt apping
Ġw ip
Ġav oc
pt ion
Ġguidel ines
Ġtop ics
Ġmove ments
Ġel astic
Ġband s
ox ide
Ġconcer ns
Ġdep os
Ġd ut
l ass
Ġval id
Ġa ck
Ġdis able
Ġf rench
Ġack now
Ġal umin
Ġbring ing
Ġact ing
Ġins pect
g ment
Ġw i
it ate
Ġconsist ency
Ġex it
Ġcont ents
Ġpu pp
Ġb ought
ra pe
Ġincre asing
Ġswim ming
Ġfo ll
Ġun c
Ġsand w
Ġp ine
ist ics
Ġansw ers
Ġl uck
t aining
Ġen h
Ġsur v
Ġconce al
ve y
idd en
Ġposs ibly
Ġt ired
Ġrecip es
Ġaggress ive
Ġspir it
Ġpart ies
Ġun lock
Ġeyel iner
Ġbey ond
Ġrest ore
Ġexperienc ing
Ġt an
Ġprom ote
Ġsav ed
Ġs an
Ġso cks
ang les
r ated
Ġl ung
Ġph rase
Ġt ut
Ġb en
Ġco ck
Ġmeasure ments
Ġoccur s
Ġcoll ar
ine a
Ġoccas ionally
Ġturn ed
Ġarr ive
Ġinvol ve
Ġlau nd
Ġb ars
Ġme ant
Ġcar s
Ġfin ally
Ġsw ing
Ġest ate
Ġrestaur ant
Ġreco very
Ġindust ry
Ġcons ume
Ġdep th
Ġr ates
Ġsc ene
k er
Ġcateg ory
Ġprocess or
Ġdesign s
Ġprom ot
v as
Ġt iny
Ġwe igh
Ġsp aces
Ġass ume
Ġprompt ed
w ash
Ġr ap
Ġbot tles
Ġex change
Ġco ord
Ġsum m
aw s
Ġf ah
Ġst ur
ut ed
Ġrom antic
Ġrun s
est yle
Ġalumin um
Ġstate ments
Ġvit amins
Ġtr u
Ġlic ens
Ġcert ified
Ġst ems
g ather
t es
he it
c re
us ing
Ġfocus ed
Ġrad io
whe l
Ġl ying
Ġgu inea
Ġbene fic
Ġne at
Ġinv ent
Ġcontain ing
Ġsearch ing
Ġpower ful
Ġt ough
Ġtop s
Ġin ject
Ġpre m
ren heit
Ġfah renheit
Ġassoci ation
Ġwee ke
y l
Ġho se
Ġcar bo
Ġqu ot
Ġstore d
Ġsp ices
Ġover whel
Ġprov iding
Ġt ack
Ġb er
Ġpract icing
Ġce iling
Ġsp at
Ġro of
he a
Ġfold ers
Ġelectr ical
Ġval u
Ġbirth day
Ġdest ination
id ers
Ġart icles
Ġrot ate
Ġdv d
Ġcroche t
Ġquar ter
Ġc aught
Ġther m
Ġs or
i pp
Ġdisc ard
Ġyoung er
Ġdis k
Ġtemp late
Ġhe els
Ġse ven
Ġright s
m l
Ġcont ra
a it
Ġb io
ci um
Ġfr idge
re g
Ġse am
Ġcalend ar
p aper
on al
determ ine
Ġpur s
Ġrout e
Ġprodu ction
Ġstir ring
Ġoutdo or
Ġdress ing
ul ting
Ġcount y
Ġcal cium
lo c
wh at
Ġsatis f
Ġz ip
Ġthick er
Ġshad ow
Ġpol it
Ġreal istic
Ġbr ist
Ġassist ance
ke w
Ġfr y
Ġpres ence
i pper
r ay
Ġlo sing
Ġrese t
Ġsup erv
Ġkit ten
Ġur l
Ġsoft en
Ġw ool
f ill
in ated
Ġfocus ing
Ġopin ion
Ġsp ark
Ġteach ing
Ġ ounces
Ġp ile
Ġr ace
Ġpre d
Ġdes ire
dec ide
Ġsu g
Ġstr ings
Ġsqu ash
Ġglo ss
Ġcontra st
Ġv io
Ġte ar
Ġpr ay
Ġlead ing
Ġpriv acy
Ġregard less
Ġcult ure
Ġoutdo ors
Ġmicro soft
Ġpr one
Ġlist s
Ġp ale
Ġcarbo hydr
Ġfall ing
Ġmod els
Ġtele v
Ġpad s
Ġsew ing
Ġemp has
Ġcarr ots
Ġsign ature
Ġbed room
st ers
Ġheal ing
Ġmarket ing
m ail
as ant
Ġbra nds
Ġlaund ry
cra ft
Ġd ivid
Ġirrit ation
we ight
Ġox y
Ġrestric t
Ġp izz
Ġsc ience
Ġtrave ling
Ġreview s
Ġover l
Ġestab l
Ġto xic
r ors
Ġaccom mod
Ġcl in
Ġad equ
Ġfold ed
ut h
Ġc u
Ġth igh
and er
Ġbound aries
Ġcon ven
av es
de red
st all
Ġsc en
Ġqu it
c are
Ġhapp ened
Ġwo nder
Ġchann el
Ġbac on
l led
Ġcomp ost
Ġbell y
Ġtru ly
Ġpers pective
Ġhu ge
Ġfu el
Ġch in
te red
Ġtodd ler
Ġr ust
Ġb are
Ġto n
Ġlif estyle
Ġpron oun
g i
Ġfl ag
Ġe arth
Ġshad es
Ġfl or
Ġdec isions
Ġele ment
Ġor al
Ġhe ating
Ġcur ls
Ġplat form
Ġcl ar
Ġd ou
o e
Ġcl ients
Ġsus pect
Ġchang ed
Ġcop ies
Ġbal anced
Ġp ounds
Ġcl o
Ġke pt
Ġbel ief
Ġconvers ations
s a
t ress
Ġhig hest
Ġlaw y
Ġintern al
Ġvict im
Ġspat ula
Ġm ine
Ġsh y
Ġexpect ations
Ġbo ld
Ġredu cing
Ġmush room
Ġstra nds
Ġresid ue
Ġlim its
Ġst iff
Ġinfl u
Ġso y
Ġann oy
Ġrecord ing
Ġrect angle
iv al
im al
Ġmost ly
Ġbeaut y
h ad
Ġdisc om
a i
Ġh idden
me al
Ġimm une
Ġf ib
Ġdiscom fort
Ġintern ational
Ġentire ly
Ġdem and
he n
Ġch ap
Ġset up
po int
Ġtw e
Ġel ig
Ġadvert ise
Ġdiabet es
Ġprofess ion
Ġlab els
u ation
Ġcont e
n ut
Ġs ile
Ġwor n
Ġcover age
Ġenter ing
Ġtempor ary
Ġfil ing
Ġst ones
Ġdefin itely
Ġreco ver
Ġeyes had
Ġwire s
Ġcarr ier
arr ass
Ġemb arrass
Ġstead y
Ġnum er
Ġbe er
Ġweek ly
Ġmiss ing
Ġf ats
Ġco s
Ġun e
Ġstud ying
Ġlink ed
Ġbu ff
air s
i as
Ġb on
Ġcup c
te nd
Ġboard s
Ġbe ads
Ġsign al
g al
Ġfield s
Ġdom in
Ġn ause
Ġtemperature s
Ġr ise
Ġtr ace
Ġdisp os
le arn
Ġch ill
b ies
Ġshel ter
r ain
Ġrece ived
Ġmasc ara
Ġesc ape
Ġpar alle
Ġse nding
i able
Ġa qu
ens ity
Ġh unt
Ġspec ies
Ġcollect ion
Ġh ors
Ġmark er
Ġplant ing
Ġ1 7
ove l
Ġcr isp
Ġsod ium
Ġun ne
Ġto ast
Ġprefer red
Ġstra nd
Ġparticip ate
Ġdi arr
be ll
Ġresist ance
Ġcon sequ
Ġv ib
Ġide ally
Ġtur key
Ġsquare s
rup t
Ġsp an
Ġexcess ive
Ġint ense
Ġcounsel or
Ġw arr
Ġgre et
Ġf er
Ġp itch
Ġcal or
Ġhand ling
Ġlip stick
Ġbe ar
Ġem ails
Ġbusiness es
Ġcount ries
ly ing
Ġpresent ation
Ġd ie
Ġtr ail
Ġroom s
Ġorgan ized
Ġph arm
Ġfrequ ent
Ġho p
Ġpro ve
Ġfert il
Ġst ap
Ġcreat es
Ġpro s
Ġun its
Ġcircum st
Ġtelev ision
r on
Ġto e
Ġdownload ed
Ġge nder
ffic i
z ing
Ġrelax ing
Ġclean ed
Ġmoder n
Ġc ame
Ġte nds
Ġvis ion
Ġbran ches
Ġdiarr hea
Ġcompl aint
i ation
Ġcr ate
Ġpump kin
Ġye ast
Ġcontrib ute
Ġstur dy
Ġso re
w as
Ġinvest ment
Ġtoothp aste
Ġab s
Ġlot ion
Ġcand id
p are
Ġrem ote
Ġhand y
Ġdifferent ly
Ġcub es
Ġext ension
Ġcrit ic
Ġsc rape
res po
Ġpizz a
Ġbab ies
r ied
Ġmat tress
Ġre aches
Ġvac ation
Ġsuccess fully
s hip
Ġlead s
Ġstress ed
Ġholid ay
Ġcomput ers
Ġw ik
Ġenem y
Ġwhe at
oo ps
Ġoffer ing
Ġr ings
Ġdeep er
Ġprocess ed
ug s
Ġadminist r
Ġwra pping
Ġasse ts
Ġo at
Ġsess ions
Ġinfect ed
Ġh ung
Ġgood s
Ġbed ding
Ġvers ions
k y
Ġattract ive
Ġeyeshad ow
Ġstre am
d ge
Ġsk etch
Ġremo ver
Ġvit al
Ġcert ification
Ġtight en
Ġnote book
om s
Ġtreat ing
Ġpupp ies
ig s
ul ations
m ade
Ġcor respo
Ġrec ently
c ase
char ge
Ġb ark
Ġscar f
Ġj ars
Ġwant ed
Ġ3 6
Ġmist ake
Ġbo d
Ġfit ting
Ġip ad
Ġod or
iv eness
Ġlab or
Ġpar agr
Ġdiv or
Ġpe ace
Ġz one
le ep
Ġsome what
Ġprotect ive
arn ish
Ġsuggest ions
sc reen
f r
Ġac ids
Ġparagr aph
Ġsh ots
Ġharm ful
Ġpra ise
um bs
Ġpe ppers
Ġcand le
Ġdecor ations
Ġsubt ract
Ġvis iting
d f
h ow
Ġo me
Ġtyp ing
Ġc aps
Ġa mp
Ġflex ible
Ġn ic
Ġhydr ated
Ġrisk s
Ġprim er
Ġexte nded
Ġpo ison
Ġdiscuss ion
p ack
Ġset tle
Ġph r
Ġshort s
Ġlog o
Ġdat ab
l a
Ġli ver
Ġexpect ed
c m
Ġdra ft
Ġunne cess
Ġgu ys
Ġ5 00
Ġs lo
w ater
if orm
Ġconnect ions
Ġcit iz
ut es
Ġparalle l
Ġwor ried
Ġcomp onents
u ro
Ġso f
Ġtr ial
Ġatt itude
Ġret ain
Ġcateg ories
m ore
Ġh arsh
Ġf ont
Ġd ating
Ġlim e
Ġrout er
Ġjell y
r us
Ġch am
Ġbo b
Ġrecip ient
Ġfu nd
Ġt ile
Ġso ci
ord ers
Ġkey word
Ġr ins
Ġhe el
Ġgr ind
Ġaddition ally
Ġwire less
Ġvalu able
Ġb ent
Ġbe ad
Ġtyp ical
est ic
Ġgre ens
Ġconf ig
Ġremo val
Ġelectr onic
Ġt att
in ating
Ġd ental
Ġupd ates
Ġoxy gen
ur ies
k a
Ġc ig
ed s
Ġal ph
Ġwork ed
Ġimp ress
ck ets
Ġneg ot
Ġp ant
Ġmort gage
Ġf a
Ġper oxide
Ġcur tain
Ġfact s
Ġrat io
Ġb ones
et ies
Ġun sure
Ġdes p
Ġprefer ably
Ġded ic
Ġpercent age
Ġf ishing
Ġfabric s
Ġsurround ing
Ġdiam eter
Ġprof it
Ġo z
Ġup gr
Ġp el
op h
Ġtick ets
t a
Ġaccident ally
Ġpoin ting
Ġbl ot
Ġflav ors
h a
Ġsl ight
Ġmix er
Ġaspect s
Ġper mission
cons ider
Ġc els
on nect
Ġcels ius
Ġtrans l
t ry
Ġdish was
ur b
Ġfight ing
Ġhors es
Ġl ave
il ies
Ġball oon
Ġpost ure
Ġpart ners
Ġbat tle
Ġinstr ument
wh ile
Ġdrag on
Ġp ushing
Ġshare d
Ġconcern ed
Ġvi ol
Ġabsolute ly
Ġat h
Ġb ored
Ġpass ion
Ġfit ness
w orm
Ġc tr
Ġch ord
o ss
Ġfat ty
Ġdeep ly
Ġbot her
Ġrespons ibility
Ġfrost ing
y our
Ġcar bon
Ġaltern ate
Ġa x
Ġdr um
Ġwr ink
Ġrem ed
Ġun iform
Ġsign ed
Ġlave nder
f ish
Ġcry st
Ġalb um
Ġcircumst ances
v is
et ic
Ġsol utions
Ġmoder ate
Ġstretch ing
Ġph ones
Ġd uct
Ġth y
Ġ8 0
Ġconceal er
e en
Ġher b
Ġp ace
Ġch urch
Ġrap id
Ġfor t
Ġinstall ing
Ġcleans er
Ġb ang
Ġcre ase
Ġavoid ing
Ġla wn
Ġvom iting
Ġent ertain
Ġed iting
Ġtr uth
Ġbo at
Ġvir us
Ġpier cing
Ġconst ant
Ġcarbohydr ates
Ġpre c
Ġun f
Ġl ace
Ġal ter
Ġchr onic
Ġpurp oses
ing e
Ġsh red
Ġbubble s
Ġphys ician
Ġgre y
ar ant
Ġinst it
Ġhot el
Ġcow ork
Ġctr l
Ġhob by
Ġcapt ure
Ġrest art
i os
ig ation
Ġd ash
Ġdown ward
Ġw ise
Ġb ills
Ġfe ather
Ġ2 2
Ġgif ts
Ġhar vest
Ġavoc ado
Ġf al
ad em
Ġaccept able
Ġemploy ment
Ġspin ach
Ġs ilk
Ġacknow ledge
Ġlawy er
Ġm ature
rough t
Ġbul b
Ġsim pl
Ġnause a
Ġlo ans
Ġantibiot ics
Ġstr ike
Ġco in
Ġsl ot
Ġpol ite
Ġun in
Ġinte gr
Ġprev iew
Ġdre am
Ġconflic t
ct ors
Ġr ows
Ġneighbor hood
g y
Ġas leep
Ġlo gin
Ġgl ow
Ġ30 0
Ġm ut
qu e
Ġacc ent
Ġreact ions
Ġconstr uction
Ġstro ke
Ġsu fficient
Ġshop s
Ġor ient
Ġp y
ple s
Ġfl ush
Ġask s
Ġfew er
Ġqu ant
Ġhead ing
Ġx box
Ġphr ases
Ġn orth
Ġdirect ory
Ġst able
Ġapp et
Ġdent ist
Ġchunk s
h n
Ġc rop
Ġallerg ies
Ġs en
Ġhum or
Ġp ound
Ġwra pped
Ġbenefic ial
Ġneck l
Ġre ject
Ġv irt
az e
Ġdomin ant
Ġhalf way
Ġhy gi
Ġdeli ver
k ward
Ġins pir
Ġunivers ity
Ġarg ument
Ġaw kward
Ġoffe red
b orn
u ous
Ġac adem
Ġmin t
Ġt alent
Ġh iding
Ġcomp ass
Ġkid ney
Ġp ip
Ġis ol
Ġthrow ing
Ġoat meal
Ġf if
Ġcon ver
if ier
Ġup ward
Ġmom ents
Ġb in
Ġtool bar
Ġreg ion
Ġingred ient
Ġsib ling
Ġw ar
Ġwith draw
Ġstrateg y
Ġregist ered
as ure
Ġrece iving
m ates
Ġcr ust
Ġart ist
Ġte x
ang ular
Ġdraw er
Ġmag ic
Ġsu sp
Ġha ll
Ġag encies
oid s
Ġr im
um ents
Ġmatch ing
Ġjump ing
Ġgau ge
t te
Ġa er
Ġinvent ory
Ġfl uff
Ġche aper
Ġclean ers
Ġnutr ition
Ġstraw berries
Ġtrain ed
Ġban ana
Ġ20 1
Ġstrengthe n
ld er
Ġtechn ology
com ing
Ġanx ious
Ġserious ly
Ġd ot
Ġex tern
Ġtell s
Ġann ual
Ġrelax ation
Ġcap ital
Ġprofession als
i at
Ġo ily
Ġhe ard
Ġtrans ition
Ġprint ed
Ġkn it
Ġident ity
Ġsell er
Ġl u
Ġr az
Ġdis cover
Ġgra v
Ġup side
Ġn est
Ġr ul
alth y
Ġfire f
Ġcan cel
Ġac et
Ġdef ine
Ġdiam ond
Ġbl u
agr am
Ġimp oss
Ġgu arant
Ġo v
op s
Ġra ised
Ġaccording ly
Ġlearn ed
Ġm es
Ġsp ine
Ġdis in
Ġhapp ening
Ġswe ep
Ġvari eties
pro of
Ġprep ar
br ows
Ġflo ss
Ġspeak er
Ġexerc ising
Ġfix ed
Ġpo res
Ġpan c
Ġprep aring
a id
is her
Ġprevious ly
Ġalmo nd
Ġd ess
Ġsu its
Ġ2 1
Ġterm inal
Ġco ach
Ġkn ock
Ġprev ents
Ġp ou
Ġdess ert
Ġvis a
Ġeye brows
Ġhom es
Ġdivor ce
Ġinj ured
Ġqual ities
Ġcou p
Ġallerg ic
Ġfail ure
Ġrepe ated
Ġregist ration
Ġunnecess ary
Ġwork ers
Ġp apers
Ġimposs ible
in ce
Ġreason able
Ġdemonstr ate
ad d
ari um
Ġsav ing
Ġsuff er
Ġindo ors
Ġw ider
Ġpat ients
Ġnear ly
Ġbreath s
Ġw ard
Ġhome made
Ġsy nt
Ġaccom pan
Ġdiagn osis
Ġstop s
Ġsav ings
Ġse qu
Ġbr oth
Ġun us
y al
ex p
u nd
Ġwas hed
Ġpet ition
Ġdest ro
Ġbran ch
Ġcalor ie
Ġv ul
Ġcard io
Ġcor por
Ġtax es
Ġconsider ing
Ġca ul
Ġed itor
an as
Ġshort cut
Ġrel ief
Ġsho ck
Ġ7 0
Ġweap on
Ġro cks
Ġqual ify
Ġdig it
Ġn ood
Ġconstr uct
Ġw ings
m y
im ents
Ġi cing
Ġm m
Ġcand ies
Ġsh ine
Ġbas ically
Ġbowl s
Ġer ase
Ġfore ign
Ġtut or
Ġsh allow
Ġinj uries
Ġthin ner
Ġcl ips
Ġgir lf
am ine
Ġmark ed
Ġperform ing
Ġlif ting
Ġmu ff
am el
Ġhealth ier
Ġpolic ies
Ġunw anted
l ers
u ine
as y
Ġank le
Ġcl ut
Ġinter v
Ġmain taining
Ġtick et
Ġt in
Ġfat ig
Ġn as
ire ct
Ġjoint s
Ġdeli very
Ġtherm ometer
Ġenh ance
Ġconsequ ences
Ġso aking
Ġj am
Ġun he
Ġpet als
Ġact s
Ġsub tle
Ġinte nded
Ġimprove ment
Ġhyd rogen
Ġextern al
om y
Ġpe ar
Ġappro ved
Ġh us
ct ure
Ġadop t
Ġadequ ate
Ġb om
Ġb ind
Ġco ats
Ġbor row
Ġr iding
Ġob l
Ġthick ness
Ġreplace ment
ll er
Ġsun screen
Ġhu nd
n o
Ġs outh
Ġinst agram
Ġcook er
Ġsimilar ly
Ġf ence
Ġhund red
pre pare
Ġre ly
Ġj aw
Ġpack aging
Ġsw ipe
Ġcost ume
Ġsing ing
Ġc ush
Ġmot ions
Ġrecommend ations
Ġre ar
Ġmain ten
Ġmagaz ines
Ġpre cise
Ġfun ctions
Ġclose t
un ge
Ġlat est
Ġmainten ance
Ġf au
Ġl iner
Ġal oe
ang es
Ġins p
Ġfoll ows
um ble
Ġgen uine
Ġf les
Ġm g
Ġmind ful
Ġfall s
Ġad s
Ġf ul
Ġp arch
Ġi os
ll a
ag ers
Ġber ries
Ġsignific antly
n ame
Ġfract ion
Ġo s
Ġb aked
Ġbro cc
cl oud
Ġparch ment
Ġrem ains
Ġcomp ound
Ġh t
Ġc her
wr ite
Ġsc ient
Ġhapp iness
Ġweak ness
Ġdelic ate
Ġcomfort ably
Ġmess y
Ġwarn ing
l ar
Ġsh ave
Ġbar r
Ġach ie
m ate
Ġh ood
Ġv ill
Ġsandw ich
Ġd ots
Ġcomp rom
Ġweeke nd
Ġt ire
Ġis land
Ġwas her
Ġcrit ical
Ġd ancing
Ġplay ed
Ġconcent rate
Ġcan vas
Ġbefore hand
ic ide
Ġco pper
Ġve gg
Ġopin ions
Ġrein force
Ġamaz on
Ġp df
Ġsent ences
Ġindepend ent
at ches
Ġit al
ap pe
Ġbull ying
Ġt sp
om a
Ġenc oun
Ġhit ting
un ately
Ġbed time
Ġdress es
Ġcommand s
Ġdep ress
Ġform ing
Ġgar ment
Ġvari able
Ġroll er
Ġsor ry
ow el
Ġdistract ions
Ġexf oli
lass es
Ġcu cum
Ġch lor
ick s
Ġstress ful
ys is
Ġstraight en
Ġexplore r
Ġg est
Ġwash cloth
Ġsky pe
Ġbel ong
Ġpill ows
Ġcon so
Ġwhe els
Ġpre tend
Ġident ification
Ġc el
Ġre verse
Ġhum ans
Ġround ed
Ġvent il
Ġp ork
Ġor g
Ġpass ed
Ġsu ck
Ġhair s
Ġop ens
Ġtrig gers
cre ate
Ġpo ps
Ġinte nd
Ġdo se
Ġco ating
Ġcr own
Ġbull y
Ġcheck ed
Ġbas ics
Ġport ions
p es
av a
Ġbrocc oli
c ue
Ġb rought
Ġwh om
Ġcl erk
Ġcomple ting
Ġlow est
Ġfu nds
Ġcy l
Ġadvert ising
Ġelb ow
Ġv ase
Ġsp a
lo s
Ġshoot ing
Ġter r
Ġl ashes
Ġestabl ished
Ġy ol
Ġdo s
Ġwe l
Ġbr ushes
Ġlo gged
Ġsubst ance
a ud
Ġt bs
Ġr am
Ġtrans act
Ġfore head
Ġcur ve
Ġdiffere nces
c ers
Ġbre w
Ġmushroom s
ac ity
c ling
Ġr ank
Ġover ly
Ġval ve
Ġr ush
Ġdam aging
Ġpow dered
Ġm ile
Ġpo ke
Ġcomb at
Ġshe lf
Ġindic ates
Ġdefe nd
Ġre cept
Ġstuff ed
Ġch ores
Ġread ers
Ġdecor ative
us ive
Ġstim ul
Ġab ilities
Ġactiv ate
Ġhygi ene
Ġcons cious
Ġb its
Ġb ump
Ġredu ced
Ġdise ases
Ġcent ral
Ġclass room
Ġh un
Ġhob bies
Ġome ga
Ġd erm
Ġsp ent
Ġdoll ars
in c
Ġg ap
Ġgr an
Ġgirlf riend
Ġj ap
ph ones
Ġpsych olog
Ġa st
Ġbl ades
Ġver b
Ġm iles
and s
Ġper mit
Ġsil ic
Ġsw allow
go ing
Ġimp ression
Ġcent ers
Ġconnect ing
Ġirrit ate
Ġgall on
Ġbr ake
Ġatt acks
Ġmem ories
Ġr ip
Ġap olog
Ġelectr on
Ġlens es
l ined
Ġcr im
f ting
Ġd ull
Ġe ffici
Ġsh aving
Ġend ing
Ġg ut
Ġdr ies
p ie
Ġass um
ro s
Ġdo ctors
Ġgr own
Ġchalleng ing
Ġl oops
Ġe b
Ġband age
Ġmes h
Ġt iles
ap or
Ġconsum ing
Ġer ror
Ġmill ilit
i ber
p age
Ġdis charge
Ġdelic ious
Ġco co
Ġess ay
Ġcomplic ated
p arent
Ġe th
Ġassoci ate
Ġfiref ox
Ġjap an
Ġgar age
Ġteas poons
l im
ic ip
Ġp up
Ġn it
Ġsal mon
Ġgrad es
Ġca ution
Ġadv is
Ġflu ids
in i
Ġrul er
Ġup right
Ġut ility
Ġh iring
ry lic
Ġcentim eter
Ġtbs p
u ce
Ġstr ap
Ġso le
ak ers
Ġcomp at
Ġdom ain
Ġdissol ve
Ġmagaz ine
Ġbreed ing
Ġpl ot
Ġgl ut
Ġveh icles
Ġwh ites
Ġher bal
Ġhold s
Ġsyn c
Ġcoun se
Ġrelig ious
Ġbr on
Ġsoap y
Ġo h
Ġle ash
Ġco ins
rop h
Ġattach ment
Ġbes ide
Ġh d
Ġwor st
Ġdownload ing
Ġstro kes
Ġst ool
Ġbul bs
j i
Ġ ounce
Ġm p
Ġm aps
Ġk ing
fo ld
Ġfal se
Ġi cloud
Ġfan cy
c u
Ġ3 2
Ġroll s
Ġmarr ied
Ġbr ack
Ġpass port
Ġreve al
Ġre wards
Ġac rylic
Ġstrength s
Ġr ude
Ġcand les
Ġbreed s
Ġv ig
pl ant
Ġlung s
en ger
Ġdra wn
Ġless ons
Ġstay s
Ġmajor ity
st s
Ġpronoun ced
Ġhung ry
Ġm ul
Ġe uro
Ġgr ate
Ġman ually
Ġsn ake
Ġtab s
Ġsc o
Ġw it
Ġin exp
Ġstrugg ling
o dy
Ġper f
Ġstand s
Ġg mail
Ġp ap
Ġmin eral
int s
Ġautom atic
Ġsw ab
Ġdeterm ined
Ġconsum ption
Ġinter ior
Ġeng aging
Ġspeak ers
Ġbelief s
Ġdr ivers
Ġdatab ase
r am
Ġbr idge
Ġcirc ulation
Ġden om
Ġdef ense
Ġclos est
5 0
Ġsh iny
Ġocc up
k ed
Ġsepar ately
a les
v ings
Ġpre ference
Ġpe pp
Ġep is
Ġsmell s
Ġmine craft
Ġtatt oo
Ġprescrib ed
Ġelig ible
Ġposs ibility
Ġest imate
sp ray
Ġham mer
Ġl ining
Ġprescrib e
Ġhe ro
Ġprocess ing
Ġsn ip
Ġtra um
Ġclos ing
Ġdis orders
Ġwh ose
Ġrep et
log ist
Ġspread s
Ġp ause
Ġto ler
Ġsee king
Ġcontin uing
Ġfles h
Ġsh ipping
Ġco pe
Ġstandard s
Ġclim b
ill y
Ġrhy th
Ġjud gment
Ġst alk
ap es
Ġprevent ing
Ġlead er
Ġdon ate
Ġraz or
Ġtr act
Ġexh ale
Ġcru cial
Ġre ached
Ġres erv
Ġgu est
Ġscr ipt
Ġsuff ering
Ġbul k
Ġpo em
Ġme ats
Ġafter wards
Ġmach ines
o le
Ġb order
Ġal t
Ġrepresent ative
Ġw ent
Ġn one
Ġstr ict
Ġrest ing
Ġdepos it
Ġco des
Ġprepar ation
i ppers
Ġcl oud
Ġdec iding
Ġconte xt
Ġunhe althy
Ġminim al
Ġclub s
ol a
Ġswe ater
Ġt ense
Ġf aces
Ġto ld
Ġback pack
se lect
Ġal le
Ġfil ters
Ġcream s
Ġrespons ibilities
Ġr ac
Ġpoint ed
Ġdescrib ed
Ġmillilit ers
ic he
Ġen velo
Ġinh ale
art s
Ġgu ess
c al
Ġlist ing
Ġhead s
Ġdevelop ed
Ġa irt
Ġsp ider
Ġro b
Ġste ak
Ġbreast s
Ġreput able
Ġst amp
Ġco ated
Ġpass ing
Ġred ness
Ġweight s
Ġadv ent
Ġenvelo pe
Ġp uff
Ġj unk
Ġflat ten
Ġb unch
Ġcool ing
Ġpal ms
g u
Ġext ensions
m at
Ġr h
Ġpl ates
Ġinflamm atory
Ġnur sing
Ġsurpr ise
Ġg ums
al ous
Ġposs ess
Ġdishwas her
Ġne are
Ġp im
Ġout put
Ġton es
ver ages
Ġn er
Ġsp ice
od or
Ġobvious ly
Ġbatter ies
Ġsp ill
Ġmet er
Ġdisin fect
Ġse mi
Ġbal m
Ġpepp erm
Ġin qu
Ġas pir
Ġdirect ed
Ġcounse ling
Ġscrew dr
Ġded uct
Ġnas al
Ġc ouch
Ġfr ames
Ġart ific
Ġmeet ings
Ġtable t
Ġc ube
oo led
Ġbr it
Ġaffect ion
th ink
Ġorig in
Ġexc ited
Ġfertil izer
Ġab ras
Ġcr acks
Ġdec ided
Ġleft over
Ġsubject s
Ġcoco a
Ġtr uck
Ġbl ush
Ġtrust ed
Ġw ig
Ġp ars
Ġcolor ful
Ġhumid ity
Ġinsect s
Ġt une
Ġm ud
ar se
Ġopen ed
Ġtra its
Ġproced ures
Ġdou bt
en er
Ġhead band
im eter
Ġsan it
Ġconven ient
Ġcan ned
Ġi l
an ch
Ġnot iced
Ġaddress es
Ġsatisf ied
Ġst ub
Ġint im
Ġcool er
Ġer rors
Ġchap ter
Ġl ub
Ġent r
Ġsudden ly
Ġnood les
c ular
Ġst airs
Ġexpress ion
Ġanaly ze
p al
Ġg arnish
Ġr ash
Ġfr agr
Ġrel iable
Ġdisc onnect
Ġinf o
Ġcit rus
co de
Ġaccess ible
Ġweap ons
Ġsupp osed
Ġapplic able
Ġtag s
Ġexh a
Ġ35 0
Ġpat ches
Ġess entially
p ting
Ġhe ll
Ġshr ink
Ġadop tion
Ġcon cept
el ine
Ġadd s
ang ers
app ly
Ġfatig ue
Ġpepperm int
Ġl an
Ġ2 3
Ġwarr ant
Ġe fficient
Ġde odor
Ġfib ers
Ġret ire
Ġexc use
Ġresist ant
Ġath let
er als
Ġ 00
ap y
Ġam mon
Ġconso le
n et
Ġt act
Ġs ac
Ġlay out
Ġpair s
Ġe lder
av oid
Ġtoo k
Ġfour th
Ġcomp ar
Ġcirc uit
es ter
Ġhorm one
bu y
Ġver bal
Ġscratch ing
Ġresol ution
Ġfr aud
Ġban anas
Ġcabin et
Ġf av
Ġp or
Ġd er
Ġn or
Ġhe ated
Ġany way
nd r
Ġsp are
Ġg ly
se ls
Ġunus ual
Ġf ault
Ġm ilit
Ġsh ip
ab or
Ġjo ining
Ġdocument ation
Ġasse mble
Ġsib lings
Ġtransport ation
Ġbel ie
Ġrare ly
Ġchar ity
Ġje alous
Ġencoun ter
Ġwork place
Ġredu ces
Ġdestro y
Ġskin ny
Ġi v
Ġunder lying
Ġairt ight
Ġexha ust
Ġre ferences
Ġdisc ol
Ġcra b
ident ify
o de
Ġz o
Ġcap able
in ator
Ġw ave
ad der
Ġso ck
Ġopt im
ad a
Ġwalk s
Ġassign ment
Ġwik i
Ġcharacter istics
Ġju ices
Ġchar ged
Ġrestrict ions
h ot
Ġcontrol s
Ġun fort
Ġattemp ting
Ġsoot hing
Ġtest ed
Ġcompl ain
Ġstrain er
Ġsh ield
r ings
Ġlength s
x y
Ġb ait
ad ing
Ġser ved
Ġsea led
Ġan ch
Ġassign ments
Ġm r
le nce
Ġbr u
Ġpers ist
Ġneare st
Ġf ans
Ġle nder
Ġat m
Ġint ensity
Ġwant ing
Ġpract ices
Ġart ists
Ġbang s
Ġev ol
Ġdisc ip
Ġscrewdr iver
h op
Ġfre t
Ġlicens ed
Ġle ak
Ġpaper work
Ġplan e
Ġemot ionally
Ġintrodu ction
Ġpun ish
s ome
Ġdi aper
Ġgr ows
Ġmet ers
Ġhous ing
Ġmo ved
Ġany more
Ġcur sor
ut ing
ud ge
Ġshr imp
ab ilities
ag us
Ġstr aps
Ġacc um
Ġtot ally
Ġappet ite
Ġinspir ation
Ġch alk
Ġteam s
Ġl ined
Ġvar ies
Ġmilit ary
h ave
Ġfr ying
Ġw and
Ġf ather
Ġpurch ases
Ġlub ric
os ition
book s
Ġ15 0
ro be
Ġbo nds
Ġdis appe
Ġappropriate ly
Ġkeyword s
Ġall ergy
Ġb orn
Ġdis ag
Ġf ant
Ġoffic er
Ġc iv
Ġprotect ed
Ġspread ing
Ġrab bits
v ent
he nt
Ġmatter s
Ġdigest ive
Ġme ets
Ġrel ie
Ġc ider
Ġu v
Ġde als
Ġup wards
Ġbook mark
a ign
Ġvoc al
Ġeb ay
lo sure
Ġsoci ety
i ant
Ġsoak ed
Ġcamp aign
Ġfly ing
Ġth ous
Ġres ulting
Ġstick ers
Ġspan ish
Ġfa ith
it ations
Ġpre heat
Ġreport s
Ġsto pping
Ġag es
Ġent ered
Ġear rings
Ġpark ing
Ġcompet ition
p x
Ġpo ckets
Ġdistrib ute
Ġtou ches
o ster
Ġback wards
Ġmin erals
Ġst ars
Ġdis ability
Ġsupport ing
Ġflo ors
Ġsubst ances
Ġfam ilies
Ġsand paper
Ġrestaur ants
Ġenem ies
Ġl aser
Ġbod ies
Ġcl imate
Ġbu gs
Ġhyp er
Ġunlike ly
Ġjo ke
b urn
e em
Ġwh it
Ġpot s
Ġ4 00
Ġaqu arium
st one
Ġbe verages
Ġle nd
Ġag ents
Ġappe al
Ġneighb ors
Ġartific ial
Ġgr asp
Ġvegg ies
v able
Ġplay s
ne ys
Ġblock ed
Ġglut en
ic ious
Ġfl ame
Ġchar ges
Ġinteract ions
Ġsug ars
ric s
Ġg ate
Ġjo hn
Ġrese mble
Ġnetwork ing
Ġexpert s
Ġmo le
Ġex ter
Ġreach ing
Ġbank s
Ġprior ity
Ġtor t
Ġcheck s
Ġdoll ar
Ġcig are
Ġtim er
Ġexp ose
Ġmu se
Ġob st
Ġm it
Ġr ug
u ctor
Ġle d
Ġest eem
Ġrhyth m
Ġaut hent
Ġscrub bing
Ġabdom en
Ġcont amin
Ġstrateg ies
Ġelb ows
Ġo re
Ġch ose
Ġinst ant
Ġsk irts
ial s
Ġemploy ers
Ġaffect s
Ġrect angular
Ġpine app
Ġy ork
Ġhead er
Ġcustom ize
Ġdist inct
Ġgrou nds
Ġsl iced
Ġgreat ly
Ġv es
Ġcarry ing
Ġrins ing
Ġm s
ch at
Ġgar bage
Ġ7 5
l ord
t ens
Ġc ities
Ġhair spray
ib it
Ġcontro ller
r ating
Ġg aps
Ġplace ment
ang ing
Ġblock ing
Ġgot ten
Ġmoistur ize
rem ove
r im
Ġt ires
Ġseason ing
Ġult imately
Ġemphas ize
Ġhand les
Ġmembers hip
Ġconsist ently
Ġvul ner
Ġguid ance
Ġslee ves
b ur
st orm
se arch
Ġsupport ive
Ġbar rel
Ġdel ay
et te
Ġman ip
Ġperform ed
Ġaccept ed
Ġn amed
Ġpe as
Ġimport ance
Ġste ep
Ġconcent ration
Ġcalcul ator
Ġg ho
Ġang les
Ġabdom inal
Ġward robe
Ġeng aged
Ġdre ams
Ġpr ime
Ġrespect ful
Ġgroom ing
Ġcheek s
p ick
Ġresp ir
pre heat
Ġpolit ical
Ġammon ia
Ġbe an
Ġcrim inal
Ġinexp ensive
e w
Ġb ass
ath y
Ġcertain ly
Ġe ast
Ġch ili
Ġfrequ ency
Ġland lord
Ġfe ars
Ġpurs ue
Ġsen ior
n oon
Ġp ills
Ġimpro ving
Ġt um
Ġcur ling
Ġsc ared
iz ers
Ġafter noon
Ġcar ing
Ġht ml
Ġout let
Ġmeas ures
Ġlock ed
Ġenable d
Ġbig gest
Ġrepl acing
nut s
Ġbrace let
Ġfr izz
Ġde fic
Ġqu ote
Ġdif f
Ġsecure ly
ab ol
Ġover come
Ġpan ic
Ġdesign ated
Ġz ero
Ġexpl an
Ġdisag ree
Ġn ative
Ġeduc ational
Ġpul se
Ġauthent ic
g un
it ivity
et o
ass ium
Ġlead ers
Ġrent al
x id
Ġwork er
Ġfl atter
Ġcatch ing
c d
Ġre ass
Ġspec ify
Ġrepres ents
Ġg al
am ic
Ġpass es
Ġ12 0
Ġactive ly
t ies
Ġp il
Ġm arsh
Ġst ab
Ġrec r
Ġpract ical
Ġspecial ist
Ġmul ch
Ġc uff
Ġmoistur izing
Ġshel ves
Ġst encil
Ġheav ier
Ġcommit ment
Ġp ud
ip ts
Ġdet er
Ġflex ibility
Ġw aves
Ġn ovel
Ġhe y
Ġbr other
Ġpot assium
Ġinter fere
Ġdrain age
Ġdedic ated
Ġcon j
Ġshe lls
Ġdi ary
gr ap
Ġfit ted
Ġadjust ments
p urch
Ġsupport s
Ġver a
Ġbacter ial
c orn
Ġn ine
Ġpay pal
Ġfam ous
Ġinflu ence
f ace
Ġt ang
Ġe con
Ġbe es
er ved
o graph
he et
Ġr ating
Ġemot ion
Ġy ah
ll ig
Ġfl irt
Ġro ses
Ġwhere ver
Ġmiss ion
Ġcompare d
Ġthan ks
Ġconf used
Ġconsider ation
Ġir s
Ġzo om
Ġt ent
Ġhold er
Ġfing ert
purch ase
ort hy
Ġback ing
Ġve gan
Ġstrugg le
l ay
il o
if ies
arm s
Ġtor so
Ġune ven
Ġh ug
Ġaut istic
Ġsign als
Ġdisc oura
rit is
man y
Ġwrink les
Ġcyl inder
a led
Ġtrad ition
Ġinteract ion
ndr ome
Ġsy ndrome
Ġoccas ion
Ġpul led
Ġc ort
Ġsl ides
Ġcr ushed
Ġprin ting
Ġresol ve
Ġc ure
Ġst oring
Ġkn ead
Ġgr it
Ġliqu ids
Ġlock s
Ġindo or
Ġb oring
Ġpo ll
Ġspe ll
Ġplay list
Ġidentify ing
un ction
Ġro lled
Ġim ple
Ġmar in
Ġcon e
Ġbutter f
Ġpars ley
Ġo dd
Ġch ip
Ġtr unk
Ġdist illed
Ġneckl ace
m m
Ġt ies
Ġo val
Ġfr ied
Ġex cl
Ġus age
Ġar ts
Ġdec imal
Ġjo kes
Ġmention ed
Ġad o
Ġbo l
Ġcho le
Ġur ge
Ġblank ets
Ġsu lf
Ġunfort unately
Ġt amp
Ġs ister
Ġde ce
Ġsecond ary
Ġchew ing
iny l
Ġsumm ary
Ġnot ifications
Ġpo d
Ġapart ment
Ġmount ain
Ġm ad
Ġhead aches
Ġacadem ic
Ġy ield
Ġad m
Ġte m
Ġinf ant
Ġs illy
Ġle ase
Ġcere al
Ġaccommod ate
Ġil le
Ġlar gest
Ġpur se
Ġpain ted
Ġinter p
Ġrelig ion
Ġar th
Ġlet t
Ġins ul
Ġem o
Ġprodu ced
Ġadap ter
Ġspecial ized
kew arm
Ġout look
Ġinte llig
Ġste re
Ġlu kewarm
pie ce
Ġprote ins
z er
Ġequ iv
Ġmeasure d
Ġnot ification
ir d
Ġapp lies
Ġchalleng es
Ġmet abol
Ġclaim s
Ġd ump
Ġh ate
Ġconfirm ation
Ġcel ery
Ġpop corn
Ġrequest s
Ġperson ally
Ġgener ate
Ġeat en
izz le
Ġh its
Ġcopy right
Ġannoy ing
iche ver
Ġbehavior al
Ġupgr ade
Ġtim eline
Ġobst ac
Ġwh ichever
Ġconc ert
Ġru in
Ġpencil s
Ġcompat ible
Ġlo ves
Ġun ion
m el
Ġn arr
Ġreal ity
c a
Ġp ans
Ġl amp
Ġtrain er
Ġmut ual
Ġthem es
Ġwater proof
Ġcitiz ens
Ġun re
Ġelect ro
Ġatte nding
ster y
ster ol
Ġsynt hetic
he red
Ġwater ing
Ġform ed
Ġlay ing
Ġbit es
Ġhist or
Ġbl adder
Ġsecure d
Ġsw ord
Ġple asant
Ġtechn ical
Ġacid ic
Ġamaz ing
Ġdehydr ation
Ġv int
Ġsur vey
Ġfold ing
io xid
Ġra ising
Ġcrow d
Ġchole sterol
Ġc ooled
Ġresour ce
Ġdur ation
Ġf est
ugg ing
Ġeff orts
Ġhaz ard
le x
Ġgr id
Ġant ioxid
Ġrefriger ate
Ġcab bage
Ġexam ination
Ġdeal er
Ġ18 0
Ġbrist les
Ġclo ves
p a
r ont
Ġsh a
Ġprop ort
ines e
Ġdut y
vis it
Ġdos age
Ġpineapp le
Ġsof ter
ul s
Ġcomp ens
Ġgen re
Ġconc l
Ġclim bing
Ġcut ter
Ġfreez ing
Ġitch ing
w all
Ġtop ical
Ġhal ves
Ġpo le
Ġfin ishing
Ġdesp ite
Ġwel come
Ġyah oo
c ip
Ġc oop
Ġse ar
Ġcur ly
ball s
Ġbio log
Ġhell o
are s
Ġsy ll
Ġspecial ty
Ġtr ies
Ġv inyl
Ġpost ing
Ġpet ro
Ġdef ined
Ġsymbol s
Ġslee ve
Ġvig or
Ġunder wear
Ġdist urb
Ġsile nt
b l
Ġh ay
Ġpro l
Ġdr ip
Ġun ex
Ġvint age
h ma
Ġs ed
Ġproduct ive
Ġ4 8
pp ings
Ġstick er
Ġobject ive
Ġpl iers
Ġconf ront
Ġpick ed
Ġpan els
Ġbuild up
Ġdisplay s
Ġas h
Ġmen str
Ġveterin ary
Ġoutf its
Ġsoot he
Ġbu nd
Ġcra zy
Ġhous es
Ġb atch
reat h
Ġchar co
Ġstain ed
Ġburn s
Ġlett uce
Ġgr amm
Ġcur ved
Ġcan s
Ġwor s
Ġtrick s
Ġequiv alent
1 2
Ġe t
Ġam b
Ġequ ally
cle an
Ġalph abet
Ġcurtain s
Ġciv il
s qu
Ġcomple ment
Ġjapan ese
ag ue
Ġasse mb
Ġreput ation
Ġspirit ual
h ouse
t age
Ġg er
Ġsm iling
Ġimp er
Ġf res
Ġout ward
Ġun p
Ġgra pe
Ġdiet ary
b ed
ing u
Ġscen ari
Ġperf ume
Ġref ers
Ġthor ough
Ġs ar
rou d
ring e
Ġtele phone
Ġsad dle
Ġdivid ed
Ġeuro pe
eto oth
Ġtrack ing
Ġut ens
a que
Ġ ll
st arch
Ġr if
Ġfr ies
Ġinc red
Ġkn ots
Ġholid ays
b ac
Ġsmooth ly
Ġfrust rated
Ġelectron ics
Ġgr out
Ġcontrol led
Ġstar ter
Ġvert ically
Ġblu etooth
er ia
Ġm ant
Ġcomp onent
Ġcorn starch
Ġspl ash
Ġthigh s
Ġcharco al
Ġc ables
Ġwor ms
Ġgr ime
Ġben ch
m en
Ġp ian
Ġp roud
Ġst ages
Ġhyd ro
o ff
Ġm ig
Ġcalm ing
Ġund ers
Ġadministr ator
Ġp ic
Ġbo lt
Ġstr ange
Ġmu cus
Ġsepar ated
Ġdram atic
Ġapolog ize
Ġwhere as
Ġvoc ab
Ġbarr ier
Ġu l
Ġz inc
augh ter
Ġcolum ns
Ġexter ior
n is
as hing
Ġr ig
Ġinv itation
Ġfold s
Ġsu ng
Ġmer ch
Ġbl ur
Ġexc iting
Ġe c
Ġreg ulations
Ġprem ium
Ġair port
Ġbed s
al y
Ġdisable d
if ting
Ġfe min
Ġmicro f
Ġsatur ated
Ġoverwhel med
Ġd uck
Ġmu g
Ġnutr itional
Ġord inary
t alk
Ġrepe l
Ġopp osed
Ġbro ker
Ġsuc ceed
Ġsign ing
Ġdur able
Ġcritic ism
Ġretire ment
Ġr ay
Ġstr i
Ġput s
Ġve l
Ġbas il
Ġpartic les
Ġcra w
Ġint ention
Ġun pl
Ġentertain ment
Ġble nded
Ġhorizont ally
Ġw reath
Ġg em
Ġneed les
Ġmic roph
Ġin box
Ġtw ent
Ġalmo nds
Ġimple ment
Ġad mit
if orn
Ġqual ified
Ġdisp ose
Ġcomplic ations
Ġf ade
Ġmiss ed
Ġtun a
Ġcupc akes
Ġm im
ed e
st ain
ove red
Ġem br
Ġrep ly
Ġabras ive
nd ay
Ġm art
Ġcal iforn
Ġaltern atives
Ġdistract ed
Ġful fill
Ġres ort
Ġinstr uctor
Ġill ust
Ġauthor ity
Ġast hma
Ġw ick
Ġwarm er
Ġinstall er
Ġrepl aced
Ġo ct
st ock
Ġal to
Ġcr ime
Ġless on
Ġpack ing
Ġt ilt
Ġno body
Ġperiod ically
cript ions
Ġt ill
Ġreturn s
Ġinsert ed
y ard
Ġtr ied
Ġmark ers
Ġindivid ually
loc ate
Ġgard ening
Ġdispos able
Ġspe lling
Ġhand ed
Ġdist ress
Ġpour ing
Ġcondition ing
Ġtit les
Ġvio lence
Ġform er
Ġin app
Ġr um
Ġbr aces
Ġphotograph s
Ġ 0
Ġgr ant
Ġwal let
n orm
Ġsl ower
co p
at in
Ġm aker
Ġnew er
Ġrespons es
Ġoverl ap
Ġt u
Ġr ays
Ġte ens
Ġsl im
Ġhorm ones
Ġderm ato
Ġinapp ropriate
Ġobs ess
Ġunin stall
Ġvulner able
d a
Ġch inese
Ġpast ry
Ġnotice able
Ġmod ify
Ġ q
Ġsl iding
up s
Ġscient ific
her n
Ġbo ys
Ġcol on
Ġrec all
Ġint est
Ġdif fer
Ġcomm iss
Ġheav ily
Ġseason ings
Ġmeaning ful
Ġh oop
Ġsit s
Ġlast ing
Ġlength wise
Ġgra vel
Ġinterv als
r ant
Ġg oth
Ġhe s
Ġadd iction
Ġbl ame
te en
Ġbat hing
ony m
Ġchair s
Ġfeather s
re w
Ġsqu at
Ġsuggest ed
Ġeyel id
Ġclock wise
Ġment ally
Ġo int
Ġcl ou
Ġsp ons
Ġdire ctor
the se
Ġdef ensive
Ġbon us
Ġcowork ers
Ġmarsh m
Ġcaliforn ia
Ġan ts
Ġr ail
ul ary
Ġrel ate
Ġcar bs
Ġquar ters
Ġquick er
Ġsurpr ised
Ġcush ion
Ġentr ance
Ġvocab ulary
Ġto bac
Ġi b
Ġcon vey
ol len
Ġenvironment al
cher s
ot ic
Ġadminist ration
ree k
Ġplant ed
p ace
Ġant icip
Ġprin cip
Ġupd ated
Ġtoothp ick
h d
Ġw ing
gg le
Ġprodu ces
Ġpat ience
fl ow
Ġtast es
c ure
or ation
Ġhand ful
Ġsw ollen
Ġacce pting
Ġmicrof iber
Ġsche me
Ġgrad uate
Ġ8 00
Ġrefer red
down load
Ġb ay
Ġst arch
Ġtr ips
Ġpublic ation
m ary
Ġs kew
Ġth aw
Ġwonder ful
c s
Ġd ad
Ġse iz
Ġpu zzle
Ġaware ness
Ġmemor ize
Ġven ue
Ġbob by
Ġc akes
Ġst ance
il ant
Ġpres erve
acter ial
Ġwin ning
Ġsnap chat
k ins
ic ular
Ġlike li
Ġrele ased
Ġtong s
v a
Ġi cons
Ġfile d
Ġtr acks
Ġwe eds
Ġk its
Ġlo b
Ġbr ings
Ġsn ug
Ġconst ip
Ġcos met
Ġlikeli hood
er se
Ġexam s
Ġcor k
Ġpost er
Ġcompl iments
Ġdenom inator
o ons
le um
Ġtr aps
Ġve nd
Ġintern ship
Ġmar gin
Ġwrit er
Ġacce ler
Ġmagn es
Ġpubl isher
Ġwit ness
Ġplan ned
Ġgraph ic
Ġquot es
re he
ist ers
Ġsur g
Ġblo om
ian ces
Ġrefr ain
Ġ25 0
Ġtub es
Ġantib acterial
Ġstap le
Ġcomprom ise
Ġtobac co
Ġt ied
Ġb is
Ġm and
Ġbu ck
Ġnew ly
Ġmo on
Ġfo nd
Ġevery where
Ġcap acity
Ġstim ulate
Ġrose mary
Ġretail ers
Ġfau c
Ġp ens
st y
Ġsome body
Ġsc ary
Ġphoto grap
Ġflow ing
Ġsupport ed
Ġrepe ating
Ġfoot ball
Ġcord s
Ġcandid ate
Ġleg it
om p
Ġgo ss
Ġen force
Ġdr ives
Ġsup erm
Ġhope fully
Ġgreet ing
Ġc er
Ġn ipp
Ġkit tens
Ġanal ysis
Ġtwent y
pect ed
Ġcamer as
Ġfluff y
other apy
Ġbuild ings
Ġburn er
Ġlangu ages
Ġblo nd
Ġpack ed
Ġcra fting
Ġtempor arily
Ġcere mon
Ġille gal
Ġint ent
act ive
miss ions
t led
Ġt int
Ġswitch ing
Ġcelebr ate
Ġpetro leum
Ġab norm
Ġfl ap
Ġman e
Ġcons ent
Ġvari ables
Ġneg lect
Ġaltern ately
Ġassign ed
Ġpou lt
Ġcent ered
Ġsurround ings
p m
Ġpress ed
Ġdialog ue
Ġun k
Ġtw ee
Ġcre ep
Ġtemp ting
Ġer aser
Ġsurv ive
Ġan ge
Ġsp icy
Ġqu art
Ġcar amel
Ġhus band
Ġobl ig
Ġcucum ber
Ġl umps
Ġtemp ted
Ġelse where
Ġdiv ision
Ġwide ly
Ġde bit
Ġv od
Ġgerm an
Ġa uction
Ġp ly
is ms
Ġr ipe
Ġca ut
Ġprom pts
Ġabsorb ed
la unch
Ġarth ritis
Ġend ed
Ġass ert
Ġcream y
t urn
it o
Ġre ven
Ġwe ars
Ġper m
Ġdec ent
Ġor nam
Ġk ale
ol iate
Ġspray s
Ġnetwork s
Ġsung lasses
se e
Ġflo at
Ġvisit ors
Ġlate x
Ġdefin ition
Ġd umb
Ġph ase
Ġcabin ets
Ġfr ag
Ġexe cut
Ġsilic one
Ġgho st
Ġbe nding
Ġlock er
Ġcrack ers
Ġhang er
Ġfamiliar ize
Ġvirt ual
or r
ir l
am ent
Ġgr at
Ġsa fer
Ġfollow ers
Ġhealth care
Ġfre ed
Ġcupc ake
Ġpharm ac
Ġaw ake
Ġrespir atory
Ġin du
st ore
Ġco gn
Ġscr atches
Ġsmooth ie
1 1
f u
Ġpure e
Ġsy ringe
Ġfree ly
Ġalign ed
Ġo ats
Ġprocess es
Ġaccount ing
Ġbow el
Ġpack ages
Ġ36 0
Ġnegot iate
Ġlo ving
Ġres cue
Ġbreed er
Ġattract ed
Ġadap t
Ġcorrespo nding
Ġgoss ip
om ic
ra is
Ġblo gs
Ġport able
Ġpen al
c ur
l ower
n own
Ġun ple
Ġcompass ion
Ġcomb inations
Ġview ing
Ġameric a
Ġcompet itive
Ġbes ides
Ġtrans form
Ġbase ball
Ġhunt ing
Ġinv itations
rup tc
Ġappl iances
b b
Ġev apor
Ġtext s
Ġfast en
Ġvisual ize
Ġsun ny
Ġcrit eria
Ġensure s
Ġident ified
Ġrad ius
Ġprincip al
g m
Ġv ot
Ġdy nam
Ġut ilize
Ġnur se
Ġpip es
Ġst ability
Ġche at
Ġstret ches
Ġbank ruptc
Ġx p
Ġalto gether
Ġposs ibilities
Ġappe aling
Ġconvers ion
Ġdisp ute
Ġconce pts
Ġen roll
ag on
Ġoff ices
Ġtable ts
Ġinvest igate
Ġfi xture
Ġinit ially
Ġfingert ips
u ary
Ġte ars
Ġsty ling
Ġtre nd
Ġb ure
Ġsm ith
Ġcr unch
Ġmagnes ium
Ġs ir
Ġb ache
Ġprior it
Ġaer ob
Ġhead ache
Ġalle v
Ġc av
Ġent h
Ġview s
Ġtransact ion
Ġno ises
Ġdeterm ining
Ġdim ensions
id ents
Ġmet all
Ġantibiot ic
st e
Ġad hd
cc er
Ġnegative ly
Ġle s
Ġrib s
Ġdele ted
Ġr asp
Ġsp am
Ġdist ingu
Ġdig its
Ġhook s
Ġover do
oo f
Ġest im
Ġscreens hot
Ġdeodor ant
Ġinsul in
Ġpo nd
Ġprov iders
Ġc ater
Ġbuy er
Ġfresh ly
Ġcaut ious
Ġso ccer
Ġher self
Ġequ als
Ġpian o
Ġb ust
Ġsuggest s
Ġpubl ished
t i
Ġne ither
Ġkill ing
Ġunple asant
z ers
Ġdr izzle
Ġcar b
Ġarm or
Ġoper ate
Ġmicroph one
o ke
Ġst atic
Ġassist ant
Ġs orts
Ġl ash
Ġrequire ment
Ġprim arily
Ġbankruptc y
Ġd u
Ġbul let
Ġdepend ent
Ġcryst als
Ġshred ded
Ġcoup ons
is or
Ġdiag onal
Ġrefer ral
Ġconsum er
Ġa ust
Ġse ats
Ġcr ay
Ġfac ility
Ġaccur ately
Ġmort ar
Ġaspir in
b ra
er ate
Ġbo iled
Ġstraw berry
in ates
Ġd aughter
Ġcan ce
ist ry
Ġglo ve
Ġd up
Ġst ations
Ġinstr uction
Ġscore s
Ġpray er
Ġunex pected
Ġcount ing
Ġcraft s
Ġvod ka
Ġb amb
Ġfl ax
Ġfle a
us er
Ġtwe et
Ġperman ently
reg ular
Ġflor al
Ġw at
Ġh ats
Ġcop ing
Ġregist ry
Ġtrick y
Ġdepress ed
b a
Ġw ast
Ġw ol
om ile
Ġleg ally
Ġl int
Ġgl uc
str uct
Ġexp ense
Ġmap le
Ġcry ing
Ġhi king
iat ric
o ld
Ġcom ed
Ġtim ing
Ġdis app
Ġp v
ul ating
st re
co pe
Ġ2 8
Ġhim self
Ġiss ued
Ġreport ing
Ġout come
Ġexf oliate
s is
Ġsc ales
Ġcont r
Ġmess enger
w atch
Ġp estic
ub s
Ġcart r
Ġch i
ang ed
Ġten nis
Ġcarr ot
Ġden im
Ġmus ical
Ġphotos hop
Ġleaf y
Ġvag inal
Ġb ou
as se
Ġas set
Ġjo y
Ġdownload s
Ġjour ney
Ġsmart phone
Ġflav ored
Ġmotiv ated
Ġdeb ts
Ġmarin ade
Ġbamb oo
Ġd s
en ic
Ġred irect
Ġpen et
Ġnewsp apers
Ġfor ums
Ġcon gr
Ġpr un
Ġter rit
Ġluck y
r um
Ġsh im
Ġco arse
Ġspray ing
Ġveget arian
j u
Ġindic ator
ane ously
Ġod ds
Ġly rics
Ġin e
Ġstud io
Ġgather ing
Ġpred ict
Ġcham omile
Ġrapid ly
ap ing
Ġcol ander
Ġper imeter
Ġcons ists
Ġsl ider
Ġhead phones
Ġwall paper
Ġrecr uit
Ġto x
Ġland ing
Ġmotiv ation
Ġbr ick
Ġcur ren
bo ot
Ġsqu ir
Ġf art
Ġpe ak
Ġstain less
Ġtrad ing
Ġla id
Ġthread s
Ġcock tail
Ġremed ies
Ġinter face
Ġincor rect
Ġrecy cling
Ġb id
Ġbab ys
Ġcommit ted
Ġprol ong
Ġf ist
Ġlight weight
be at
Ġble nding
Ġbra ids
Ġthreat ening
Ġdefic i
s app
in ent
Ġsu ited
Ġch ains
Ġpart ially
Ġsur ge
Ġho ver
Ġsoon er
Ġembr ace
Ġst orm
Ġwh ipped
Ġwhat sapp
Ġche er
Ġprov en
ne w
Ġport f
r ations
Ġd ice
Ġp ist
Ġprofess or
Ġtri angles
Ġelectric ity
Ġpron ounce
Ġgerm s
b row
Ġm ash
um ber
Ġins ult
Ġavoid ed
Ġsub m
Ġdress ed
Ġsha ft
Ġn u
Ġmo p
Ġv ice
Ġ3 7
ugg ed
Ġt read
Ġex ceed
te rest
par agus
Ġdeal ers
Ġn yl
Ġr ic
Ġspe ct
Ġno str
Ġno zzle
Ġins ight
Ġthink s
ric t
Ġsol ving
Ġcontin ues
Ġinf est
Ġchann els
Ġb inder
Ġirrit ated
Ġconstip ation
Ġcontract or
m ic
ep s
Ġgo lf
Ġdom estic
Ġcamp ing
ick ing
Ġro les
Ġcomp rehe
Ġfunction al
Ġstub born
b an
es tern
it ives
Ġpub lish
Ġadjust ing
alle st
Ġham sters
Ġm ari
Ġl ids
ur s
Ġsex y
Ġord ers
Ġas paragus
Ġprodu cing
Ġsaf ari
Ġwip es
Ġout s
ol ar
gin es
Ġfle as
Ġhe n
Ġfl akes
Ġgu ides
Ġconf usion
Ġobs erv
Ġcl amp
Ġinform ed
Ġbrain storm
Ġthr ive
er ting
Ġsu stain
n ic
it als
Ġmo ss
Ġen gines
Ġpart ial
Ġmust ard
Ġspa wn
Ġb umps
ag ger
Ġcount s
Ġb ible
Ġd ys
Ġlit ers
Ġland sc
Ġconv ention
an o
Ġeffici ently
Ġl un
ag s
Ġar c
Ġbrows ing
Ġgramm ar
Ġcommiss ion
Ġw est
Ġatt rib
Ġarrange ment
Ġarrange ments
Ġbache lor
Ġswe ating
Ġcollect ing
Ġs on
we ll
Ġcalm ly
Ġrepeated ly
Ġto fu
Ġn in
Ġj ail
Ġsk ate
Ġclean se
irt y
Ġhundred s
lic ate
Ġconf id
Ġpost ed
Ġthy me
Ġmuff in
h ist
en nel
Ġcontact ing
Ġt ed
Ġgener ous
Ġdiscuss ing
Ġaw es
Ġinterp ret
Ġmetall ic
it ors
Ġste er
Ġscent ed
Ġfemin ine
Ġenth us
m ix
Ġin ward
cl ick
Ġsubst ant
Ġn erve
Ġpark s
Ġtast y
id a
Ġsug ary
Ġatm osp
Ġearn ed
Ġpun ct
Ġforg ot
Ġfreed om
Ġo ce
Ġfor ced
am iliar
Ġse es
Ġinst inct
Ġcat tle
Ġye ll
Ġcolle ges
Ġbroad cast
Ġtack le
1 0
Ġt ul
Ġb iting
Ġd iction
Ġcr amps
Ġcreat ivity
Ġsample s
Ġtraum a
Ġspreads heet
g ra
er ving
Ġv ote
Ġover weight
Ġunk nown
Ġfr ight
Ġread ily
Ġenjoy able
Ġbom b
f ir
g ly
Ġbr ass
Ġdis like
Ġir regular
Ġload ed
Ġlad der
Ġcryst al
Ġabnorm al
l ates
o vers
Ġth irty
Ġg y
Ġun fold
Ġmed itate
Ġposition ed
Ġlast s
Ġafford able
Ġacet one
Ġathlet ic
Ġsh aking
Ġser vings
hip s
Ġfore st
p ing
Ġt umb
Ġdiagn ose
Ġslo pe
Ġdermato logist
Ġper pend
Ġext ensive
Ġcollect ed
Ġsurg ical
Ġperpend icular
Ġcontro lling
Ġgraph ics
Ġsequ ence
Ġc ass
Ġw iz
Ġbe ard
Ġbu g
Ġcal f
Ġvari ations
Ġstrip es
Ġworkout s
Ġsuperm ark
Ġthem ed
Ġche es
arn ess
Ġ10 00
mer ic
Ġdecor ating
Ġc ues
co gn
Ġrece ipt
Ġrele ases
sc rew
st ic
Ġcons erv
Ġod ors
Ġd m
Ġres erve
Ġpack s
Ġschedu led
Ġnice ly
Ġconv ince
Ġnyl on
Ġh ack
Ġu ber
im en
Ġad here
Ġinstr uments
Ġsens itivity
Ġguarant ee
mer ge
Ġproceed ing
Ġfauc et
Ġf t
Ġfr id
Ġcl og
Ġsusp icious
Ġh arness
Ġhapp ier
Ġthr ift
Ġply wood
it able
Ġdesign er
Ġbreast fe
Ġdisappe ar
Ġawes ome
o ir
Ġt a
Ġpar as
Ġut ilities
Ġwip ing
Ġclut ter
Ġl act
Ġcl ing
Ġback yard
Ġvolunte ering
Ġforg ive
Ġpharm acy
Ġchord s
ch ing
Ġz ipper
Ġnur s
Ġhand led
Ġair line
Ġremo ves
Ġtwee zers
Ġd izz
Ġbe ats
Ġsc ars
Ġwr ists
Ġcounter top
Ġtur meric
Ġpig s
ol ine
ol io
Ġper ce
Ġintrodu cing
Ġhun ger
Ġsco pe
Ġpersist ent
Ġwe ird
Ġpain ts
Ġdi apers
Ġbro il
Ġreturn ing
Ġdiscount s
Ġso cket
Ġcontin u
Ġinject ion
Ġf ails
Ġab st
Ġinst antly
Ġspec ified
Ġwh ip
ag ues
Ġvis its
Ġref ill
Ġeye brow
com b
Ġmaxim ize
Ġclin ic
Ġcogn itive
Ġre he
Ġfor um
Ġk g
Ġk et
Ġlight en
Ġsw ap
Ġtwist ing
Ġnumer ous
Ġcer amic
Ġceremon y
Ġor th
Ġsever ity
Ġembarrass ed
Ġportf olio
Ġs s
Ġu ter
Ġle ver
Ġint act
Ġitch y
Ġlin ux
Ġallev iate
Ġto ns
Ġen s
iv a
Ġsub merge
Ġref use
Ġs q
ir able
Ġexpl aining
aut ions
Ġbasket ball
Ġprec autions
Ġchlor ine
w alk
Ġw ary
Ġor anges
Ġli ability
Ġtrans mit
Ġtre nds
Ġsus cept
ino a
Ġanch or
Ġdiscip line
Ġthous ands
Ġs i
Ġtemp t
Ġart work
Ġfig ures
Ġprin ci
Ġdiagn osed
Ġexplan ation
Ġp unk
Ġch ic
Ġsa us
Ġwarm th
Ġchick ens
Ġadminist er
Ġgall ons
on ce
Ġmo squ
Ġwe ave
Ġac up
Ġkind ness
Ġfine ly
Ġdil ute
Ġyol k
Ġm ast
Ġcre ation
Ġsim ult
Ġem bell
pt ic
h am
Ġm ur
Ġallow ance
Ġcust ody
Ġtend ency
Ġcross ing
Ġstuff ing
Ġeval u
Ġtex ting
Ġwiki how
r s
Ġt rop
Ġpl uck
Ġfl are
Ġgre asy
Ġformat ting
Ġbol ts
a ired
Ġr it
Ġtra pped
Ġbrief ly
Ġdro pping
Ġp ix
if lower
Ġfl ies
Ġfind er
Ġstr angers
Ġeyel ashes
Ġaccur acy
Ġelder ly
b one
b ons
Ġle m
un ci
em a
Ġman go
Ġgr apes
Ġinter rupt
Ġadv ise
Ġnight s
Ġenjoy ing
Ġsad ness
Ġint imate
ak y
Ġhair style
Ġfinger n
Ġloose ly
Ġcaul iflower
Ġtw ine
Ġdivid ing
Ġwithdraw al
Ġpro st
Ġreport ed
Ġfriendship s
b or
Ġm ats
Ġso res
Ġarr ows
Ġank les
Ġacqu ire
Ġconfig ur
Ġdash board
Ġmenstr ual
Ġp m
Ġre boot
iv ate
Ġmat te
Ġtur tle
Ġobtain ed
Ġtiss ues
Ġlicens ing
Ġinsp ired
Ġpart ition
Ġcour ts
Ġcurren cy
f ire
Ġsh ovel
Ġfo ster
Ġexcept ion
Ġhaz el
Ġincred ibly
Ġc itation
Ġde mo
Ġqu inoa
Ġinit iate
Ġinqu ire
Ġal ive
Ġtemp lates
Ġpaint brush
fl ower
Ġappoint ments
bre ak
Ġassemb ly
Ġunders ide
Ġg am
Ġsp iders
Ġman aging
Ġappro val
Ġaud ition
Ġflash light
Ġbun ny
Ġt id
Ġa ids
Ġs ided
Ġse ams
Ġble m
Ġsince re
Ġpol itely
li ance
Ġfore ver
Ġworry ing
Ġdamp en
Ġcolour s
abor ate
g ant
Ġu k
Ġst all
Ġback s
Ġref resh
Ġexpress ions
lud e
Ġimag ination
Ġpanc akes
e nd
Ġl ice
Ġhon or
Ġquant ity
Ġbutterf ly
Ġlegit imate
Ġaust ral
Ġcomp art
Ġcomp act
Ġpit cher
Ġgrat itude
Ġb ounce
Ġj ava
Ġcr an
Ġgu il
Ġbat he
Ġhar ass
Ġoverwhel ming
Ġjack ets
Ġdon ation
Ġf et
Ġp est
ro f
Ġbegin ner
Ġshare s
Ġinvest ing
Ġremed y
Ġpr une
Ġexp lo
Ġhas h
Ġsmo other
Ġkiss ing
al og
Ġbe et
Ġsu icide
Ġins ulation
Ġbase ment
Ġstat istics
Ġm ice
Ġlo yal
Ġwater mel
Ġrec re
Ġpass code
Ġfun nel
Ġaggress ion
Ġepis ode
Ġindic ated
Ġt art
Ġfl ats
Ġbit ter
Ġspecial ize
Ġincorpor ated
Ġthy roid
b ow
at itis
Ġdissol ved
Ġa str
Ġr iver
Ġrel atives
Ġrecommend ation
Ġhost ing
re cogn
Ġm ites
Ġg ems
Ġacc red
Ġbuy ers
Ġref res
Ġequ ipped
Ġwed ges
Ġpale tte
p our
u its
in ity
Ġd read
Ġdo ck
Ġfl ood
Ġtight s
Ġmail ing
f ers
Ġw estern
Ġup coming
Ġsal ary
Ġprom ise
Ġ6 5
Ġrespo nding
Ġpoor ly
Ġhur ting
d ers
g rou
ul as
Ġing est
Ġsubs crib
Ġvag ina
Ġves sels
b ie
Ġwe ed
Ġbr id
Ġsm allest
Ġseed lings
Ġto ner
Ġchild hood
Ġstrong ly
Ġtex as
Ġital ian
Ġguil ty
Ġthe sis
Ġconnect or
Ġfac ilities
Ġpsycholog ical
Ġhistor ical
p ass
Ġf iction
Ġto pping
Ġm all
Ġret r
ic hes
Ġneed ing
Ġplan k
Ġmuse um
Ġvis ually
Ġarg uments
Ġyard s
Ġatmosp here
Ġsuscept ible
Ġs d
Ġexp ort
Ġstre tc
Ġsens ation
Ġsmell ing
Ġcoord inate
Ġantioxid ants
Ġphotograp her
Ġf ax
Ġli es
Ġblue berries
Ġrepair s
Ġan est
Ġch ase
Ġcr umbs
Ġlower ing
Ġtrim ming
Ġscrap book
m ia
Ġwr ing
Ġstr ay
Ġver ification
Ġce ment
Ġeyel ids
Ġl ump
Ġg ross
Ġhel met
Ġreg ulate
Ġdi ets
Ġoper ation
Ġinit i
Ġparticip ants
Ġguard ian
Ġintim id
o ys
Ġis o
Ġhe ater
Ġrib bons
Ġmanufacturer s
Ġpriorit ize
en ne
Ġdec l
Ġchar ging
Ġqual ifications
Ġcred ential
Ġdistract ing
Ġsto pped
bu ild
Ġm ason
Ġh p
Ġn ook
Ġcook s
Ġpan e
Ġball oons
Ġwed ge
mb re
Ġann ounce
Ġspir al
Ġorient ation
m ber
Ġcont est
ane ous
f ig
Ġc ue
Ġb ush
Ġh ill
Ġcom ic
Ġpo et
Ġalong side
Ġheart s
Ġgel atin
Ġcough ing
Ġll c
w s
Ġan onym
ra ge
Ġlend ers
recogn ize
r t
Ġw rench
Ġme xic
iv ir
Ġar om
Ġag ing
Ġapproach ing
Ġexe mp
Ġventil ated
Ġr ounds
Ġburn ed
Ġsile nce
Ġoce an
Ġmosqu ito
re ts
Ġle nt
Ġqu ad
Ġqu een
Ġgr ief
Ġcalcul ated
Ġrepel lent
Ġsh out
Ġch arm
Ġser ves
Ġcr amp
Ġless en
worm s
on in
ed ia
is ible
Ġsc or
lic it
l r
am a
Ġch amp
Ġsimult aneously
o nds
Ġd an
Ġcon gest
Ġli king
od es
Ġchem istry
Ġs ip
Ġgen etic
pro f
Ġado be
Ġd ense
Ġactiv ated
l ife
u le
as m
Ġsc are
Ġdi pping
Ġprint s
Ġemb ro
Ġcher ry
Ġmig rain
Ġcongr at
b i
Ġd ining
ark s
Ġopen ings
Ġanswer ing
Ġshamp oos
Ġhd mi
k ers
Ġexpress ing
Ġsubm erg
Ġg reek
Ġnot ify
Ġpop ulation
Ġpack et
Ġrecord ed
Ġdistract ion
r ical
Ġw ife
or gan
Ġl ou
Ġfl ick
Ġz uc
Ġboil er
Ġdiam onds
Ġphotograph y
Ġalb ums
Ġdram a
Ġweakness es
Ġwatermel on
Ġh int
Ġlimit ations
ann ed
Ġzuc ch
Ġw av
ir ting
Ġse ated
Ġenc losure
Ġtrouble s
Ġoccas ions
Ġneat ly
Ġre new
hes is
Ġnum b
Ġremind er
Ġblind s
Ġrecy cle
Ġachie ved
Ġvol tage
Ġshad ows
Ġdead line
Ġgau ze
Ġbrack ets
us ions
Ġ2 7
gr ad
Ġgu ilt
Ġvari ation
Ġpunish ment
r i
Ġdig ging
Ġla un
Ġassess ment
Ġh ind
pl an
Ġwal nuts
ot y
Ġha llow
Ġoff ensive
Ġar rest
Ġhighlight s
Ġvir gin
Ġevery body
Ġbegin ners
Ġimm ig
Ġo w
Ġback ward
Ġsk im
Ġgun s
Ġmount ing
Ġexpert ise
Ġp aws
ib ble
Ġstud s
Ġprogram ming
Ġmouth wash
pr int
Ġwarrant y
Ġfrid ay
Ġmagn et
Ġmill ion
Ġroast ing
gg y
Ġskin s
u gin
Ġt angles
Ġw aking
Ġto ppings
Ġsp ills
Ġpe ers
Ġcitiz en
Ġcowork er
Ġd ow
ter y
Ġcr ib
Ġlisten er
Ġfloor ing
Ġplatform s
Ġpassion ate
Ġpr y
Ġhot els
Ġquiet ly
Ġped al
Ġobstac les
Ġoint ment
g ive
Ġs out
or ize
Ġe ps
Ġapp rais
Ġbeh ave
bre v
wr iting
Ġfif teen
Ġgrav ity
Ġexfoli ating
ou red
Ġp iles
Ġsu ede
Ġeffect iveness
Ġmild ew
Ġcelebr ity
Ġliter ally
Ġcrisp y
Ġunpl ug
Ġt aught
Ġf use
Ġp i
Ġe aster
Ġsh av
Ġar ise
Ġsand ing
Ġtor rent
Ġassum ing
Ġens uring
i ator
qu et
Ġman ic
Ġrecomme nds
Ġconcl usion
Ġtr ays
Ġhighlight ed
Ġcleans ing
Ġrecept ion
Ġa ward
Ġc p
Ġc ave
Ġab brev
Ġdra gging
Ġlad y
Ġpud ding
l ied
ent ive
Ġli ber
Ġfe llow
Ġar mp
Ġplan ner
Ġsne akers
on ts
st ones
Ġgl aze
Ġcred its
Ġpoult ry
Ġmon ster
Ġinv iting
Ġthick en
Ġmonitor ing
Ġmas hed
rof en
Ġblond e
Ġsk i
Ġrec ur
Ġbath t
Ġwrit ers
Ġnutr ient
Ġcigare tte
Ġrif le
t ails
Ġsc ents
Ġinform al
i ac
it z
Ġn ort
al f
Ġpl ugin
az z
Ġpeel ing
Ġsatis fact
Ġfrust ration
Ġgrand parent
Ġre b
Ġcomp ression
Ġappro aches
Ġhyp ot
Ġutens ils
Ġwiz ard
Ġe e
Ġbe ware
Ġint r
Ġser vers
Ġdes erve
Ġclass mates
Ġimpro ves
Ġplug s
Ġcult ures
Ġstruct ures
Ġvir uses
Ġclin ical
Ġl as
ot ch
Ġup hol
Ġreg imen
Ġdraw ers
Ġcouple s
Ġcomplain ts
Ġadm ire
Ġex cus
gg ings
Ġdrain ed
Ġgrate ful
Ġner ves
Ġa is
Ġent ries
gg les
Ġsa ut
Ġfle e
Ġcomprehe ns
m es
w orthy
Ġcan ada
Ġbl ink
Ġund o
Ġwi i
Ġtox ins
Ġco il
Ġfin ances
Ġsal on
Ġowners hip
Ġtradition ally
Ġthe ft
Ġso lo
Ġfl irting
Ġunder go
Ġspr outs
Ġprotect ing
Ġant ivir
Ġimpro ved
Ġl amps
Ġdis rupt
Ġmed it
Ġdi aph
Ġpot ting
Ġmar ble
Ġload s
Ġt ro
Ġto ggle
Ġen lar
Ġprofess ionally
Ġenviron ments
et ime
Ġfr iction
Ġcur ious
Ġflo ating
Ġtow er
Ġ6 4
Ġtrad em
Ġemb ed
Ġarg ue
Ġib up
or a
Ġout lets
ep ad
and on
Ġfil ms
Ġrout ines
Ġlog s
Ġfunction ing
Ġthe ater
Ġpass ive
gan o
Ġmanage able
Ġparticip ating
Ġhabit at
Ġfragr ance
Ġzucch ini
Ġdiaph ra
Ġty ing
Ġfin ishes
Ġvers a
Ġaccept ance
Ġmagn ifying
Ġmim ic
Ġibup rofen
Ġd owel
ve t
Ġdistrib uted
Ġfif th
Ġconfigur ation
b lock
Ġcl umps
mp h
Ġinc ident
Ġcard stock
Ġcham ber
Ġgest ures
Ġaerob ic
o bs
Ġd and
Ġd ying
Ġch a
Ġpre he
Ġopt imal
Ġcur ves
Ġfavor ites
Ġsuperv isor
Ġvio lent
at ile
Ġl ux
we et
Ġins erting
Ġdra pe
Ġ5 5
Ġcult ural
Ġsto len
Ġpoin ter
Ġpel lets
Ġun screw
Ġport s
Ġadjust ed
Ġbud dy
Ġs ke
re search
ll y
ac er
Ġch illed
Ġab andon
Ġsk ull
oc ate
Ġvacc ine
Ġore gano
Ġgluc ose
Ġdiction ary
r ist
om ed
Ġj umps
Ġover s
Ġaf ric
Ġseason al
Ġfac ilit
Ġlaugh ing
Ġmechan ism
Ġpim ples
Ġnurs ery
Ġr ou
Ġlaws uit
Ġnap kin
Ġelev ated
Ġp om
Ġe ll
Ġle aks
Ġal ga
Ġv amp
Ġk o
Ġgreat est
Ġste al
Ġkind le
Ġthr own
Ġcompar ison
asse mble
p er
Ġdr aining
Ġdistingu ish
Ġembell ish
Ġbl ast
Ġste ering
Ġpresent ed
Ġmel ts
Ġencoura ging
Ġaff irm
Ġtall er
Ġd ensity
Ġsh uff
Ġbl az
Ġparent al
Ġsimple st
Ġoccas ional
Ġbill ing
Ġdispos al
ilant ro
Ġc ilantro
il le
Ġattach ing
Ġten ant
Ġstrip ed
fl ix
Ġsne e
Ġsurv ival
Ġalga e
Ġte ase
Ġsim s
Ġinter se
Ġemp athy
Ġcast le
ias is
ha ppy
Ġbure au
Ġcontinu ously
Ġhy po
Ġrele asing
Ġinteract ing
Ġcandid ates
fir st
Ġdiaphra gm
g on
Ġun happy
Ġact ors
Ġshe ars
ont in
Ġconf using
Ġblow ing
Ġw is
Ġgr ace
Ġsal iva
Ġarm y
Ġindic ation
Ġtransfer ring
Ġb ows
Ġl ake
ay ing
os ph
Ġrep s
Ġdifficult ies
Ġterm in
Ġtrim med
Ġtub ing
Ġd iced
Ġn ick
Ġg ast
enc ed
Ġmain ly
Ġbad ly
Ġpositive ly
Ġcommunic ating
Ġattemp ts
Ġtodd lers
Ġfer ment
Ġdisapp oint
p ad
Ġl ane
Ġlim iting
Ġpack aged
Ġident ical
Ġlibr aries
press o
Ġaccomplish ments
Ġretr ieve
Ġcl ues
Ġed ible
Ġnet flix
Ġrequest ed
Ġdynam ic
Ġmark ets
Ġcrow ded
Ġweeke nds
Ġyol ks
Ġg ave
Ġle ggings
Ġpl ugged
ul ing
iv en
Ġtrans plant
Ġdist rict
Ġinter rup
Ġpron unci
Ġhallow een
Ġw ounds
Ġn ove
Ġso aps
Ġte asing
Ġpe er
rop er
orr h
Ġse af
Ġbr ighter
Ġtrans parent
Ġfro g
Ġanti hist
Ġrom ance
Ġp aw
Ġd unge
Ġl aces
Ġgr ated
Ġadjust ment
Ġstock s
Ġtor n
Ġpv c
Ġe ch
Ġg ay
Ġcomp aring
Ġcr umble
Ġsupp ress
Ġind ent
Ġcrack ed
Ġsick ness
Ġknit ting
Ġab usive
Ġfe ces
Ġprop os
Ġirrit ating
Ġillness es
Ġgloss y
Ġbatht ub
Ġre h
Ġdis s
Ġposition ing
Ġinvest ig
Ġexc ite
Ġmotiv ate
Ġreject ion
Ġcoup on
Ġcass ero
Ġlem ons
Ġt il
Ġc ay
Ġfor cing
Ġmin ced
Ġafter ward
Ġreg ret
Ġclear ing
Ġroll ers
Ġlinked in
y e
ad os
Ġj es
Ġ2 6
Ġspr out
Ġorganiz ing
Ġvary ing
g lass
Ġst ing
Ġcl an
Ġbl ues
Ġref ined
Ġprob iot
board s
Ġload ing
Ġinstit ution
Ġadvent ure
al ine
ap se
ie l
Ġsp aced
Ġgo ggles
Ġcond ens
Ġbud s
Ġbe verage
Ġclass ified
Ġtri ple
Ġacqu aint
Ġpros pective
Ġth umbs
ch ool
Ġmindful ness
Ġvigor ously
Ġd ive
pe l
Ġsp y
Ġro yal
Ġgr inder
Ġstre aks
Ġble ed
Ġbar be
Ġped iatric
Ġmetabol ism
Ġanticip ate
Ġs ant
Ġrece iver
r ix
Ġs ag
Ġthe ory
Ġaffect ing
Ġpattern ed
Ġspo ken
Ġoverl apping
Ġwise ly
me asure
Ġrecogn ized
Ġlean ing
on na
ide press
Ġrun ny
Ġye lling
Ġschedu les
Ġmoment um
Ġexe c
Ġnumer ator
Ġscenari o
p ot
Ġinc om
Ġqu e
Ġmat he
Ġpassword s
Ġdy es
fo llow
Ġreven ue
a fe
Ġle th
Ġfe ma
Ġes presso
Ġant idepress
Ġtun ing
Ġroast ed
Ġfind s
Ġspin ning
Ġsandw iches
ilo so
Ġprun ing
Ġi i
Ġl ing
Ġal k
Ġap ology
Ġimportant ly
Ġsau ces
Ġt et
Ġg aining
am i
Ġcomp ounds
Ġph iloso
Ġindic ating
Ġsou l
Ġunivers ities
Ġtalent s
Ġorg ans
Ġreserv oir
Ġwors en
Ġs ake
Ġl ugg
Ġte e
Ġpr ank
Ġgener ic
Ġcolle agues
Ġcredential s
Ġlugg age
Ġnot epad
Ġsp it
Ġform ulas
Ġhard en
Ġax is
Ġbind ing
Ġwor ries
Ġsol vent
Ġz est
Ġbud d
Ġdiag on
Ġnav y
Ġfor ces
Ġlike wise
Ġread s
Ġfact ory
Ġsun flower
Ġcommun ities
Ġremain der
Ġvolunte ers
c ook
m ers
Ġt ug
Ġcont our
Ġpe ach
Ġredu ction
Ġmir rors
Ġ24 0
Ġsimpl ify
f s
w rit
Ġj un
Ġprotect s
Ġpow ered
rit ious
Ġhem orrh
Ġcircum ference
Ġbrack et
r als
Ġk il
Ġbl isters
co at
Ġpos es
Ġnut ritious
b acks
Ġw itch
Ġw arp
Ġcan e
Ġde er
Ġform ation
less ly
Ġref und
Ġdecor ation
Ġscan ner
Ġmane u
stre am
b ling
Ġkn ob
Ġend or
Ġoccur red
Ġsty lish
Ġtail or
Ġcorpor ate
Ġbreastfe eding
Ġon s
Ġfeed er
head s
f all
Ġsh all
Ġinst ances
Ġsal ine
Ġsou ps
fr ont
n ia
Ġm arch
Ġfun g
arr ing
Ġmold s
Ġcast ing
Ġd ict
or ge
Ġn oun
Ġle ague
Ġsocial ize
Ġsepar ation
Ġcaul k
Ġembro ider
Ġcay enne
Ġc arn
Ġb ip
Ġan em
Ġk m
Ġconven ience
Ġimp roper
Ġsn akes
cy cle
Ġdehydr ated
igs list
Ġb icy
Ġp ests
Ġkn uck
Ġph osph
ous es
Ġent it
Ġind ian
j o
Ġb room
at a
ill as
ep t
Ġmet als
Ġ7 2
Ġsubs cription
Ġcitizens hip
in ter
ers on
Ġint el
Ġstr ive
Ġacc idents
Ġcontain ed
Ġrep rodu
Ġsch ol
Ġfun gal
Ġrece ives
af ter
Ġpoet ry
Ġste aks
Ġflor ida
at hered
Ġm atur
rou s
Ġz e
Ġcra igslist
Ġpar am
Ġcontract s
Ġhur ts
Ġbother ing
Ġblem ishes
4 0
t ent
Ġw iring
Ġse gment
ul um
Ġchar ger
Ġmem br
Ġpul p
Ġjes us
Ġo l
Ġlist ings
Ġcomb ining
Ġdevelop er
Ġpol len
Ġmask ing
Ġdistrib ution
Ġtan ning
Ġclar ify
Ġabst ract
Ġsubmerg ed
Ġi od
Ġgener ation
Ġoccur ring
Ġdip l
Ġspir its
Ġmechan ical
Ġelig ibility
Ġdiscol oration
Ġsear ches
Ġw ishes
Ġl ather
Ġso ph
Ġj ur
Ġster ile
Ġliter ature
Ġa h
Ġsl ack
Ġve ins
Ġdrop box
Ġdiscuss ions
Ġsac r
t ling
Ġyou th
Ġint ro
Ġsc am
Ġpe eled
Ġhair cut
Ġcr ick
Ġpract ition
Ġvers us
Ġdut ies
Ġgest ure
Ġfema les
not e
Ġimm un
Ġrout es
Ġele gant
vas cular
Ġalph a
Ġha w
Ġcl ump
Ġinvest ments
Ġrot ating
Ġdon ations
Ġcorpor ation
Ġresemble s
Ġenforce ment
Ġacup un
Ġbr ide
get s
Ġprefer able
Ġpig ment
Ġvir al
s y
Ġh ike
Ġl one
Ġre el
Ġsc hed
Ġbottom s
Ġalcohol ic
Ġoper ations
Ġchrist ian
Ġdefe at
Ġembarrass ing
fr uit
Ġgrav y
Ġbund le
Ġger b
ir ation
um n
Ġcomp os
Ġpres ents
Ġconcent rated
Ġfract ions
Ġmole cu
Ġfrag ile
Ġsir i
e at
Ġs age
Ġplay ful
Ġroom mate
Ġallerg ens
Ġdim in
Ġseaf ood
Ġco ast
Ġhard est
Ġtransfer red
Ġcalc ulation
los ed
Ġpim ple
Ġw on
Ġr ugs
Ġj erk
Ġap r
Ġdisc rim
Ġsquee zing
Ġgall ery
Ġquot ation
h ile
in ting
Ġg ren
Ġcon verse
Ġbare ly
g ie
n es
Ġf udge
Ġm ary
Ġst ated
Ġadd ict
Ġ5 50
Ġsweet en
Ġaw hile
u ble
w ax
Ġqu ail
Ġho llow
Ġ2 9
Ġsub str
Ġwarm ing
Ġbat ches
Ġcamp us
Ġthought ful
Ġnipp le
Ġc ul
Ġc erv
Ġcold er
Ġge ograph
Ġsens es
Ġunf amiliar
Ġfav our
Ġleaders hip
Ġdefici ency
Ġsq rt
Ġp ouch
Ġl amb
Ġbe ating
Ġon going
Ġen erg
Ġhelp ed
Ġaccompan ied
Ġnit rogen
Ġpronunci ation
Ġra is
Ġtarget s
Ġtexture s
Ġcrop s
Ġtempt ation
Ġsaus age
Ġtradem ark
a way
Ġp us
Ġun check
Ġjo gging
Ġhigh l
Ġt ails
Ġbe aring
Ġde live
Ġdisp ens
Ġvom it
p ract
u lent
Ġde ed
Ġme re
zz les
Ġpod cast
st ation
ac ent
Ġal i
Ġsp aring
Ġconnect s
Ġmask s
Ġshut ter
Ġtransl uc
Ġst ake
Ġsn iff
Ġrece ipts
Ġeduc ate
Ġhumid ifier
Ġisol ate
Ġcardio vascular
Ġschol ars
Ġdead lines
Ġbrace lets
c ont
Ġf ount
Ġsp f
Ġsl ots
Ġunder st
Ġpat ent
be red
Ġmob ility
Ġnav igation
ju ana
p n
an c
as ive
Ġdis ney
Ġrese ar
Ġfoot age
Ġshel ters
fo am
Ġconfig ure
Ġquant ities
Ġelectro ly
ad ed
Ġr ising
Ġch ina
Ġj an
Ġcons ulting
Ġres ent
Ġbas es
Ġparent ing
Ġarch ive
Ġperm its
Ġpestic ides
all ows
Ġsc ul
Ġinc ons
Ġfl aws
Ġel aborate
Ġret rie
Ġweb page
Ġeval uation
Ġsof a
Ġdelive red
lo se
Ġsk ipping
Ġaddress ed
Ġremo vable
Ġbur st
Ġventil ation
Ġmari juana
Ġtid y
Ġuphol stery
p ower
z ed
Ġf ou
Ġf onts
Ġk illed
Ġfl aps
Ġaccess ed
Ġpair ing
Ġtrail er
Ġlent ils
Ġto en
Ġh inge
Ġse m
Ġcl ippers
Ġbr isk
Ġche ating
Ġbel ts
Ġref lex
Ġeat s
Ġcop ied
Ġinj ure
Ġrepresent ed
Ġhonest ly
Ġexcus es
u les
Ġh atch
are r
du le
Ġleft overs
Ġstre aming
Ġequ ity
Ġprofile s
Ġengine ering
Ġcorrespo nd
Ġexcite ment
Ġtransluc ent
Ġl ure
Ġg aming
se cut
ro ad
Ġspe cially
Ġgen res
Ġtrans mission
Ġpres erv
Ġlic enses
Ġauth ors
Ġign oring
Ġdigest ion
Ġcru ise
Ġpad ding
Ġwav y
g ments
Ġst roll
Ġr ats
Ġv est
Ġdet ach
Ġhome page
Ġupload ed
Ġment or
Ġs ap
Ġsm e
Ġstart up
ff le
Ġspr int
Ġmel ting
Ġkick ing
Ġdeb ate
Ġcontamin ated
Ġp arm
Ġde fect
Ġsc all
Ġz om
Ġadvant ages
Ġinsp ire
c ard
x ual
Ġm ous
Ġg ps
il ized
Ġman agers
Ġext ent
Ġrep ay
Ġfocus es
Ġinterview s
Ġcongest ion
Ġres ident
Ġnew born
Ġtalk s
Ġur inate
Ġrot ation
Ġaccompl ished
Ġorigin ally
Ġcompens ation
d en
for ward
Ġmal ware
Ġpeace ful
Ġamp l
onna ise
pract ice
p ay
Ġex ists
Ġmay onnaise
get ic
Ġplan ks
Ġsw ings
Ġste pping
Ġdiscuss ed
Ġappreci ation
Ġconv in
Ġdepos its
a a
t tes
Ġre use
Ġwh ist
Ġlo af
Ġexp los
Ġmind ed
Ġir r
Ġcra bs
Ġbrown ed
Ġesc al
Ġchart s
Ġdil uted
Ġwol f
Ġprolong ed
Ġres erved
pl ane
ob tain
t or
Ġex agger
Ġsl it
Ġag o
Ġfill er
Ġpower point
Ġsty ro
Ġtutor ial
Ġe ther
Ġu mbre
Ġre apply
ci ent
Ġloc ally
Ġreg ions
Ġconf use
Ġru ss
Ġexte nding
Ġsteam ing
Ġaim ing
Ġpeanut s
Ġscen es
Ġeffici ency
Ġphiloso ph
Ġassoci ations
Ġdecre ased
Ġflatter ing
Ġdizz iness
Ġstyro foam
p art
Ġv ents
Ġjo g
Ġhor n
Ġ9 9
Ġconsum ed
Ġstap les
Ġdiscoura ge
Ġfond ant
comb ine
Ġtrop ical
z ym
Ġpl aque
Ġsal ads
Ġcontin uous
Ġport al
Ġaltern ating
Ġsaf est
Ġstitch ing
sh ield
Ġpil ot
Ġsurge on
he l
Ġcat alog
Ġsin us
Ġopp onents
Ġbal let
Ġauthor ities
Ġpanc ake
Ġbip olar
Ġmatur ity
Ġli ved
Ġfo li
Ġstraight forward
Ġrecord er
Ġang led
Ġattack ing
Ġcrack ing
Ġox id
Ġsubstant ial
Ġw ins
le te
Ġany time
Ġdist ort
Ġsn aps
Ġdesign ate
Ġsand als
Ġconte mp
Ġshim mer
Ġket tle
Ġstretc hed
Ġdr ipping
Ġcomm a
Ġput ty
Ġdry wall
Ġmedic ines
Ġcartr idge
Ġtw el
Ġste w
Ġrespo nds
Ġwild life
Ġult ra
Ġsurpr ising
Ġdro pped
c ards
Ġin no
Ġl atch
Ġsl ipper
Ġadv ised
Ġo ak
Ġw ines
Ġp arr
Ġm ate
Ġre de
Ġr acing
Ġret in
Ġevol ve
e y
k ill
al though
Ġen zym
Ġsteam er
Ġhost s
ik a
Ġflight s
Ġlin en
Ġbabys it
nd a
Ġd orm
Ġdo ses
pe ction
Ġbr icks
Ġdec line
Ġfin ance
Ġmark ing
Ġscr aps
Ġdisplay ing
Ġdam ages
Ġ4 2
Ġcheese cloth
Ġelim inating
Ġult ras
Ġterrit ory
r ial
Ġt ac
Ġr ides
Ġro cket
Ġleg umes
Ġattract ion
Ġpa ired
Ġunc ertain
Ġben z
Ġsatisfact ion
m art
Ġb ing
Ġre arr
Ġshow ers
Ġart istic
Ġbar g
Ġult imate
es an
Ġequ ations
Ġenj oys
Ġresearch ing
Ġtrust worthy
Ġremind ers
Ġcalcul ating
Ġadministr ative
Ġstrict ly
Ġstri king
Ġseiz ures
e ed
ast ics
Ġwho ever
Ġdes criptions
als a
Ġsal ts
Ġlim bs
Ġl bs
Ġse nds
Ġdis miss
Ġman if
Ġsl ipping
Ġno d
Ġbook ing
Ġreturn ed
olog ical
Ġexh ib
Ġimper fect
Ġparm esan
Ġl amin
Ġk ills
Ġcr is
Ġsqu irt
cle ar
Ġachieve ments
Ġmount ed
Ġavoc ados
Ġsparing ly
r in
or row
it ory
Ġro ds
Ġaddress ing
Ġhorm onal
l in
v y
Ġh ue
Ġde af
Ġdes ert
Ġcr ash
Ġremember ing
Ġtechn ically
Ġconst it
Ġtom orrow
Ġexcept ions
Ġtoler ate
Ġpro h
Ġsp erm
Ġfo x
Ġkn ives
Ġgu ild
Ġsal icy
Ġrev ol
Ġpromot ion
r d
Ġt ens
ver ted
Ġen er
iz on
Ġbet a
Ġacknow led
Ġsched uling
Ġst air
Ġnot ed
Ġdr unk
Ġvers atile
Ġcompet e
Ġrestric ted
Ġhaz ards
Ġpubl ishing
Ġrepet itions
Ġadd itives
Ġhair line
Ġform ulated
Ġsw irl
Ġdeterm ines
Ġsell ers
Ġseal er
Ġfoli age
Ġs es
Ġp sor
ay ed
Ġcl ove
Ġpre y
Ġsp acing
Ġapplic ator
Ġdest r
Ġreflect ion
Ġorient ed
Ġtort illa
Ġdup licate
Ġsout hern
Ġsubstr ate
g reg
Ġn our
Ġfr inge
Ġoff line
Ġwind shield
Ġspeed s
Ġinject ions
Ġpolit ics
Ġmous se
h ire
Ġcre ases
Ġed ition
Ġpay s
be gin
Ġdut ch
Ġbookmark s
or ous
Ġj acks
we ed
Ġorder ing
Ġanim ation
Ġma les
Ġfail ing
Ġrain bow
Ġsport ing
Ġcompart ment
Ġa est
Ġb ic
Ġdi vers
Ġmeat balls
d ress
i ating
Ġf id
Ġg iant
ro lling
Ġpo pping
Ġcur ry
Ġsol ar
Ġavail ability
Ġfart her
Ġjur is
ul ous
Ġqu iz
Ġpost ers
Ġcas ually
Ġtuck ed
Ġbrit tle
Ġgal ax
f y
ot ine
ot hed
Ġsh in
Ġcl ust
Ġk ern
Ġbl ister
Ġext r
Ġinv isible
Ġsell s
Ġmini ature
Ġstere o
Ġli ked
Ġover he
Ġthere by
Ġag ed
Ġdes ires
Ġexcess ively
Ġsweat ers
f unction
Ġc ud
Ġl on
Ġst ating
Ġman ners
Ġmon sters
velo ps
Ġant ique
Ġdescrib es
cu its
Ġhen na
Ġde velops
Ġpr ide
Ġres idence
Ġcre w
Ġprin cess
Ġtun nel
Ġfau x
Ġthe at
Ġl az
ch ild
Ġrest room
Ġarch ite
Ġvill age
Ġfant asy
Ġskew er
Ġbis cuits
Ġreh ab
Ġentit led
Ġcl asp
Ġpr ison
Ġstr anger
Ġpass age
Ġnon prof
Ġelev ate
Ġmathe mat
Ġsoph istic
r m
Ġc asing
Ġm ow
Ġn sa
Ġgo at
Ġexpect ing
Ġuns afe
Ġepis odes
Ġintim acy
c an
Ġb arn
Ġhe x
Ġpe bble
Ġwood s
Ġvacc inations
Ġreinforce ment
Ġhes itate
Ġtwel ve
i ary
u k
z ema
Ġsh ame
Ġlong est
Ġdi ed
Ġtank s
Ġexpos ing
Ġisol ated
Ġhazard ous
Ġoblig ations
Ġbreak up
Ġcreat ures
Ġapplic ants
Ġcm d
alle n
Ġmaneu ver
up id
Ġser um
Ġend urance
Ġind irect
Ġperfect ion
Ġfore arm
Ġencoura ges
Ġattor neys
Ġstation ary
Ġly mph
Ġsumm ar
Ġsimpl er
re qu
Ġof tent
Ġr ated
Ġr anging
Ġun used
Ġcop ying
Ġfro gs
Ġoftent imes
d is
d og
Ġn ude
Ġind ul
Ġchick pe
Ġfight s
Ġalign ment
Ġtou ched
Ġguarant eed
Ġcucum bers
Ġgalax y
ag het
Ġpersonal ized
Ġur inary
Ġearn ings
Ġknowledge able
Ġstalk s
n ity
Ġf ailed
Ġr ake
Ġsp ool
Ġover head
Ġins pection
Ġcare g
Ġprev ention
Ġlot ions
Ġz ones
log y
Ġnon stick
Ġfire place
Ġconflic ts
Ġneckl aces
Ġwig gle
Ġintellig ent
Ġlandsc ape
Ġprehe ated
Ġf allen
Ġbath s
Ġreflect s
Ġcere als
Ġrandom ly
Ġconver ted
Ġconvention al
Ġhash t
Ġdiagon ally
c led
Ġbr im
Ġproduct ivity
Ġsqu ats
Ġteen agers
Ġgenuine ly
Ġgly cer
g ling
or us
Ġin n
ist a
Ġpe els
ho ot
Ġbom bs
Ġses ame
Ġjuris d
aghet ti
Ġt ighter
Ġs alsa
ing es
Ġse asons
Ġac ute
Ġgood by
Ġworks pace
Ġsex ually
stick s
Ġtour ist
re ls
an y
op hen
Ġcall er
Ġinter val
Ġenjoy ed
Ġsens ory
Ġprin ters
Ġvib rant
Ġlan tern
Ġchees es
Ġlook ed
Ġbu bb
Ġmy self
Ġretail er
Ġcraw l
Ġener getic
Ġy o
it a
Ġj ot
au nt
Ġinvol ving
Ġdescrib ing
Ġsat in
Ġtast ing
Ġcoord inates
Ġadvertise ments
Ġpip ing
Ġec zema
Ġsalicy lic
Ġg ig
is y
Ġst amps
Ġal oud
Ġsp aghetti
Ġcy cles
amin ophen
Ġcommit te
Ġsatur day
Ġhop ing
Ġeurope an
Ġether net
c il
m ill
p her
Ġn a
Ġg arn
Ġplan et
Ġpow ers
Ġlog ical
Ġmar gar
Ġpoison ing
Ġpy ram
Ġbron zer
Ġmarshm allows
Ġembroider y
Ġwor m
Ġcut ters
bo y
Ġcou rage
Ġrequest ing
Ġbright en
Ġsne ak
Ġbrit ish
l ink
r own
er ies
ig an
Ġpear l
oster one
Ġrig id
Ġanem ia
Ġsh aker
Ġdr iven
mo ji
Ġinh ibit
Ġconstruct ive
Ġjealous y
Ġgrape fruit
fig ure
e ven
ud es
Ġcredit ors
Ġmoder ation
Ġkid neys
Ġvag ue
Ġmanip ulate
Ġcassero le
b f
Ġne on
Ġwe ld
Ġad j
Ġen amel
Ġspe lls
Ġguard s
Ġadequ ately
Ġpops icle
Ġwhit ening
in um
as hed
Ġapp liance
Ġside ways
Ġgl ands
Ġfast est
Ġfre el
Ġabsorb ent
Ġunlock ed
Ġacet aminophen
t ic
re ed
Ġo we
ut ter
ain e
Ġpl umb
Ġgr anted
Ġgl uing
Ġsub sequ
Ġobject ives
Ġglo bal
Ġmultiply ing
Ġfer ret
Ġbark ing
Ġadvis able
Ġcort ic
Ġintel lect
at ivity
Ġn ation
ig r
pe nding
Ġcon ference
Ġli z
Ġro ads
ari ans
Ġass ault
Ġswe ets
Ġinf ants
Ġreward ing
Ġstim ulation
Ġsant a
c ore
t est
Ġb oun
Ġp ac
Ġst upid
Ġdis res
Ġdist ances
Ġge ars
Ġ6 00
Ġiron ing
Ġrect angles
Ġinse cure
Ġintellig ence
Ġd j
ac qu
Ġr amp
Ġbl ouse
Ġcur ric
Ġsal ty
Ġspecific ations
Ġunivers al
Ġtransact ions
Ġdis co
Ġsk illed
Ġatt ire
lic ation
Ġdry ness
Ġcr ank
Ġob es
Ġrisk y
Ġcertific ates
Ġcompress ed
Ġemphas is
Ġcher ries
Ġsupermark et
Ġnot ary
Ġev il
Ġlight ning
cept ion
Ġnight m
Ġmy th
Ġteen ager
Ġgrind ing
Ġinstit utions
Ġenthus i
Ġpropos al
Ġfung us
b ic
c in
Ġm ich
Ġan ten
Ġsh ifting
Ġmo nday
Ġpo les
Ġexp iration
Ġins ist
Ġsoft ened
Ġadjust able
Ġbleach ing
Ġdece ased
Ġlone ly
Ġc ows
Ġint u
omet ers
Ġfull er
Ġpin terest
Ġthreat s
Ġsuperv ision
Ġreass ure
i ance
i ated
m ilk
Ġf umes
ree ze
Ġair lines
Ġadop ting
Ġintent ions
8 0
t one
Ġb less
Ġl umber
Ġe uc
Ġde ar
mp loy
Ġdr own
Ġsy m
Ġcomple tion
Ġarr ay
Ġwin ner
Ġgrad u
Ġmass aging
Ġwax ing
Ġhosp itals
Ġster oid
Ġelev ator
Ġvirt ually
Ġcush ions
Ġmant ra
Ġvend ors
Ġver bs
Ġbra iding
Ġcra vings
cl ip
Ġcub ic
Ġtumb lr
Ġrais ins
Ġultras ound
Ġcortic oster
Ġc ous
ac le
Ġcon cise
Ġen list
Ġcut icle
Ġmath rm
Ġmer c
Ġpenal ty
m us
Ġl g
Ġcan al
Ġad verse
Ġpers u
Ġ3 1
Ġtrans late
Ġclass ical
Ġsqu e
Ġing rown
Ġmod est
Ġcy st
Ġlock ing
Ġpear ls
Ġaccred ited
Ġflee ce
Ġpsor iasis
ic ians
Ġdi y
Ġbit moji
Ġmotor cycle
Ġc ds
en gers
Ġbe ets
Ġle ge
Ġad ren
Ġpain ter
Ġinvest ors
Ġrespect ively
Ġadop ted
Ġproof read
Ġsar c
Ġais le
er ves
Ġse pt
Ġcl ue
Ġho ly
Ġimp l
Ġscreen ing
Ġblo oms
Ġtext book
Ġteam mates
Ġfig uring
Ġbull ies
Ġrom an
Ġclou ds
Ġassert ive
Ġrasp berries
Ġobes ity
b at
c ar
Ġpl aster
hes es
Ġbas in
Ġob struct
Ġword press
Ġaccess ory
Ġpriv ile
Ġalert s
Ġtint ed
Ġgoodby e
Ġfr anch
Ġinc lined
Ġtest osterone
Ġair plane
Ġegg plant
Ġaccommod ations
Ġdemand s
Ġpartners hip
Ġst are
Ġcan ola
am ines
Ġsu cc
Ġwr aps
Ġform ats
Ġspecial izes
Ġcross ed
Ġrad iation
Ġearn ing
Ġchat ting
Ġrein stall
Ġbrist led
Ġachie ving
Ġconserv ative
Ġdm v
Ġslipper y
Ġc ache
Ġp iv
Ġcl aw
Ġopen ly
Ġob taining
Ġcloth s
Ġmagn etic
Ġpros pect
Ġcigare ttes
Ġproport ion
Ġmerch ant
on i
Ġl atter
id al
Ġsu nday
Ġv apor
Ġbr akes
Ġback ed
Ġcool s
Ġtrain ers
Ġfu nding
Ġvase line
Ġstere oty
c ro
Ġin ability
am as
Ġr anges
Ġj ug
Ġdr ains
Ġnut me
Ġinfl amed
Ġrat ings
Ġparas ites
Ġiod ine
i w
s m
Ġc ages
Ġf aced
Ġpe aches
Ġgr ants
Ġwr ote
oth y
Ġgen ital
Ġple asure
Ġthir ds
Ġintrodu ced
Ġstove top
rem ember
x x
Ġt arp
Ġst aining
if i
Ġdet ox
Ġown ed
Ġra ises
Ġdefe nder
Ġpant ry
Ġfount ain
Ġs ail
Ġp ushed
reat ed
Ġcomp ose
Ġswe ats
Ġmy stery
Ġtour nam
Ġsecret ary
Ġsnip er
Ġbarbe cue
Ġpediatric ian
v ic
Ġcl aws
Ġout going
Ġsal v
Ġfun eral
Ġsho ots
Ġunderstand s
Ġshort en
Ġsepar ating
Ġbrist le
aly pt
v an
Ġa ug
Ġn aked
se ed
Ġab road
Ġapp rent
Ġmouth piece
Ġclar ity
Ġol ives
Ġw rest
Ġf etch
Ġg i
Ġcent re
Ġsol uble
Ġstraight ening
Ġview ed
Ġshuff le
Ġnutme g
Ġin ac
Ġg aze
Ġinv o
Ġpet al
Ġbi king
Ġ8 5
Ġshot gun
c ings
u a
Ġp ir
st ay
Ġag reed
Ġpot ty
Ġinv ited
Ġ3 3
Ġbuild s
Ġdiag ram
Ġsevere ly
Ġexh ibit
Ġspo ons
Ġnic otine
Ġbou quet
Ġpenet rate
Ġted dy
Ġleth ar
Ġeuc alypt
Ġor ch
ast y
Ġmemor able
Ġparagraph s
Ġlubric ant
ay a
ct ive
Ġch ore
Ġk ennel
Ġenc losed
Ġur g
Ġur ban
Ġspoon ful
Ġprior ities
Ġdisinfect ant
Ġbroil er
Ġimmig ration
Ġdunge on
Ġd c
Ġgl ad
Ġlove ly
Ġrev ise
Ġdram atically
d rop
Ġo ve
Ġm c
Ġg athered
Ġcoun cil
Ġ12 5
Ġbread cr
Ġrins ed
Ġbored om
Ġtort illas
Ġul cers
Ġpist ol
Ġs her
Ġl b
Ġch im
Ġgr ie
Ġgu ided
Ġmon o
Ġbeh alf
Ġappear ing
Ġz ig
Ġseason ed
Ġtarget ed
Ġtwist ed
Ġcontrast ing
Ġeucalypt us
Ġsh if
Ġdis abilities
Ġpol ished
Ġexpl oring
Ġmod ified
Ġfore f
Ġpad dle
Ġforg iveness
Ġtwe ets
Ġexec ute
k u
Ġh ub
Ġsl ime
Ġseal ant
Ġanal og
cons cious
Ġcontrib utions
Ġsole ly
Ġanonym ous
Ġeps om
he ld
Ġre cess
Ġunder ground
Ġbank ing
Ġill usion
Ġfair y
Ġfear ful
Ġestabl ishing
Ġc rou
Ġh ired
Ġor dered
Ġcl ause
Ġprot o
Ġarr anged
Ġpu zzles
Ġbright ness
Ġcheap est
ci ously
Ġdes irable
Ġbiolog y
Ġornam ents
Ġfixture s
Ġre ins
ch a
Ġpl atter
Ġbot tled
Ġred d
Ġest rogen
Ġcommunic ations
Ġfinan cing
Ġrecy cled
Ġquit ting
Ġemo ji
Ġsnug ly
Ġconfid ential
Ġcongrat ulations
Ġhighl ighter
j a
l ining
Ġm un
ple te
Ġsp i
Ġsp ong
Ġpr ize
Ġclick er
Ġmu zzle
Ġsa ute
log ical
Ġmod em
Ġtherap ists
Ġtor ch
Ġuncom mon
Ġnews let
Ġrit ual
Ġaustral ia
Ġpiv ot
i h
iz able
Ġperson nel
Ġca f
Ġblo gg
Ġmat rix
Ġsum mon
Ġauthor ized
Ġcock at
Ġtem ple
o v
Ġle aking
Ġshe ep
Ġdraw s
Ġcy cling
Ġsubt it
Ġpurs uing
Ġg n
Ġg own
Ġst aring
Ġpe ars
Ġreason ably
Ġsweet ness
Ġsav es
Ġrent ing
Ġscan ning
Ġhur ry
Ġcosmet ic
b ones
Ġw arts
id av
Ġk h
Ġpe g
Ġcut icles
Ġdress er
Ġcam ps
Ġaff idav
Ġfashion ed
Ġrhy me
Ġpunct uation
Ġanten na
b ag
Ġp ent
ad vant
Ġbr as
Ġdis aster
Ġacc ust
ne a
Ġspr itz
Ġinter pre
Ġtail ored
Ġconsult ant
Ġcontrib uting
Ġnostr il
i ations
ain ed
ag n
Ġdown wards
Ġtheir s
Ġscr unch
Ġpier ce
Ġpier cings
Ġgrocer ies
Ġaccompan y
h s
Ġlo ses
Ġres ize
Ġperson s
Ġ3 8
Ġprof its
Ġdraw ings
Ġgold fish
Ġpsych iat
Ġstrengthe ning
Ġpromot es
lim ited
Ġstab ilize
Ġb ins
Ġth under
Ġnot ch
Ġop aque
Ġam ple
Ġheart burn
Ġdy ed
Ġbi os
Ġsuff ice
Ġmuff ins
Ġpyram id
Ġp hen
at ched
Ġl ord
Ġsp ont
Ġgr illed
Ġdisc re
sp ot
Ġinvest igation
Ġmac ar
Ġconsult ation
Ġwal mart
Ġuter us
Ġi ra
ul ator
Ġdis advant
Ġsun burn
Ġcell ular
Ġsens or
Ġplat inum
cop y
Ġmarshm allow
al ity
Ġcon sol
ip her
Ġapp arent
Ġun limited
Ġmoistur izers
Ġdissol ves
Ġdessert s
Ġsanit izer
grou nds
Ġunderst ood
Ġcris is
Ġglycer in
Ġt aut
Ġen ch
ton es
Ġhard wood
Ġmark ings
Ġear ring
Ġpet ting
Ġelect ion
Ġflavor ful
Ġblaz er
Ġfavour ite
Ġj azz
Ġfir ing
Ġhold ers
Ġincorpor ating
Ġchunk y
Ġune mploy
Ġscul pt
g l
Ġb inge
Ġf ool
Ġbo nding
Ġrec onnect
enc ing
Ġaut umn
Ġpast el
Ġsuper ior
Ġclim ates
Ġloud ly
Ġfert ility
Ġadvis or
Ġclou dy
at al
Ġtr ous
Ġco zy
ple n
Ġpr icing
ang ling
Ġshe er
Ġlay ered
Ġblo ating
Ġfeature d
Ġengage ment
Ġdefend ant
Ġbiolog ical
Ġsubscrib e
Ġcomprehens ive
Ġp ts
Ġd ies
Ġsu do
Ġpe nd
Ġbl unt
ren ce
Ġsec uring
Ġband ages
Ġflu or
Ġcalcul ations
Ġslee ved
zy me
Ġdev ote
Ġterr ible
Ġf as
Ġre load
ent er
Ġsoft ly
Ġarr ives
Ġreact s
Ġswallow ing
Ġtamp ons
Ġexemp t
Ġsophistic ated
Ġsym met
s omet
Ġh iv
Ġmo les
ong s
Ġoff set
Ġhair sty
Ġcond om
Ġparent heses
Ġgar ments
ho le
Ġinde ed
Ġhydr ate
ipp ings
Ġtul le
Ġd w
Ġr acks
Ġco aches
Ġv oid
Ġbu zz
Ġam end
Ġmoist en
sh i
Ġunc overed
Ġre plen
Ġpro cra
Ġend less
Ġ4 7
Ġenc ry
Ġbread s
Ġscar ves
Ġmath bf
Ġdev ot
Ġlaun cher
Ġc ite
or ice
Ġpro xy
Ġv owel
Ġsc ab
Ġbo oth
Ġexp licit
Ġgl ued
Ġpass ages
Ġreve aling
b ars
i our
Ġs ams
Ġw ifi
Ġto othed
ing ly
ro st
ge red
Ġbr ightly
Ġmind set
Ġshort ly
Ġpull s
Ġnight time
Ġvel vet
Ġcray ons
Ġacupun cture
re r
Ġre write
Ġv pn
Ġk er
Ġpe a
Ġsle ek
ph ins
Ġant ise
Ġtick s
Ġbees wax
Ġmere ly
o k
Ġe co
Ġhe p
Ġat om
fe ed
Ġbet ta
Ġrun ner
Ġdrop down
Ġessential s
Ġgrab bing
Ġstrugg les
Ġfrust rating
Ġreject ed
gra v
Ġprocra st
c all
h or
p in
Ġl ick
Ġtr aces
Ġen velop
Ġover board
Ġcal ves
Ġneg ativity
Ġur ination
Ġpa wn
Ġvictim s
Ġbicy cle
Ġproto col
Ġaccust omed
ig e
Ġse ating
stand ing
con nect
Ġthumb n
Ġdepart ments
ob a
Ġpel vic
Ġwast ing
Ġspect rum
Ġdisres pect
Ġs ift
se ts
Ġle cture
Ġmo l
Ġwe aken
Ġj erse
Ġdis lo
Ġpick up
Ġencourage ment
Ġcoll age
Ġsurround ed
Ġsold er
Ġwarn ings
Ġsatisf y
at hetic
Ġfil tered
Ġrespect ive
Ġoper ator
pr ints
graph y
Ġbur nt
Ġster ilize
3 2
n ings
p orts
Ġv ow
Ġlo s
Ġday time
Ġins urer
Ġsur ve
Ġstrong est
Ġshower ing
Ġscrap ing
Ġannoy ed
Ġestim ated
Ġfingern ails
Ġl ately
Ġl inger
Ġad ject
Ġfl uct
Ġreg ional
Ġprevent ative
Ġemploy ed
Ġpow ders
Ġmother board
Ġtre asure
Ġtoler ance
Ġstri kes
Ġd na
Ġlo gging
Ġmix es
Ġcap tion
Ġarr ival
Ġlic orice
Ġbreed ers
Ġtrip od
Ġmer ge
Ġling ering
Ġw ond
at ient
Ġno des
Ġpick s
less ness
Ġcost ly
Ġgard ens
Ġsharp en
Ġseal ing
Ġforgot ten
Ġprost ate
Ġdow nt
Ġsams ung
Ġf are
Ġha ss
ab ling
Ġcomp osition
Ġar bit
Ġve in
Ġ16 0
Ġconver ter
Ġattrib utes
Ġruss ian
Ġchickpe as
Ġs ieve
ro g
Ġas ian
Ġr an
Ġsa pp
Ġrest s
Ġret reat
Ġer r
Ġbat ting
Ġtact ics
Ġcosmet ics
Ġumbre lla
Ġre vers
ad ian
Ġwater y
Ġcr imp
Ġfin s
Ġshort ening
Ġsty list
Ġut il
Ġbor ax
grad uate
Ġdipl oma
Ġcommitte e
Ġforef inger
er ation
Ġp umps
Ġu b
Ġsc arring
Ġapplic ant
Ġ5 2
Ġimprove ments
Ġoppos ing
Ġbun s
Ġspo il
Ġclut ch
Ġenzym es
b ir
c uss
l ux
p ill
Ġsp ike
Ġbr ine
Ġrel ation
Ġlim b
Ġbehav iour
Ġupload ing
Ġwo k
Ġlin ers
Ġdiscoura ged
Ġtroubles hoot
Ġconsol id
ic a
Ġr aces
Ġtr acing
Ġimp aired
Ġpass engers
Ġmess aging
Ġpopular ity
Ġtra it
Ġdele ting
Ġtri angular
Ġhurt ful
Ġpink y
Ġaccum ulate
Ġcav ity
h ou
r ika
re ction
Ġc umin
ke ys
Ġan cient
im m
Ġv ast
Ġte aring
Ġwater col
Ġday care
Ġag grav
Ġbutter milk
unt u
Ġtrad itions
Ġfurther more
Ġdatab ases
Ġviol ation
Ġtart ar
Ġh ut
Ġh ives
if iers
Ġve ctor
Ġem eral
Ġmen us
aste red
Ġmicro s
roid ism
Ġstruct ured
Ġcelebr ities
Ġpoly ester
Ġcounsel ors
Ġwonder ing
Ġorth od
Ġpts d
h u
s ince
Ġt rench
in est
Ġw ander
Ġbe am
Ġsp inal
Ġsc oring
Ġscre am
Ġbul ky
Ġstock ing
Ġprompt ly
Ġpant y
Ġath lete
Ġbelong ings
Ġprinci ples
Ġscor p
Ġh r
Ġv s
Ġv ista
Ġpublic ations
Ġnic he
Ġcance ll
d les
s we
Ġt ant
Ġc ape
Ġst ats
Ġdes cript
Ġaccess ing
Ġjud ging
Ġoffic ers
Ġinterview er
Ġacce pts
Ġbru ise
Ġvend or
Ġne ct
Ġge ck
Ġrefer rals
Ġcleans ers
Ġtrend y
Ġprobiot ics
Ġnsa ids
g her
Ġh inges
Ġfr ank
Ġv alent
Ġover view
Ġcap ac
Ġexpress ed
Ġconsum ers
Ġdishwas hing
Ġgrandparent s
Ġlaz y
t ics
Ġl unge
Ġen zyme
Ġinc l
Ġfl ipping
Ġlarge ly
Ġchar ities
Ġspecific s
Ġincre ments
Ġlayer ing
Ġham str
Ġcoll abor
Ġcas he
Ġto ned
Ġsu shi
Ġcom ics
Ġcle ared
omet ric
Ġattach ments
Ġcarr ied
Ġexte nds
Ġdecre ases
Ġlob ster
Ġnort hern
somet imes
c lock
l am
m g
Ġb b
Ġre pt
Ġdo e
Ġsu e
pe ople
Ġso iled
Ġside bar
Ġdi verse
Ġvis ibility
Ġaut ism
Ġver se
Ġprom ises
Ġbal ancing
Ġgrad ient
Ġbat tles
Ġdrug store
Ġkick s
Ġf uss
Ġg ains
ate red
Ġover look
Ġun se
Ġrequ iring
Ġcompan ion
Ġpool s
Ġsettle ment
Ġmanif est
r uff
Ġsh akes
Ġhe dge
Ġj et
Ġfl aw
Ġprom inent
Ġcondition ers
Ġdeal t
Ġmold ing
Ġindepend ence
Ġcoord ination
Ġcort is
Ġcater pill
Ġaffidav it
z u
Ġw ages
Ġpre cious
Ġve loc
Ġes oph
com es
Ġreview ing
Ġbull ied
Ġlif etime
Ġshr ubs
Ġbell s
Ġindust rial
Ġvel cro
Ġhaw ai
r is
er ge
Ġpe e
ass ess
Ġph p
Ġap ric
Ġcho king
Ġref lux
Ġpersonal ities
Ġport ra
Ġiv y
Ġnect ar
Ġc ed
Ġv in
Ġsc out
up t
Ġdesign ing
Ġcult ivate
Ġpath s
Ġdeduct ible
Ġsh ing
Ġplay station
Ġbrown ies
Ġsubmit ting
Ġbask ets
Ġfarm er
Ġfort ified
Ġrearr ange
Ġlg bt
i ences
n ies
Ġt aper
Ġb a
Ġto ll
on ing
ic idal
Ġcon form
ul ates
Ġen ables
the y
Ġpol ar
Ġcart oon
amb ling
Ġdistinct ive
Ġtread mill
Ġvamp ire
Ġdiscrim ination
Ġjan uary
Ġbreadcr umbs
Ġantise ptic
Ġa ce
Ġout lined
ook ed
Ġman aged
Ġclass y
atur al
Ġslow ing
Ġprofess ors
Ġther most
Ġrecogn ition
Ġthous and
Ġcomed y
Ġmanic ure
Ġsu ffici
Ġch ur
Ġk etch
Ġant if
Ġpol ishing
Ġfoot wear
Ġliqu or
Ġlemon ade
Ġclo gged
Ġdece mber
Ġpharmac ies
Ġharass ment
Ġquad r
Ġag ric
Ġam ino
Ġread ings
Ġcho ke
Ġbag gy
Ġ5 9
Ġsens ations
Ġpred ators
Ġoccup ied
Ġembellish ments
b in
m un
Ġinto ler
Ġfl amm
Ġper missions
Ġind ig
Ġpat ties
Ġass ure
Ġneck line
Ġmar ath
Ġ9 5
Ġpa j
Ġhonest y
Ġdecre asing
Ġketch up
Ġy a
Ġb ury
Ġm ys
Ġh ints
Ġfo cal
Ġpe c
Ġsmo ot
Ġgar land
Ġspot ify
Ġinteract ive
Ġfly ers
Ġpic nic
Ġcramp ing
Ġspi kes
Ġm astered
on ia
Ġcan n
Ġmed iation
Ġrest r
Ġscr aper
Ġyear ly
Ġbrows ers
Ġlift s
Ġobs erving
Ġadminist ered
Ġpsych ology
Ġpy th
Ġtraum atic
Ġspons or
Ġg ad
Ġg ang
Ġst ink
Ġst akes
Ġcar ries
ff les
Ġhead ed
Ġbur den
Ġine v
Ġvalent ine
c key
e very
Ġw atches
ic ides
Ġg our
Ġser ial
br ing
Ġcra ving
Ġflower ing
Ġaccent uate
Ġfav ors
Ġbuck le
Ġinfest ation
Ġagric ult
ac cept
ur a
Ġacc ents
Ġext ras
Ġdirect ors
uct ive
Ġgir ly
Ġfix ing
Ġprogress ive
Ġdrill ing
Ġdiff user
Ġplumb ing
Ġp amp
Ġl ig
st op
Ġe ject
Ġwith stand
il a
Ġk os
Ġpe ren
Ġunder water
Ġconsider ably
Ġcare ers
Ġweak er
Ġproport ions
Ġmand atory
Ġ37 5
Ġshav ings
Ġnonprof it
d ry
Ġr ises
Ġk iw
Ġdown s
Ġconnect ors
Ġswim s
Ġappreci ated
Ġflag s
Ġunf air
Ġpap aya
Ġder ived
Ġcrunch y
c am
Ġb orders
it udes
Ġg b
ill ing
Ġso ggy
Ġwe alth
Ġfe ll
Ġlo ver
te ll
Ġdim ension
Ġbelie ved
Ġadj acent
Ġmerc ury
Ġdis gu
Ġcons on
Ġquest s
Ġaccess orize
work s
Ġcutting s
Ġbron ze
Ġseiz ure
Ġfou l
Ġlamin ate
Ġove reat
Ġperen n
Ġoff ense
Ġher pes
Ġunt reated
Ġcur b
Ġind ia
Ġblo ss
Ġer ra
Ġdust ing
Ġov als
Ġtutor ials
Ġstimul ating
Ġsyll able
Ġbut to
Ġcar ve
Ġgl am
Ġtechn ician
Ġtre as
Ġdiagn ost
Ġhydr ation
am ble
Ġco e
ip edia
Ġdr ift
Ġdis li
Ġsm ud
Ġcheck box
Ġtalk ed
whe ther
Ġlift ed
Ġpump ing
Ġmodel ing
Ġhar ry
mark s
Ġt al
Ġsu ction
Ġch ats
Ġcost umes
Ġsound ing
Ġsuit case
Ġdon ut
ores cent
Ġapr il
Ġsubsequ ent
Ġsuffici ently
Ġex otic
Ġbo om
Ġac hes
Ġheat s
Ġimm ers
og enic
Ġtable cloth
Ġmor al
Ġmar ry
Ġsweet er
Ġrefriger ated
Ġtexture d
Ġresid ual
Ġ45 0
Ġinstit ute
Ġsulf ur
Ġwis dom
Ġantidepress ants
Ġgerb il
t ap
z a
Ġp ing
ro ot
Ġso les
ag o
Ġhand held
Ġpain kill
be lls
Ġmaintain ed
Ġtoast ed
Ġpap rika
Ġscenari os
Ġphilosoph y
Ġtrous ers
Ġhe nce
Ġmo lasses
Ġadd itions
Ġdis rup
Ġun b
Ġimp ul
Ġcor ros
ict ions
gram s
Ġhal ter
Ġbeat en
Ġsoften er
Ġslot ted
Ġconj ug
Ġconvin cing
Ġlege nd
c lo
Ġo ste
Ġd angers
Ġre us
Ġlook out
Ġhead ings
Ġgen e
Ġsec rets
Ġland s
Ġsav ory
Ġbi kes
Ġban ner
Ġfert ilize
Ġconver ting
Ġced ar
Ġnot icing
Ġdo l
Ġwor ship
Ġsn ails
Ġquick est
Ġcontin ually
Ġswe ar
Ġcap abilities
Ġview ers
Ġmail box
Ġresid ential
Ġstack ed
Ġwik ipedia
Ġange l
Ġpharmac ist
Ġdand ruff
Ġwond ers
Ġreus able
n ip
am ination
im eters
Ġint ensive
Ġpre f
Ġover se
Ġgl ance
Ġdiv ing
Ġfinan cially
Ġden y
Ġdre w
Ġter rain
Ġvacc ination
Ġecon omic
Ġtamp on
Ġmart ial
Ġali en
Ġrede em
Ġw art
Ġf aint
Ġl ava
Ġan us
ne um
Ġdep r
Ġrepet ition
Ġcrick ets
Ġmun icip
Ġflamm able
ot es
igh ters
Ġj ig
Ġun st
Ġpass ions
Ġcomb ing
Ġmusic ians
Ġsmooth ies
Ġvo ices
Ġapprox imate
Ġvacuum ing
Ġrehe ars
Ġfacilit ate
Ġpractition er
Ġveloc ity
j ud
l ists
Ġp int
Ġm oth
Ġg ates
um my
Ġsc ams
Ġro pes
Ġatt ic
Ġbar ley
Ġflavor ing
Ġrad ical
Ġsil hou
Ġconj unction
Ġantihist amines
st on
Ġbe ars
im ental
Ġcon ve
Ġmin us
Ġhome own
Ġgl and
Ġheart beat
Ġcollect ions
Ġcarr iers
Ġgain ed
Ġinh al
Ġster oids
Ġsweep ing
Ġloyal ty
Ġparr ot
Ġub untu
t al
Ġa ra
Ġo mit
Ġunder graduate
Ġclean up
iqu ette
Ġwashing ton
Ġaff ili
Ġcarp ets
Ġemerg encies
Ġund e
Ġshortcut s
Ġecon om
Ġafric an
2 0
Ġw att
Ġh ills
Ġcon es
Ġpro ps
ag ne
ting u
Ġchick s
Ġreflect ive
Ġmultip lication
Ġcaffe inated
Ġpoll ution
Ġgast ro
Ġp orn
Ġp neum
Ġcom pe
Ġsm ash
Ġexp ans
Ġprep aid
Ġmedic are
Ġboil s
Ġattack er
Ġwaist band
Ġpillow case
Ġpsycholog ist
Ġric her
y n
Ġmo ck
Ġex ch
Ġlo d
Ġwho les
op ard
Ġno isy
Ġcr umb
Ġgener ated
Ġfil lets
Ġmy ster
Ġdv ds
Ġthreat ened
Ġsimmer ing
Ġofficial s
Ġdemand ing
Ġexcl usive
Ġunre al
Ġvigor ous
Ġsweeten ers
Ġenvelop es
om nia
ot ect
Ġse ep
Ġout comes
Ġref in
Ġbad ge
Ġthin ning
Ġreason ing
Ġpen ny
Ġdrag ons
Ġabsor ption
Ġdeli ber
Ġrein for
Ġeast ern
Ġmerch and
Ġinac cur
clock wise
Ġb ib
Ġle ngthe
Ġex tingu
Ġwash able
Ġglo be
Ġrespect ed
Ġcounter clockwise
Ġinh ib
Ġperce ived
Ġantivir us
d ings
o cc
Ġo o
Ġb ail
Ġdo dge
il st
ap t
Ġj ag
our se
Ġhand writing
Ġret ention
Ġimpro v
Ġanim e
Ġbro ch
Ġteac hes
Ġtax i
Ġbi kin
Ġgro ove
Ġmother s
Ġathlet es
Ġcp u
Ġmembr ane
Ġo m
Ġy el
Ġpre te
Ġent ers
Ġwas hes
Ġbi as
Ġinse cur
Ġlaptop s
Ġven ues
Ġintegr al
Ġparam eters
Ġkos her
Ġa z
Ġwh ilst
ra vel
Ġro s
Ġflo ps
Ġgrill ing
Ġcomplex ion
Ġber ry
Ġvow els
l iness
p erson
re th
Ġout lines
Ġinc ub
Ġfl ows
Ġqu ilt
Ġcomp osed
Ġback st
Ġsk ating
Ġbl anch
Ġent ert
Ġstre ets
Ġcour th
Ġhum mus
Ġtrave lling
Ġsweet ener
Ġrecogn izing
Ġdye ing
Ġrepresent ing
Ġmigrain es
Ġchur ches
at ar
Ġl ax
ot onin
Ġco d
Ġpo ems
Ġtime ly
Ġinv al
Ġpres ident
Ġautom ated
Ġgro in
Ġcancell ation
a us
en g
Ġup front
Ġgo v
ask et
Ġpersonal ize
Ġkit ty
Ġresid ents
Ġbod ily
Ġmuse ums
Ġf ired
Ġtr ails
Ġv arnish
Ġpo dge
Ġk ilo
Ġany body
Ġser otonin
Ġdes ce
Ġdisc s
Ġpract iced
Ġpack ets
Ġlog ic
Ġflu orescent
pr otect
Ġfract ure
Ġprem ature
Ġchap ters
Ġet iquette
Ġpix els
Ġrecur ring
Ġproh ib
w ide
Ġle e
Ġout standing
el ing
Ġinv asive
Ġdep reci
Ġspl its
Ġrepet itive
Ġobstac le
Ġul cer
Ġrefres hing
Ġs ab
Ġo y
Ġbe gun
Ġre nder
Ġse gments
Ġpl ums
Ġuse less
ater al
Ġbec ame
Ġins omnia
Ġaccount able
Ġ3 4
Ġtrans it
Ġfire wall
Ġtrust ee
Ġrecip ro
Ġsight s
Ġintegr ity
Ġfrizz y
Ġnostr ils
Ġre name
Ġwith hold
Ġwe an
Ġar oma
Ġact or
Ġatt ain
ric ular
Ġbus hes
Ġphys ics
Ġdrive way
Ġspeak s
Ġcompl aining
Ġfiber glass
Ġpup ils
Ġtract ion
w ith
Ġw ow
Ġp oop
Ġd ual
Ġd ips
Ġfill s
Ġadv ocate
Ġple asing
Ġexc lud
Ġdesp erate
Ġentert aining
h ots
Ġc act
ig ma
Ġtr ains
Ġgr am
Ġmin ing
Ġbreak age
Ġupd ating
Ġdoll s
Ġrh inest
Ġrelie ving
Ġlun ges
Ġfid get
Ġhass le
Ġdescript ive
ci als
Ġfo l
Ġshe pher
Ġhome less
Ġhor ror
Ġcredit or
Ġconcent rating
Ġnar c
Ġdeterg ents
Ġnest ing
gu ard
Ġtum my
Ġacquaint ances
a im
l ap
nd ers
Ġcom bo
Ġcont ag
Ġche f
Ġset tled
Ġsl ing
Ġsl its
ell a
Ġ20 00
Ġspray ed
Ġfat al
Ġtask bar
Ġtrig gered
Ġcheek bones
Ġsuperv ise
Ġnarr ative
Ġfres he
Ġmexic o
Ġarmp its
Ġendor phins
d ia
g ia
h og
re al
Ġn y
is ons
Ġst ren
Ġdo zen
Ġso ren
Ġso cially
Ġcont ests
Ġstr um
Ġchar itable
Ġprot r
Ġwarm ed
Ġju ly
Ġencoura ged
Ġsuggest ion
Ġcast or
Ġclin ics
Ġbuff er
Ġdeduct ions
Ġintimid ating
Ġimperfect ions
h l
p et
Ġa wards
Ġi on
an es
as ma
Ġpl ump
Ġag it
Ġcal ib
ract or
Ġdef rost
Ġbra ve
Ġhum ane
Ġda wn
Ġsod as
Ġur inating
Ġmel ody
Ġcoll ars
Ġwra pper
Ġcig ar
Ġwitness es
Ġtransmit ted
Ġthermost at
Ġsoren ess
Ġw orthy
Ġp and
Ġan e
Ġr ind
Ġat oms
Ġk ite
Ġinc on
Ġfl ames
Ġsl icing
Ġdec ay
Ġgener ator
Ġir ish
Ġsleep y
Ġprob ate
Ġsatur ate
Ġincreasing ly
Ġrecover ing
Ġembarrass ment
Ġtact ic
Ġtang led
he m
Ġc pr
Ġf ences
Ġin her
Ġbe gan
ac ur
ge bra
Ġpl um
Ġout wards
Ġj une
Ġk ar
Ġcont amination
Ġkn ight
Ġbow ling
Ġcontin ued
Ġdark ness
Ġsalt water
Ġthr ows
list en
Ġgran ulated
Ġintellect ual
Ġjerse y
it ched
Ġg orge
il iate
ag ging
Ġpe ek
Ġcomp uls
Ġman ure
Ġside walk
Ġval ley
Ġtrave ls
Ġmel on
Ġfant astic
Ġintest inal
Ġpaj amas
ac ious
Ġex ert
Ġfir ms
Ġref uses
dr ink
Ġpresent ing
Ġsteam ed
Ġexpand ing
Ġprecise ly
Ġhero es
Ġfest ival
Ġchamp agne
Ġn ape
Ġdo c
Ġcond oms
Ġhot line
Ġgra ham
Ġcommit ting
Ġcro ck
Ġpoison ous
Ġtr amp
Ġal gebra
Ġpe at
Ġve g
Ġtyp ed
Ġir re
Ġhang ers
Ġgre ased
Ġguard ians
Ġ14 0
Ġindepend ently
Ġinqu ir
Ġfulfill ing
Ġmargin s
Ġsquir rel
Ġc ad
le e
Ġn asty
Ġr ushing
Ġco ding
Ġpl aint
Ġsw iss
Ġtest im
Ġtrans fers
Ġsn ail
Ġcap tain
Ġcontract ions
Ġfarm ers
Ġcarbohydr ate
Ġcaps ule
Ġtum or
Ġexcl us
Ġastr ing
Ġembed ded
Ġmarath on
j oba
in stall
Ġp ome
an ium
Ġan swe
Ġsp here
Ġdis put
Ġrec on
Ġess ence
Ġband ana
light s
Ġcertific ations
Ġfashion able
Ġlaugh ter
Ġlat in
Ġverb ally
Ġkern els
Ġpebble s
Ġcan ning
ace a
Ġbr ushed
Ġfl ashing
Ġche dd
Ġvoice mail
Ġneutral ize
Ġgym n
Ġluck ily
Ġhop es
Ġabs ence
Ġech o
Ġmolecu les
Ġmargar ine
e val
Ġp sp
ers onal
Ġpro active
Ġk ay
Ġdr ows
Ġpe aks
be c
Ġfu zz
Ġimag inary
Ġpig e
Ġtour s
Ġabs cess
Ġsulf ate
Ġfranch ise
Ġhairsty les
Ġchedd ar
d ling
Ġf da
ar b
Ġle ct
iv als
Ġsl ick
Ġcr ut
Ġjo joba
Ġpin point
Ġbur gers
Ġabsor bs
Ġthank ful
Ġblot ting
Ġstroll er
Ġhep atitis
Ġstren uous
c ases
r ates
ar f
Ġn om
ro l
Ġinc ur
Ġper ch
ens ure
Ġim itate
Ġappe als
iver se
Ġjud ges
Ġpok er
Ġshr ub
Ġpromot ing
Ġtatt oos
Ġgran ola
child ren
Ġcurric ulum
Ġsept ember
Ġplaint iff
Ġkn ew
Ġtw ists
Ġbl own
Ġho ckey
Ġstr aining
Ġap t
Ġbreak outs
Ġchr on
Ġsubmit ted
Ġdumb bells
Ġskate board
Ġincom ing
Ġcourth ouse
Ġe po
Ġg a
Ġmore over
Ġob ed
Ġver ified
Ġbrown s
Ġgrad ual
Ġwax ed
fo cus
Ġornam ent
Ġmedit ating
Ġt s
Ġab used
Ġman ga
Ġim bal
Ġmen op
be ing
Ġhot spot
Ġval ued
Ġhy br
Ġinstruct ors
Ġachieve ment
Ġign ition
Ġresid ency
Ġov ulation
Ġles ions
Ġsme ar
Ġbutto cks
Ġn p
Ġe go
Ġg els
Ġch asing
Ġgl ide
Ġplan ter
Ġpass enger
Ġdist ant
Ġappro ve
li ers
Ġpar is
Ġspl int
Ġrad iator
Ġpossess ion
ograph y
Ġtermin als
Ġanswe red
Ġsh ark
Ġne uro
Ġdr ums
ong est
Ġkn e
Ġam en
Ġshe a
Ġchem otherapy
Ġinternship s
Ġrecre ational
Ġerra nds
Ġs sa
Ġl icking
st ores
ic ient
Ġsc atter
Ġcat ches
Ġtap ing
Ġscr amble
Ġblack berry
Ġinvest ed
Ġgrad uation
Ġvar ied
Ġirrit ants
Ġpeel er
Ġdest inations
Ġrecip ients
Ġlabor atory
Ġking dom
Ġextr acur
Ġextracur ricular
j ack
ro ck
Ġse als
Ġpr ick
ud s
Ġback grounds
Ġsl ows
op rop
Ġey ed
Ġpot ter
Ġcho pping
Ġpost al
Ġfeed ers
Ġcharacter istic
Ġproblem atic
Ġju ic
Ġabsor bing
Ġimpress ive
Ġsummar ize
Ġfor ge
Ġex acer
Ġpl un
Ġbr us
os ing
Ġres in
Ġdi pped
Ġfin er
Ġpres chool
Ġsocial izing
Ġreact ing
Ġdivide nd
Ġnav ig
Ġcontrib ution
Ġbrew ing
Ġpor ch
Ġdeter ior
Ġprinci ple
Ġexacer b
he art
Ġc f
Ġe ager
ak i
ood le
Ġus a
Ġcat he
Ġfeed s
Ġhang s
Ġpen is
Ġpun cture
Ġunw ind
Ġdiscount ed
Ġtem ples
Ġwat ers
Ġsem ester
he lf
Ġb mi
Ġh oof
Ġr ational
Ġsh ore
Ġne ur
Ġcomple tes
Ġsw ish
Ġer a
Ġloss es
Ġsnow fl
Ġinh aling
Ġmasc ul
Ġdou b
Ġstool s
Ġslides how
Ġdispens er
Ġfluor ide
Ġpo king
ag en
Ġem it
Ġcare s
Ġmood s
Ġrag s
Ġvacc inated
Ġsignature s
Ġconscious ness
Ġnumb ness
Ġunreal istic
p ic
Ġcon secut
Ġall ot
Ġpre n
Ġby pass
Ġover load
Ġfl ann
Ġcomp ile
ub arb
Ġdec ongest
Ġdifferent iate
not ice
Ġblack heads
Ġtight ening
Ġbooks helf
Ġtrack er
Ġfinal ize
Ġmoistur ized
Ġboo ster
Ġaccum ulated
Ġjurisd iction
Ġreplen ish
Ġmerchand ise
Ġw il
Ġw atered
Ġsc uff
iz ations
ag le
Ġcomp ly
ens ional
Ġcomm ute
gr an
Ġdisc ontin
Ġscr atched
Ġaff ix
Ġfurn ace
Ġcompens ate
Ġcomplement ary
Ġhemorrh oids
Ġwhist le
oprop yl
Ġthe ore
Ġat e
Ġpro x
be e
Ġair craft
Ġexplain ed
Ġresol ved
Ġconcert s
Ġutens il
Ġanest hes
Ġalk aline
Ġplun ger
Ġcan adian
Ġr ashes
ip ers
Ġcompan ions
Ġbit ten
Ġcoun ters
Ġhyp n
Ġbound ary
Ġreserv ation
Ġrh ubarb
Ġsyll ables
Ġsquir rels
Ġmexic an
Ġunemploy ment
z ip
Ġf ennel
Ġle nding
Ġtr ump
Ġpl ush
Ġover flow
Ġnum bered
Ġcor al
Ġap ert
ict ed
Ġline ar
Ġinf in
Ġspl inter
Ġshad ing
Ġrid ic
Ġbathroom s
Ġarg uing
Ġwhisk ing
Ġlack ing
Ġcaps ules
Ġtruck s
c ake
s ign
Ġan th
Ġcle ver
Ġpers pect
Ġfore arms
Ġdecor ated
Ġhyp ert
Ġflav our
Ġdim ensional
Ġoverwhel m
Ġnipp les
Ġindu ce
Ġsmoot hing
Ġbikin i
eval uate
Ġperspect ives
or ns
Ġnot ified
Ġro am
Ġexp ed
pl ants
Ġspr ings
Ġconf ir
Ġclear ance
Ġprotect ant
Ġ4 4
Ġmar ine
Ġsweet ened
Ġagree ments
Ġhighlight ing
Ġfel ine
Ġclip board
Ġguidel ine
Ġacqu ired
Ġswing ing
Ġvib e
Ġintegr ate
Ġinterv ention
Ġrepay ment
Ġpome gran
6 0
g iving
Ġt iger
Ġw ob
Ġcl amps
Ġad mission
Ġpre ced
Ġrel uct
Ġsit ter
Ġdi oxide
Ġpot ions
Ġrest rain
idd ing
Ġcust ard
Ġview er
Ġthir sty
Ġour selves
Ġirrit able
Ġten ants
Ġbur lap
Ġsweat y
Ġpuff y
Ġhes it
Ġdumb bell
Ġenlar ged
Ġcontag ious
Ġw age
Ġtw igs
Ġrel ates
Ġmus cular
Ġste aling
Ġart ic
Ġrese al
Ġcru el
Ġisland s
Ġflax seed
Ġdefect s
Ġpsychiat rist
r ine
Ġc s
om ial
Ġsome how
ck les
ass y
Ġimp air
co nd
op ath
Ġlar va
pt ions
Ġpat io
Ġlim p
Ġmass ive
ret ion
Ġgro o
Ġcompet itors
Ġsto pper
Ġdel ays
Ġretain er
Ġsusp ension
Ġdisturb ed
Ġincorrect ly
ent ions
Ġse min
Ġdr ips
Ġrun ners
Ġdisc overed
Ġob ese
Ġsmo ker
Ġpunch ing
Ġpel vis
Ġo tc
Ġbe ige
Ġkn obs
Ġsm s
Ġqu ir
Ġcomp r
Ġsw ift
Ġble nds
Ġinstruct ed
Ġcontract ing
Ġkill er
graph ic
Ġfoll icles
Ġrecept ive
Ġevapor ate
Ġsnee zing
Ġdestr uctive
Ġsapp hire
b ite
st ically
Ġre n
Ġis opropyl
ke l
Ġsh ove
pe red
Ġpl ugging
Ġinc ision
Ġshe d
Ġdec lar
Ġhard ened
Ġref u
Ġcustom s
Ġ11 0
Ġtown s
Ġpinch ing
Ġlad le
Ġven om
Ġmigrain e
Ġapprent ices
Ġspong es
Ġb red
Ġh ic
Ġse nder
Ġch ard
el iness
Ġinc entive
Ġsm udge
Ġcre vices
Ġtemp o
Ġbreak down
Ġdark en
Ġsprink ling
Ġjudge ment
Ġmile age
o ft
r ator
Ġg ing
Ġr ipped
Ġch ia
Ġpro be
Ġj av
au ce
Ġacc us
Ġconsider able
Ġred s
Ġgas oline
Ġpret z
fo ot
Ġded uction
Ġcart on
Ġapples auce
Ġcalor ic
Ġviol in
Ġscient ists
Ġreserv ations
Ġado les
Ġacceler ation
Ġiniti ative
Ġdiscre et
Ġw ired
Ġd itch
ain ting
Ġhelp er
Ġrest ed
Ġregist ering
Ġdepart ure
att ach
Ġmechan ic
Ġdiscol ored
Ġintention ally
Ġexclus ively
f in
n els
st ar
Ġint ric
Ġactiv ation
Ġprotect or
Ġboard ing
Ġthin ly
Ġsmell y
Ġtit led
Ġcontract ors
Ġworth while
Ġdon ating
Ġliter ary
Ġdedic ate
Ġglow ing
Ġassum ptions
Ġecon omy
Ġnin tend
Ġtoen ails
Ġt i
al a
ore an
Ġpre jud
Ġav atar
Ġexam ining
Ġam mo
Ġcat nip
Ġmon itors
Ġlearn s
Ġreview ed
Ġdon or
Ġmill imeters
Ġsplit ting
Ġdiabet ic
Ġprec ision
Ġfingern ail
Ġnove ls
Ġgorge ous
Ġflann el
Ġst un
Ġsu icidal
lo cks
Ġbr ides
Ġbl and
Ġcheck list
Ġaccount ant
Ġperiod ic
Ġelectr ons
Ġupset ting
Ġcalend ars
Ġspark ling
Ġcyl ind
Ġpenal ties
Ġmyster ious
f ield
g ate
o ked
Ġc c
Ġm ates
Ġe in
Ġper t
Ġsub mission
Ġ3 9
Ġhour ly
Ġcent ury
Ġsecond hand
Ġcolle ague
Ġvisual ization
Ġaffirm ations
b ian
Ġe g
Ġsh ar
Ġinc ent
gr ass
Ġdra stically
Ġcur led
ps y
Ġ9 11
Ġaff iliate
Ġsequ ins
Ġsuck ing
Ġexecut ive
Ġaest hetic
Ġi e
nd on
Ġd we
Ġas p
Ġpl ural
if ice
Ġk im
Ġun n
Ġun iverse
Ġsl ouch
Ġcard igan
Ġsw ir
atur ated
Ġpad ded
Ġcompet ing
Ġtut oring
Ġacadem y
Ġcreep y
Ġlact ose
weet ened
Ġnick name
Ġliz ard
Ġa ero
Ġs id
Ġw d
Ġcl ipping
Ġsk ates
Ġbet s
omet ry
Ġins ulated
Ġdress ings
ffe red
Ġliqu e
Ġfire s
Ġstock ings
Ġmechan ics
Ġder iv
Ġperce ive
Ġdislo dge
Ġdiagnost ic
Ġa k
at onin
Ġto aster
Ġd ns
il itation
Ġfr ance
Ġpain s
Ġsupp ose
Ġcur ios
me an
Ġbal d
Ġobs erved
Ġrepresent atives
Ġtun er
Ġgroom ed
Ġconcer ning
Ġconduct ed
cre am
Ġdestroy ed
Ġurg ent
Ġorthod ont
Ġcortis ol
Ġprete nding
l c
w ill
Ġst amin
Ġst umble
id ges
Ġwh is
Ġpr iced
Ġstr ipping
Ġmon olog
Ġhard ship
Ġsing er
Ġfore c
Ġbur ger
Ġrefer ring
Ġguit ars
Ġuns weetened
Ġtack y
Ġantioxid ant
Ġchi hu
Ġgy ms
Ġcran berries
Ġcondens ed
Ġmacar oni
Ġdisli kes
Ġchihu ah
at tered
Ġd unk
Ġch uck
est r
Ġsomet ime
Ġext rem
Ġirrit ability
Ġmicro ch
Ġsort ing
Ġesc aping
Ġaggress ively
Ġpainting s
Ġvill agers
Ġves sel
Ġstab il
Ġabandon ed
Ġchim ney
Ġepo xy
h ill
x ia
he rent
Ġc v
Ġpo ds
Ġab user
act s
Ġlo ndon
Ġdr ills
Ġover cook
Ġreg ain
Ġcomfort ing
Ġmat ched
Ġloos er
Ġdirector ies
Ġfright ened
Ġchic ago
Ġdict ate
Ġwatercol or
b read
Ġcan es
Ġab und
Ġjust ice
Ġbet ray
Ġsw ip
Ġz oo
Ġstir rup
Ġorganiz ational
Ġconduct ing
Ġhall way
Ġcray on
Ġsi xt
Ġplugin s
Ġresent ment
Ġu gly
Ġre lying
Ġre build
ut ic
Ġr ails
ater nity
iv itis
Ġover r
Ġres on
te nded
ffect ive
col lect
Ġmel atonin
ret te
Ġshampoo ing
Ġunc ooked
Ġarmp it
Ġstamin a
it ary
om es
ct ory
Ġlo ll
Ġunder tones
Ġbreak er
Ġmilk sh
Ġcy sts
Ġwra ppers
Ġster ilized
Ġmosquito es
Ġindul ge
Ġthumbn ail
b ul
Ġt inder
as a
Ġcross es
cel ain
Ġund es
Ġjournal ing
ias m
Ġpermit ted
Ġexhaust ed
bec ause
Ġt ing
Ġf ading
at able
al ways
Ġre charge
Ġr is
Ġbl aming
Ġexp onent
Ġconsider ate
Ġinter c
Ġmind s
Ġterm ination
Ġweb cam
Ġwid get
Ġcommit ments
Ġlawy ers
Ġtransl ation
Ġash amed
Ġoct o
cont act
Ġresear chers
Ġarchite ct
Ġrehab ilitation
Ġpneum onia
Ġtr ib
Ġsl ips
Ġem erge
Ġhigh way
amm ers
Ġign ored
Ġflash cards
Ġkeyboard s
Ġtoss ing
Ġscreens hots
Ġcareg iver
Ġt ier
Ġpre fers
Ġent ity
Ġcontro vers
Ġrab ies
Ġharm ing
sh ine
Ġhydr ating
Ġhi pp
Ġped als
Ġdetect ed
Ġobserv ations
Ġinno cent
f ine
s l
in is
Ġp um
it t
Ġn aming
ow ing
Ġr av
Ġr anch
Ġph ob
Ġdi ure
Ġpot ted
Ġsw itches
Ġreal izing
Ġexpl ains
Ġbro ke
Ġfire works
Ġfinger prints
Ġele ph
Ġdetect or
Ġcorrespo nds
Ġpor celain
Ġimper ative
Ġenthus iasm
Ġelectroly tes
Ġcurios ity
a el
u ity
Ġb ats
Ġqu ery
Ġar ter
Ġless er
Ġcreat or
Ġimm erse
Ġinsert s
Ġrespect fully
Ġintrodu ctory
Ġattract ions
Ġoffic ially
Ġstruct ural
keep ing
Ġtender ness
Ġalarm s
Ġlou der
Ġknuck les
Ġemeral d
Ġcathe ter
Ġmascul ine
c is
st ud
Ġan at
Ġpl asma
one lla
av ail
du les
Ġshort ness
Ġmod ification
Ġcy ber
Ġstock pot
Ġann ivers
Ġwheel ch
Ġcelebr ation
Ġslo ppy
Ġinstinct s
Ġcran berry
Ġsacr ifice
Ġpodcast s
Ġha ired
Ġcan ine
Ġint ra
Ġend e
Ġlight ening
Ġvis ited
Ġstud ied
Ġsmo ky
Ġcrack er
Ġtele port
Ġdebt or
Ġisol ation
Ġfreel ance
Ġcorticoster oids
Ġsilhou ette
en a
Ġr s
Ġse wn
Ġmo zz
ain ted
are lla
Ġun conscious
Ġpot ent
Ġhot ter
Ġret aining
oy l
Ġtext books
Ġspray er
Ġforget ting
Ġstrateg ic
Ġabs ent
Ġnic er
Ġskew ers
Ġlux ury
Ġbabysit ting
pic uous
Ġnintend o
b es
Ġw ars
Ġp p
Ġre no
Ġsc ot
Ġev ac
Ġspe nds
Ġcar ol
Ġcook ware
Ġmon et
Ġinv ites
Ġprop r
Ġsho el
Ġref ine
Ġlow ers
Ġweight ed
ex amine
Ġmoder ately
Ġdent ures
Ġvalid ate
Ġscen ery
Ġome let
Ġintest ines
Ġacceler ate
Ġobserv ation
Ġexplo de
Ġcashe ws
Ġshed ding
Ġocto ber
Ġmozz arella
i ently
Ġc t
or ious
Ġpr izes
de pending
Ġselect ions
Ġcirc ulate
Ġfre ckles
Ġapproach able
Ġformat ted
Ġimag ery
Ġdur ability
Ġnap kins
fr ame
Ġtransl ates
lay er
Ġrasp berry
Ġgeck o
Ġs way
Ġh one
Ġsu ds
Ġfl aky
Ġpers ists
ign ment
Ġca fe
Ġpop up
hold ers
Ġsatisf ying
Ġcontr ac
Ġdimin ish
Ġzom bies
Ġacknowled ging
Ġlon eliness
Ġapert ure
c arr
Ġnot ices
Ġche ats
Ġcar go
Ġdisc retion
Ġindic ators
Ġmaintain s
Ġthread ed
Ġpump kins
Ġparticip ation
Ġtoothp icks
Ġ19 0
Ġfragr ant
Ġpil ates
Ġdisappoint ed
Ġdisco very
Ġtournam ent
he ll
Ġa le
Ġs iding
Ġco ils
ast s
os itory
Ġbu ckets
Ġcheck mark
Ġsupp lier
Ġprob ation
Ġtemper ament
Ġheight s
Ġrole play
Ġtrial s
Ġcartr idges
b ot
Ġre hydr
Ġon set
ch lor
Ġbut cher
Ġcol oured
Ġcr ates
od ies
Ġsn ugg
Ġbreath able
Ġharm less
Ġdefin itions
Ġsyn ch
Ġadvertise ment
Ġevol ution
Ġtum ors
Ġapprais al
Ġspont aneous
v ille
Ġo cd
Ġw ore
Ġco log
Ġun h
Ġrun es
Ġmon key
Ġrep aired
Ġbook store
Ġval ves
Ġport ray
Ġmod es
Ġpublic ly
Ġsuccess es
Ġspl atter
ann ers
Ġsprink les
Ġboost ing
Ġcommer cially
Ġwo ven
Ġlin ens
Ġbutterf lies
Ġnightm ares
Ġintu itive
Ġshing les
r ad
Ġa u
Ġwhe y
Ġv ivid
Ġte ab
ber g
Ġcle n
Ġper ks
ors hip
Ġcr um
Ġeyel ash
Ġmultip lied
Ġwarr ior
Ġfort unately
Ġdeliver ing
Ġsco ot
Ġcerv ix
Ġshif ts
Ġportra it
Ġoverse as
Ġexpans ion
Ġtramp oline
Ġcolog ne
c ous
z illa
Ġa unt
Ġb ise
st ro
is l
Ġfr aming
Ġsp as
Ġrel ating
Ġconf ess
Ġear pl
Ġart ich
Ġcounter act
Ġham bur
Ġcoll agen
Ġtor to
Ġbur sts
Ġeth nic
Ġcompat ibility
Ġmetabol ic
Ġdealers hip
Ġsupermark ets
Ġinterse ct
Ġpreserv atives
Ġaug ust
Ġanesthes ia
Ġloll ip
d i
st ed
pe g
Ġj ane
Ġgr ap
Ġexam ined
Ġpoint y
Ġtrans itions
Ġsun shine
Ġsand y
Ġmar inate
Ġlif es
ik i
Ġtou gher
Ġpou red
Ġbenz oyl
Ġpref ix
Ġconsecut ive
Ġpren atal
Ġdwe lling
Ġt am
Ġh ugging
Ġl acqu
ot ive
Ġcle arer
Ġag ility
Ġsupp liers
Ġpay check
yle ne
Ġoption ally
Ġgar gle
Ġpin ned
Ġage nda
Ġwed dings
Ġrain y
Ġweigh ing
Ġbis c
Ġuter ine
Ġesoph agus
Ġt ai
Ġn aps
Ġg ait
Ġha mp
Ġan c
os h
Ġper ception
Ġsl ur
Ġstr ipper
Ġnecess ity
Ġaim ed
Ġhost ile
Ġdistrib ut
Ġconcl usions
Ġcountertop s
Ġinaccur ate
Ġincent ives
b ro
w ind
ro lled
Ġte les
Ġloc ating
Ġsol ids
Ġemp ath
Ġdiet it
Ġpriv ately
Ġann ually
Ġadvert ised
Ġdetail ing
Ġcu is
Ġsusp ic
ops y
Ġbelong s
Ġpossess ions
Ġcompassion ate
Ġarom ather
Ġknuck le
Ġjag ged
Ġobed ience
g b
r int
Ġc bt
Ġd ill
am ental
pp ort
Ġus da
red ict
Ġshe ll
Ġsing ular
Ġnet ting
Ġvol t
Ġmiss ions
Ġjour n
Ġameric ans
Ġcit ric
Ġcarpet ing
Ġvi able
oph il
Ġfest ive
Ġincon ven
y a
Ġcan ister
Ġwh isp
ist ically
Ġpr iest
Ġrec ite
Ġsurf ing
Ġbrown ing
Ġstiff ness
Ġcoop er
Ġoverhe ating
r inse
he ets
Ġb out
Ġal ike
Ġgr ater
Ġcr am
Ġhard core
Ġel ite
Ġel ong
Ġminim izing
Ġmis be
Ġpupp et
Ġimpul se
Ġmenop ause
g re
z ens
Ġd well
Ġh ugs
Ġhe mp
Ġch arms
Ġac ou
Ġav en
Ġar tery
Ġrel apse
Ġselect ive
Ġswe ll
ask a
Ġcustom ized
Ġpressure d
Ġorig ami
oc ular
Ġmal t
Ġmal let
Ġbru ising
Ġunp redict
Ġdys function
Ġevalu ated
Ġhasht ags
Ġgrie ving
Ġhybr id
3 0
ou pe
Ġthe rape
Ġr ider
Ġal tered
Ġbo ats
Ġfl air
os cope
Ġcat fish
Ġdec ides
Ġjo ined
be an
aw are
Ġteam mate
Ġring tone
Ġregard s
Ġdoll op
Ġexperiment ing
Ġox ide
Ġvent ure
Ġfarm s
Ġine ffective
Ġdisgu ise
Ġlarva e
c p
l ie
w et
Ġb art
Ġg ambling
Ġan ore
ch ief
Ġtr out
Ġres il
Ġrub y
Ġver te
Ġscre aming
Ġvacc ines
Ġfres hen
Ġreseal able
d re
Ġs led
it er
Ġle verage
Ġtr ic
Ġdis or
Ġun cover
Ġdra stic
whe el
Ġhor r
Ġveget ation
Ġwid est
Ġstraw s
Ġ19 9
Ġcroche ts
Ġmush y
Ġharvest ed
Ġbarr iers
h aving
Ġc ents
Ġm ute
am ents
Ġk at
Ġsc our
Ġover time
Ġmin ce
Ġim aging
Ġbal ances
Ġarr iving
Ġassoci ates
Ġchr om
Ġimpact s
Ġsimpl ified
Ġduck s
Ġbarg ain
igr ams
Ġgroo ves
t t
Ġs izing
Ġp her
Ġp ies
Ġfor wards
Ġfr uct
ur able
ge e
Ġco ax
Ġde mean
Ġclick ed
Ġcontact ed
Ġdesign ers
Ġvol um
Ġmid w
Ġbenefic iary
Ġeth ics
Ġevalu ating
Ġrou x
Ġmich ael
Ġdw arf
Ġastring ent
e ach
ou fl
Ġn an
Ġg h
is ors
Ġst ump
Ġdo zens
im ity
il er
Ġfr own
Ġch orus
Ġcom for
Ġat omic
Ġup beat
iv ation
Ġplay back
Ġatt entive
Ġfound ations
Ġbra ided
Ġshad ed
Ġdamp ened
Ġsink s
Ġattend ance
Ġmount ains
Ġmill igrams
Ġaffection ate
Ġanest hetic
Ġow ed
Ġenthusi astic
Ġpainkill ers
Ġtherape utic
Ġl cd
Ġg asket
se ction
Ġse vent
Ġwh ining
Ġco als
ol in
Ġun at
Ġins ides
Ġdist ur
Ġair flow
Ġbrown ie
Ġcam oufl
Ġbul lets
Ġacid ity
Ġsty l
Ġcompet itions
Ġparticip ant
Ġnur ses
Ġsacr ific
Ġclust er
Ġpec ans
Ġnarc iss
Ġpher om
Ġt ues
Ġb anned
Ġf izz
Ġe rect
Ġg unk
al ted
Ġr upt
Ġsu ffered
Ġhe als
un ion
ber ty
Ġprop osed
Ġcell phone
Ġmac ro
Ġelim inated
Ġsubt ly
Ġbron ch
Ġpor ous
Ġfunctional ity
Ġsucc ulent
f ord
Ġn ib
Ġe ts
Ġsh ih
Ġde act
Ġfl ore
Ġdown side
os y
Ġar izon
Ġrep osition
Ġir ons
Ġcourse work
Ġthir st
Ġcoll apse
Ġdro ppings
Ġitch iness
Ġinsect icide
Ġpromot ions
Ġrust ic
Ġinflu ences
Ġstimul ates
Ġbabys itter
Ġbrainstorm ing
Ġreno v
Ġjourn als
Ġf encing
Ġh oo
Ġth resh
Ġde lt
ure th
Ġun avail
Ġcat ar
Ġcr ad
Ġsol ved
Ġenjoy ment
Ġautom otive
cent ed
Ġsmile s
Ġsquee zed
Ġcash ier
Ġuns cented
rel ated
Ġvict or
Ġaccompan ying
Ġrelie vers
Ġtu ition
Ġtues day
Ġarizon a
b est
g ood
Ġl am
ver ts
Ġli en
est ion
Ġover d
Ġsal ted
Ġleg isl
br ushes
Ġspecial ists
Ġvol ley
Ġer as
Ġdead ly
Ġattack ed
Ġjewel er
Ġrepresent ation
Ġsilk y
Ġ201 0
Ġoblig ated
Ġinsult s
it ative
Ġbe ak
Ġre play
Ġmo dule
Ġtr owel
Ġad missions
Ġk in
Ġme lee
Ġdis ks
Ġown s
Ġmus lim
Ġbox er
Ġsmo ked
Ġmedic ated
Ġnet her
Ġmod s
Ġpu berty
Ġenv ision
Ġtan ner
Ġnotebook s
Ġimpress ed
Ġbru ises
Ġinhibit ors
Ġredd ish
Ġaromather apy
w ait
Ġto night
Ġn urt
Ġl ag
Ġse as
Ġbr ill
Ġcheck out
Ġdeterm ination
Ġblood y
Ġarr anging
Ġsix th
Ġpal ate
Ġcit ations
Ġsexual ity
Ġcrow ds
Ġvegg ie
Ġnoun s
Ġze al
Ġinterc ourse
r ower
t p
Ġa il
in st
Ġor bit
Ġhe ir
Ġcom fy
Ġsl ang
Ġdec omp
ute red
Ġcorn meal
Ġcot tage
Ġoper ated
Ġexist ence
Ġamong st
Ġful f
Ġsanit ize
Ġintest ine
Ġgoth ic
Ġpestic ide
writ ten
Ġnour ish
Ġprivile ges
b ird
m aking
Ġare na
Ġcan tal
Ġcon gress
Ġback side
Ġplay ground
Ġrec ons
Ġlast ly
Ġcenter piece
Ġclos ure
Ġrock ing
Ġteen age
Ġjell o
Ġalt ar
Ġlubric ate
Ġgate way
Ġnewslet ter
i ar
Ġb unk
Ġm ering
Ġrem ark
Ġcor rection
Ġnow here
Ġhot test
Ġair way
Ġpast ure
Ġbag gage
Ġje an
Ġma id
Ġedit ors
Ġhumor ous
Ġsanit ary
Ġredirect ed
Ġsubtit les
Ġantif ung
Ġmunicip al
c ate
g ic
ation ally
ur ous
Ġtr iv
Ġab rupt
un ches
lo in
Ġun ravel
Ġnew est
op l
Ġrel i
Ġpress es
Ġscr ipts
Ġaccess ibility
ph al
Ġge ared
Ġoffe nded
Ġvio let
Ġharvest ing
Ġhood ie
Ġrank ing
Ġnove mber
Ġampl ifier
Ġcockat iel
Ġpomegran ate
Ġm ound
Ġj al
ort ion
Ġed its
Ġsleep over
Ġru ining
Ġbra z
Ġclos es
Ġgather ings
Ġshut tle
Ġuns alted
Ġrhy mes
Ġpromot ional
Ġspark ly
Ġdelay ed
Ġinfest ed
Ġmathemat ical
r un
Ġin so
Ġfr is
Ġfe br
ab y
Ġche ss
Ġher s
vers ion
Ġcup board
Ġcharacter ized
Ġblock ers
Ġ5 6
Ġspot ted
Ġ9 1
Ġlabel ing
Ġaccident al
Ġnervous ness
Ġinvolve ment
Ġentertain ed
Ġfragr ances
Ġblink ing
Ġfas c
Ġdevot ed
Ġhedge hog
Ġjav as
Ġearpl ugs
e i
Ġf ict
Ġas c
pe nded
Ġli vest
est inal
Ġtw itch
os aur
int rodu
int estinal
Ġher d
Ġown ing
Ġbar re
che dule
Ġess ays
Ġfinger print
Ġ6 1
Ġexc lude
Ġfly er
Ġprogress ion
Ġmanufact uring
Ġloos ened
Ġmid night
Ġ13 0
Ġsuspect ed
Ġcarbon ated
Ġvot ing
Ġcontr ary
Ġrefres hed
Ġsurve ys
Ġcorros ion
Ġdepreci ation
Ġintric ate
Ġjavas cript
c ured
h irt
s pe
Ġd art
Ġd angling
Ġbe nds
ate ll
Ġtr ot
Ġrem arks
Ġopen er
Ġsal ut
Ġinter cept
Ġid le
Ġsin uses
Ġvisit or
cons ult
bre w
Ġpronoun s
Ġbuff et
Ġfloss ing
Ġreluct ant
Ġcrum ple
best os
Ġi ced
Ġm akers
Ġbe ings
Ġfe as
Ġplay lists
Ġcor i
ade qu
Ġdisc lose
Ġdeg re
Ġshap ing
Ġep ic
Ġpit ched
Ġaccomplish ment
Ġstur d
Ġjudgment al
Ġrum ors
Ġrept ile
Ġgastro intestinal
Ġpert inent
Ġpropr iet
Ġfruct ose
Ġl ug
al ysis
Ġas bestos
ch o
Ġli abilities
Ġat he
Ġwe aving
Ġj im
ang s
Ġap nea
Ġpat r
Ġbar bell
Ġdef ining
Ġseed ling
Ġbro kers
Ġspot light
Ġtend on
Ġoper a
Ġaff air
ob ile
Ġdeter rent
Ġtang ible
Ġafric a
Ġscholars hips
Ġswims uit
Ġane cd
Ġprox imity
Ġcori ander
n ames
r ust
v ia
Ġcon ferences
est ry
Ġsure ly
Ġfl ashes
Ġday dre
Ġfun ky
Ġhum ming
Ġtravel ers
Ġbur ied
Ġremind ing
Ġps i
Ġsignific ance
Ġunw illing
Ġelement ary
Ġupgr ades
Ġknock ed
Ġcomprom ised
pie ces
Ġdistress ed
Ġbullet in
Ġcontemp or
Ġya wn
b el
r ar
ot ta
Ġcon greg
Ġch ives
ant ing
Ġso ber
Ġpre lim
Ġen co
Ġrem em
Ġho lly
Ġeven ings
Ġacc r
Ġgl are
Ġsch iz
Ġblo gging
Ġcreat ure
Ġcool ant
Ġentire ty
Ġge ek
Ġmor nings
Ġtrad es
Ġobs cure
Ġshoot er
point s
Ġbon uses
Ġadvent urous
Ġphotographer s
Ġliber ally
Ġblogg er
ipers pir
Ġpum ice
Ġcantal oupe
b ia
h air
Ġl uc
Ġpr ongs
Ġexp ired
Ġconsider ations
Ġlearn er
Ġant iperspir
Ġinf used
Ġjump er
Ġ8 8
Ġtur k
Ġstar ters
Ġsubstit utes
Ġ22 0
Ġhypert ension
Ġunavail able
b id
Ġb m
Ġp aring
ll ers
Ġin adequ
Ġth ie
Ġth ai
im bur
Ġr ural
Ġle ap
Ġat l
Ġcl own
Ġac r
Ġold est
Ġadv oc
Ġpol ka
Ġfig ur
Ġcro pped
Ġflash y
Ġ11 8
Ġbear ings
Ġintegr ated
Ġadvent ures
Ġfraud ulent
Ġdiff ers
Ġnarr ower
Ġconfid ently
Ġdecl are
Ġovers ized
Ġbisc uit
b ial
h ose
Ġw ished
Ġh ues
Ġg out
ac a
im er
Ġch ise
Ġpre ppy
Ġme ga
Ġatt itudes
Ġpos itives
Ġmean ings
Ġthick ens
Ġfore cast
Ġsort ed
Ġreward ed
Ġsea weed
Ġsyn cing
Ġchop s
Ġgrand ma
Ġdab bing
Ġwasher s
Ġbelie ving
Ġthaw ed
Ġrecons ider
h ops
m aker
Ġt urt
Ġs ard
Ġc ss
Ġp oo
Ġle is
Ġex pend
Ġal f
if iable
Ġen abling
Ġbet ting
fere nt
gr ade
ty pe
Ġrecord ings
Ġtrust ing
Ġmarket place
Ġtrim mer
Ġtag ged
Ġloos ening
Ġmis carr
Ġtoilet ries
Ġsyn ced
Ġcritic ize
Ġalter ing
Ġtalent ed
Ġhun ter
Ġunp aid
agon ist
Ġshout ing
Ġee ve
Ġtermin ology
aunt ing
Ġfluct u
Ġhesit ant
Ġsynch ron
a ver
c os
e mp
Ġj igs
Ġk en
Ġcar ving
Ġschool work
Ġnecess ities
Ġauthor ization
Ġ200 7
Ġcock tails
Ġaccommod ation
Ġspill ing
Ġtro ops
Ġenlar ge
Ġdietit ian
Ġw are
Ġb reeze
Ġm n
on ies
Ġbe aches
Ġout right
Ġun clear
Ġstr ide
Ġed ited
Ġair ports
Ġmult iv
Ġcred ibility
Ġthread ing
Ġbuff ing
Ġconstruct ed
Ġmr s
Ġthanks giving
Ġbudd ies
Ġthresh old
w arm
Ġm b
Ġm erm
Ġn ests
Ġhe aled
Ġgood will
Ġclick s
Ġhead set
Ġstud ios
Ġphys io
Ġsun set
Ġsquare d
crib e
Ġcatch y
Ġcoll aps
Ġfund amental
Ġpremium s
Ġaustral ian
Ġastr on
Ġcompe lling
Ġyel p
Ġcact us
Ġlect ures
Ġunn atural
Ġwhis key
Ġbraz il
Ġlivest ock
v ide
at is
Ġe ve
Ġit iner
ke rel
ro x
ain ts
Ġj ones
Ġsp out
ud ing
Ġbot hered
Ġper ish
Ġsl am
Ġap ron
Ġhead line
Ġdra fting
Ġshow case
Ġpick y
Ġred stone
Ġma iled
Ġcell oph
Ġbur p
Ġbur rit
hold er
Ġmagn ets
Ġinspect or
Ġtherm al
Ġspark le
Ġflor ist
Ġoccup y
Ġstencil s
Ġoint ments
gra b
Ġgren ades
Ġinvo ice
Ġpanty hose
Ġbrides ma
Ġfebr uary
Ġcelloph ane
k i
Ġt as
Ġb ore
Ġas hes
Ġne utered
ple ss
Ġpo lo
Ġsl ab
Ġcare d
Ġwind s
Ġrep licate
cr ipts
Ġcour te
Ġlater al
Ġmist aken
Ġroot ed
Ġsales person
Ġoptim ize
Ġcampaign s
Ġvot er
Ġincons ist
Ġtheat re
Ġlethar gy
Ġfuzz y
Ġchihuah ua
Ġswip ing
Ġunat tended
c row
h um
Ġt ame
Ġin verted
Ġl ion
Ġre heat
Ġde w
Ġfe at
Ġqu izz
bo il
Ġsch n
Ġpick ax
Ġclot s
Ġmult it
Ġinf ra
Ġtherap ies
Ġchocol ates
Ġseem ingly
Ġcontrib utes
Ġsatur ation
Ġcorpor ations
Ġknead ing
Ġgren ade
Ġapric ots
Ġcontempor ary
Ġeeve e
b red
Ġo vere
ed it
Ġco al
Ġde em
Ġk ink
Ġstr ains
Ġbox ing
Ġlow ered
Ġdoor way
Ġmac kerel
Ġaff airs
Ġshad y
Ġ40 1
Ġfrost bite
Ġdil ig
Ġunc ont
Ġknock ing
Ġrac ist
Ġrob ot
Ġcontamin ants
Ġdisagree ment
Ġillust rate
Ġarter ies
Ġanore xia
Ġprelim inary
b uck
c ul
r ive
s it
Ġv ines
Ġme g
Ġbo ston
Ġfo lic
Ġloc als
Ġjo e
Ġfil let
Ġple as
Ġeduc ated
Ġdevelopment al
Ġeth ical
Ġchees y
Ġdisappoint ment
Ġcorrespond ence
Ġorch id
Ġcrou ch
Ġmys pace
Ġdistur bing
n cy
s on
Ġt angle
he ast
Ġb apt
ic o
Ġnot ing
Ġsp ook
Ġsc rolling
Ġfl oured
Ġun m
Ġve ts
Ġind ie
Ġinter ven
Ġpast els
az ole
Ġarr ived
Ġbi opsy
Ġseal able
Ġimag ining
Ġreflect ing
Ġincred ible
Ġmilksh ake
Ġantifung al
ic ate
Ġnot orious
Ġch ak
Ġpl aid
Ġv ou
un ct
Ġtw in
Ġinform ative
Ġlength y
Ġcomplex ity
Ġearth qu
Ġpup s
Ġantihist amine
Ġdivers ity
Ġsymmet rical
Ġdisrespect ful
re view
le st
Ġrel ay
Ġself ish
Ġlog os
Ġsurv iv
Ġviol ations
Ġinterp ersonal
Ġdefici encies
Ġdisadvant ages
real ize
Ġturt les
Ġa uct
Ġw oo
Ġh oses
Ġg pa
Ġu reth
Ġre imbur
Ġdo cs
th y
Ġam ate
Ġreg ulation
Ġhard y
Ġshow ed
Ġinter fer
Ġwa ffle
Ġbar bie
Ġimm ature
Ġfast ing
Ġmouth s
Ġring worm
Ġconfirm ed
Ġadministr ators
Ġrac ism
Ġdisconnect ed
Ġfest ivals
Ġrehe arse
Ġsnee ze
Ġescal ate
Ġhut ch
Ġbrus sels
Ġauct ions
d ust
Ġn ave
Ġre ed
Ġcl ap
Ġinc ense
Ġsl ippers
Ġsa ff
Ġob ey
Ġret ro
Ġterm inate
Ġground ed
Ġsens ible
Ġdivide nds
Ġrect um
Ġmanufact ured
Ġcalcul ators
Ġcapt ured
Ġwal nut
Ġ17 5
Ġital ic
Ġrip en
Ġcompar able
Ġincons picuous
Ġsurprising ly
Ġbubb ling
Ġboun cing
Ġcous in
Ġaggrav ate
Ġhypn osis
Ġmultiv it
b et
d ated
g or
k it
Ġc ured
Ġh ive
Ġde cks
est ab
Ġfo g
Ġfl int
Ġfind ings
Ġgr ieve
Ġspr igs
be ans
Ġconc lude
Ġstress ors
Ġ4 3
Ġbutter cream
Ġju icy
Ġcollect or
Ġfan ci
Ġsus pended
Ġextract ed
Ġgran ite
Ġbelie ves
Ġmart ini
Ġantivir al
Ġmathemat ics
dry er
Ġwheelch air
l ifting
r ap
Ġbe ep
Ġre fere
ap en
so ak
Ġke en
Ġpe gs
Ġcomp liance
Ġchild care
Ġhand book
Ġmain e
pper ware
cept ions
Ġtrave led
Ġpar alysis
Ġframe work
Ġweak ened
Ġdro pper
Ġpray ers
Ġimpress ions
Ġwrink le
Ġles bian
Ġzom bie
Ġsarc astic
Ġdisor ient
Ġf ists
Ġf ainting
le ading
Ġl acks
Ġsu nd
Ġall oc
Ġimp ur
Ġag rees
Ġmet aph
Ġret ract
Ġmedic aid
Ġbase line
Ġver izon
Ġmach in
Ġrecogn izable
Ġthr ot
Ġhoriz on
Ġelev ation
Ġnumer ical
Ġax e
Ġpublisher s
Ġpest le
Ġski ing
Ġkiw i
Ġrhinest ones
Ġcrut ches
Ġcuis ine
Ġleis ure
Ġi ons
Ġsh arks
ast ing
Ġhel ic
ci a
Ġfl ask
Ġcons ciously
Ġem iss
tern ut
Ġcard iac
Ġmust ache
Ġpract ically
Ġgreen house
Ġfilter ing
kin z
Ġstead ily
Ġvig ilant
Ġrelie ver
Ġsyll ab
Ġtu pperware
Ġwast ed
Ġjail break
Ġshav ed
Ġinterse ction
Ġindig estion
Ġara bic
Ġt ad
le ton
Ġin fer
her s
ce mic
Ġwh ipping
Ġwhe e
Ġde fer
Ġcl over
Ġout dated
act ivity
ag na
Ġrel ies
Ġcr imes
Ġcr ushing
Ġworks hops
Ġinfect ious
Ġworld s
olog ies
Ġweb kinz
Ġorganiz er
Ġrat ios
Ġexpand ed
Ġster il
Ġchop sticks
Ġfarm ing
Ġ201 3
flow ers
Ġrit uals
Ġlengthe n
Ġdeclar ation
Ġvolley ball
Ġcourte ous
Ġo t
Ġp ushes
Ġfor ks
Ġse ctor
Ġal right
Ġde co
Ġcl ash
Ġall ig
Ġus able
Ġper ipher
Ġstr ipe
Ġmed iator
Ġhead board
Ġkey pad
Ġbur row
Ġden ial
Ġboost s
Ġcommer ce
Ġ19 7
Ġfract ures
Ġgroom er
Ġtuck ing
Ġmeant ime
reg ard
Ġnood le
Ġgut ters
Ġcuff s
Ġlas agna
Ġting ling
Ġsard ines
c ap
Ġc ited
Ġw ink
Ġli able
Ġgr ips
Ġins ulting
Ġdec ree
Ġext ro
Ġ10 1
Ġleg o
Ġprob ability
Ġdin osaur
Ġ19 2
Ġrelig ions
Ġmemor ial
Ġhypot hesis
Ġalk al
Ġcerv ical
Ġcaterpill ar
Ġquadr atic
Ġeleph ant
Ġlacqu er
Ġfris bee
m ediate
r ich
Ġl ust
om as
Ġnot ar
Ġdr ier
Ġser v
Ġinter mediate
Ġass ort
Ġru ined
Ġbehav ing
Ġblock age
Ġwid gets
Ġdre aming
Ġstrain ed
tr ack
Ġferment ed
Ġjuic er
Ġunpredict able
Ġthie ves
a ic
k not
Ġd ome
Ġde x
Ġsc otch
Ġfl ute
Ġcr unches
Ġve il
Ġcor on
Ġgen et
Ġprop ose
Ġprot est
Ġclass mate
Ġhands h
Ġmess es
Ġ4 6
Ġsau cer
Ġsand er
Ġtarget ing
Ġinterview ing
Ġdefin ite
Ġpure ed
Ġly e
Ġrev is
Ġgerm inate
Ġchin ch
Ġperf umes
Ġgly col
Ġcraw ling
Ġsustain able
Ġbrid ges
Ġreprodu ctive
nes day
Ġtoen ail
Ġcud dle
Ġhawai i
Ġcoe fficient
Ġcontrovers ial
l p
Ġin vert
Ġst acks
id ian
Ġmay o
Ġdr apes
Ġspe ar
Ġph il
op ed
Ġdec al
Ġreg ulated
Ġpos itivity
Ġconf ined
Ġcond iments
ph in
Ġfre ak
str uction
Ġquestion na
Ġagree ing
Ġwed nesday
Ġprogress es
Ġsold ering
Ġsupplement al
Ġforg iving
Ġpray ing
Ġcos play
Ġax le
Ġmari o
Ġinterrup ting
Ġforec losure
Ġzeal and
Ġitiner ary
c ies
Ġm uted
Ġd ens
Ġr ar
Ġle gged
Ġv a
fe w
Ġover power
Ġfl ushing
Ġrest ored
Ġass ured
Ġinf use
Ġhum ble
Ġheav en
Ġaud itions
Ġarm ed
mb ling
Ġeight h
Ġbrand y
Ġfert ile
Ġkiss es
Ġpure ly
bre aks
Ġdiscard ed
Ġtwe ak
Ġbother s
Ġfort une
Ġfatig ued
Ġestim ates
Ġwol ves
Ġinterpret ation
Ġencry pt
Ġovereat ing
Ġagit ated
Ġmultit ask
w est
Ġt xt
Ġh ib
Ġsu f
ce mia
Ġinc ontin
Ġoff s
Ġgr ipping
op y
Ġser rated
Ġins uff
pl ing
Ġcat hol
Ġwind ing
Ġ10 2
Ġtrans pare
Ġinter f
Ġemb assy
Ġinflu enced
Ġfund ra
Ġderm atitis
Ġassemble d
Ġingest ed
Ġpyth on
Ġnavig ating
Ġincontin ence
l ift
o ise
or ial
Ġr ipping
Ġout ing
Ġus cis
Ġsp ayed
Ġdr illed
Ġag ave
Ġim ei
Ġwa iver
Ġfill ings
Ġblack berries
Ġz ippers
Ġforward ing
Ġtv s
Ġbor rower
gy pt
Ġpou ches
Ġimproper ly
Ġgeograph ic
Ġgradu ated
Ġzig z
k g
w ire
he lls
ot a
Ġor ally
Ġcl ique
Ġcl ippings
Ġbut ternut
Ġun ions
Ġday light
Ġdry ers
Ġcur se
Ġlay s
Ġsn apping
work ing
Ġqual ifying
Ġiss u
Ġstandard ized
amm a
Ġallerg en
Ġshy ness
Ġcoach ing
Ġdiscol or
Ġdiff use
Ġbloom ing
Ġapprais er
Ġinno v
Ġshepher d
Ġundes irable
Ġthrot tle
n av
r ane
Ġu sted
is er
Ġsh ips
Ġbr at
Ġinc idents
Ġover coming
de velop
Ġhand ker
Ġmon t
Ġfil ming
Ġthick est
cl aim
Ġpal let
Ġden ied
Ġund one
Ġpsych ic
Ġpoly ureth
Ġdemonstr ates
Ġnic kel
Ġdraft s
Ġherb icide
Ġoptim istic
Ġdand el
Ġscholars hip
Ġexagger ated
Ġtac o
Ġbubb ly
Ġsarc asm
Ġadject ives
Ġmonolog ue
Ġhandker chief
in ators
Ġl oof
ot o
Ġre attach
Ġle v
ul ative
Ġun l
Ġman us
Ġplay time
Ġform ally
Ġpay day
Ġgen es
not es
Ġir is
Ġhang outs
Ġ5 4
Ġaud it
Ġhook ed
Ġbull s
Ġrid ers
sh ot
Ġsolid ify
ex pl
Ġmill ions
Ġindust ries
Ġmattress es
Ġnegot iating
Ġwel coming
Ġmolecu le
Ġhelic op
g lo
Ġt res
Ġc ir
Ġm ph
Ġh iss
Ġspe lled
Ġcol ony
Ġper k
Ġar ises
op ho
Ġplan ets
Ġindic ative
Ġfair s
Ġmention ing
Ġweigh s
Ġborrow ing
Ġvill ain
Ġabbrev iations
Ġadren aline
bir ds
yn c
Ġanat omy
Ġimpur ities
b n
m aster
re f
Ġf isher
es y
om en
iv ities
Ġper pet
Ġcomple ments
Ġlearn ers
che m
Ġstretch y
Ġchest s
Ġfac ult
Ġmemor izing
Ġrod ents
Ġobsess ive
grou p
Ġii i
Ġapprentices hip
rane an
g ue
Ġl aps
Ġe gypt
Ġco b
Ġv iet
Ġsp ade
Ġlo zen
av ed
Ġam ber
Ġsle nder
Ġband w
Ġrot ary
Ġdust y
Ġrack et
Ġstarch y
Ġaward ed
Ġcarol ina
Ġt ins
in als
Ġs ow
ic on
Ġv ic
Ġfe cal
Ġsc ans
os ot
Ġworks heet
Ġheart y
head ed
umb ling
Ġcell ul
Ġtight ness
Ġwid en
Ġcoll ateral
Ġrot ten
Ġhyp othy
Ġpun ches
Ġenroll ment
writ er
Ġjun ior
Ġannivers ary
Ġacou stic
Ġets y
Ġflore ts
estab lish
Ġpolyureth ane
c ort
m ans
re ne
Ġd ub
it ored
ge nder
qu al
Ġv ault
Ġcl ams
Ġk a
Ġsp illed
ens it
Ġcr otch
Ġrest less
Ġdisc losure
Ġref using
Ġmod ifications
com a
Ġreflect ed
Ġhar bor
Ġclar ification
Ġcapital ize
Ġadren al
Ġdeliber ately
Ġexacerb ate
o cus
t aking
Ġb age
Ġi c
en gage
Ġg ed
Ġu h
Ġr ushed
Ġde form
Ġbr ains
Ġbl ows
Ġimp uls
Ġjo h
Ġmon itored
Ġheat ers
Ġsn oo
Ġmult imeter
Ġ4 9
Ġfire arms
Ġmag ical
Ġ7 00
Ġcro hn
Ġtun nels
Ġpier ced
Ġdro ol
Ġwip ed
Ġmit ts
Ġgem stones
Ġsip h
Ġjerk y
Ġpir ate
Ġhamstr ings
Ġdisput es
Ġlifes pan
osot ros
s im
Ġc um
Ġl ith
ion e
Ġsh ining
Ġse len
ie ls
Ġdis char
Ġsk et
gr ow
Ġgener ously
Ġsocial ization
Ġham mo
Ġtax able
Ġwilling ness
ex er
Ġcult iv
Ġgrass es
Ġbind ers
Ġchlor ide
Ġantidepress ant
Ġwrest ling
Ġsher iff
Ġcamoufl age
Ġquizz es
Ġpickax e
Ġin wards
ur p
Ġli ly
un ate
ast ers
Ġclean liness
Ġmet ric
Ġdef lect
Ġmult ic
Ġstress ing
Ġsche mes
Ġspot ting
Ġcollect ors
rie nds
Ġremind s
Ġrid ge
Ġmultip layer
Ġchoos es
Ġsnack ing
Ġhem isp
Ġcompliment ary
Ġdedic ation
Ġdot ted
Ġheadband s
Ġiv ory
Ġgymn astics
Ġpige on
Ġhoo ves
Ġfeas ible
b ly
c ano
Ġt zu
Ġb inary
Ġd av
Ġh inder
Ġfor ty
Ġsh ipped
Ġtr uff
ul atory
Ġall iance
ol t
Ġun r
Ġher mit
Ġbad ges
Ġpin ning
Ġpresent ations
Ġge ometric
Ġhandle bars
Ġcheese cake
Ġfail ures
Ġproceed ings
Ġsus pend
Ġsubstit uting
Ġwild er
Ġbroad er
Ġanaly zing
Ġstamp ed
Ġdemo graphic
Ġsincere ly
Ġphosph ate
Ġoy sters
Ġhorr ible
Ġturk ish
Ġfanci er
Ġhypothy roidism
h ound
Ġc ine
Ġf bi
Ġm amm
Ġd ances
an us
ar in
Ġg imp
Ġst igma
ro se
Ġse o
Ġcl ipped
if ax
Ġlo ot
Ġword ing
Ġdevelop ers
og en
az ing
che t
Ġperform s
Ġfresh ness
Ġcart il
Ġconv icted
Ġmechan isms
Ġwip er
Ġexfoli ation
Ġdorm ant
Ġstereoty pes
Ġextingu isher
Ġtestim on
Ġdelt a
h ang
Ġf aded
Ġp as
Ġp uck
Ġp itches
Ġat op
ul u
Ġsp ur
un a
Ġlo om
Ġun cle
Ġgen itals
Ġwalk ed
Ġnon ver
dr ive
Ġreact ive
Ġenh ancing
Ġ32 5
Ġconfront ation
Ġimmun ity
Ġridic ulous
Ġbise xual
p ins
t ical
en ch
Ġl akes
Ġr ut
Ġhe ns
Ġpro se
Ġout breaks
Ġsome place
Ġfl ake
Ġun block
Ġcons erve
Ġlight est
Ġ6 2
Ġ8 6
Ġsmile y
Ġclaim ing
Ġenem a
pro vide
Ġtransl ated
Ġclut tered
Ġsilic a
Ġapolog izing
Ġalt itude
Ġamb ient
Ġspons ored
Ġbrid al
Ġsuf fere
Ġtranspare ncy
Ġs if
Ġd ated
Ġcom bs
Ġv ases
Ġout break
Ġint ens
Ġwater mark
Ġqu i
Ġimp art
Ġatt aches
Ġstre ams
Ġpick les
Ġbuild er
Ġequ ifax
Ġeng land
Ġlisten ers
Ġfre ts
Ġvol cano
Ġ8 2
Ġlau nder
Ġdehydr ator
Ġdivid ers
Ġclar ifying
Ġfertil izers
Ġsubtract ing
Ġlun ches
Ġfright ening
Ġgam ep
Ġorthodont ist
Ġhambur ger
Ġselen ium
Ġcartil age
a ution
c ape
i aries
p atient
Ġb ak
Ġd p
Ġyour selves
ch i
Ġle opard
ur ized
Ġtr imes
ap ed
if fer
Ġj er
Ġsl ap
Ġdes ensit
gr own
Ġsub way
Ġsn ag
Ġsmo kers
Ġdef ra
Ġpar aph
Ġinvest or
Ġ9 8
Ġlabel led
Ġrad ar
Ġbull dog
Ġshel ving
Ġlaunch ing
Ġthreat en
Ġamp s
Ġprec aution
Ġ22 5
Ġov ens
Ġdow els
Ġdiss ip
Ġoxid ation
Ġprospect s
Ġloof ah
i i
Ġb il
Ġp ong
Ġm are
Ġm our
Ġm aze
Ġd ime
Ġin ad
if ferent
Ġen rich
Ġpr ism
Ġexp ire
ft s
Ġam use
Ġpot ion
Ġneg atives
Ġworks hop
Ġburn ers
Ġpar ake
Ġdouble s
Ġtrad ed
Ġmar ital
Ġsecur ities
Ġengine er
Ġsnow man
Ġunw rap
Ġdehydr ate
Ġsuperv ised
Ġunnecess arily
Ġstimul i
Ġoh io
Ġneglect ed
bor ne
Ġannounce ment
Ġcapac itor
Ġmachin ery
1 4
p lic
t ration
u able
v ac
Ġe book
ac cess
qu ar
Ġcol a
Ġjust ify
Ġfil tration
Ġcount ies
Ġdef ines
Ġkind ly
Ġthick ened
Ġok ra
Ġfirm ware
Ġbur g
Ġroot ing
Ġadminist ering
Ġconv entions
Ġped ic
Ġpoly n
Ġdemonstr ating
Ġupgr ading
Ġexplan ations
Ġrif les
Ġwat ched
Ġft p
requ is
Ġgad gets
p ent
Ġh ier
se ment
ac am
Ġde light
Ġde eds
Ġte ap
Ġpre requis
Ġbr aking
Ġtw ins
Ġset tling
Ġmin ts
Ġprodu cers
Ġmet e
Ġpaper clip
Ġwind y
Ġsub c
Ġdep loy
Ġattract ing
Ġ7 6
Ġstat ute
sh a
Ġcow boy
Ġboss es
Ġinput s
Ġconsequ ence
Ġencoun ters
Ġpops icles
Ġmile stones
Ġwors ening
Ġblur ry
Ġattrib ute
Ġhasht ag
Ġsalv age
Ġbloss om
Ġbib l
t ie
Ġm unch
Ġth urs
Ġr ivers
ter one
Ġv ial
Ġcl one
Ġres ide
Ġimp lies
pt o
Ġclass ics
Ġcomb ines
Ġshort est
Ġwalk er
ges terone
Ġmel an
Ġdise ased
Ġtun ed
Ġanaly tics
Ġhus k
Ġital ics
Ġmr i
Ġflirt y
Ġq r
Ġcav ities
Ġsustain ed
Ġpluck ing
Ġinterrup ted
Ġindent ation
Ġamen ities
Ġcontrac ept
Ġcomfor ter
Ġwhee zing
Ġa lex
ing le
en use
it us
Ġst unt
Ġde ment
Ġwe lf
ip er
Ġen orm
Ġun pack
lud ed
Ġlevel ing
Ġcount less
Ġdeep en
Ġcondition ed
Ġge or
Ġoccur rence
Ġstock ed
Ġsharp ie
Ġfac etime
Ġauthor ize
iot ic
Ġdefe nding
Ġobl igation
Ġmud dy
Ġwand ering
Ġhyper link
Ġko hl
Ġtil ted
Ġtreas ury
Ġfulf illed
Ġamate ur
Ġhemisp here
Ġwelf are
f amiliar
v in
Ġp omp
Ġst ale
Ġcan cers
Ġr age
Ġr iff
Ġne v
Ġad ul
Ġj ames
Ġsc ored
Ġsc anned
Ġhair dryer
Ġhand bag
Ġcor rel
Ġye ah
Ġhard ly
Ġexper ian
Ġear b
Ġrub bed
Ġsing ers
Ġperform ances
Ġcra ve
Ġ8 7
Ġmis con
Ġsold iers
Ġvict ory
Ġvib ration
Ġcritic izing
Ġwit ty
Ġpoult ice
terest ed
Ġnin ja
Ġacquaint ance
Ġmembr anes
Ġtant rum
Ġrehears al
Ġmn em
Ġthurs day
m ets
t we
y clo
Ġd um
Ġd are
Ġbe ers
Ġas ia
her ing
Ġsu ite
Ġse b
Ġal aska
Ġpro gesterone
un s
ft y
Ġbu cks
Ġsl ate
erm ost
Ġclose ts
Ġball ot
Ġbar code
Ġeng ra
Ġident ifies
Ġgre w
Ġsuggest ing
Ġspee ches
Ġflatten ed
Ġdup lic
ju ven
Ġabbrev iation
Ġhypot enuse
Ġdemean or
Ġcatar acts
nav igate
v io
Ġf ier
as ia
ce ll
Ġch ills
Ġpl iable
us k
Ġbo k
Ġun related
Ġher n
Ġtap ed
rest imate
Ġfun gi
Ġbus es
Ġsymp athetic
Ġrout ing
Ġwet ting
Ġtur qu
Ġrock y
Ġneighb our
Ġquar ant
Ġmotiv ations
Ġcelebr ating
Ġdro ple
Ġlad ies
Ġ17 0
Ġdisappe ars
Ġaerob ics
Ġrecruit er
Ġabnormal ities
Ġrecre ate
Ġintoler ance
Ġinev itable
Ġinval uable
Ġsnowfl ake
introdu ce
Ġhandsh ake
Ġrevis it
Ġfacult y
p ants
s pend
Ġt reme
Ġs ack
er able
Ġp its
Ġi re
Ġre juven
et he
is one
Ġv lc
ach ing
Ġscr uff
Ġdark est
Ġfire arm
Ġgarden ers
Ġsty led
Ġjew ish
Ġtub s
Ġstimul ants
Ġlan es
Ġfault y
Ġgho sts
Ġmur der
Ġcompart ments
Ġchise l
Ġd aunting
Ġg ul
is cus
Ġha unt
Ġtr ape
lo x
Ġinc ap
Ġover use
Ġmu gs
Ġimport ed
Ġvis as
Ġsn oring
Ġsqu ad
Ġpost age
Ġlim es
Ġnut ella
Ġvac ations
Ġjud ged
Ġtoile ts
Ġconv iction
Ġgif ted
Ġsubs criptions
Ġbirthday s
Ġrank s
Ġconserv ation
Ġlethar gic
Ġdoub ts
Ġpretz els
Ġinterfer ing
cort isone
Ġturqu oise
Ġtreme nd
d ate
Ġt ipped
Ġm il
ed rive
ly mp
ct ic
Ġfr aying
ter day
Ġpro secut
Ġk ool
ink le
Ġph le
Ġam e
Ġcal mer
Ġsn are
con f
Ġremo vers
Ġfru ity
Ġmean while
Ġblood stream
Ġcold s
Ġtable top
Ġenvironment ally
Ġinde fin
Ġrepair ing
Ġyes terday
Ġguess ing
Ġgly cemic
Ġbund les
Ġprobiot ic
Ġjun gle
Ġallot ted
Ġaero sol
Ġmicroch ip
Ġdement ia
h are
Ġd ents
Ġr amps
Ġus ps
Ġtim ed
Ġfl iers
Ġgr iddle
Ġent ails
Ġwas ps
Ġparent hesis
Ġtow ers
Ġbra g
Ġ9 00
Ġdele gate
Ġcateg or
Ġassess ed
Ġinitial s
Ġdestro ying
Ġoccup ational
Ġtil ting
Ġarchite cture
Ġsummon ing
Ġflaw less
Ġconfir ming
familiar ize
i atic
m ine
Ġw ither
Ġd h
Ġg ins
Ġg amma
Ġr v
Ġch ilies
Ġun load
Ġun follow
ub lic
Ġclean ly
pl aces
Ġcr iss
Ġdi ver
Ġsal am
Ġlower case
Ġthick ening
Ġju ven
Ġpar ach
Ġaud acity
Ġland line
Ġrot ting
Ġtor ches
Ġveter ans
sh ow
Ġelectric ian
Ġelim inates
Ġment ions
Ġauto graph
Ġsurv iving
Ġ201 2
Ġnit rate
Ġterrit orial
Ġdizz y
Ġkil ometers
Ġcompos ite
Ġirr igation
Ġexhib its
Ġstair case
Ġpend ant
Ġnp c
ocular s
Ġqui eter
p osition
Ġa a
Ġc uring
Ġb idding
Ġp aternity
Ġth ief
Ġn oses
Ġbe ams
Ġnot ation
ver ty
ch ain
ad ays
Ġle dge
Ġpo verty
Ġsc attered
au coma
Ġcons ulate
Ġair ways
Ġpick ling
Ġpres erving
Ġhal o
Ġsoft ening
Ġ4 1
Ġfeed ings
Ġfig s
Ġspeed ing
Ġfigure d
Ġspl ur
Ġaw ful
cons ciously
Ġpitch ing
Ġdepress ive
Ġelectron ically
Ġrecr u
Ġoct ave
Ġcling y
Ġpractition ers
Ġuncertain ty
Ġobstruct ions
Ġexplicit ly
Ġunse cured
Ġlig aments
Ġwholes ale
Ġmonet ary
Ġcrad le
inst ead
Ġsalut ation
Ġsturd ier
g reen
Ġo lymp
Ġm t
Ġh oops
Ġre form
Ġfr amed
if er
Ġk an
Ġover hand
ass es
Ġimp atient
Ġunder arms
Ġem ulator
Ġsw itched
Ġrub s
Ġfast ened
aph y
Ġge orge
Ġann oun
Ġknot ted
Ġdefin itive
Ġep a
Ġaqu atic
Ġsilent ly
Ġblur red
Ġintr ig
Ġaddict ed
Ġadoles c
Ġteles cope
Ġinterven e
Ġcathol ic
exer cise
Ġnonver bal
Ġtrimes ter
Ġtrape z
l ot
Ġt ale
Ġs atell
er i
Ġp ng
Ġin herent
Ġg in
Ġcan on
Ġpro ving
Ġte es
Ġop acity
Ġover t
Ġho ll
Ġmin es
Ġty len
Ġgl aucoma
Ġhealth iest
ren ia
Ġmain stream
Ġflo ck
Ġlink ing
Ġconst ric
Ġwaist ed
Ġchew y
Ġment hol
Ġstack ing
Ġinject ed
Ġsubtract ion
Ġbob bin
Ġnutrition ist
Ġrac co
Ġbroker age
Ġenerg ized
Ġimprov ise
Ġlollip op
Ġempath ize
Ġbrill iant
Ġtylen ol
p arts
s k
z o
z es
he e
Ġto k
Ġl or
ve led
Ġon edrive
id th
Ġwill i
Ġus d
Ġac ro
ber t
Ġcons ignment
ans as
Ġar gan
Ġmed ian
Ġem ulate
gg ling
Ġpur l
Ġmess ing
Ġru ff
Ġ5 1
Ġsimilar ities
Ġworld wide
Ġ6 8
Ġattend ant
Ġsaw dust
Ġprepar ations
Ġhydro cortisone
Ġted ious
Ġclassified s
Ġbrisk et
Ġscall ions
Ġail ments
Ġperish able
Ġchak ra
c at
p ed
Ġt ide
Ġb bb
Ġm ower
Ġle ek
Ġsc ra
Ġback drop
Ġsa x
Ġob struction
Ġemp ower
Ġmusic ian
Ġcorrect ed
Ġtrave ler
Ġdesk s
Ġlif el
Ġcarp enter
Ġ201 5
Ġirr ational
Ġlantern s
Ġtroubleshoot ing
lam y
Ġhomeown er
Ġfeat uring
Ġwilder ness
quar ters
a e
h i
p acks
er ranean
Ġi cy
Ġm ould
ar ia
Ġn at
st ate
st em
ro ids
ad er
Ġde let
ind le
Ġun so
Ġper ches
Ġdec ades
Ġrest oring
Ġvis ibly
Ġorgan isms
Ġreal tor
Ġreal istically
Ġneck s
alle ts
Ġmarket ed
Ġinfl ate
Ġpark ed
Ġlibr arian
Ġcateg orize
Ġoffe nd
Ġnap rox
Ġclo gging
Ġfund rais
Ġlob by
Ġmedit erranean
Ġphosph orus
Ġweld ing
Ġcompuls ive
Ġscramble d
Ġcompr ised
stro ke
Ġinso les
Ġgamep lay
Ġnaprox en
i ency
m other
n ate
p ical
Ġc oo
or ters
om b
Ġre locate
Ġmo zilla
Ġch lamy
Ġpl umber
Ġk orean
Ġsp ik
Ġdr ippings
Ġsl ash
Ġsl acks
Ġunder going
Ġcomm od
Ġap h
Ġtrans cript
Ġoffer ings
com mun
Ġautom obile
Ġscrub s
amm ed
Ġcourt esy
Ġsharp ening
Ġann uity
Ġassist ants
Ġrid ges
Ġcrit ique
Ġmal icious
Ġhomes chool
Ġhp v
Ġarrest ed
Ġhypo gly
Ġque ue
Ġaest het
Ġtorto ise
Ġquestionna ire
Ġsnoo ze
in et
in ished
Ġm ating
Ġg oose
Ġnot ches
Ġgo dd
Ġdr ibble
Ġover heat
ful ness
Ġent ice
Ġgu iding
Ġsol v
Ġinf ert
Ġ6 3
Ġblank s
Ġattract s
Ġpercent ages
Ġthr ust
Ġconcent rations
Ġtre ll
Ġwaist line
Ġsurpr ises
Ġep ile
Ġmal function
Ġchop stick
Ġvib rations
rus ive
Ġital y
Ġexhaust ion
Ġfingert ip
Ġbeet root
Ġdan cer
Ġexplos ion
Ġpersu ade
Ġmicros cope
Ġperenn ial
Ġeras ers
Ġearthqu ake
Ġfundra ising
Ġnev ada
Ġf m
Ġfr anc
Ġmo dules
Ġwe arer
Ġad block
Ġpo nds
Ġsc av
Ġres c
we igh
ry l
Ġpay able
Ġsqu ish
Ġmixture s
Ġnotice ably
Ġrelax es
word s
Ġatte nded
Ġpink s
Ġdial ing
Ġcompet ent
Ġspin ner
Ġign ite
Ġsmart phones
Ġpsych otherapy
Ġpred ator
Ġbedroom s
Ġhall uc
Ġjaw line
Ġcoop erate
Ġfres her
Ġbure aus
Ġagricult ural
Ġdol phin
Ġprohib ited
Ġintra ven
Ġfict ional
Ġmiscarr iage
Ġbandw idth
9 9
u ating
Ġb als
Ġin verse
Ġr ye
Ġal gor
Ġv ans
Ġspe ars
Ġback bone
os a
Ġhand made
Ġmon op
Ġappe ared
Ġbook let
Ġpres criptions
Ġref urb
Ġcorrect ing
Ġrespons ive
Ġyellow ish
Ġconsult ants
Ġdon ated
Ġmold y
Ġslip knot
Ġarch ives
Ġadap ters
Ġcompress es
Ġdetect ive
Ġborrow ed
Ġdefend ers
Ġsword s
Ġcontr ad
Ġarom atic
Ġvirgin ia
Ġrestr aining
Ġimbal ance
Ġzigz ag
Ġalgor ith
g ust
p ull
Ġthe ta
Ġo iled
Ġw re
Ġp ave
at ers
Ġi bs
Ġin active
ill on
Ġne op
est y
fe ree
Ġab c
Ġform ulate
Ġnow adays
Ġcap ability
Ġpar ade
Ġdouble d
Ġrespect ing
Ġpen gu
Ġdirection al
Ġdin ners
Ġexh aling
dra wn
Ġoffe nder
Ġquarter ly
Ġsco ld
Ġreass urance
Ġdownt own
Ġagricult ure
Ġconson ant
Ġvolum izing
Ġschiz oph
acam ole
a pped
Ġt ester
et tes
im ic
all erg
Ġch ipped
Ġj ul
fe it
Ġsp ores
Ġlo l
Ġavoid s
Ġcard am
Ġspr uce
Ġprot ractor
Ġconf ide
Ġflo ppy
Ġdef enses
Ġcustom ization
Ġsoak s
Ġsent imental
Ġx y
Ġ7 8
Ġcro oked
Ġign or
Ġsuper fic
Ġoffe nding
Ġpoly gon
Ġord in
Ġbenefic iaries
Ġconfig ured
Ġwhit er
Ġobsess ed
Ġintr ud
Ġshimmer y
Ġshakes pe
Ġunst able
occ up
Ġbroch ure
Ġjigs aw
s ur
se ek
Ġu ric
Ġr oth
Ġk ibble
so il
Ġover crow
Ġstr ik
Ġno de
Ġdi vert
Ġinformation al
Ġsch olar
rup ted
Ġpen nies
Ġsav vy
Ġ9 4
Ġveter an
Ġimag in
Ġsuff ix
land s
Ġcapt uring
Ġbackup s
Ġspo iled
Ġcompliment ing
Ġremote ly
Ġpsycholog ists
Ġsubstant ially
Ġkilo grams
Ġantiperspir ant
Ġmanus cript
Ġmultic ol
Ġgins eng
d p
s ay
Ġ erg
Ġt ux
Ġs ash
Ġd ign
Ġl il
Ġl up
Ġdo sing
Ġr ud
Ġout lining
Ġneed y
Ġdis gust
av age
Ġho e
pl us
Ġopt ical
Ġdec ou
Ġgu acamole
Ġtrans gender
Ġwa ffles
Ġref ocus
Ġproject or
olog ist
Ġfurn ishing
Ġrot twe
Ġthr ill
Ġmagn ification
Ġcontrib uted
Ġpure bred
Ġmemor ized
Ġcompress or
Ġtack ling
Ġfif ty
Ġhyper thy
Ġmanip ulation
Ġuneven ly
Ġsquat ting
Ġrepellent s
Ġcomprehens ion
Ġgerb ils
Ġnave l
e er
m ove
Ġt b
it an
ot ics
is co
pe lled
Ġch iles
th al
Ġsp ouses
Ġen light
Ġsl ant
Ġag greg
pl ug
Ġsa ver
Ġdirect ing
Ġpat ting
Ġble ached
Ġz oning
Ġtape red
do ing
Ġquestion ing
Ġml a
Ġpal p
Ġstrateg ically
Ġboot ies
Ġped estr
Ġsubs ide
Ġspo ke
Ġwrink led
Ġunf inished
Ġpanc reat
Ġgut ter
Ġpup il
Ġbroadcast ing
Ġlump y
Ġincom plete
Ġkay ak
Ġspas ms
Ġsyllab us
ethe less
o kes
r h
u cc
Ġs ire
Ġc aked
Ġf ame
Ġl ilies
ad dle
Ġr he
Ġpl ag
ive l
us ers
Ġbut ters
Ġen rolling
Ġqu arts
Ġho g
Ġpain less
Ġz ag
Ġnon etheless
Ġsoil s
Ġtra pping
Ġmicro organ
Ġproceed s
Ġexpand s
Ġrev ision
wr ap
Ġbin oculars
Ġraz ors
Ġner d
Ġaccred itation
Ġreprodu ce
Ġmow ing
Ġprocrast ination
Ġprotr uding
Ġgodd ess
Ġshakespe are
Ġs isters
Ġf en
Ġm erg
Ġd usk
Ġre ap
Ġre vert
Ġpo pped
Ġab ortion
ace ous
Ġgo ats
lo ved
Ġlo vers
Ġcle ars
Ġper se
Ġhand stand
Ġsupp lied
Ġcur s
Ġcur ler
Ġrep ublic
Ġstress es
ese ed
Ġaud itory
Ġgent ler
Ġ11 5
Ġoccup ation
Ġcompar isons
Ġoptim um
cop ic
Ġnook s
Ġske leton
Ġsting ing
Ġcondens ation
Ġkil n
Ġadject ive
Ġboom er
Ġaffili ated
Ġfreshe ner
Ġcylind rical
a ways
i ages
l imate
er ver
Ġb aker
or ld
st itch
Ġre feree
Ġcon fect
Ġmo lar
Ġch ant
Ġsp h
and el
Ġsk is
de fine
Ġam mun
Ġhand gun
Ġno on
oid al
Ġem uls
Ġpay roll
Ġmoist ened
Ġconversation al
Ġpar ac
Ġ6 6
Ġcounter parts
Ġhost ed
Ġimpact ed
Ġwarn ed
Ġrod ent
Ġchill ing
Ġunus ually
Ġterr ier
Ġswallow ed
Ġrh iz
Ġbru ised
Ġillust ration
Ġcomed ogenic
Ġdan cers
Ġexplos ive
Ġrevol ution
Ġsweats hirt
Ġlegend ary
Ġinsecur ities
protect ed
Ġverte x
Ġinadequ ate
Ġmerm aid
Ġhelicop ter
Ġhyperthy roidism
Ġa i
Ġp ep
an cer
Ġh ides
Ġre assemble
Ġnot ably
ce nding
Ġsc iences
Ġun fl
ress es
Ġdes erves
Ġste via
Ġadv ances
Ġcount ed
Ġpar an
Ġmild ly
Ġassess ing
Ġtrigger ing
Ġmut ually
Ġexfoli ant
Ġmit t
Ġreven ge
Ġhypo allerg
Ġexagger ate
Ġsuspic ion
Ġinad vert
Ġire land
Ġhypoallerg enic
r ums
Ġa e
re y
it ably
Ġg ur
Ġdo ork
Ġco y
Ġwork load
ol ic
Ġun accept
Ġres umes
Ġfir mer
Ġrec overed
Ġlight headed
Ġrun e
Ġplan es
be ar
Ġmem o
Ġid ol
Ġcomb os
Ġfact ual
Ġdiet ing
Ġclothes pin
sp ace
Ġloop ed
Ġdon eness
Ġkick ed
Ġgum my
Ġchalleng ed
Ġbare foot
Ġnegot iation
Ġ201 6
Ġbump er
Ġtul ips
Ġdread s
Ġcaf eter
Ġblogg ers
Ġamend ment
Ġperenn ials
Ġinquir y
Ġinfin ite
Ġcooper ative
Ġnotar ized
Ġenorm ous
Ġammun ition
m ith
in qu
at ious
ac les
Ġha ul
ro ach
pe el
Ġso lic
Ġde worm
Ġfl im
os copy
op t
Ġcar ot
Ġdet angle
Ġfin ches
Ġrep ository
Ġeye ball
Ġvisit ation
Ġce ase
Ġpush ups
Ġdiv ider
Ġmultiple s
Ġexpress es
Ġoper ates
Ġcoll ard
Ġpul ley
Ġpsych iatric
Ġcrust y
Ġacet ate
Ġhun ters
Ġrecruit ment
Ġlou is
dis cuss
Ġimpl ant
Ġwatt age
Ġfol k
Ġshell fish
Ġburrit o
Ġinsuff icient
e lect
Ġy ank
Ġn ations
Ġnot able
ad ium
il ings
Ġv as
Ġfo al
Ġover st
Ġun protected
Ġbl ouses
Ġshe en
Ġins ure
Ġprov es
Ġtap es
Ġeye let
Ġbar b
Ġcred ible
Ġdress y
Ġfresh water
Ġgir th
Ġprice y
Ġelim ination
Ġfoll ower
Ġreset ting
Ġstap ler
Ġov arian
Ġram en
Ġassum ption
Ġindu cing
Ġlandsc aping
per form
Ġcul p
Ġnightm are
Ġimmers ion
Ġkne el
Ġjuven ile
f ly
he ro
Ġto pped
Ġd al
ar ter
Ġh itch
Ġtop soil
Ġprop ag
Ġsitu ated
Ġpub ic
Ġtend encies
Ġroutine ly
Ġenh anced
Ġduct s
Ġgal van
Ġpix el
Ġshall ots
Ġintu ition
Ġconson ants
Ġoste op
Ġinher it
Ġdrows iness
p ons
Ġm ars
Ġl s
Ġl um
Ġe h
Ġg an
Ġr ame
Ġcon qu
Ġmo bs
and a
Ġinc line
Ġcle avage
Ġph ases
Ġcre s
Ġacc limate
Ġmet ron
Ġcur ds
Ġroom mates
Ġstre ak
Ġce ilings
Ġ200 3
Ġpoly mer
Ġdetect ion
Ġvalu ables
Ġfry er
Ġvib rate
Ġprofit able
Ġconso les
Ġshrink ing
Ġcontamin ate
Ġunre ason
Ġpredict able
Ġcha os
Ġlinger ie
Ġneuro logical
Ġartic ulate
Ġimpair ment
opath ic
stud y
Ġschizoph renia
b ugs
t w
Ġt ay
Ġw ilt
or ate
Ġcan ner
Ġr p
Ġfr ay
Ġall ah
os ity
Ġcor set
Ġprodu cer
Ġgener ations
Ġsoft ball
Ġgrow ling
Ġant ac
Ġphys icians
og ens
Ġ5 7
Ġtur f
Ġlat te
Ġcomment ing
cal c
Ġinsight s
Ġhamstr ing
buck s
Ġtestimon ials
Ġdrople ts
k o
Ġt ipping
Ġa se
Ġw ort
Ġd l
Ġe art
Ġu m
Ġwill ow
Ġsh ards
Ġch ame
Ġj en
Ġpre set
Ġen ric
Ġdis assemble
Ġsm arter
Ġsl anted
Ġhand ing
Ġexper iments
be nd
Ġterm ites
Ġrece iv
Ġwood y
str ing
ho e
Ġtrust s
Ġmass ages
Ġcla uses
Ġpony tails
Ġgreet ings
Ġshield s
Ġmenstr uation
Ġassemb ling
Ġchi rop
Ġchamp ion
Ġcongrat ulate
Ġprejud ice
Ġgrap eseed
Ġwhisp er
Ġchinch illa
Ġpolyn omial
Ġbals amic
l an
Ġa y
Ġbe friend
Ġdo p
Ġco ded
Ġte qu
Ġph on
ens us
Ġcomm as
Ġreg ener
Ġrest oration
Ġpast or
Ġswe aring
Ġfoot note
Ġground ing
Ġvers es
Ġjud gments
Ġengine ers
Ġuns ightly
Ġsne aking
Ġhur ric
Ġsen iors
Ġconj unct
Ġfet a
Ġliber al
Ġtorn ado
jo in
Ġnewslet ters
Ġderiv ative
Ġhib iscus
Ġsiph on
Ġunaccept able
Ġchame le
s u
re du
Ġn ull
Ġr ips
Ġsu l
pp ies
Ġj ury
Ġback packs
Ġperson a
Ġunder line
Ġskin care
Ġprot agonist
be come
Ġhapp ily
Ġpast ries
log ists
Ġanim ated
Ġinfl ated
Ġmild er
Ġextract ion
Ġscal ing
Ġgraph ite
Ġgrand mother
Ġ17 7
Ġbrew ed
Ġswab s
Ġevapor ated
Ġtet anus
Ġoverlook ed
Ġdegre aser
Ġhammo ck
Ġculp rit
l if
m ap
n ever
le ys
Ġh ull
Ġsh am
Ġfr ayed
ant h
ant ically
Ġad or
Ġpre st
au nd
Ġqu il
Ġstr ipped
Ġent re
Ġdet rim
Ġdi a
Ġbre ach
Ġturn ips
Ġmon ot
Ġspr inting
Ġexper imental
Ġmater nity
Ġgra ve
Ġvol umes
Ġfur ry
Ġblue berry
Ġra pport
Ġtooth brushes
Ġang ular
Ġassist ed
Ġvisual izing
Ġsnow ball
Ġextract s
Ġcheap ly
Ġrepl ies
Ġrim s
Ġauthentic ity
Ġamb ul
Ġdu vet
Ġsaus ages
Ġscrapbook ing
Ġreb ound
Ġretin oids
Ġ42 5
Ġimpl ants
Ġinsecur ity
heart ed
Ġdiscontin ue
vio let
Ġparach ute
Ġsuperfic ial
Ġdetrim ental
r ams
v ag
Ġf tc
Ġl d
Ġe ld
Ġst ern
ur ious
Ġde ple
Ġv ene
Ġad ver
Ġte ased
Ġen for
Ġun zip
Ġsim ulate
me et
Ġrep orter
Ġconf ron
Ġtrans cripts
Ġir res
io graphy
Ġcy dia
Ġapart ments
Ġconsist ing
Ġ7 4
Ġrestrict ive
Ġvib r
Ġinspir ing
Ġcheer ful
Ġmango es
Ġscall ops
imm une
Ġresil ient
Ġschn au
f iction
h r
Ġa ster
Ġw ishing
Ġb ah
Ġf af
se mble
al o
et ti
Ġr ss
Ġle n
Ġco bble
qu in
Ġdis engage
Ġstart le
ert o
Ġcheck up
Ġinv ention
Ġrep urp
Ġcover ings
Ġpat ty
Ġru ins
Ġ15 00
Ġgar ter
Ġlive ly
Ġgrad ing
Ġtre m
Ġdefe ating
Ġdissol ving
bre aking
Ġacqu iring
Ġreve aled
Ġbead ed
Ġleak age
Ġbrother s
Ġsed iment
Ġray on
Ġencry ption
Ġfuss y
Ġsemin ars
Ġhic c
Ġmering ue
Ġlozen ges
mans hip
Ġsolv ents
Ġosteop or
r ise
t reat
w ol
Ġb ould
Ġp t
Ġl ures
ed ent
Ġe u
Ġg ag
Ġre e
Ġr us
Ġse mic
Ġk ong
Ġcont ing
Ġpe nding
Ġqu es
Ġper taining
Ġwr ites
Ġcor ne
Ġap a
Ġturn over
Ġcho y
Ġemp athetic
li est
sp read
Ġexpect ation
Ġdiv isible
com plete
Ġ6 7
Ġsup reme
Ġmanu als
Ġshr ine
Ġshut ting
Ġrain water
Ġenh ances
Ġfet us
Ġench ant
Ġsculpt ure
bir th
Ġporn ography
Ġcrumb ly
Ġdesce nd
Ġpand ora
Ġdiure tics
Ġsevent h
Ġrecru iting
Ġinadvert ently
m atic
v ity
re c
Ġe lf
Ġe nder
Ġon coming
Ġout ings
Ġdis m
Ġspe cials
Ġper tain
Ġres orts
Ġpay out
Ġcolor ado
Ġrep lic
Ġpat iently
ian a
Ġperiod ont
Ġdrug stores
ann ies
Ġveterin arians
Ġrect al
Ġbun ches
Ġauto immune
Ġder ail
Ġbol ster
Ġmast ers
Ġmarble s
Ġcrick et
Ġelectroly te
Ġcorticoster oid
Ġinev itably
Ġearb uds
Ġlifel ong
Ġfaf sa
Ġosteopor osis
b ut
n x
in os
Ġs om
Ġd ach
Ġn ibble
Ġg m
Ġst utter
as ion
Ġpl astics
Ġpo re
Ġwater fall
Ġres ur
Ġdec edent
Ġprov ision
Ġfile name
Ġlot tery
Ġappe nd
Ġsqu id
Ġmeas urable
the less
Ġnever theless
Ġinf requ
Ġblock er
Ġmod ifying
Ġpin ched
Ġfavor able
Ġcou ches
Ġfore ground
Ġinj uring
Ġflour ish
Ġsharp er
Ġstat ue
Ġdom inate
pre ne
Ġincorpor ation
Ġcalcul us
Ġmort g
Ġtour ists
Ġblind ness
Ġprem ises
Ġ23 7
Ġreass uring
Ġange les
Ġdistort ed
Ġdestr uction
Ġclust ers
Ġarbit ration
Ġhomeown ers
ophil us
Ġaven ue
Ġbridesma ids
Ġemiss ions
Ġglycol ic
Ġmete or
Ġgeor gia
Ġcardam om
Ġambul ance
f are
he res
Ġh ula
Ġwith drawn
Ġex pel
Ġj aund
Ġk art
Ġcol umb
Ġar cher
Ġcor r
po st
Ġconf ine
ven ir
Ġant imic
Ġpol ishes
Ġveget arians
Ġver m
Ġgroup ed
Ġsepar ates
Ġer asing
Ġtend ons
Ġmac s
Ġfel ony
Ġgrand children
Ġrecy cl
Ġreve als
Ġsan ct
Ġachie vable
Ġadvis er
Ġyield s
Ġillust rations
Ġgerman y
Ġdynam ics
Ġintimid ated
Ġmason ry
organ ize
Ġcul inary
Ġgeograph y
Ġultra violet
Ġbroch ures
Ġtheore m
Ġovere x
Ġmulticol ored
Ġantimic ro
o ch
v ir
Ġw ides
Ġst ash
Ġha v
Ġsp ins
Ġtim et
Ġdis regard
Ġdis qual
Ġun o
Ġho ps
Ġag itate
Ġunder arm
Ġcheck ups
Ġrec l
Ġcare t
Ġgl utes
Ġhead lights
Ġfull ness
atter ing
Ġhouse plants
mo on
Ġsun flowers
Ġmot ives
sp ring
Ġcollect s
Ġweb bing
Ġsens it
Ġland marks
Ġstuff y
Ġpa ul
ox ic
Ġdisp erse
Ġneut ering
Ġfamiliar ity
Ġhydr ange
Ġsweat pants
ops is
Ġquart z
Ġow l
Ġpom ade
Ġcrumble d
hel p
re act
Ġc ate
Ġp ik
Ġm ite
le ave
an ol
Ġre x
Ġex its
Ġco lo
Ġinc omp
Ġun att
Ġun avoid
Ġcat cher
Ġmet ro
Ġtap estry
Ġsal m
Ġbir thing
Ġtechn ologies
Ġletter ing
Ġbud gie
Ġflu x
Ġdiag rams
ony ms
Ġpa vers
Ġneut rals
aur us
Ġvi ber
Ġsumm ons
Ġquot ient
Ġton ic
Ġnause ous
Ġtransition ing
Ġvill ager
Ġnarr ator
Ġimplement ing
Ġanonym ously
Ġcharm ing
obs erve
Ġscoot er
Ġhamp er
Ġmicroorgan isms
Ġcafeter ia
Ġentre prene
Ġa ura
Ġs r
Ġb ree
Ġd ug
Ġg p
Ġcl ums
th ood
Ġen semble
and al
Ġbo nded
Ġgr unge
Ġam ort
Ġins ulate
Ġcheck er
Ġjo king
Ġclass ification
Ġflo p
ator ies
Ġintern ationally
Ġple ats
Ġenc yclo
Ġsand al
Ġaud iences
Ġharm onic
Ġtor que
Ġsou venir
Ġund ist
Ġelastic ity
Ġrust y
Ġfitting s
Ġinspir ational
Ġvul va
Ġterr arium
Ġassum ed
Ġbelie vable
Ġflirt atious
Ġec osy
Ġcushion ing
Ġfasten ers
Ġlamps h
Ġech in
Ġinvestig ator
Ġtournam ents
Ġexclud ing
Ġdecongest ants
Ġteap ot
Ġtequ ila
o ly
v o
Ġm illet
Ġd arts
Ġe uth
Ġg ases
Ġg ills
Ġch andel
ress ure
Ġsl ats
Ġunder gar
Ġsim plic
Ġgener ating
Ġconf etti
Ġpet er
Ġ5 8
Ġvol ts
Ġconst rict
bon ate
Ġcas c
Ġrow ing
Ġtele mark
Ġsurger ies
Ġter ror
Ġpier cer
Ġscal y
Ġdent ure
Ġdent ists
Ġsuperv isors
Ġsketch ing
Ġdivor ced
Ġguarant ees
Ġrevers ed
Ġwob ble
Ġfluctu ations
Ġmultivit amin
Ġissu er
Ġepile psy
Ġunavoid able
it ating
Ġe agle
Ġg on
ig i
Ġtr aced
Ġro ost
Ġun roll
Ġun aware
Ġph y
Ġar ro
Ġar ches
Ġtop coat
Ġavoid ance
Ġhead ers
Ġhead phone
Ġbottom ed
Ġret ired
Ġass ass
Ġequ il
Ġru ffles
Ġrout ers
Ġsens ors
Ġtit anium
Ġtar ant
Ġter ry
Ġclock s
Ġuns ubs
Ġfrust rations
Ġblind fold
urb ed
Ġeuro s
Ġrelie ves
Ġuv b
Ġspons ors
orr hea
Ġbing o
Ġbronch itis
Ġjoh ns
Ġsket ches
Ġamuse ment
Ġquarant ine
Ġhypogly cemia
Ġdecou page
Ġsimplic ity
f it
m ain
o cr
Ġd d
Ġd ander
or i
es ign
Ġre loc
Ġan not
Ġr ome
Ġad am
ard rop
Ġpart ly
Ġres ale
Ġimp lic
Ġar k
Ġher nia
Ġcor nea
br ake
Ġdraw backs
ins ert
Ġimm ense
Ġqual ification
Ġtool box
Ġemail ing
Ġbehav es
Ġmilk y
Ġbal con
Ġcorrect ions
Ġdish on
Ġcas ino
Ġrent als
Ġprogress ively
Ġnarrow ing
Ġbold er
Ġstimul ant
Ġanch ors
Ġdiffer ing
Ġunexpected ly
Ġnu cle
Ġexemp tion
Ġdownt ime
Ġlique ur
Ġsucculent s
Ġholly wood
Ġdeem ed
Ġinfert ility
Ġrhe um
Ġantimicro bial
r ows
Ġn ach
Ġal p
Ġcl ich
Ġrem n
Ġfl ares
Ġres h
Ġho ard
te ach
Ġunder tone
Ġchar gers
Ġclot ting
az ed
Ġfire wood
Ġpar ab
Ġmat ted
Ġcy mb
Ġspl ashing
Ġ9 6
Ġx xx
Ġcoll aborate
Ġattemp ted
Ġassign ing
Ġinh aled
Ġgrain y
Ġlad ders
Ġdev ast
Ġsoy beans
Ġpud dles
Ġbreastfe ed
Ġparas ite
Ġconverse ly
Ġbloss oms
Ġblanch ing
Ġlax atives
Ġabund ance
2 2
b ags
Ġt m
Ġt ah
Ġt umble
he imer
Ġw akes
er ally
Ġm ails
Ġe ater
Ġbe gging
Ġk r
Ġk ik
Ġac he
Ġhair brush
dy nam
pl aced
Ġsign ify
Ġstre p
Ġsearch able
Ġiss uing
Ġletter head
Ġchem ically
Ġmac book
Ġstim ulated
Ġgraph s
Ġdev iation
Ġhus ky
Ġfault s
Ġgy ne
Ġcha pped
Ġsprout ing
Ġcontour ing
Ġnour ishing
Ġdisadvant age
Ġcaterpill ars
Ġwithhold ing
Ġallig ator
Ġadul thood
eri enced
Ġtok ens
Ġcres cent
Ġechin acea
d iv
v id
Ġsh ank
Ġal z
th at
ra il
Ġsp ain
Ġsk unk
Ġloc ator
Ġnum eric
Ġve nding
Ġcor ro
Ġskin less
ari ums
con fig
Ġmedic inal
Ġfab ulous
Ġscrew ed
Ġobs idian
Ġmanufact ure
Ġtre ble
Ġhyp other
Ġwhisk ers
Ġexcept ionally
keep er
Ġbead ing
Ġcoin c
Ġinterrupt ions
Ġaddict ive
anc ies
Ġmich igan
Ġdonut s
Ġlod ging
Ġvic inity
Ġsatell ite
Ġconfect ion
Ġflim sy
Ġundist urbed
1 5
p ipe
v ance
Ġa rous
in ction
Ġo sha
Ġp ms
on a
Ġh ud
Ġn ets
Ġg ab
um ental
Ġall ocate
Ġsk ipped
Ġsl iders
Ġinter ference
Ġreal ized
Ġtool bars
Ġhor ns
Ġview point
Ġcollect ible
Ġsubject ive
Ġharm ony
Ġforce fully
Ġcamp fire
Ġfreez es
Ġbun nies
Ġsold ier
understand ing
Ġtransport ing
Ġnegot iations
Ġinexp erienced
Ġrac ial
Ġalphabet ical
Ġclump ing
part um
Ġprivile ge
Ġconjug ate
Ġwil ted
Ġremem bered
Ġtad po
Ġperipher al
Ġdop amine
v il
Ġf red
Ġf ern
Ġn i
Ġe ct
Ġst an
Ġcan ary
am ation
Ġso ckets
ood les
Ġro aming
Ġro sy
Ġpart itions
Ġhair dress
Ġmu nd
Ġmed ically
Ġcar ib
Ġhead light
Ġbow els
Ġemp ire
Ġpres um
Ġcomb ust
Ġpost p
Ġpost partum
Ġpop ulations
Ġwait er
og ue
Ġ5 3
Ġelect ions
Ġinvol unt
Ġanx iet
ann a
Ġsubs id
Ġsuspect s
Ġcig ars
Ġuniform s
Ġherb icides
Ġchalk board
Ġfant as
Ġsugars ync
Ġadmit ted
Ġwat ts
Ġclog s
Ġdisrupt ive
Ġcareg ivers
Ġjal apen
Ġjaund ice
Ġanxiet ies
Ġt ann
Ġs ought
Ġf ades
nd ered
Ġh acks
Ġn ightly
Ġr ival
Ġco c
Ġpl a
Ġde hum
Ġen rolled
Ġpr ong
Ġop ting
Ġwater line
Ġpart ing
Ġam n
Ġprov oke
Ġpur ses
Ġtest icles
Ġshort ened
Ġred o
Ġwindows ill
Ġcam el
Ġorganiz ers
Ġcarp ool
pre p
Ġboost ers
Ġlat itude
Ġdev il
reg on
Ġdisinfect ing
Ġgem stone
Ġobsess ion
Ġinquir ies
Ġswir ls
Ġpherom ones
Ġrefere n
Ġacro bat
Ġconfron ting
d ifferent
f ree
Ġo regon
Ġf aking
Ġp g
Ġp aced
Ġm age
on ly
ent ary
Ġad ware
el t
Ġj peg
Ġk y
Ġte ardrop
ra z
Ġgo ds
Ġinto xic
Ġfl ipped
Ġexp ires
Ġimp ed
Ġcat aly
Ġim ess
Ġcor p
ative ly
Ġ10 4
Ġhard ness
Ġsymp athy
uck y
Ġbehav ed
Ġgreen ery
Ġ12 3
Ġdiv isor
Ġflavor ings
Ġwax y
Ġconce aled
Ġlaws uits
Ġsecret ions
Ġadap ted
Ġacqu ainted
Ġviol ate
Ġtruth ful
Ġisol ating
Ġbump y
inc lude
Ġsed entary
Ġsubscrib ers
Ġjurisd ictions
Ġinterpre ter
Ġphen omen
Ġincl usive
Ġdepr ivation
Ġreinfor cing
Ġtrell is
Ġconjunct ivitis
Ġalz heimer
8 6
n ier
re ach
Ġc iting
at us
Ġto ken
Ġd ashes
Ġin mate
Ġl onge
st ra
Ġcan opy
Ġcl iff
Ġj ess
ist ical
Ġact ed
co d
ib r
Ġins ign
Ġdet ract
Ġcirc uits
Ġsleep s
Ġinf lic
col n
Ġwin ners
Ġinsert ion
Ġrecogn izes
Ġinteract s
Ġmis cell
Ġdemonstr ated
Ġcancel led
Ġrecept acle
Ġdenom inators
Ġcreep ing
Ġacup ressure
Ġspy ware
Ġbarg aining
Ġnod ding
Ġproh ibit
Ġpamp er
Ġglam orous
Ġshar ply
Ġshoel ace
Ġartich oke
spe ak
Ġware house
Ġureth ra
Ġinfer ior
Ġparake et
Ġhier arch
Ġdach sh
Ġsalm onella
f ied
Ġa aa
Ġc em
Ġc aves
Ġp es
Ġin ver
Ġn ab
Ġn ons
ie ce
Ġdis abling
Ġover react
Ġun pro
Ġph ill
Ġsl ugs
Ġno ble
Ġjo ists
Ġed ging
Ġ10 40
Ġhard ens
Ġaccount ability
po x
Ġprop ane
Ġdisc ord
Ġcall igr
Ġair borne
Ġret weet
Ġsoft ens
Ġunderstand able
Ġkey chain
Ġbra gging
set te
Ġinfl ation
Ġring ing
Ġoper ators
Ġcontract ed
Ġvolunt ary
Ġneut er
Ġadvance ment
Ġsport y
Ġaccum ulation
Ġdisagree ments
Ġnovel ty
Ġcater ing
Ġhack ing
Ġbeet les
Ġferment ation
Ġbless ing
sm ith
Ġunde restimate
Ġattain able
Ġtrump et
Ġsplur ge
redu ce
d ock
f rom
t imes
w ipe
Ġto te
it ol
Ġh ates
Ġn f
ic ts
ot in
Ġbe loved
Ġch an
Ġch ief
Ġcl ipper
est one
Ġk ab
are l
Ġtim ber
Ġbr ad
Ġun int
Ġbot s
Ġhand written
Ġhand brake
Ġread iness
Ġread just
Ġcook book
Ġball er
Ġqual ifies
Ġlab s
Ġfour s
Ġfur the
00 0
Ġpar ad
Ġdefault s
Ġpath way
Ġgovern ments
Ġpc s
Ġestablish ment
Ġvoc als
Ġcough s
Ġadopt ive
ros is
Ġhydro xy
Ġbrid le
Ġbic eps
Ġgene alog
Ġfidget ing
Ġdrows y
Ġlith ium
Ġdissip ate
Ġeart hy
Ġdia lect
e le
r ia
u rop
Ġb ish
st airs
Ġcan oe
Ġwh im
Ġpl unge
Ġhel pless
Ġro ku
Ġper for
Ġag itation
Ġwell s
Ġins ured
Ġopt omet
Ġfin es
Ġsur re
Ġlot us
cr ack
Ġprevent ed
Ġpop ulated
Ġwere wol
Ġple x
Ġspot ter
Ġcy an
Ġfore most
Ġhoney moon
Ġresist or
find er
Ġcontrib ut
Ġsilver ware
Ġlin coln
Ġpoly p
Ġcurl ers
Ġcompost ing
Ġchap stick
Ġappet izer
Ġstraighten er
Ġrank ed
Ġric otta
Ġspect ator
Ġrecre ation
Ġflood ing
Ġgast ric
Ġgarn ishes
Ġsubtit le
Ġfol ks
Ġkar ate
Ġrs v
Ġmnem onic
Ġcem eter
1 6
Ġt ally
Ġt unes
Ġf enced
Ġp ug
Ġto ad
Ġi phones
or al
it ters
Ġn apping
Ġor b
Ġfor age
ig hed
Ġtr ipping
ra h
Ġpr ying
Ġun ic
Ġbot ul
Ġbl an
Ġbl ower
Ġbu ys
Ġacc lim
Ġread able
Ġdet ached
Ġprov isions
Ġchar lie
Ġadv il
Ġkind ling
Ġfoot print
Ġhang out
Ġcy cl
Ġseem ing
Ġfrequ encies
Ġx ml
Ġtrig on
Ġwidth s
Ġjournal ism
Ġ16 5
Ġsuper hero
Ġmis erable
Ġcommer cials
Ġrhy ming
Ġcoord inating
Ġroof ing
Ġlipstick s
Ġfund ament
Ġhus ks
Ġore o
Ġsear ched
Ġfrag ments
Ġcling ing
Ġresear ched
hel ves
Ġcatalog s
Ġsteroid al
Ġutil izing
Ġtal cum
Ġvenom ous
Ġanc est
Ġnan ny
Ġgenet ics
Ġboomer ang
main tain
Ġmund ane
Ġfurthe st
h ouses
t v
re x
Ġf uses
Ġp ess
it i
Ġn c
Ġe books
Ġbe agle
il les
Ġco hes
Ġte et
Ġall ies
Ġfo ss
Ġwork book
Ġgr im
Ġgood ies
Ġname ly
Ġactiv ating
Ġappear ances
Ġpost ings
ump y
the n
par ate
Ġje well
Ġexpect s
Ġwom b
Ġacid ophilus
Ġpill ar
Ġremind ed
Ġmicrow aving
Ġattend ees
Ġantib odies
Ġexcept ional
Ġ19 6
ino is
Ġ201 4
Ġshock ed
Ġgossip ing
Ġevapor ates
Ġvamp ires
Ġdistort ion
Ġdrown ing
Ġtric eps
Ġabrupt ly
Ġchlamy dia
Ġfurnishing s
Ġhypother mia
Ġmiscell aneous
Ġunint ention
d ouble
g ies
g ian
l ig
Ġt roll
Ġa pe
Ġthe ories
Ġb our
Ġf led
Ġd ha
ig ans
im ony
ad ryl
Ġmo sa
Ġv iv
Ġv ina
Ġj ab
Ġsc um
Ġev ident
Ġbl ushing
lic ited
Ġcheck ers
Ġcent r
Ġhot mail
Ġcontro llers
ph rine
Ġtext ur
Ġeng ages
Ġfoot er
Ġprom ising
Ġproject ed
Ġcreative ly
Ġpun ishing
Ġhip ster
Ġcomment ary
Ġjell ies
Ġviol ated
Ġaer ial
Ġdiscover ing
Ġhydro x
Ġrig orous
Ġillust rator
organ ized
Ġcud dling
Ġpac ific
Ġdeact ivate
Ġreli ability
calc ulate
Ġador able
Ġp acing
Ġto ning
Ġd aring
Ġl n
ct ur
Ġv ip
Ġme ment
Ġsl ugg
ose xual
pl asia
Ġallow ances
Ġsw apping
Ġinstr umental
Ġlisten ed
Ġbro od
Ġra ffle
Ġpush y
Ġbooks helves
Ġsheet ing
Ġcounter feit
Ġpa uses
Ġstrengthe ns
Ġawkward ness
Ġrob ust
Ġpud dle
Ġintention al
Ġwick er
bor ns
Ġhazel nut
Ġboun cy
Ġorch ids
Ġradical s
Ġinhal ation
Ġpremature ly
Ġphob ia
Ġhalluc inations
Ġundergar ments
Ġcarib bean
f ing
h ift
t ale
Ġs ins
Ġf eral
Ġal ab
ive t
Ġj asm
ount ered
op athy
ical s
Ġreg row
Ġreg ime
Ġsub head
Ġtap s
ins on
Ġpartic le
Ġz en
Ġple ased
Ġenc ountered
Ġsand ed
Ġself ie
rib ly
Ġbi ases
amm y
Ġ7 50
ym met
Ġcit r
Ġpoin ters
Ġvoc ational
Ġlin ole
Ġinsect icides
Ġfer rets
Ġrestart ing
Ġpuff iness
Ġhistor ic
Ġske let
Ġtens ing
Ġirre le
Ġscot t
Ġteab ag
Ġassort ment
Ġsuffere rs
Ġlil ac
Ġgalvan ized
Ġmortg ages
s chedule
Ġt at
Ġb iz
Ġl av
Ġg igs
ac c
Ġr ains
Ġhe ms
Ġch ipping
Ġco aster
th s
Ġsk imp
Ġhour glass
Ġsal ons
Ġschool ing
oun ge
ph an
Ġimm ob
Ġma h
Ġorig ins
Ġdocument ary
Ġrefr ame
aut hor
Ġassist ing
Ġcrit ically
Ġthr ush
Ġsnow board
Ġsubstit ution
Ġrestric tion
Ġstation ery
Ġbroad en
Ġtender loin
Ġben adryl
Ġcircumst ance
Ġlandlord s
Ġannounce ments
Ġflick r
Ġabbrev iated
alf a
Ġtro op
Ġell ipt
Ġconvin ced
Ġsmud ges
Ġexch anges
Ġdeterior ate
Ġbart e
Ġalf alfa
Ġdandel ion
Ġfranc isco
Ġunreason able
Ġvina ig
Ġjasm ine
Ġirrele vant
m eter
Ġa ol
in vest
Ġf ighter
Ġd ar
Ġh unch
ed o
Ġg hee
Ġbe g
Ġst agn
Ġas ymmet
Ġle ot
ment ion
Ġapp ra
Ġgr ills
Ġunder weight
ib bling
Ġmu cous
Ġimport ing
Ġeye lets
Ġcirc ulating
Ġpost card
Ġflo ats
az a
Ġphoto copy
Ġaccord ion
Ġpath ways
Ġcub ed
Ġment ors
Ġglitter y
Ġcoord inator
Ġwarrant ies
Ġfond ue
Ġlux urious
Ġroyal ty
Ġtac os
Ġconstit utes
Ġkern el
Ġtheat ers
Ġpersu asive
Ġinterpre ted
Ġtant rums
Ġmoth s
Ġconve ys
Ġros acea
Ġbackst ory
Ġinval id
Ġrehydr ate
Ġjewell ery
Ġslugg ish
p rodu
Ġs ine
Ġp on
Ġh ulu
Ġl ounge
Ġpro pel
Ġcl am
Ġcl ans
Ġk ara
Ġpre occup
Ġdown hill
Ġche fs
Ġbot an
Ġsk ater
Ġag ar
Ġcre pe
Ġcr annies
Ġinform ing
Ġbas al
Ġcur vy
Ġmon keys
Ġsub conscious
Ġsw amp
Ġsw ivel
Ġprof icient
Ġmakes hift
Ġsun rise
Ġpar ole
Ġgoo fy
Ġer ased
Ġminim izes
Ġtun ic
Ġmid point
Ġhi ber
Ġarch ived
Ġpurs uit
Ġzip loc
Ġhood ies
Ġoptim ization
squ are
Ġdad dy
Ġpist ach
Ġmast ering
Ġcramp ed
Ġapric ot
Ġsnugg le
Ġnurt ure
Ġastron omy
Ġdischar ged
Ġunso licited
Ġdehum id
Ġkara oke
c as
j un
p ile
p aint
s ion
Ġt ic
Ġt ines
Ġc b
er ian
Ġb ash
Ġh s
Ġl ite
ic ting
Ġe lla
as is
im ia
Ġex iting
Ġal imony
Ġout bur
Ġjust in
Ġap k
Ġdi ode
Ġpot tery
Ġtrans union
Ġpick le
Ġnight stand
Ġanim ations
ho st
Ġmor ale
Ġconst ell
Ġtag ging
Ġflex ing
Ġdefe ated
Ġclim ax
Ġcancer ous
Ġpit a
Ġbone less
Ġcin ch
Ġhous ed
Ġunlock ing
Ġdou bling
Ġchill y
Ġbark s
Ġrim med
Ġet ching
Ġinstruction al
Ġpest o
Ġacupun ctur
Ġsymmet ry
Ġhawai ian
Ġchron ological
oft en
Ġstun ning
Ġlup us
Ġtimet able
Ġlonge vity
h z
l aw
Ġt ig
Ġo mbre
Ġf andom
Ġor che
ig o
Ġco ke
el ines
Ġj ams
ort ic
mp t
Ġsl ink
Ġnew borns
Ġchild ish
Ġskin ned
Ġdet on
Ġend ings
Ġlit eral
Ġed gy
Ġblo ated
Ġeyes ight
let te
Ġnet i
Ġprofessional ism
Ġfur by
Ġintrodu ctions
Ġpal ace
Ġox al
Ġhabit ats
Ġcelebr ations
Ġdepos ited
Ġspark s
Ġupgr aded
Ġpel let
Ġhygi enic
Ġsilic on
Ġtoler ant
Ġunre li
Ġger anium
Ġyell ows
Ġstretc her
Ġrenew al
Ġparr ots
Ġliz ards
Ġveg ans
Ġquir ks
Ġcrumple d
Ġhurric ane
Ġarro gant
i ators
l ab
o z
Ġn t
ac in
Ġis lam
ut o
Ġwor ces
Ġapp arel
Ġexp onents
Ġpeople s
ens itive
Ġcur few
Ġmus lin
Ġsol itude
Ġhal t
Ġsec luded
Ġenter pr
Ġneg lig
Ġperform ers
Ġge ese
Ġarm our
Ġrespons ibly
Ġwid ow
Ġcontract ion
Ġ7 9
Ġkitche ns
Ġsou ls
Ġmill imeter
Ġconstr aints
Ġfoam y
Ġpra wn
yl van
Ġdos ages
Ġgarnish ment
prof ess
Ġpedic ure
Ġimplic ations
Ġphill ips
Ġa ka
Ġd un
Ġd angle
Ġd oodle
Ġin sol
Ġn ug
Ġre read
ct in
Ġcan ter
ad ine
Ġr aining
il ia
Ġle agues
Ġtr ough
Ġco on
ul ators
Ġv ests
ick y
Ġab using
Ġsp ic
age al
ud o
ug reek
Ġbit co
Ġterm inated
Ġlab rad
Ġgroup ing
Ġhy dra
Ġshare holders
Ġje opard
Ġheart worm
ns ylvan
Ġtechn icians
Ġur n
Ġfore sts
Ġpen nsylvan
Ġeduc ating
Ġill inois
Ġdial ysis
Ġsymbol ic
Ġaccompl ishing
Ġdev ise
Ġfer ry
Ġunex pl
Ġslim mer
Ġhover ing
Ġdunge ons
Ġinvestig ating
Ġeconom ics
wet ting
Ġstyl us
Ġtriv ial
Ġsif ter
pent ine
Ġrefurb ished
Ġreceiv able
Ġcobble stone
Ġpennsylvan ia
l u
on ed
Ġfor b
im als
Ġse l
Ġhe ars
Ġch urn
Ġsp aying
Ġtime frame
Ġrem inis
Ġfl ank
urn al
Ġbet t
Ġafter sh
Ġexam inations
Ġhead lines
Ġtest ify
Ġcond uc
Ġfoot ing
Ġenc omp
Ġbrown ish
Ġge ometry
Ġfore ns
Ġstory line
Ġscrub ber
Ġ8 1
Ġtick le
Ġgall eries
Ġmid section
Ġven mo
Ġvalu ation
Ġpale o
Ġtelev isions
Ġviol ating
Ġnit r
Ġrhyth ms
Ġstalk ing
Ġfauc ets
Ġcautious ly
tor rent
Ġconstit ution
Ġlax ative
Ġquir ky
Ġevac uation
Ġheir lo
Ġmultitask ing
Ġfen ugreek
Ġcalligr aphy
Ġconduc ive
d on
l on
Ġt arnish
Ġd rought
Ġst d
Ġha lls
Ġas phal
Ġj aws
ack now
ign ed
Ġdec als
Ġdec ade
Ġcard igans
Ġcook books
Ġfree hand
Ġel m
Ġret ains
Ġsleep iness
Ġmot if
Ġlog ically
Ġcy stic
ler y
Ġbul imia
Ġtur nt
Ġpink ie
Ġmental ity
Ġsprink ler
Ġneighb oring
Ġesc ort
Ġly ft
Ġverify ing
Ġneighborhood s
Ġwithdraw ing
Ġgran ules
Ġouts our
Ġdys plasia
Ġdm g
Ġtrop hy
Ġdistribut or
Ġvictor ian
Ġduplic ates
Ġindefin itely
Ġtrapez oid
Ġsensit ivities
b ab
b ath
c ation
h ide
i ates
Ġb ounds
it ic
Ġh omet
ic iency
Ġre app
Ġis ra
Ġr anged
il ight
Ġal um
ra w
Ġsm other
Ġro be
Ġback fire
co logist
Ġreg ulating
Ġend ure
Ġmon k
Ġchar ter
Ġret al
Ġeat ers
Ġwarm s
cr iber
Ġdep ot
Ġpresent able
bit ious
Ġmeal time
Ġharm ed
Ġrom antically
Ġhuman ity
Ġmas her
het ical
Ġmotiv ating
Ġ00 0
Ġmant le
Ġadmit ting
Ġthaw ing
Ġdemo cr
Ġretrie ver
Ġreflex ology
Ġpreserv ative
Ġindirect ly
Ġker atin
Ġlod ged
Ġwean ing
Ġexclud ed
bro ken
Ġluc id
Ġremn ants
Ġmosa ic
Ġasphal t
9 0
l ite
st en
Ġe ffic
ac ies
Ġr pm
Ġse ptic
Ġtr ink
Ġpre dom
Ġpr unes
Ġhel mets
Ġman ages
Ġtw ilight
Ġgr om
Ġbl ist
ult ure
Ġcre st
Ġdes elect
Ġcal ms
Ġprov ince
Ġsub missions
Ġinte ger
ug al
Ġlocal ized
Ġblack smith
Ġinf usion
Ġgra ft
Ġdiv isions
Ġmass es
Ġcommunic ates
Ġdon ors
Ġcraft ed
Ġcry stall
Ġgrass ho
Ġmis leading
Ġmelt down
Ġ19 8
Ġdro op
Ġalarm ed
Ġoverl ay
Ġdrum sticks
Ġsynt ax
Ġpoll ut
Ġcance lling
Ġstorm s
Ġlas so
Ġgrace fully
Ġdipl om
Ġyouth ful
Ġcous ins
Ġincur red
Ġphle gm
Ġpengu in
Ġplag iar
Ġhomet own
n ox
p read
in ers
Ġs ple
Ġc n
Ġb h
Ġn ud
Ġg ta
am ous
Ġwh ine
Ġlo gar
Ġop h
Ġfl aking
Ġfl ushed
Ġev iction
Ġgr in
Ġclean ings
Ġher it
Ġam bitious
Ġno vice
Ġlist ens
Ġap ost
Ġpress ures
Ġcur ving
Ġsw ept
Ġcho ir
ract ive
Ġscreen play
Ġgener ates
Ġlay outs
Ġweek day
Ġinter mit
Ġpick led
Ġpres erves
Ġbar rels
Ġprob able
mon ary
ters hire
Ġenc lose
Ġindic ations
Ġround ing
Ġrot or
Ġscroll s
Ġscoop ing
Ġsecret ly
Ġhom est
Ġfib roids
Ġslo pes
Ġwhit en
Ġille g
Ġdisturb ances
Ġrum or
Ġfright en
Ġexec ution
Ġretrie ved
Ġscour ing
Ġdelet ion
Ġdign ity
Ġlampsh ade
Ġcoc aine
Ġellipt ical
Ġvinaig rette
Ġworces tershire
l inary
p en
Ġp oth
at ics
Ġi u
Ġm cd
Ġst eth
ir us
Ġsh ag
Ġtr aged
Ġwe ighed
Ġlo in
Ġun author
Ġset backs
Ġrun way
Ġpos ing
Ġbook stores
Ġval erian
Ġbase boards
Ġident ifiable
Ġbra ille
Ġfour square
Ġsing les
Ġgra ze
Ġgreen ish
Ġpowder y
Ġchicken pox
Ġbat man
Ġbi otin
Ġchest nuts
Ġ8 4
Ġ7 7
Ġtail bone
Ġpok ed
Ġtub ers
Ġbill ion
Ġcart oons
Ġpurple s
Ġspan iel
Ġlawn s
Ġdiscip linary
Ġauthentic ation
Ġsulf ates
Ġmim ics
Ġcarn iv
Ġfluct uate
Ġtruff les
Ġdefra gment
Ġpave ment
Ġwides pread
ou ched
Ġw w
Ġb ount
Ġp oodle
it as
ed ed
Ġst agger
ant e
Ġpl acent
Ġsc outs
Ġac orn
Ġfo late
Ġthan king
Ġho pping
Ġnum bing
Ġbook ed
Ġtrans cription
Ġpres erved
Ġscr ot
Ġear liest
Ġdesign ation
Ġreal m
Ġappro ached
Ġprom ised
Ġnut ty
Ġobject ively
hy th
Ġgoo ey
Ġra id
Ġdoor ways
cl ass
Ġtra ff
Ġspl ashes
Ġdust er
Ġgentle man
Ġpanel ing
Ġsuff ers
Ġ11 3
Ġmirror ing
Ġox ford
Ġcd ot
Ġdigest ed
Ġtoss ed
Ġemphas izes
Ġwar craft
Ġsuck ed
Ġhyper activity
Ġsleeve less
Ġingest ing
Ġaffirm ation
Ġintro verted
Ġbic ep
Ġacr onym
Ġuncont roll
Ġinterf acing
Ġintraven ous
Ġschnau zer
Ġphenomen on
Ġunreli able
Ġisra el
Ġherit age
b ug
or ph
an i
Ġn g
om an
ic ation
Ġu mb
is o
Ġst ile
Ġst iffer
ver ify
Ġr ape
ter m
ong r
Ġback hand
Ġopen ness
Ġob nox
to cin
Ġbag gie
Ġste ws
Ġconc uss
Ġintern ally
Ġstraight ened
Ġflour s
Ġgrowth s
Ġsyn opsis
Ġalert ness
Ġgerm ination
Ġscrap es
Ġdil uting
Ġinspect ed
Ġtoast ing
Ġful lest
Ġdeduct ed
Ġpunish ments
Ġmit tens
Ġsurg ically
Ġtumb ler
Ġiniti ating
Ġenerg ies
Ġspoonful s
Ġveg as
Ġging ivitis
Ġstirrup s
Ġmisbe h
Ġinfra red
Ġsaff ron
Ġegypt ian
Ġkan ji
Ġadolesc ents
Ġaph ids
Ġrottwe iler
Ġeld ers
Ġbalcon y
Ġsurre nder
Ġlogar ith
Ġobnox ious
d em
f lo
k ia
n itus
w orld
Ġs avor
at ical
Ġh arp
ent h
Ġr ho
il on
Ġne ater
Ġout weigh
Ġdr ifting
Ġke g
get ting
ib ut
Ġunt ie
Ġcar c
Ġim ap
Ġsign ifies
Ġlight hearted
Ġturn ip
Ġgen ius
Ġ10 5
Ġvis uals
br idge
Ġpersonal ization
Ġextra ord
Ġheart ed
Ġcalm ed
Ġmar qu
Ġhook ing
oc aine
Ġauthor itative
Ġfrost ed
Ġresol ving
Ġep il
Ġhi j
Ġtransport ed
Ġpromot ed
Ġhors er
Ġconsequ ently
Ġbump ing
Ġdenom ination
Ġner dy
Ġrespir ator
Ġstall s
Ġque ens
Ġintro verts
Ġsalv ation
Ġsmud ging
Ġincub ator
Ġstrum ming
Ġkne eling
Ġdrool ing
Ġbak ery
Ġtadpo les
Ġteet hing
Ġunauthor ized
Ġb s
Ġb ids
Ġto ed
Ġto pper
Ġm oo
Ġd b
Ġd x
ar row
st alled
Ġre bell
Ġan a
Ġsh aw
Ġtr an
us al
Ġint rusive
Ġwork force
Ġgood ness
Ġchild birth
gg er
Ġscreen ed
Ġbuild ers
Ġbed wetting
whe at
Ġfact oring
Ġtape worm
oop ing
Ġra f
Ġenv y
Ġsup ers
Ġcoll ared
Ġdon key
Ġmood y
Ġdistrib uting
Ġrestric ting
Ġcapt ions
Ġlicens ure
Ġprem ade
Ġseam less
Ġintense ly
Ġsusp ense
Ġinsp ires
Ġrob lox
Ġentr ances
Ġmit er
Ġexecut ed
Ġdisapp ro
Ġextensive ly
grad able
Ġbows er
Ġleth al
Ġconsolid ate
Ġscorp ion
Ġslouch ing
Ġhiss ing
Ġoptomet rist
acknow ledge
1 3
a pper
f ined
n ie
n ob
r ons
t ier
Ġt ugging
Ġc pa
Ġf ren
Ġf angs
or se
Ġre eds
ill o
im ens
Ġsu ed
Ġse ize
pe e
pe h
Ġco bra
ul f
Ġwe althy
Ġab ide
Ġk ios
lo sing
Ġen act
Ġkeep er
Ġwell ness
arm a
Ġsol itary
Ġpan cre
Ġdevelop ments
Ġprom in
Ġaud ible
ho les
Ġseem ed
Ġmold ed
Ġbudget ing
Ġearn s
Ġtre k
Ġrain fall
Ġbor ic
Ġanaly tical
Ġoxy tocin
rain ed
Ġwarr iors
la im
Ġsoci eties
Ġcapital ized
Ġtin nitus
Ġtrunk s
Ġindu ced
Ġcance ling
Ġfart hest
Ġlact ic
Ġsag a
Ġloaf ers
acqu ire
Ġapprent ice
Ġmono ch
Ġconsolid ation
Ġshoel aces
Ġencrypt ed
Ġruff led
Ġpancre as
4 5
p res
Ġs ut
Ġs izzle
it in
Ġh ilar
Ġn ano
se parate
Ġcon co
Ġch ow
Ġal len
Ġal umn
Ġde grade
Ġup keep
Ġus pto
Ġsp indle
ast es
Ġun im
Ġun cond
Ġsk aters
Ġsl ush
Ġher m
Ġcut lery
other ap
Ġmet rop
Ġpress uring
Ġbel it
Ġinter change
Ġemp t
Ġincre ment
Ġspecial ization
Ġju ggling
uc cess
Ġmom s
Ġwin ters
Ġge nders
Ġcouple d
Ġswim mers
Ġmount s
Ġesc apes
Ġextract or
Ġgover ning
Ġobl ong
Ġexfoli ator
Ġmanip ulative
Ġinterfere s
ste in
Ġorth oped
Ġgradu ates
Ġrept iles
Ġgad get
Ġoverpower ing
Ġfier ce
Ġcategor ized
Ġerg on
Ġdoork nob
Ġhydrox ide
Ġhorser ad
c ution
Ġt es
Ġm ish
Ġl ary
am ide
ce nd
Ġsp acious
Ġrem od
Ġro aches
Ġgr acious
Ġsl ump
Ġhair y
Ġcat ast
Ġent ities
Ġwarm ers
Ġsleep er
Ġlim estone
Ġsocial ized
Ġru ffle
Ġexpl oration
Ġcollect ive
Ġill umin
sc ale
Ġpig tails
Ġapprox im
Ġclaim ed
Ġrag ged
Ġdetect ors
Ġgramm atical
Ġwors ens
Ġcommiss ions
Ġsout heast
Ġgrace ful
Ġpac ifier
ov ie
Ġgour met
Ġdecongest ant
aby tes
Ġbm r
Ġques ad
profess ional
Ġeffic acy
Ġhorserad ish
2 5
Ġb erm
le an
or ic
en za
Ġe cc
se y
se ll
Ġcan ker
Ġsu ing
pe es
Ġch ile
Ġpl ated
Ġout patient
Ġover fill
ol is
Ġcons iders
Ġstart led
op hy
Ġshe ds
Ġdec imals
Ġgl ory
Ġsur fer
Ġpot pour
Ġbox ers
Ġcent uries
Ġdist inction
Ġair y
Ġpast as
Ġste alth
Ġcustom ary
Ġreco il
oura ge
eth rin
Ġprin ce
sh op
Ġpig ments
Ġinse am
Ġformal ity
Ġdistrib utions
Ġwrist band
Ġdemonstr ation
Ġspo kes
Ġbio de
Ġpred isp
Ġscient ist
Ġoh m
Ġtract or
Ġstub s
Ġconfront ational
Ġgoth s
Ġtransplant ing
Ġdiss atis
Ġjacks on
Ġhex agon
Ġbless ed
Ġinvo ices
Ġpend ulum
Ġcollabor ation
hem ian
Ġrecon c
Ġpotpour ri
u ch
Ġa ld
Ġs ba
Ġl ard
Ġe ard
Ġg ou
Ġre used
Ġst adium
ir k
am y
Ġr ca
ge l
Ġtr ich
Ġwhe l
Ġk ate
Ġke fir
ol s
Ġatt ent
Ġim ovie
tern ess
Ġcur d
Ġinv oke
Ġsal aries
aw k
Ġspecific ation
Ġbit terness
Ġinf inity
Ġprom pting
Ġself ies
Ġfix es
Ġaim s
Ġsciss or
Ġtoothp astes
Ġdil ated
Ġclar inet
Ġfib rous
Ġtrail ers
Ġsouth west
Ġphotograp hing
Ġnu is
Ġlaun ched
Ġske pt
dog s
Ġarbit r
Ġextrem ities
Ġrav i
Ġcram ming
Ġorbit al
Ġtres pass
Ġsax oph
Ġnach os
Ġcitr onella
mention ed
t z
Ġy ummy
Ġw ad
Ġb iod
Ġe j
ow ered
Ġmo j
qu ets
Ġk al
Ġno ct
Ġcor ps
Ġsub cont
Ġprev alent
Ġvis or
Ġcup boards
Ġcond o
Ġconnect ivity
Ġscr ip
Ġfoot notes
Ġdeep est
Ġda ff
Ġclothes line
Ġarr hyth
Ġbank er
Ġreplace ments
Ġtax ed
Ġscrub bed
Ġcross word
Ġhon ors
Ġjar gon
Ġstar ches
Ġstar bucks
aff in
Ġcd c
Ġkiss ed
Ġ13 5
Ġtherm ometers
Ġ36 5
Ġcaps aic
Ġretain ed
Ġpartners hips
Ġminimal ist
Ġvulner ability
Ġtem peh
Ġcoop eration
Ġsed ative
Ġalphabet ically
Ġimper ial
Ġdimin ished
Ġbic ar
Ġlos er
Ġhipp ie
Ġspook y
Ġdens er
Ġimpuls ive
Ġintens ify
Ġjohns on
Ġpredom in
u v
y er
Ġp is
Ġp als
at ility
Ġi q
st ret
Ġr t
Ġr ation
Ġhe brew
Ġtr uss
Ġv andal
ack aged
Ġadd itive
Ġke l
Ġgr unt
Ġph o
Ġstr uck
ange red
Ġend angered
Ġdi at
Ġspr ints
Ġdisc ern
Ġhal ibut
Ġpast ing
Ġpast ed
Ġextra vag
Ġrisk ing
Ġsand box
hy de
Ġcode pend
ffic ients
Ġ9 7
Ġtom boy
Ġden ote
Ġpig gy
Ġsink ing
Ġequal izer
Ġmarr iages
Ġsto ves
Ġtut u
Ġbod ied
Ġappet izers
Ġsac red
Ġaccum ulating
off s
see ing
Ġindu ction
Ġbou illon
Ġpist on
Ġhazel nuts
Ġfet al
Ġmall s
Ġeps ilon
Ġcontour s
Ġhemorrh oid
Ġmc g
Ġtaper ing
Ġcoe fficients
Ġdesce nding
Ġcruel ty
Ġteab ags
Ġwilli am
Ġpik ach
Ġamort ization
Ġlinole um
Ġwhel ping
Ġcapsaic in
Ġb ile
Ġb asting
Ġf f
Ġp ike
Ġm ism
Ġd ll
Ġor nate
Ġor phan
Ġfor tress
Ġcan y
Ġan ise
Ġch ut
ur g
Ġmake over
if ully
Ġk ah
Ġpre determ
iv ated
Ġbr un
Ġfo aming
Ġstr ut
Ġher ring
ib e
Ġam u
Ġmed s
Ġdet ention
Ġdet angling
Ġsw it
Ġspec ifies
Ġblo at
Ġfill ers
Ġbed side
Ġpost cards
ph oto
sp in
Ġproject ion
Ġgrad ed
Ġregist rar
Ġill um
eter a
Ġbell a
Ġassess ments
Ġsus an
Ġginger bread
Ġadhes ives
Ġdomin ance
Ġpant ing
Ġalter ations
Ġeth ic
Ġstrap less
Ġrob ber
Ġled ger
aly ze
Ġobsess ing
Ġscientific ally
Ġais les
Ġkh aki
Ġintoler ant
Ġaccus ations
Ġlegisl ation
expl ain
Ġcontracept ives
Ġparac ord
Ġchandel ier
Ġimess age
Ġunexpl ained
Ġsteth oscope
Ġnoct urnal
c f
c ats
Ġy u
Ġm ingle
Ġn udge
Ġg ible
Ġbe ast
Ġbe aker
Ġu gg
Ġdo d
Ġr anger
Ġco gs
Ġv ap
Ġbo hemian
Ġdis loc
Ġun friend
Ġtw ig
Ġimp lied
Ġem bo
Ġlit ters
Ġhealth ily
Ġsho cks
Ġpat ents
Ġwhite board
Ġda is
Ġ12 00
Ġma pping
Ġur ges
Ġmag ent
Ġheight ened
Ġexpos es
Ġvan ity
tr ain
umin ous
Ġcroche ting
Ġcalend ula
Ġhom opho
Ġcomprom ises
Ġcel iac
Ġast ro
Ġ0 11
Ġdealers hips
Ġpix ie
Ġdread locks
Ġcassero les
Ġsail or
Ġprocrast inate
Ġlgbt q
Ġinher ited
Ġneur ons
Ġrunes cape
Ġartich okes
Ġelong ated
Ġmaid en
Ġcorrel ation
Ġhern ias
Ġstrik er
Ġimagin ative
Ġld l
Ġplacent a
Ġhilar ious
Ġbicar bonate
r ack
Ġs onic
Ġo ll
Ġp out
Ġm au
es cent
ll um
Ġn oo
Ġl ame
Ġis p
ut er
Ġsh iver
Ġv ows
el ity
Ġte ak
Ġwork day
cess ed
pl ate
Ġleg ible
Ġaut of
Ġste ve
Ġcost ing
Ġfact ored
Ġdeg ener
Ġgra ff
Ġfre estyle
Ġhum ili
Ġworks heets
Ġpar affin
Ġur ls
Ġele g
Ġdocument aries
Ġbul ge
Ġquestion able
sh ire
Ġcamp ers
Ġsnow y
Ġwheel bar
Ġdeath s
Ġtrash can
Ġcapital ization
Ġfav ored
Ġexhaust ing
Ġunfort unate
Ġgrit ty
mel t
off er
Ġtu ber
Ġexceed s
Ġcomprehe nd
Ġhind u
clip se
Ġcollabor ative
Ġcann ab
Ġdeliber ate
Ġcompanions hip
Ġape x
Ġtextur izing
Ġpredeterm ined
Ġwheelbar row
m os
in itis
Ġs ony
Ġs igma
Ġc au
Ġw ren
Ġw aving
Ġd or
Ġh an
Ġn am
Ġn its
Ġe clipse
ig old
Ġsh atter
Ġal ley
Ġsp ay
Ġsp ite
Ġsp iced
Ġsc oops
Ġtime less
Ġover work
Ġsl ay
Ġdec an
Ġreg ulator
Ġhead quarters
Ġcook top
Ġsub men
Ġgener ators
Ġmen ing
Ġsn uff
Ġactiv ates
Ġbit torrent
Ġtow ing
Ġgeneral ized
Ġtight ened
Ġdough nut
Ġexc urs
Ġdisp osed
Ġpump ed
Ġcarpet ed
Ġoverl aps
Ġgrey hound
Ġwithdraw als
Ġ201 1
Ġms n
Ġexplan atory
Ġsar ong
Ġange ls
Ġmarch ing
Ġinhal er
Ġrefin ancing
Ġdilig ent
Ġaster isk
Ġcolumb ia
Ġunatt ractive
Ġhairdress er
Ġalab ama
Ġalumn i
j et
l uck
Ġt ous
in ters
Ġp ung
le ur
Ġco ars
Ġfe ast
Ġsp ac
Ġtim id
ab i
ol itan
Ġun bal
Ġgr umpy
Ġres ign
Ġstr ippers
we bs
ry s
pl ings
Ġed itions
Ġbox ed
Ġpat rol
Ġass umes
Ġ12 7
Ġdiv ine
Ġmar igold
Ġpad lock
Ġcas ings
Ġcla pping
Ġshut down
Ġinh ab
Ġthro ats
Ġnarrow ed
Ġwound ed
Ġly me
bre aker
Ġbattle field
Ġsynt hes
Ġexcl amation
Ġslim ming
Ġscor ch
Ġblaz ers
Ġthunder storm
Ġlig ament
Ġoy ster
Ġhic key
Ġphysio logical
Ġvou cher
Ġchamele on
Ġbour bon
Ġmcd onal
Ġdais ies
e ous
p edia
Ġa ux
Ġm ink
Ġl ur
ic c
Ġhe pa
Ġk ine
Ġbr unch
Ġover grown
Ġimp ly
de hyde
Ġrest ful
Ġref usal
Ġid i
use t
Ġcap o
Ġadjust s
Ġteam work
Ġexpress ive
Ġshr ug
Ġappoint ed
Ġlaugh s
Ġsyrup s
Ġdv i
Ġgovernment al
Ġtour ism
Ġcru ises
Ġpra ising
Ġtired ness
Ġannoy ance
Ġblu ep
mat rix
Ġwig gling
Ġevol ved
Ġdefic it
Ġproport ional
Ġvot ers
Ġexplo it
Ġgeograph ical
Ġsniff ing
Ġsinus itis
Ġcamps ite
Ġrecipro cal
Ġdiure tic
Ġdaff od
g lasses
j or
n est
v ine
Ġt and
Ġo c
Ġb ong
Ġf usion
Ġp se
at cher
Ġi ch
Ġm um
Ġn icks
Ġl att
Ġe up
Ġhe eled
Ġpo ppy
ab eth
ag ic
Ġper ceptions
Ġjo ck
ape l
Ġstra ighter
Ġdist ill
Ġsn or
Ġprogram med
Ġsmo key
Ġstir red
Ġadjust er
Ġfish tail
cl ips
Ġcross over
Ġmac os
Ġseek s
Ġstar ve
Ġgrass y
Ġconv ictions
Ġresol utions
Ġmemor ization
Ġsne aky
Ġwheat grass
Ġcarbon ate
Ġconver ts
Ġht tp
Ġsnip ers
Ġaspir ing
Ġmole cular
Ġtent h
clean er
Ġmerch ants
Ġgam er
Ġsag ging
Ġ47 3
Ġbb q
Ġsnowfl akes
Ġswift ly
Ġcylind ers
Ġclen ch
Ġmidw ife
Ġrupt ure
Ġtwitch ing
Ġrhiz omes
Ġrame kins
Ġhicc ups
div ide
Ġrsv p
Ġcohes ive
Ġbiode gradable
Ġpikach u
d uring
s ed
Ġ ought
Ġt ach
Ġb p
Ġp ension
le ment
an ian
Ġl ull
se nd
Ġre nal
Ġha il
ine phrine
Ġget away
so ever
and ex
Ġdr ibbling
Ġbr ome
Ġdis asters
Ġche et
Ġtw irl
Ġph ant
ign on
Ġmin ions
Ġacc use
arm int
Ġlight bul
Ġrest lessness
Ġspec s
Ġcond uit
Ġprep ackaged
Ġprepare s
Ġblack s
uff s
Ġthin ners
Ġsuccess ion
Ġagree able
Ġmac he
Ġharm on
sh ots
Ġmir acle
Ġcompet itor
Ġund ue
cons in
Ġuns uccess
Ġguitar ist
Ġrepl aces
Ġelev ating
Ġprem ise
ml a
Ġemphas izing
Ġtrail ing
Ġhall ways
Ġconstruct ing
Ġcrown s
Ġpap ier
Ġelder berry
Ġuv a
Ġsar ah
Ġbush y
Ġwis consin
Ġreins ert
Ġscab s
Ġexert ion
Ġsixt een
Ġende avor
Ġunh app
Ġfasc inating
Ġdav id
Ġscav enger
Ġpalp itations
Ġslink y
Ġpollut ants
s ave
Ġa ac
Ġs iber
Ġb aste
Ġd ing
Ġd ummy
Ġl ac
Ġe aves
ant a
Ġal ice
Ġde et
Ġout rage
Ġk ent
ace ut
Ġpe w
Ġover hang
Ġche ated
we e
Ġsn ipping
Ġquick time
Ġscr ut
Ġslow ed
Ġcream ier
Ġ12 8
Ġmedium s
Ġtot als
Ġdocument ed
Ġbat on
Ġsharp ened
Ġaccord ance
Ġworth less
graph ics
Ġden ying
Ġsprink led
Ġemerg ing
Ġcro pping
Ġjoint ly
Ġsuff oc
Ġconce ive
Ġloos ens
Ġchew s
Ġsaw ing
Ġcompress ions
Ġvalid ation
Ġquot ations
Ġstream ers
Ġdefic ient
Ġabnorm ally
Ġtumb ling
Ġmur de
Ġchamp ions
Ġparam eter
Ġsque aky
Ġaug ment
Ġantif reeze
Ġrestr aint
Ġshepher ds
Ġpige ons
Ġcongreg ation
Ġfigur ines
Ġinconsist ent
Ġdex ter
Ġprosecut or
Ġleek s
Ġlightheaded ness
Ġsanct uary
Ġecosy stem
Ġdevast ating
Ġhierarch y
Ġej ac
Ġpung ent
f ile
q l
r ition
r ants
z one
Ġt inct
at i
ed uc
Ġe tern
Ġis ot
Ġsh ins
Ġad hering
Ġout ermost
Ġsp andex
un less
Ġsc ares
Ġdis organized
ert ime
op ened
Ġsur plus
Ġpur ity
Ġspr ain
Ġsw ag
Ġcent ip
Ġhal ve
Ġhouse work
Ġbal ms
Ġregist ers
Ġ9 3
Ġindividual ity
Ġintrodu ces
Ġaff lic
Ġcoll ie
Ġjew els
Ġoppos ition
Ġbeaut ifully
Ġswim mer
Ġprogress ing
Ġban jo
Ġmagn itude
Ġpath ogens
Ġhope less
Ġcock er
Ġlu igi
Ġsnip ing
Ġunpl ugged
Ġbuck les
Ġexecut able
Ġpenet rating
Ġcoarse ly
Ġinn oc
Ġti ara
aca o
Ġburg und
Ġmetron ome
Ġpistach ios
b ish
b olt
w a
Ġs ill
Ġo sc
Ġn m
ly cer
Ġco ps
Ġv ale
Ġsc anners
Ġfl utter
Ġbu oy
Ġend ocr
Ġjo ins
Ġhead shot
Ġsw ed
Ġmust y
Ġflat head
Ġlog istics
Ġpar ale
Ġgoo gly
Ġeggs hells
Ġmiss es
Ġdisp ers
Ġdoll y
Ġsquee gee
Ġshut ters
Ġmis understanding
Ġshoe box
Ġfib rom
Ġshock ing
Ġ23 0
Ġgly ph
Ġspiritual ity
Ġarc ade
Ġreception ist
Ġreb el
Ġbudd hist
Ġmyth s
Ġurg ency
Ġcrou ching
Ġdiscre pan
Ġdisrup tion
Ġom n
Ġconfir ms
Ġinconven ience
Ġitalic ize
Ġmetaph or
Ġmont ana
Ġwhiter un
Ġnab la
Ġunpro cessed
Ġblan ched
Ġdehumid ifier
Ġbett as
Ġscrot um
Ġembo ss
5 5
b ted
f ood
j our
p ark
Ġb ounces
Ġto ads
or ama
Ġn ip
Ġn ike
is c
Ġst ave
Ġhe ap
Ġfr othy
Ġco res
ie val
Ġk om
Ġk ra
ore mentioned
Ġall y
ist ing
act ic
Ġsc ammers
Ġaf orementioned
Ġman g
Ġbot ox
Ġmed ieval
Ġpur ge
Ġpoint less
Ġinter lock
Ġold s
Ġaut on
tc hed
Ġmeet up
Ġfast ener
uc co
Ġtrack ers
Ġiron ed
aut ical
Ġrad ial
Ġdead head
Ġtur pentine
Ġcraft y
Ġrent ed
Ġrat tle
Ġpul ses
Ġpul monary
Ġchew ed
Ġsubstit uted
Ġdel usions
Ġsor bet
Ġbio graphy
Ġharsh ly
Ġslight est
Ġshred der
Ġdiscip lined
Ġtem pered
Ġprun ed
Ġmast urb
Ġblem ish
Ġrefresh ments
Ġcarn ival
Ġuncheck ed
Ġreflex es
Ġhatch ing
Ġpreserv ation
Ġexhib iting
Ġpyth ag
Ġgour d
Ġpamp h
Ġfell ows
Ġrecipro cate
Ġabund ant
Ġinconven ient
Ġelong ate
Ġalloc ated
conf irm
Ġlol ita
Ġtrem ors
dynam ic
Ġforens ic
Ġumb il
f riends
p ool
s aturated
Ġf ian
Ġin equ
st ep
st ered
Ġe z
al so
ill us
ble m
Ġad vers
el f
Ġbut tered
ab ras
Ġac orns
ci ence
Ġsk itt
Ġav iation
Ġno kia
Ġdifferent ial
Ġreg ulates
me re
Ġear lo
Ġadv ancing
Ġplant ain
Ġplant ains
Ġnet tle
Ġheav iest
com ed
Ġtrad er
Ġstory board
Ġmar oon
Ġirrit ant
Ġirrit ates
Ġprim ers
Ġtrick ier
Ġlean er
Ġincorpor ates
Ġhyp not
Ġwild ly
Ġroast s
Ġrev ive
Ġvalid ity
Ġsumm aries
Ġpolit icians
Ġblu ish
Ġstalk er
Ġpossess ive
Ġwaterproof ing
Ġger d
Ġperm ethrin
Ġchains aw
Ġpunct ual
Ġtransmit ter
Ġdefect ive
Ġthumbn ails
Ġguardians hip
Ġimbal ances
Ġpreced ing
Ġextrem es
Ġoverr ide
Ġomelet te
Ġdaydre am
Ġtas sel
Ġtremend ous
Ġenlight en
Ġunsubs cribe
Ġhydra ul
Ġravi oli
Ġskitt ish
c line
d ata
v ah
Ġc ms
Ġc aster
Ġf mla
Ġd red
Ġg dp
Ġbe ater
Ġnot ion
ad or
Ġsu v
Ġse lt
ble s
Ġpl ots
Ġpe ck
Ġoff enses
Ġun app
Ġgr ates
ang led
Ġdog gie
Ġcut outs
Ġunt angle
Ġeas ing
Ġcar cin
Ġcr out
Ġend omet
Ġnumber ing
Ġpot luck
Ġmus sels
Ġel astics
ason ic
Ġweight lifting
Ġfit bit
Ġant lers
Ġident ifier
Ġgra zing
che k
Ġple ated
Ġbat tling
Ġloop ing
Ġreflect ions
Ġrom aine
Ġfed ex
Ġcart wheel
Ġhi kes
Ġcrow ding
reg ister
Ġtoxic ity
Ġpant ies
yal gia
Ġbelong ing
Ġanticip ation
Ġrecruit ers
Ġtul ip
Ġsi ppy
Ġnick names
Ġali ens
Ġcockat iels
Ġeconom ical
Ġrefin ance
Ġswir ling
Ġprefix es
Ġadvoc acy
lif ts
Ġbotul ism
Ġburgund y
c orns
f elt
g ur
Ġb pm
Ġm arm
Ġm alle
Ġd rench
le ngth
Ġh ars
ill in
Ġde chlor
reat ing
Ġcar ved
Ġsa una
rop ho
Ġmon oun
Ġspr ig
Ġpat ina
Ġmess ed
Ġ6 9
Ġfirm ness
ret ino
Ġmist ing
Ġpepper corns
Ġrat chet
Ġdiagn osing
Ġpillow cases
appe aling
Ġgut s
Ġoh ms
Ġimplement ed
Ġrecall s
Ġimmig rant
Ġcoast ers
Ġsucc inct
Ġarchitect ural
Ġbapt ism
Ġviet nam
Ġprerequis ites
Ġseb um
ophy ll
Ġnuis ance
Ġgraff iti
Ġfian c
Ġselt zer
Ġmonoun saturated
c et
d ough
m ay
o lder
Ġy ams
at en
ll as
it arian
Ġg ust
Ġre ck
Ġr y
Ġsh i
il ation
Ġco ven
Ġte fl
ach i
Ġbo ast
Ġspe armint
Ġun con
Ġun appealing
Ġpart ed
ous al
Ġar s
Ġcre ations
Ġcr ies
Ġve llum
Ġim itation
Ġmet a
Ġpur ified
Ġed ged
Ġmon oxide
Ġtell er
Ġsoft ness
Ġshort hand
Ġkey hole
Ġ30 00
Ġelect ed
Ġer y
Ġmatch a
Ġsens ual
Ġspl ints
Ġfu nded
Ġscrew ing
Ġbi ased
Ġcoll ision
Ġpark inson
Ġexc av
Ġforce ful
Ġtrig lycer
Ġweak est
Ġarg u
Ġmaster card
Ġboot y
Ġped ig
Ġinvent ed
Ġprec ip
Ġmile stone
lim it
Ġgrasp ing
Ġcaramel ized
Ġnort on
Ġprehe ating
Ġshuff ling
Ġindent ations
Ġhighl ighters
Ġnonprof its
Ġreinstall ing
Ġadoles cent
Ġderiv atives
Ġnotorious ly
Ġfundrais er
Ġalgorith m
Ġclums y
Ġdachsh und
Ġfundament als
Ġskept ical
Ġfibrom yalgia
d x
p y
s kin
v i
w ur
y x
Ġt aunt
Ġp ag
Ġth ong
Ġn agging
ic ul
Ġg or
et hy
is ers
Ġis h
ent ric
ro aches
Ġr ick
il uted
Ġj ammers
Ġsp ans
Ġsp arse
Ġwhat soever
Ġche v
Ġun professional
Ġpur ify
ia z
Ġsub du
Ġsub net
Ġrep ot
Ġrep aint
Ġind esign
Ġsw f
Ġel iz
Ġbreak ers
mon itor
Ġnorm s
Ġhang over
Ġneck lines
Ġer os
Ġorig inated
Ġmaj ors
Ġcas inos
Ġmax i
Ġanal ges
Ġter ribly
Ġesc row
Ġvent ing
Ġ19 80
Ġamaz ed
Ġgau ges
Ġben ign
Ġbio graph
Ġinflu enza
Ġbuff alo
Ġpound ing
Ġbom ber
Ġrecept ors
Ġship ment
Ġlubric ants
bl adder
Ġhydro chlor
off ice
Ġimplement ation
Ġbuck wheat
Ġexempt ions
Ġmys ql
Ġsab ot
Ġrhinest one
Ġfreshe ners
Ġdiscreet ly
Ġabsent ee
Ġoverd ose
Ġ88 8
Ġsurviv ors
Ġhaunt ed
Ġtay lor
Ġinvolunt ary
Ġcentr if
Ġtraged y
Ġbount y
Ġunhapp iness
retino in
h h
Ġt ents
Ġs ips
Ġc etera
Ġb x
Ġb anners
Ġp matrix
ar re
Ġne em
Ġch af
Ġli ens
qu es
Ġad orn
Ġad ept
Ġsp ousal
Ġbr om
Ġbr ie
Ġpe ctin
Ġro bert
Ġmin ister
int he
Ġacc used
Ġcal amine
ari o
Ġsal ve
erg art
Ġpat ron
Ġeye glasses
arr ied
Ġcondition al
Ġheart felt
by tes
Ġmass ie
Ġdough nuts
Ġstat utes
Ġden ot
Ġcro cod
Ġcast ile
Ġmas ala
Ġmis inter
Ġment oring
ipp o
Ġaqu ariums
Ġdesp air
Ġpy reth
Ġtact ile
Ġtact ical
Ġfret board
Ġtransform ation
stre tched
Ġss n
Ġgam ble
Ġharass ing
Ġee oc
Ġrou gher
Ġwarp ed
Ġretin ol
Ġenzym atic
Ġshotgun s
Ġba its
Ġyawn ing
Ġintrud er
Ġcurs ive
Ġantac ids
Ġentreprene ur
Ġencyclo pedia
ibr ium
Ġaftersh ave
Ġtran qu
Ġpromin ently
Ġunsuccess ful
a wn
b oth
c ot
j is
n ips
w in
Ġf s
Ġh ound
Ġl is
Ġg ator
Ġst ip
as ps
as ana
ad as
Ġle asing
Ġwe chat
Ġab stain
Ġtim ers
Ġme ad
ab ilia
Ġsm ack
Ġfl ips
ass is
we b
Ġreg ulatory
Ġtalk ative
Ġchar ism
Ġredu nd
Ġstop watch
Ġfoot work
Ġvol atile
Ġburn out
Ġflu ent
Ġserious ness
Ġrespo nded
Ġbright est
Ġut ilized
Ġtre nding
Ġdepend ency
Ġgall bladder
Ġscal ding
Ġdissol ution
Ġboot able
Ġmemor abilia
Ġconflic ting
Ġvital chek
Ġpy lor
Ġadvis ors
Ġpars nips
Ġlocks mith
Ġfres hest
Ġoct op
Ġneglect ing
Ġunfold ed
Ġaudition ing
Ġdecl ared
Ġell os
Ġdiss ert
Ġrecess ion
Ġaccus atory
Ġdistribut ors
Ġbage l
Ġparan oid
Ġenric hed
Ġbish op
Ġpess im
Ġmarqu ee
Ġsaxoph one
g ot
m akers
o h
r idge
Ġt ard
Ġt ib
Ġs ipping
Ġf ighters
ic ons
Ġg sp
Ġst ds
Ġan te
Ġr aking
ur ally
Ġv osotros
el le
Ġby e
ach uset
Ġsc ion
Ġsc op
Ġimp erson
Ġact o
Ġser ums
Ġcr ashes
Ġcr ashing
Ġpur ging
enc hes
Ġwas p
Ġcall uses
be aring
Ġpract ise
Ġing ots
Ġmeas les
Ġear wax
Ġrepe ats
Ġpet itions
Ġkind ergart
Ġbase board
Ġblock ages
Ġvo ila
cl an
Ġtrack ed
Ġmass achuset
Ġfle et
Ġfac ep
Ġstomach s
Ġdom ains
Ġund iluted
Ġmis o
Ġcontrast s
Ġuniform ly
Ġacknowledge ment
Ġintegr ation
Ġorigin als
Ġdeodor ize
Ġrelie ved
Ġrhythm ic
Ġore os
Ġ48 0
Ġceremon ies
Ġcarb ure
Ġinfest ations
Ġhack er
Ġnort heast
Ġsprout ed
Ġwarp ing
Ġgeck os
Ġtestim ony
Ġapt itude
Ġak c
Ġsixt y
Ġphob ias
Ġcyber b
Ġtriv ia
Ġdisorient ed
Ġtux edo
Ġunintention ally
Ġenterpr ise
Ġmening itis
Ġtand em
Ġargu ably
Ġmassachuset ts
c g
c ount
m ies
Ġd ul
Ġin fty
ed ge
Ġg ib
Ġre union
Ġor acle
Ġle veled
Ġli ar
Ġv ous
Ġlo aves
Ġun cut
Ġcle ats
Ġsk id
Ġdes cent
Ġent ail
Ġed ema
enc ourage
Ġsn out
Ġcount down
Ġpar cel
app s
Ġempty ing
Ġemb ark
Ġhol istic
Ġscar let
Ġfork lift
Ġpizz as
Ġpharm aceut
Ġterr iers
Ġexter min
Ġmanip ulating
Ġmicroph ones
Ġanticip ated
Ġgam ers
Ġflashlight s
Ġbudd h
Ġintro vert
Ġmary land
Ġscul pting
Ġoverhe ated
Ġconfidential ity
Ġbuzz ing
Ġdislo d
Ġemeral ds
Ġeyed ro
Ġbetray ed
Ġreson ance
Ġpherom one
Ġmuslim s
Ġreli ably
Ġcine ma
Ġgan ache
Ġsandal wood
Ġwerewol f
Ġconstell ation
Ġacupunctur ist
Ġoph thal
l it
p ages
r ub
Ġt iring
re rs
Ġf idd
Ġp allets
Ġn oose
Ġn osotros
om aceous
Ġr w
Ġle pt
ge ar
Ġso licit
Ġdr ac
Ġspe ck
Ġman a
Ġman ne
Ġcol ic
Ġcal iper
Ġsub consciously
Ġmix ers
Ġdisc rete
Ġbook case
Ġstay ed
Ġprotect ors
Ġcenter pieces
Ġcream ed
ivid ed
Ġtechn ological
Ġann uals
Ġrad ishes
Ġ7 3
port ant
Ġrefriger ation
Ġvolunt arily
Ġhu h
Ġfash ions
Ġmid i
met ic
Ġusern ames
Ġtou g
Ġcoord inated
Ġabs inthe
Ġads ense
Ġcontext s
Ġ23 6
Ġnor i
Ġoptim ism
Ġconstip ated
Ġsir loin
Ġdys lex
Ġlem ongr
oty pe
Ġpistol s
Ġgown s
Ġpretz el
Ġbald ness
Ġsire n
Ġcaret aker
Ġcemeter y
Ġbiz arre
Ġpythag orean
Ġumbil ical
Ġeliz abeth
Ġpylor i
Ġlemongr ass
f lies
k n
u ly
in cre
Ġo ath
Ġf ad
Ġp ard
at um
Ġm am
Ġm out
Ġm df
it ures
Ġst itched
ill ance
Ġr ally
Ġr ipp
il ter
Ġhe ter
Ġch or
Ġout stretched
Ġdown sp
Ġun bear
Ġpers ian
Ġimp ede
up on
Ġunder coat
Ġcut out
Ġhand ler
Ġcomm ence
Ġcare ss
Ġsit ters
Ġgl itch
Ġhard iness
Ġrest ate
iss ance
Ġball room
Ġsqu inting
ames e
Ġrese mbling
Ġfoot st
Ġport als
Ġphoto cop
Ġbro iling
do or
Ġhist ories
Ġplent iful
Ġyellow ing
Ġ8 9
Ġut i
Ġbur ial
Ġtur bo
Ġresist ing
Ġexperiment ation
Ġboot ing
Ġpoin te
Ġhem line
Ġspo iling
Ġsor rel
Ġpolit ician
Ġstream line
Ġ500 0
Ġcrust s
Ġaer ator
Ġunhe lp
Ġhydrogen ated
Ġnit rates
Ġabras ion
Ġmembership s
Ġsteep ing
Ġtang ent
Ġrefill ing
Ġprank s
Ġpent agon
Ġcashe w
every one
Ġcorros ive
Ġexch anging
sl ice
Ġexpend itures
Ġ197 0
Ġlust er
Ġbage ls
Ġdp i
Ġmour ning
Ġbibl iography
Ġincap ac
Ġconqu er
Ġderail leur
Ġtarant ula
Ġscott ish
Ġeard rum
Ġdiat omaceous
Ġcrout ons
Ġunhelp ful
1 7
b ound
c ating
o king
s in
u ent
v ol
Ġt t
Ġs aint
Ġs omed
Ġw igs
Ġp ity
Ġto ffee
Ġi ud
it ated
Ġe id
Ġdo h
Ġan aph
im a
Ġle ashes
ter ing
Ġch assis
Ġat kins
Ġco le
Ġv ise
Ġcl er
Ġup hill
ak is
th rough
Ġpre sets
un ctions
Ġhel ium
ag a
ich u
Ġhard ening
Ġcond es
ins pect
Ġcirc ling
sp r
Ġproject ing
Ġtrack pad
Ġvac ant
Ġclos eness
Ġdele g
Ġrot ated
gen erally
Ġstar fish
Ġsuper iors
Ġpun ished
Ġult r
mark et
Ġpit ted
Ġly n
Ġdil ution
Ġcock roaches
Ġdepth s
Ġdispos ing
Ġstream lined
Ġsubtract ed
Ġsoci able
Ġgrav itate
Ġrip ening
Ġspreads heets
Ġwave length
Ġaccum ulates
bl ade
Ġbund led
Ġinappropriate ly
Ġwitness ed
Ġshim s
Ġhack ers
Ġta o
Ġcontinu ity
Ġtons ils
Ġcontest ants
Ġrecur rent
Ġskull s
Ġsurve illance
Ġstink y
Ġdisrup ting
Ġdepr ived
Ġcompe lled
Ġnom inal
Ġdeterior ation
Ġging ham
Ġdiscretion ary
Ġsacrific ing
Ġunravel ing
Ġdaydre aming
Ġusted es
Ġase xual
Ġimmense ly
Ġgyne cologist
Ġbotan ical
Ġprawn s
Ġchut ney
Ġsubdu ed
Ġdissert ation
l aws
o pe
Ġb um
Ġf ps
Ġm k
Ġm ills
Ġth ist
Ġl inse
Ġl ube
se eds
Ġst ucco
Ġhe red
Ġch iff
Ġco h
Ġfe vers
Ġme ld
Ġsc ones
Ġac es
Ġqu eries
ress ed
os ke
Ġres chedule
Ġmin ors
Ġstr ides
Ġright most
we gian
Ġunder take
Ġshe ath
Ġunt r
Ġcert ify
Ġbar ber
Ġdownload able
Ġaud itor
Ġcell ar
Ġcross bow
Ġtaste ful
Ġbread ing
Ġach illes
Ġtick ling
Ġroot stock
miss ive
Ġcash mere
Ġdepend able
Ġchrist ians
Ġ19 50
Ġsymbol ize
Ġdv r
Ġhousehold s
Ġpc os
Ġcolour ful
Ġpronoun cing
Ġcrisp er
Ġfertil izing
Ġshred ding
Ġvill ages
Ġcomprom ising
roph ic
Ġlubric ating
Ġpineapp les
Ġelectro des
Ġconfront ed
Ġcreep er
Ġcance led
Ġnin ety
Ġnurs eries
Ġsi amese
Ġcha otic
Ġsnaps hot
Ġenthusi asts
Ġinsurer s
Ġmunicip ality
Ġscot land
names e
Ġalkal inity
Ġdum plings
Ġwre ck
Ġnucle us
Ġbarte nder
Ġblist ering
Ġunim portant
stret ch
Ġmagent a
Ġsubmen u
Ġunbal anced
Ġhydraul ic
3 3
a ffe
h ounds
v ar
y ards
in ence
Ġw an
er a
Ġb ans
Ġf ate
Ġm v
Ġn autical
ot al
Ġre up
Ġst am
Ġan vil
ad just
ce phal
Ġso oth
Ġso br
Ġpro pe
Ġpl ow
Ġv ga
Ġj amb
Ġk ings
Ġdr up
Ġbo g
Ġover p
Ġwell being
Ġins ensitive
Ġdec ipher
Ġve ctors
Ġsub ord
Ġplan ners
Ġca ust
Ġprof ound
Ġtimes hare
Ġwash i
Ġpet ite
Ġnatural ization
arr ange
Ġcust od
Ġclothes pins
Ġexpect or
Ġevent ual
Ġsup ern
Ġbul ging
Ġmeal times
Ġrot ations
Ġpa using
Ġter ra
Ġneutral izing
tr ak
Ġrose water
Ġcomplic ation
Ġcollar bone
Ġphr asing
Ġinterv ie
Ġner f
Ġfourth s
Ġdistress ing
Ġslim y
Ġevapor ation
Ġtox in
Ġbudd ha
Ġendor se
Ġindian a
Ġstereoty pe
Ġgi ants
Ġunb ut
Ġpint o
Ġabscess es
Ġroleplay ing
Ġviet namese
Ġhomeschool ing
Ġinsol uble
Ġheirlo om
Ġmurde rer
Ġdyslex ia
g ain
n ows
o les
s cr
t ight
u itive
w an
w orth
Ġm idd
Ġm ounds
Ġn ub
st al
is ation
id ine
ld om
Ġr anc
Ġse ldom
Ġwh irl
Ġhe d
ul ina
um ing
ick ed
Ġk le
th row
Ġbr ut
Ġinc and
Ġper cuss
Ġav id
Ġimp ose
Ġar ched
Ġplay able
pl ash
Ġem ery
Ġcare less
Ġed am
ric ts
Ġcolor less
Ġaccount ants
Ġob e
Ġcond uctor
Ġdist ricts
Ġinter rog
Ġblo b
irc le
Ġz ippo
Ġrese ll
Ġbir ch
Ġgra pp
Ġfast ening
Ġvers atility
Ġwin rar
Ġdiv ides
Ġrespect s
Ġstory te
Ġspl inters
Ġang us
Ġpregn ancies
Ġregard ed
Ġhost el
Ġcarp ent
fl ip
Ġshel tered
Ġimpact ing
Ġspir ulina
Ġdefe cate
Ġestablish ments
des ign
Ġfoll icle
Ġnumer ators
Ġrins es
Ġfa a
Ġunin ter
Ġdisin terested
Ġnor wegian
Ġexecut ives
Ġquad rant
Ġbrim med
Ġnation wide
Ġshif ted
Ġcaf es
Ġskateboard ing
Ġsacrific es
Ġbrazil ian
Ġpancreat itis
Ġtrigon ometry
Ġstagn ant
Ġcarc ass
Ġecc entric
Ġcany on
Ġsomed ay
Ġlinse ed
Ġsobr iety
Ġdrup al
Ġcaust ic
c age
g one
r il
Ġs izz
Ġw ield
Ġm x
on gh
en o
ar ound
Ġl v
Ġe rection
Ġre ign
Ġre appe
ac id
ac ular
et a
is ional
ad el
Ġde e
Ġv icious
Ġj ac
Ġj ade
Ġk ud
Ġun fore
Ġres ists
Ġsl ipped
Ġmin nows
Ġstr addle
Ġdog gy
Ġins ane
Ġsupp ository
Ġprocess ors
Ġ10 80
Ġz er
Ġdownload er
Ġplant ar
Ġinf ringe
Ġwood working
Ġgroup on
Ġda h
Ġforward ed
Ġsuggest ive
Ġsup erg
Ġteach ings
Ġtax pay
Ġnose ble
Ġbi ome
Ġtrim s
Ġexerc ised
Ġstom p
Ġattack ers
Ġknot ting
Ġattend ants
Ġspring er
het ics
Ġbun ched
Ġter rors
Ġmaster y
Ġplat onic
Ġhospital ization
Ġune asy
Ġcaul king
Ġpoke mon
roph ies
Ġencounter ing
Ġdisappe ared
Ġfulfill ment
Ġmargin al
Ġdistingu ishing
struct ure
Ġshin ier
Ġrecess ed
Ġscorp ions
Ġportra its
Ġexped ited
Ġsemin ar
Ġrefu ge
Ġbetray al
Ġoverr ipe
Ġbunk er
Ġpomp om
Ġ87 7
Ġaesthet ically
Ġxy z
Ġark ansas
Ġpreoccup ied
Ġorthoped ic
Ġextravag ant
Ġoctop us
Ġchiff on
b ench
f ed
l ue
n as
p rop
t ons
v ention
w d
Ġt au
Ġs igh
Ġw icks
Ġb t
Ġp he
Ġp oof
at ting
on ential
Ġth omas
ot le
Ġg ba
Ġu d
Ġon screen
ill ary
Ġli ed
Ġj ets
rou nds
Ġall oy
Ġsp ying
Ġpart way
Ġph ishing
Ġunder mine
Ġam trak
Ġunt ouched
Ġdi pper
Ġhead space
Ġprov in
Ġleft most
Ġcho ppy
Ġstud ded
Ġtrans p
Ġsn ows
Ġhapp iest
Ġbreak able
Ġmult itude
Ġinf lect
Ġmot ors
Ġemot icons
umb a
olog ists
Ġstring y
Ġconst ants
Ġsharp ener
Ġann ul
Ġeduc ator
Ġgot o
Ġseek er
Ġhost ility
Ġhost els
Ġallerg ist
Ġrare r
tr im
Ġguard ing
Ġmid way
Ġlie u
Ġrepl ant
Ġ200 9
Ġrev ising
Ġtut ors
Ġestabl ishes
Ġunin terested
Ġdigit ally
Ġchlor ophyll
Ġrac quet
Ġdermato logists
Ġirregular ities
Ġmast itis
Ġinterrup tion
Ġunemploy ed
Ġevac uate
Ġinnov ative
Ġparaph r
Ġcommod ities
Ġgon orrhea
Ġpostp one
Ġmement os
Ġtrink ets
otherap ist
wur st
Ġranc id
Ġincand escent
b c
l ah
p he
Ġt ics
Ġt rophies
in form
Ġw pa
Ġb erg
at onic
Ġh ir
Ġl t
st ems
al ay
Ġr ink
Ġsh ab
Ġsh ines
il is
Ġhe mo
Ġch ai
Ġtr am
Ġso los
us ually
un like
Ġme nd
Ġsc i
Ġapp ar
Ġbo ar
ud a
Ġexp onential
Ġjust ified
Ġsl ather
ang ible
Ġstr ung
int uitive
Ġcre m
Ġshe lt
Ġcor rupt
Ġreg edit
Ġsub po
Ġplan ters
Ġsw add
Ġprof iciency
br al
Ġbag u
Ġlim ping
Ġsun ken
og y
Ġru led
str ap
Ġcurrent s
Ġgar gling
Ġmel ons
Ġminim ally
Ġcounter intuitive
Ġchest nut
Ġgather s
Ġobs erver
Ġrot ted
ivers ity
[...]
