{
  "!": 5,
  "\"": 6,
  "#": 7,
  "$": 8,
  "%": 9,
  "&": 10,
  "'": 11,
  "(": 12,
  ")": 13,
  "*": 14,
  "+": 15,
  ",": 16,
  "-": 17,
  ".": 18,
  "/": 19,
  "0": 20,
  "00": 2006,
  "000": 18672,
  "0000": 26009,
  "0001": 45983,
  "001": 45672,
  "01": 39774,
  "02": 40925,
  "1": 21,
  "10": 8631,
  "100": 26484,
  "1000": 40926,
  "101": 36324,
  "102": 47788,
  "11": 8130,
  "1100": 50122,
  "12": 7579,
  "123": 30169,
  "13": 19900,
  "14": 16204,
  "1447": 47915,
  "15": 18352,
  "16": 18744,
  "17": 21847,
  "18": 27865,
  "19": 26632,
  "2": 22,
  "20": 12557,
  "200": 40927,
  "2020": 48965,
  "21": 24565,
  "214": 47150,
  "22": 18271,
  "23": 28701,
  "24": 23141,
  "25": 20066,
  "256": 40807,
  "26": 34625,
  "27": 47149,
  "28": 25551,
  "281": 46026,
  "29": 42221,
  "3": 23,
  "30": 14309,
  "30309": 50232,
  "309": 48993,
  "31": 34626,
  "32": 11822,
  "33": 22030,
  "332": 49327,
  "34": 38247,
  "35": 30257,
  "36": 25698,
  "360": 37768,
  "37": 26363,
  "38": 31892,
  "386": 42222,
  "39": 36452,
  "4": 24,
  "40": 10039,
  "400": 46172,
  "41": 34286,
  "42": 28353,
  "43": 30946,
  "44": 30258,
  "45": 19965,
  "46": 45292,
  "47": 27685,
  "48": 26633,
  "49": 29240,
  "5": 25,
  "50": 6544,
  "500": 44512,
  "51": 38743,
  "52": 35346,
  "54": 36908,
  "55": 20979,
  "57": 45293,
  "58": 48185,
  "59": 46173,
  "6": 26,
  "60": 13391,
  "600": 44513,
  "6000": 38745,
  "61": 40333,
  "63": 48186,
  "64": 22768,
  "65": 32737,
  "66": 38248,
  "67": 27686,
  "68": 32738,
  "69": 38744,
  "7": 27,
  "70": 29633,
  "700": 43697,
  "72": 39288,
  "73": 42937,
  "74": 33340,
  "75": 32459,
  "78": 39289,
  "79": 47151,
  "8": 28,
  "80": 11121,
  "800": 40334,
  "83": 45294,
  "85": 32163,
  "86": 18537,
  "87": 49328,
  "874": 46174,
  "88": 43698,
  "89": 31193,
  "9": 29,
  "90": 19498,
  "900": 47152,
  "911": 48187,
  "92": 46175,
  "94": 40335,
  "95": 25189,
  "96": 33962,
  "97": 49329,
  "98": 40928,
  "99": 16959,
  ":": 30,
  ";": 31,
  "<": 32,
  "</s>": 1,
  "<mask>": 4,
  "<pad>": 2,
  "<s>": 0,
  "<unk>": 3,
  "=": 33,
  ">": 34,
  "?": 35,
  "@": 36,
  "A": 37,
  "B": 38,
  "C": 39,
  "D": 40,
  "E": 41,
  "F": 42,
  "G": 43,
  "H": 44,
  "I": 45,
  "J": 46,
  "K": 47,
  "L": 48,
  "M": 49,
  "N": 50,
  "O": 51,
  "P": 52,
  "Q": 53,
  "R": 54,
  "S": 55,
  "T": 56,
  "U": 57,
  "V": 58,
  "W": 59,
  "X": 60,
  "Y": 61,
  "Z": 62,
  "[": 63,
  "\\": 64,
  "]": 65,
  "^": 66,
  "_": 67,
  "`": 68,
  "a": 69,
  "aa": 10404,
  "ab": 517,
  "aba": 28944,
  "abad": 38854,
  "abar": 48438,
  "abase": 48439,
  "abatta": 38857,
  "abe": 32804,
  "abel": 37848,
  "abeled": 38855,
  "abet": 3827,
  "abetes": 34470,
  "abeth": 20670,
  "abets": 39379,
  "abi": 20565,
  "abian": 47359,
  "abies": 39887,
  "abilia": 21495,
  "abilities": 6931,
  "ability": 2631,
  "abilly": 38856,
  "abit": 43081,
  "able": 490,
  "abler": 43082,
  "ables": 1228,
  "abling": 11873,
  "ably": 1321,
  "abol": 7195,
  "abolic": 32652,
  "aboo": 30312,
  "abor": 6838,
  "aborate": 8979,
  "about": 24826,
  "abouts": 24689,
  "abra": 36996,
  "abras": 21075,
  "abrasion": 25829,
  "abrasive": 33289,
  "abs": 39886,
  "absor": 23162,
  "aby": 14702,
  "abyte": 30455,
  "abytes": 20060,
  "ac": 318,
  "aca": 14940,
  "acam": 16238,
  "acamole": 17030,
  "acao": 20918,
  "acare": 48320,
  "acas": 46283,
  "acc": 18997,
  "acce": 40404,
  "acceler": 49243,
  "accept": 12274,
  "access": 16210,
  "acchar": 35043,
  "accharides": 39753,
  "acci": 28557,
  "accompan": 38289,
  "according": 28683,
  "account": 35655,
  "ace": 454,
  "acea": 13023,
  "aceae": 48975,
  "aced": 2619,
  "acency": 48321,
  "acent": 10225,
  "aceous": 17229,
  "acer": 9591,
  "acers": 46284,
  "aces": 1401,
  "acet": 29447,
  "acetic": 42309,
  "aceut": 20808,
  "acey": 45472,
  "ach": 500,
  "acha": 24137,
  "achable": 41069,
  "ache": 3920,
  "ached": 2931,
  "achel": 30854,
  "acher": 30055,
  "achers": 30759,
  "aches": 2863,
  "achi": 21260,
  "achian": 30995,
  "achie": 39375,
  "achieve": 43075,
  "achine": 45483,
  "aching": 16460,
  "acho": 43851,
  "acht": 30309,
  "achuset": 21561,
  "achy": 26663,
  "acia": 29657,
  "acial": 39845,
  "acic": 30758,
  "acid": 22216,
  "acidity": 39692,
  "acidosis": 32992,
  "acies": 19502,
  "acin": 19257,
  "acing": 1785,
  "acious": 12949,
  "acity": 6326,
  "ack": 453,
  "ackaged": 20251,
  "acking": 28211,
  "acknow": 19407,
  "acknowledge": 19899,
  "acks": 2098,
  "acle": 11153,
  "acles": 17385,
  "aco": 34326,
  "acol": 43789,
  "acom": 36508,
  "acon": 23153,
  "aconazole": 45148,
  "acons": 47260,
  "acore": 41659,
  "acp": 45404,
  "acqu": 11058,
  "acquered": 50187,
  "acquire": 19957,
  "acran": 43025,
  "acranial": 43685,
  "acs": 25855,
  "act": 493,
  "acter": 1273,
  "acterial": 7926,
  "actic": 21000,
  "actin": 31234,
  "activate": 38327,
  "active": 8029,
  "actively": 42374,
  "activity": 15432,
  "acto": 48422,
  "actone": 35784,
  "actory": 46379,
  "acts": 13748,
  "actyl": 48423,
  "acular": 22217,
  "acur": 12918,
  "acus": 27708,
  "acy": 2944,
  "ad": 360,
  "ada": 6869,
  "adam": 24132,
  "adan": 28201,
  "adas": 21489,
  "adays": 16622,
  "add": 6020,
  "adda": 47729,
  "adder": 6866,
  "adders": 34838,
  "addies": 39556,
  "adding": 34338,
  "addle": 17192,
  "addling": 44968,
  "address": 25499,
  "addy": 28385,
  "ade": 856,
  "adec": 24370,
  "adecimal": 25185,
  "aded": 10263,
  "adel": 22220,
  "adelphia": 26474,
  "adem": 5798,
  "adequ": 14787,
  "ader": 16807,
  "aderie": 36806,
  "aders": 35050,
  "ades": 4144,
  "adesh": 35908,
  "adh": 49505,
  "adi": 34337,
  "adian": 11895,
  "adin": 27886,
  "adina": 49506,
  "adine": 19301,
  "ading": 6890,
  "adins": 40418,
  "adium": 17425,
  "adjust": 22046,
  "adm": 44603,
  "admin": 30979,
  "admit": 30978,
  "ado": 4844,
  "adobe": 35187,
  "adol": 33377,
  "adon": 36964,
  "adona": 33081,
  "adone": 29453,
  "adopt": 29096,
  "ador": 21142,
  "adors": 42323,
  "ados": 9790,
  "adra": 48351,
  "adrine": 42324,
  "adryl": 18871,
  "ads": 3650,
  "adult": 39848,
  "adults": 45251,
  "advant": 11538,
  "advert": 41674,
  "advertise": 46122,
  "advis": 30761,
  "advisor": 31653,
  "ae": 16796,
  "aea": 42072,
  "ael": 13892,
  "aels": 42938,
  "af": 2526,
  "afe": 9863,
  "afed": 42550,
  "afety": 41870,
  "aff": 3674,
  "affe": 22031,
  "affin": 20213,
  "affle": 38486,
  "affold": 24519,
  "afil": 46587,
  "afine": 45703,
  "afinil": 40593,
  "afone": 35870,
  "after": 10025,
  "ag": 527,
  "aga": 21879,
  "again": 34363,
  "agami": 49581,
  "agana": 25317,
  "agara": 37417,
  "agas": 29871,
  "age": 496,
  "ageal": 19312,
  "aged": 2802,
  "agen": 13252,
  "ager": 3442,
  "agers": 6179,
  "ages": 1193,
  "agger": 8555,
  "agging": 12938,
  "aggress": 45491,
  "aghet": 10844,
  "aghetti": 10894,
  "agi": 37416,
  "agia": 32230,
  "agic": 20671,
  "aging": 2564,
  "agitis": 38858,
  "agl": 31479,
  "agland": 25442,
  "agle": 13289,
  "agles": 27262,
  "aglio": 47033,
  "agn": 11551,
  "agna": 15433,
  "agne": 12562,
  "agnet": 40455,
  "agnetic": 24541,
  "agnosed": 28851,
  "agnum": 23982,
  "ago": 12409,
  "agon": 8200,
  "agonal": 28945,
  "agonist": 14990,
  "agonists": 37187,
  "agons": 35071,
  "agr": 3136,
  "agra": 27400,
  "agram": 5965,
  "agrams": 40032,
  "agree": 44666,
  "ags": 8565,
  "ague": 7590,
  "agues": 8787,
  "agul": 23722,
  "agus": 6932,
  "ah": 2525,
  "aha": 29158,
  "ahi": 39486,
  "ahim": 41232,
  "ahir": 49878,
  "ahn": 39002,
  "ahol": 31659,
  "ahu": 33460,
  "ahvi": 49879,
  "ai": 5309,
  "aic": 15528,
  "aid": 5989,
  "aids": 25699,
  "aign": 6977,
  "aii": 27634,
  "ail": 551,
  "ailed": 4133,
  "ailies": 41081,
  "ailing": 23826,
  "ails": 1283,
  "aim": 12823,
  "ain": 388,
  "ainable": 43048,
  "aine": 11017,
  "ained": 11550,
  "aining": 1199,
  "ains": 2219,
  "aint": 3501,
  "ainted": 13952,
  "ainties": 39027,
  "ainting": 13542,
  "aints": 15066,
  "air": 988,
  "aire": 25950,
  "aired": 8883,
  "aires": 42939,
  "airs": 5356,
  "airy": 4617,
  "ais": 36063,
  "ait": 5121,
  "aith": 26226,
  "aj": 27687,
  "ak": 450,
  "aka": 24822,
  "akable": 41708,
  "ake": 369,
  "aked": 4498,
  "aken": 2646,
  "aker": 4433,
  "akers": 6449,
  "akes": 995,
  "akh": 30303,
  "aki": 13220,
  "aking": 657,
  "akis": 21874,
  "aks": 4219,
  "aku": 30992,
  "aky": 8909,
  "al": 312,
  "ala": 13573,
  "alam": 28372,
  "alamus": 36415,
  "alan": 24126,
  "alas": 44583,
  "alay": 22394,
  "alazine": 48314,
  "alb": 45395,
  "alcohol": 35041,
  "ald": 22584,
  "alda": 47249,
  "aldehyde": 33993,
  "ale": 1300,
  "aled": 7309,
  "alemia": 38947,
  "alence": 29138,
  "alene": 43963,
  "alent": 3929,
  "ales": 6549,
  "alese": 45616,
  "alet": 45615,
  "alf": 9441,
  "alfa": 19030,
  "ali": 23424,
  "alia": 25206,
  "alicy": 38801,
  "alicylate": 49233,
  "align": 47248,
  "aline": 9806,
  "aling": 4226,
  "alini": 40400,
  "alis": 39842,
  "alities": 23500,
  "ality": 11604,
  "alize": 31220,
  "alizing": 43785,
  "alk": 688,
  "all": 367,
  "allah": 43806,
  "alle": 2161,
  "alled": 3483,
  "allen": 10811,
  "allerg": 17035,
  "allese": 41855,
  "allest": 8521,
  "allets": 16819,
  "alley": 48660,
  "allic": 37387,
  "alling": 26378,
  "alloc": 28057,
  "allocated": 28352,
  "allow": 3583,
  "alloway": 34806,
  "allows": 10274,
  "alls": 26240,
  "ally": 449,
  "alm": 28721,
  "almost": 29091,
  "alms": 49471,
  "alo": 17747,
  "aloe": 49472,
  "alog": 9021,
  "alon": 39841,
  "alone": 23335,
  "along": 41010,
  "alose": 36503,
  "alous": 6676,
  "alox": 41011,
  "als": 843,
  "alsa": 10585,
  "alsh": 41123,
  "also": 21069,
  "alt": 28371,
  "alted": 14467,
  "alter": 46279,
  "altern": 26792,
  "alternatively": 30243,
  "alth": 4933,
  "although": 10529,
  "althy": 5958,
  "alu": 44582,
  "alur": 28555,
  "always": 13821,
  "aly": 7687,
  "alypt": 11325,
  "alysis": 14803,
  "alyte": 50105,
  "alyze": 20359,
  "am": 355,
  "ama": 9224,
  "amaged": 24939,
  "amal": 46308,
  "aman": 47280,
  "amas": 11271,
  "amate": 29856,
  "amation": 18402,
  "amatory": 36515,
  "amb": 4743,
  "amble": 12360,
  "ambling": 12162,
  "ame": 538,
  "amectin": 43088,
  "amed": 4579,
  "amel": 6087,
  "amels": 28382,
  "ament": 8115,
  "amental": 14241,
  "aments": 14369,
  "amer": 47279,
  "americ": 40416,
  "ames": 1542,
  "amese": 21790,
  "ameter": 31465,
  "ameth": 36959,
  "amethasone": 43646,
  "ami": 9883,
  "amic": 7221,
  "amide": 20027,
  "amiliar": 8623,
  "amin": 2269,
  "aminate": 45688,
  "amination": 12469,
  "amine": 6082,
  "aminer": 41218,
  "amines": 11231,
  "aming": 3779,
  "aminophen": 10941,
  "amins": 4920,
  "amis": 28932,
  "amish": 28933,
  "amivir": 45421,
  "amm": 2645,
  "amma": 15700,
  "ammad": 32298,
  "ammed": 16864,
  "ammers": 13846,
  "ammy": 18970,
  "amo": 42321,
  "amol": 28731,
  "amos": 45420,
  "amot": 23156,
  "amous": 19561,
  "amp": 1151,
  "amphet": 37049,
  "ampl": 47282,
  "ample": 47281,
  "ampp": 36114,
  "amps": 4323,
  "ams": 2397,
  "amuff": 36514,
  "amy": 20137,
  "amycin": 36008,
  "an": 290,
  "ana": 3619,
  "analy": 40993,
  "analyze": 24233,
  "anas": 6054,
  "anasana": 42646,
  "anasia": 26303,
  "anc": 10253,
  "ance": 613,
  "anced": 3003,
  "ancer": 17311,
  "ancers": 25853,
  "ances": 1825,
  "anch": 6743,
  "ancies": 18343,
  "ancing": 4419,
  "ancy": 3834,
  "and": 512,
  "anda": 17489,
  "andal": 18064,
  "andel": 17271,
  "ander": 5229,
  "andering": 40451,
  "anders": 25217,
  "andex": 20737,
  "andi": 37413,
  "anding": 23929,
  "ando": 39885,
  "andom": 4382,
  "andon": 9530,
  "andra": 43853,
  "ands": 6374,
  "andy": 32228,
  "ane": 2644,
  "aneity": 27761,
  "aneous": 9174,
  "aneously": 8402,
  "anes": 12873,
  "anese": 32186,
  "anet": 33064,
  "anets": 43000,
  "ang": 666,
  "anga": 32519,
  "angan": 35088,
  "angas": 46416,
  "ange": 798,
  "anged": 8365,
  "angel": 32829,
  "anger": 2885,
  "angered": 20257,
  "angering": 36567,
  "angers": 6785,
  "anges": 6165,
  "angible": 22413,
  "anging": 7111,
  "angitis": 49638,
  "angle": 2728,
  "angled": 21151,
  "angler": 22696,
  "anglers": 47408,
  "angles": 4998,
  "angling": 11654,
  "ango": 26262,
  "angs": 14810,
  "angu": 2106,
  "angular": 5907,
  "angus": 47407,
  "ani": 19729,
  "ania": 23422,
  "anian": 20729,
  "anians": 44560,
  "anic": 23708,
  "anim": 40991,
  "animate": 30746,
  "animity": 47232,
  "anine": 30521,
  "anity": 24015,
  "anium": 13007,
  "ank": 1112,
  "anky": 33431,
  "ann": 2950,
  "anna": 18426,
  "annah": 23548,
  "annas": 40603,
  "anne": 44559,
  "anned": 9280,
  "anners": 14099,
  "annie": 39014,
  "annies": 17851,
  "annkuchen": 46613,
  "annon": 48710,
  "announce": 47621,
  "anny": 47231,
  "ano": 8562,
  "anol": 18018,
  "anolol": 50137,
  "anor": 37357,
  "anos": 46251,
  "another": 24571,
  "ans": 634,
  "ansas": 16747,
  "anse": 49443,
  "answer": 38880,
  "ant": 390,
  "anta": 20803,
  "antac": 41687,
  "ante": 19673,
  "antec": 42096,
  "anted": 4467,
  "anth": 17661,
  "antha": 33092,
  "anthem": 26954,
  "anthus": 42771,
  "anti": 36972,
  "antial": 41039,
  "antic": 4714,
  "antically": 17662,
  "anticip": 34481,
  "anticipate": 44443,
  "anting": 14860,
  "antis": 44621,
  "antly": 2848,
  "anto": 28063,
  "ants": 1142,
  "anu": 47230,
  "anum": 30277,
  "anus": 16020,
  "anut": 4746,
  "any": 10906,
  "anyl": 40992,
  "anyone": 44264,
  "anything": 36341,
  "anytime": 45031,
  "anza": 43766,
  "ap": 411,
  "apa": 45459,
  "ape": 994,
  "aped": 16140,
  "apel": 20674,
  "apels": 30802,
  "apen": 15346,
  "apent": 31228,
  "aper": 827,
  "apered": 45584,
  "apers": 3889,
  "apes": 6588,
  "aph": 1808,
  "apher": 28207,
  "aphil": 28433,
  "aphone": 27606,
  "aphor": 46539,
  "aphy": 16675,
  "aphylo": 30462,
  "api": 43054,
  "apia": 23159,
  "apine": 39361,
  "aping": 8411,
  "apist": 48383,
  "apnel": 49535,
  "apolis": 37392,
  "apolog": 46349,
  "apologize": 47141,
  "apor": 6411,
  "aport": 48382,
  "app": 2689,
  "appe": 6232,
  "appealing": 21226,
  "apped": 17031,
  "apper": 19901,
  "appers": 32585,
  "apping": 3713,
  "apple": 33469,
  "apply": 6786,
  "applying": 35877,
  "appreci": 44874,
  "appreciate": 45289,
  "appro": 42560,
  "approach": 24273,
  "apps": 21649,
  "appy": 28031,
  "aps": 1537,
  "apse": 9807,
  "apsed": 23268,
  "apses": 47519,
  "apt": 12637,
  "apture": 34205,
  "apy": 6801,
  "aq": 43699,
  "aqu": 49330,
  "aque": 7620,
  "ar": 297,
  "ara": 4480,
  "arad": 43002,
  "arag": 44564,
  "aran": 23918,
  "arant": 5778,
  "aras": 24469,
  "arb": 13055,
  "arbox": 49451,
  "arcer": 24122,
  "arch": 865,
  "archan": 43155,
  "archive": 38378,
  "ard": 439,
  "ardi": 26804,
  "ardo": 33391,
  "ardrop": 18197,
  "ards": 4894,
  "are": 468,
  "area": 31475,
  "arean": 30554,
  "ared": 4124,
  "arel": 18657,
  "arella": 13953,
  "aren": 25971,
  "arena": 45477,
  "arent": 1204,
  "arer": 10319,
  "arers": 30555,
  "ares": 7526,
  "arest": 27721,
  "aret": 38323,
  "aretto": 33098,
  "arf": 13071,
  "arg": 33988,
  "ari": 1095,
  "aria": 16802,
  "arial": 30524,
  "arian": 3013,
  "arians": 11037,
  "ariat": 37470,
  "ariatric": 40893,
  "arid": 27703,
  "aridin": 32445,
  "arie": 49449,
  "aried": 36492,
  "aries": 3361,
  "arily": 3131,
  "arin": 16021,
  "arine": 22484,
  "arines": 45375,
  "aring": 1818,
  "ario": 21428,
  "arion": 49448,
  "arious": 38790,
  "aris": 33669,
  "arish": 39333,
  "arital": 39334,
  "arity": 38278,
  "arium": 6021,
  "ariums": 18327,
  "arius": 22803,
  "ark": 745,
  "arks": 9251,
  "arls": 45376,
  "arly": 30749,
  "arm": 874,
  "arma": 19928,
  "armed": 34060,
  "armin": 29484,
  "armint": 20747,
  "armony": 40507,
  "arms": 7298,
  "arn": 779,
  "arnation": 35817,
  "arned": 31725,
  "arness": 8697,
  "arnish": 5549,
  "aro": 30523,
  "arone": 49450,
  "aroot": 40868,
  "around": 22211,
  "arounds": 46255,
  "arp": 2411,
  "arplanet": 45377,
  "arpone": 30127,
  "arr": 1679,
  "arrange": 22070,
  "arrass": 5343,
  "array": 45647,
  "arre": 21412,
  "arried": 21433,
  "arring": 9977,
  "arrive": 35495,
  "arrow": 19851,
  "arrows": 31758,
  "ars": 842,
  "arse": 6731,
  "arseness": 34058,
  "arsh": 4197,
  "art": 419,
  "arta": 47323,
  "arter": 17462,
  "arth": 4736,
  "arthritis": 23113,
  "arti": 48394,
  "artic": 29275,
  "arts": 6642,
  "aru": 26099,
  "arum": 43770,
  "arus": 43771,
  "ary": 698,
  "arya": 47417,
  "aryl": 35809,
  "aryll": 48492,
  "as": 349,
  "asa": 13809,
  "asable": 43799,
  "asana": 21488,
  "asant": 5205,
  "asantly": 40413,
  "asar": 47275,
  "asaur": 35762,
  "asc": 44598,
  "asch": 31464,
  "asco": 29451,
  "ase": 565,
  "ased": 2132,
  "asel": 37001,
  "aser": 4575,
  "asers": 30534,
  "ases": 1426,
  "ash": 790,
  "asha": 36174,
  "ashed": 11004,
  "asher": 28729,
  "ashers": 35048,
  "ashes": 3695,
  "ashi": 27274,
  "ashing": 7674,
  "ashion": 38368,
  "asi": 34001,
  "asia": 16412,
  "aside": 38298,
  "asies": 45416,
  "asil": 31924,
  "asiness": 29452,
  "asing": 2204,
  "asion": 17876,
  "asions": 46303,
  "asis": 19161,
  "asive": 10254,
  "ask": 1439,
  "aska": 14295,
  "askan": 34420,
  "asket": 12711,
  "askets": 26828,
  "asking": 39449,
  "asm": 9241,
  "asma": 12874,
  "asmic": 38815,
  "asmod": 32778,
  "asms": 42317,
  "ason": 1340,
  "asone": 30060,
  "asonic": 21163,
  "asons": 3069,
  "asp": 4368,
  "asps": 21487,
  "ass": 570,
  "assan": 47374,
  "assana": 46401,
  "asse": 8374,
  "assemb": 29764,
  "assemble": 9626,
  "assembling": 27478,
  "assembly": 30022,
  "asses": 16668,
  "assess": 12123,
  "assies": 43862,
  "assign": 37426,
  "assis": 21498,
  "assist": 36155,
  "assium": 7209,
  "associ": 38814,
  "associate": 45242,
  "assume": 33406,
  "assuming": 34039,
  "assure": 47375,
  "assy": 13434,
  "ast": 486,
  "asta": 33099,
  "astatin": 36992,
  "aste": 1835,
  "asted": 38847,
  "aster": 2775,
  "astered": 11973,
  "asteride": 37974,
  "asters": 15954,
  "astes": 19981,
  "asteurized": 30115,
  "astia": 43848,
  "astic": 1446,
  "astics": 10582,
  "asting": 15398,
  "astrous": 31708,
  "asts": 14055,
  "asty": 11371,
  "asu": 35047,
  "asure": 5901,
  "asy": 6093,
  "at": 280,
  "ata": 10008,
  "atable": 13820,
  "atal": 11649,
  "atar": 12696,
  "atars": 30272,
  "atas": 38781,
  "atation": 47218,
  "atch": 926,
  "atched": 11584,
  "atcher": 20662,
  "atchers": 32473,
  "atches": 6230,
  "ate": 381,
  "ated": 679,
  "atee": 32490,
  "ateg": 2334,
  "atell": 14764,
  "ately": 1869,
  "atem": 32785,
  "aten": 21250,
  "ater": 488,
  "ateral": 12756,
  "atered": 12084,
  "atern": 30308,
  "aternal": 39882,
  "aternity": 13781,
  "aters": 17002,
  "ates": 957,
  "ateurs": 45440,
  "atever": 2366,
  "ath": 972,
  "atha": 31986,
  "athan": 40516,
  "athane": 44739,
  "athe": 33985,
  "athed": 41635,
  "ather": 931,
  "athered": 10029,
  "athers": 41783,
  "athetic": 11814,
  "athetically": 45361,
  "athi": 43926,
  "athing": 27539,
  "athion": 47455,
  "athione": 26530,
  "athy": 7163,
  "ati": 20872,
  "atia": 33662,
  "atian": 43758,
  "atic": 2605,
  "atical": 19790,
  "atically": 2828,
  "atics": 19619,
  "atient": 11859,
  "atile": 9574,
  "atility": 20243,
  "atim": 31912,
  "atin": 7796,
  "atina": 49426,
  "ating": 771,
  "atini": 43759,
  "ation": 383,
  "ational": 2205,
  "ationally": 14657,
  "ations": 637,
  "atious": 17384,
  "atis": 15061,
  "atitis": 9043,
  "ative": 971,
  "atively": 18505,
  "ativeness": 48264,
  "atives": 3983,
  "ativity": 11030,
  "atize": 34653,
  "atized": 48262,
  "ato": 1749,
  "atoes": 48615,
  "atology": 38969,
  "atomic": 30273,
  "aton": 42987,
  "atonic": 22390,
  "atonin": 13677,
  "ator": 1471,
  "atories": 18073,
  "ators": 3624,
  "atorship": 47651,
  "atory": 3404,
  "atosis": 35369,
  "atou": 46236,
  "atown": 45360,
  "atr": 28191,
  "atra": 35742,
  "atremia": 48265,
  "atriptan": 48042,
  "atrix": 41636,
  "atro": 46237,
  "atrol": 40981,
  "atronics": 39324,
  "ats": 1480,
  "atsu": 28602,
  "att": 3912,
  "atta": 24404,
  "attach": 13547,
  "attack": 29349,
  "atte": 40377,
  "attempt": 45253,
  "attend": 25849,
  "atter": 1271,
  "attered": 13724,
  "attering": 17989,
  "atters": 34753,
  "atting": 22307,
  "atto": 47219,
  "atu": 48261,
  "atum": 21760,
  "atums": 48263,
  "atur": 1197,
  "atura": 46478,
  "atural": 12175,
  "aturally": 28093,
  "aturate": 32548,
  "aturated": 13648,
  "ature": 1001,
  "atured": 28417,
  "aturity": 34408,
  "atus": 18541,
  "atz": 39816,
  "au": 558,
  "auba": 37424,
  "auce": 13522,
  "aucoma": 16626,
  "aud": 6316,
  "augh": 2412,
  "aught": 4255,
  "aughter": 7670,
  "aughters": 28111,
  "aughty": 26412,
  "aul": 29241,
  "ault": 2756,
  "aulting": 34627,
  "aund": 17665,
  "aunt": 10925,
  "aunting": 14994,
  "aur": 3449,
  "aural": 37990,
  "aure": 37769,
  "aureate": 39763,
  "aurus": 18038,
  "aus": 12707,
  "ausal": 25022,
  "ause": 654,
  "aust": 47153,
  "aut": 2640,
  "auth": 33466,
  "authent": 39007,
  "authentic": 40319,
  "author": 19014,
  "authorize": 45203,
  "autical": 21017,
  "aution": 16129,
  "autions": 8824,
  "autistic": 37972,
  "auts": 48697,
  "aux": 27402,
  "auxzoonosis": 47001,
  "av": 586,
  "ava": 6291,
  "avable": 26671,
  "avage": 17115,
  "avail": 13919,
  "avan": 45518,
  "avas": 35083,
  "ave": 674,
  "aved": 15826,
  "avement": 39397,
  "aven": 38343,
  "aver": 14998,
  "avers": 31433,
  "aves": 5232,
  "aving": 4658,
  "avirus": 25444,
  "avis": 43104,
  "avoid": 6810,
  "avon": 49603,
  "avor": 1391,
  "avored": 23167,
  "avory": 35798,
  "aw": 1230,
  "awa": 29307,
  "aware": 14321,
  "away": 10208,
  "aways": 17259,
  "awk": 20151,
  "awking": 40537,
  "awks": 35830,
  "awn": 21476,
  "aws": 5044,
  "ax": 910,
  "axanth": 39937,
  "axanthin": 40329,
  "axed": 38922,
  "axis": 23258,
  "ay": 325,
  "aya": 11375,
  "ayaki": 38805,
  "ayas": 26108,
  "ayed": 10662,
  "ayer": 44593,
  "ayers": 46288,
  "aying": 9686,
  "ays": 3273,
  "ayt": 49486,
  "az": 1764,
  "aza": 19068,
  "azam": 31284,
  "azard": 26142,
  "aze": 5864,
  "azed": 18247,
  "azep": 22713,
  "azepam": 26617,
  "azepine": 41480,
  "azer": 36626,
  "azes": 23181,
  "azine": 26002,
  "azing": 16032,
  "azol": 42504,
  "azole": 15215,
  "azoline": 43244,
  "azone": 49812,
  "azz": 9443,
  "azzi": 40725,
  "azzle": 38567,
  "azzled": 34181,
  "b": 70,
  "ba": 8329,
  "bab": 19443,
  "babies": 35659,
  "baby": 34287,
  "bac": 7628,
  "back": 3520,
  "backs": 9945,
  "backup": 28118,
  "bacter": 33963,
  "bad": 38249,
  "bag": 11536,
  "bage": 4892,
  "bages": 39290,
  "bags": 18272,
  "bait": 36064,
  "baits": 37614,
  "bake": 24566,
  "baking": 33341,
  "bal": 3395,
  "balance": 23651,
  "ball": 2903,
  "balls": 7523,
  "bally": 46176,
  "ban": 8516,
  "band": 4010,
  "bands": 34474,
  "bane": 42943,
  "bang": 47155,
  "bank": 24917,
  "banks": 38663,
  "bar": 4029,
  "bara": 31323,
  "baran": 45763,
  "bark": 39775,
  "barrows": 47156,
  "bars": 11732,
  "bas": 23142,
  "basa": 28530,
  "base": 25296,
  "basic": 37695,
  "basket": 37321,
  "bat": 11209,
  "bate": 42941,
  "bath": 19444,
  "bathe": 34531,
  "bau": 49333,
  "bay": 47154,
  "bb": 8171,
  "bbing": 23229,
  "bble": 3345,
  "bc": 22382,
  "bd": 48188,
  "bden": 40931,
  "be": 1178,
  "bean": 14320,
  "beans": 15325,
  "bear": 17353,
  "bearing": 21573,
  "beat": 8443,
  "beats": 27282,
  "bec": 13043,
  "because": 13817,
  "beck": 47481,
  "become": 17634,
  "becoming": 38405,
  "bed": 7604,
  "beds": 31661,
  "bee": 13306,
  "beer": 43191,
  "bees": 28964,
  "beez": 36787,
  "before": 4842,
  "begin": 10687,
  "being": 13119,
  "beit": 27591,
  "bel": 14855,
  "believe": 30206,
  "bell": 5401,
  "bells": 12412,
  "belly": 27968,
  "bels": 30724,
  "bem": 49332,
  "ben": 43700,
  "bench": 22293,
  "bend": 17566,
  "bendazole": 40201,
  "benz": 48192,
  "ber": 579,
  "bered": 10248,
  "berg": 14114,
  "bering": 44684,
  "berish": 37434,
  "bern": 43103,
  "berries": 3788,
  "berry": 4705,
  "bers": 1464,
  "bersome": 24262,
  "bert": 16745,
  "berty": 14472,
  "bery": 31955,
  "bes": 13970,
  "besides": 48987,
  "best": 14530,
  "bestos": 14780,
  "bet": 15312,
  "beth": 49334,
  "between": 49010,
  "beware": 36603,
  "bey": 37909,
  "bf": 10993,
  "bh": 37320,
  "bi": 9249,
  "bia": 14888,
  "bial": 14935,
  "bian": 13622,
  "bians": 28529,
  "biased": 24077,
  "biasis": 48191,
  "bic": 11091,
  "bid": 14905,
  "bie": 9083,
  "bies": 5374,
  "big": 35713,
  "bike": 37771,
  "bil": 48189,
  "bility": 33342,
  "bill": 41588,
  "bills": 40929,
  "bin": 12206,
  "binary": 40930,
  "bind": 37770,
  "bing": 2349,
  "bins": 43702,
  "bir": 11919,
  "bird": 14618,
  "birds": 15794,
  "birth": 17824,
  "bis": 35712,
  "bish": 20922,
  "bit": 2055,
  "bital": 26408,
  "bite": 13479,
  "bites": 43704,
  "bitious": 19472,
  "bitol": 31529,
  "bits": 3498,
  "bitt": 45675,
  "bitten": 36636,
  "bium": 36910,
  "bl": 7540,
  "black": 27473,
  "bladder": 21382,
  "blade": 21912,
  "blades": 40112,
  "blading": 40113,
  "blast": 41984,
  "ble": 391,
  "bleck": 45444,
  "blem": 21071,
  "blend": 26504,
  "bler": 35347,
  "bles": 21145,
  "blind": 41983,
  "bling": 9957,
  "blo": 43701,
  "block": 9556,
  "blocks": 25838,
  "blog": 43703,
  "blood": 31589,
  "blot": 26885,
  "blow": 34863,
  "blower": 33238,
  "blue": 38053,
  "bly": 15979,
  "bn": 15798,
  "bnation": 36376,
  "bo": 1048,
  "board": 1770,
  "boarding": 43245,
  "boards": 9802,
  "boat": 24596,
  "boats": 45592,
  "bob": 28418,
  "bod": 36453,
  "bodies": 49335,
  "body": 4001,
  "boil": 15135,
  "boiled": 33139,
  "boiling": 39425,
  "bok": 48544,
  "bol": 42942,
  "bole": 42442,
  "bology": 45593,
  "bolt": 20923,
  "bolts": 45269,
  "bomb": 34628,
  "bon": 2681,
  "bonate": 18121,
  "bond": 41789,
  "bone": 8896,
  "bones": 11523,
  "bons": 8897,
  "boo": 29426,
  "book": 1631,
  "books": 6950,
  "boost": 32450,
  "boot": 8424,
  "boots": 29689,
  "bor": 8920,
  "bore": 30723,
  "born": 5875,
  "borne": 16200,
  "borns": 18935,
  "boro": 44227,
  "bos": 40336,
  "bot": 14066,
  "both": 21477,
  "bou": 42940,
  "bought": 45295,
  "bound": 21848,
  "bour": 29242,
  "bourg": 44421,
  "bourne": 36420,
  "bow": 9042,
  "bowl": 36753,
  "bows": 26935,
  "box": 2881,
  "boxes": 24866,
  "boxing": 24275,
  "boy": 10963,
  "boys": 23261,
  "br": 1265,
  "bra": 8297,
  "brace": 30811,
  "braces": 48569,
  "brain": 22622,
  "brainstorm": 24783,
  "brake": 18204,
  "bral": 22424,
  "brance": 38942,
  "brand": 31355,
  "bras": 41808,
  "bray": 49747,
  "bre": 4530,
  "bread": 13761,
  "break": 8957,
  "breaker": 20590,
  "breakers": 33213,
  "breaking": 17769,
  "breaks": 15620,
  "breast": 44936,
  "breat": 22966,
  "breathe": 25411,
  "breathing": 43567,
  "bred": 15152,
  "breed": 42615,
  "breeding": 36690,
  "brev": 9369,
  "brew": 14774,
  "brews": 44144,
  "bridge": 19810,
  "bright": 39439,
  "brine": 31021,
  "bring": 12266,
  "bro": 14215,
  "broken": 19493,
  "broker": 36792,
  "brow": 8472,
  "brown": 33434,
  "brows": 5981,
  "browse": 30653,
  "brush": 3655,
  "brushed": 43961,
  "brushes": 14539,
  "brushing": 31744,
  "bs": 778,
  "bt": 2937,
  "bted": 20980,
  "bu": 4725,
  "buck": 15178,
  "bucket": 35644,
  "bucks": 17545,
  "bud": 24461,
  "buddy": 46979,
  "budget": 40240,
  "buds": 43705,
  "buff": 44514,
  "bug": 19727,
  "bugs": 17520,
  "build": 9160,
  "builder": 28838,
  "builders": 43434,
  "building": 28839,
  "buildings": 45889,
  "built": 37142,
  "bul": 13807,
  "bulin": 32100,
  "bull": 31660,
  "bullet": 44291,
  "bullies": 49175,
  "bully": 48190,
  "bund": 28462,
  "bur": 7127,
  "burg": 24749,
  "burgh": 27327,
  "burn": 7023,
  "burner": 38533,
  "burning": 50088,
  "bury": 32164,
  "bus": 25951,
  "bush": 46177,
  "business": 39712,
  "bust": 49331,
  "buster": 34993,
  "busters": 47157,
  "but": 17868,
  "butrin": 43532,
  "butter": 38250,
  "button": 32700,
  "buy": 6817,
  "buying": 37572,
  "bvie": 41589,
  "by": 2277,
  "bys": 36909,
  "bytes": 21436,
  "c": 71,
  "ca": 7441,
  "caa": 29959,
  "cab": 47159,
  "cache": 48194,
  "cade": 48193,
  "caffe": 48873,
  "cage": 22203,
  "cake": 13350,
  "cakes": 29427,
  "cal": 6644,
  "calc": 17542,
  "calcemia": 41335,
  "calcul": 36720,
  "calculate": 18906,
  "cale": 30508,
  "call": 11774,
  "caller": 47852,
  "calm": 34162,
  "cam": 12315,
  "camp": 28181,
  "cams": 33964,
  "can": 10787,
  "cancer": 50184,
  "cane": 41591,
  "cano": 15980,
  "cans": 33344,
  "cap": 15485,
  "cape": 16130,
  "capes": 39291,
  "caps": 26772,
  "capture": 44518,
  "car": 11210,
  "carbonate": 33256,
  "card": 10367,
  "cardia": 30437,
  "cards": 10514,
  "care": 5237,
  "carefully": 28815,
  "carp": 44517,
  "carr": 14034,
  "carriage": 38118,
  "carry": 31115,
  "cart": 36065,
  "cas": 19147,
  "casa": 22769,
  "case": 5528,
  "cases": 13069,
  "cash": 24668,
  "cast": 4843,
  "caster": 26773,
  "castically": 44944,
  "casting": 27789,
  "castle": 41297,
  "cat": 16770,
  "catch": 25839,
  "catcher": 34926,
  "catching": 49127,
  "cate": 14655,
  "cated": 28032,
  "cates": 35714,
  "cating": 21849,
  "cation": 19445,
  "cations": 45297,
  "cats": 20376,
  "cb": 47158,
  "cc": 1420,
  "cca": 25886,
  "ccas": 32264,
  "ccer": 8233,
  "cci": 28354,
  "cd": 7216,
  "ce": 366,
  "ced": 1397,
  "cede": 39447,
  "cedrin": 37918,
  "ceed": 2890,
  "ceived": 34340,
  "cel": 2678,
  "celain": 13811,
  "cele": 24473,
  "celebr": 49112,
  "celes": 24814,
  "cell": 16413,
  "cellulose": 49028,
  "cels": 36118,
  "cemia": 15637,
  "cemic": 15426,
  "cence": 36912,
  "cend": 20028,
  "cended": 43805,
  "cending": 17315,
  "cent": 2557,
  "cented": 14518,
  "center": 27760,
  "centesis": 34785,
  "central": 46591,
  "ceph": 41682,
  "cephal": 22047,
  "cephalic": 32991,
  "cephaly": 43670,
  "cept": 1393,
  "ception": 11082,
  "ceptions": 15355,
  "ceptive": 23528,
  "cepts": 32202,
  "cer": 2137,
  "cerity": 22516,
  "cers": 6323,
  "certain": 24669,
  "ces": 707,
  "cess": 571,
  "cessed": 20453,
  "cessing": 46402,
  "cessor": 40466,
  "cet": 21245,
  "cetin": 32709,
  "ceus": 33689,
  "cf": 20375,
  "cg": 21626,
  "ch": 359,
  "cha": 11462,
  "chain": 16621,
  "chains": 41672,
  "chal": 28383,
  "challe": 36517,
  "challenge": 38724,
  "cham": 44602,
  "chan": 4817,
  "chances": 34336,
  "change": 4518,
  "changes": 41673,
  "changing": 36963,
  "chant": 41671,
  "char": 4651,
  "character": 34822,
  "characteristic": 39261,
  "charge": 5529,
  "charity": 48790,
  "chart": 24810,
  "chat": 7099,
  "che": 1775,
  "check": 4159,
  "checks": 28103,
  "ched": 3226,
  "chedule": 14737,
  "cheduled": 35849,
  "chee": 37500,
  "chek": 21169,
  "chell": 49815,
  "chem": 15808,
  "chemical": 37224,
  "chemicals": 35263,
  "chen": 24269,
  "cher": 3694,
  "chers": 7878,
  "ches": 1335,
  "chester": 30599,
  "chet": 16033,
  "chetta": 41431,
  "chew": 36627,
  "chi": 16136,
  "chia": 30536,
  "chiato": 39641,
  "chids": 47286,
  "chie": 28200,
  "chief": 14339,
  "child": 10761,
  "children": 13086,
  "chill": 32487,
  "chin": 38302,
  "ching": 8752,
  "chins": 49503,
  "chio": 36516,
  "chlor": 14069,
  "chn": 25208,
  "cho": 14805,
  "chond": 25571,
  "chool": 9819,
  "chooled": 28384,
  "choos": 36115,
  "choose": 3424,
  "choosing": 36444,
  "chop": 22486,
  "chre": 41026,
  "chrom": 49504,
  "chron": 45424,
  "chs": 26111,
  "cht": 37821,
  "chu": 36962,
  "chy": 22783,
  "ci": 535,
  "cia": 15400,
  "cial": 876,
  "cially": 1222,
  "cials": 12810,
  "cibility": 42381,
  "cible": 23163,
  "ciclovir": 42945,
  "cid": 34288,
  "cided": 36913,
  "cience": 21077,
  "cient": 10433,
  "cier": 43859,
  "cies": 15598,
  "cii": 30316,
  "cil": 10947,
  "cin": 11092,
  "cine": 37772,
  "cing": 1757,
  "cings": 11351,
  "cini": 42223,
  "cinolone": 48943,
  "cious": 4717,
  "ciously": 11456,
  "cip": 7519,
  "cipe": 3351,
  "cis": 13914,
  "cise": 1427,
  "cised": 46178,
  "cit": 45296,
  "cite": 40337,
  "cited": 43706,
  "cith": 34289,
  "cithin": 34619,
  "city": 23803,
  "cium": 5123,
  "cius": 48447,
  "ciutto": 35419,
  "ck": 478,
  "cket": 2579,
  "ckets": 5649,
  "ckey": 12260,
  "ckles": 13433,
  "cks": 2774,
  "cky": 30557,
  "cl": 2215,
  "cla": 47575,
  "claim": 15725,
  "claimed": 22758,
  "clamps": 24271,
  "clampsia": 24459,
  "clan": 21584,
  "clar": 36237,
  "clarify": 38233,
  "class": 19696,
  "classes": 44026,
  "classic": 40804,
  "classmen": 37239,
  "cle": 1866,
  "clean": 7583,
  "cleaner": 20701,
  "cleaning": 29559,
  "cleanse": 33527,
  "clear": 10604,
  "cled": 10878,
  "cler": 27151,
  "clerosis": 27682,
  "cles": 2436,
  "clic": 22967,
  "click": 8609,
  "clim": 45687,
  "climate": 48663,
  "cline": 21132,
  "cling": 6327,
  "clip": 11146,
  "clips": 20683,
  "clipse": 20488,
  "clo": 12435,
  "clock": 12062,
  "clockwise": 12620,
  "close": 22968,
  "closing": 47866,
  "clot": 30378,
  "cloth": 4440,
  "clothes": 34266,
  "cloud": 6187,
  "clovir": 40161,
  "clusive": 29919,
  "cm": 5587,
  "cmd": 44957,
  "cn": 28531,
  "co": 685,
  "coat": 9942,
  "coats": 30568,
  "coc": 23004,
  "cocc": 31007,
  "coccal": 33029,
  "coccus": 23996,
  "cock": 25221,
  "coconut": 41754,
  "cod": 18552,
  "code": 6768,
  "codes": 23725,
  "codone": 33903,
  "coffee": 43888,
  "cogn": 8702,
  "cohol": 2086,
  "coin": 46420,
  "coins": 28078,
  "col": 1986,
  "cold": 41110,
  "cole": 26815,
  "coll": 31964,
  "colle": 44008,
  "collect": 13787,
  "coln": 18559,
  "cologist": 19461,
  "color": 29711,
  "colored": 42524,
  "com": 2168,
  "coma": 15881,
  "comastia": 44024,
  "comb": 8791,
  "combine": 10459,
  "come": 3824,
  "comed": 21090,
  "comes": 12111,
  "coming": 5933,
  "comme": 47571,
  "commer": 29520,
  "commerce": 39730,
  "commercial": 40267,
  "commit": 23450,
  "common": 25111,
  "commun": 16861,
  "communicate": 23890,
  "communication": 24317,
  "comp": 23946,
  "compan": 31040,
  "compare": 23539,
  "compet": 38445,
  "compile": 42535,
  "compl": 29713,
  "complete": 17813,
  "compliment": 36423,
  "comput": 38444,
  "computer": 44464,
  "con": 1308,
  "conazole": 27429,
  "conce": 46489,
  "conceal": 49285,
  "concent": 49755,
  "cond": 13436,
  "condition": 31835,
  "conds": 29479,
  "conduct": 22561,
  "cone": 28911,
  "cones": 25335,
  "conf": 16522,
  "confidence": 46897,
  "config": 18328,
  "confirm": 21055,
  "confront": 40540,
  "coni": 49753,
  "connect": 11792,
  "connected": 46837,
  "conomic": 37057,
  "cons": 3552,
  "conscious": 11434,
  "consciously": 16640,
  "consider": 5685,
  "consin": 20765,
  "const": 35833,
  "construct": 42468,
  "consult": 14773,
  "consume": 28991,
  "cont": 10242,
  "contact": 13837,
  "contin": 28702,
  "continue": 32725,
  "control": 29382,
  "conut": 3419,
  "conver": 43205,
  "convers": 49754,
  "convert": 28769,
  "converter": 49265,
  "cook": 9921,
  "cooking": 47816,
  "cool": 36911,
  "cop": 7795,
  "cope": 8349,
  "copes": 24251,
  "copic": 17248,
  "coping": 34869,
  "copy": 11602,
  "cor": 23067,
  "cord": 44516,
  "core": 11044,
  "cores": 34629,
  "corn": 7261,
  "corns": 21199,
  "corps": 40235,
  "correct": 40830,
  "cort": 15864,
  "cortic": 50252,
  "cortisone": 16504,
  "cos": 14999,
  "cosc": 44302,
  "cose": 40338,
  "cosis": 33345,
  "cost": 49644,
  "costal": 39916,
  "cot": 21478,
  "cotch": 25840,
  "cou": 27238,
  "coun": 40932,
  "count": 21627,
  "counter": 45255,
  "country": 39686,
  "court": 41592,
  "cous": 14132,
  "cove": 41590,
  "cover": 4652,
  "covers": 31965,
  "cp": 14333,
  "cr": 1294,
  "cra": 4446,
  "crack": 18711,
  "cracker": 30468,
  "crackers": 38627,
  "craft": 5208,
  "crafting": 38018,
  "crate": 42466,
  "cratic": 28425,
  "craw": 46685,
  "cre": 5061,
  "cream": 13693,
  "creat": 44515,
  "create": 6280,
  "creating": 29634,
  "credit": 36066,
  "creen": 23143,
  "crib": 2169,
  "cribe": 15045,
  "cribed": 37960,
  "criber": 19469,
  "cribing": 44025,
  "cript": 2285,
  "cription": 2799,
  "criptions": 7767,
  "cripts": 15110,
  "crisp": 47494,
  "cro": 11269,
  "crochet": 50193,
  "crom": 22624,
  "crombie": 25540,
  "crop": 49336,
  "cross": 23700,
  "crow": 15126,
  "crum": 30812,
  "crush": 32551,
  "crust": 37915,
  "cry": 39777,
  "cs": 7914,
  "ct": 343,
  "ctal": 36513,
  "cted": 35046,
  "ctic": 16512,
  "ctica": 30533,
  "ctin": 19299,
  "ction": 868,
  "ctions": 2565,
  "ctive": 11376,
  "ctomy": 22991,
  "ctor": 1096,
  "ctors": 5821,
  "ctory": 13796,
  "cts": 23337,
  "ctur": 18912,
  "cture": 6122,
  "cu": 6487,
  "cube": 26634,
  "cue": 6293,
  "cuits": 10750,
  "cul": 15179,
  "cular": 6756,
  "cule": 41964,
  "cules": 44978,
  "cult": 39776,
  "cultivate": 42198,
  "culus": 30457,
  "cum": 1713,
  "cument": 29318,
  "cumulus": 48609,
  "cup": 23328,
  "cupid": 42944,
  "cur": 8155,
  "cure": 7895,
  "cured": 14758,
  "curl": 43422,
  "current": 48895,
  "currently": 45864,
  "cus": 1241,
  "cush": 40339,
  "cushion": 41566,
  "cuss": 11920,
  "cust": 33343,
  "cut": 2907,
  "cutaneous": 26850,
  "cute": 27522,
  "cution": 20023,
  "cutting": 23646,
  "cy": 2356,
  "cyan": 46581,
  "cycle": 9996,
  "cyclic": 48674,
  "cycline": 30379,
  "cytes": 36241,
  "d": 72,
  "da": 7811,
  "dab": 38251,
  "daily": 43420,
  "dain": 38746,
  "dal": 42946,
  "dale": 38747,
  "dam": 33347,
  "damp": 32165,
  "dampen": 33628,
  "dance": 47160,
  "dark": 37322,
  "data": 21133,
  "date": 16507,
  "dated": 15313,
  "dates": 31194,
  "daughter": 37323,
  "day": 2177,
  "db": 28355,
  "dc": 31434,
  "dd": 2463,
  "dded": 46584,
  "dden": 4619,
  "dders": 38997,
  "de": 708,
  "deal": 23726,
  "deaux": 44709,
  "dec": 4888,
  "decide": 5173,
  "deck": 44708,
  "decorate": 24524,
  "decre": 47691,
  "decrease": 49300,
  "ded": 4240,
  "deen": 39400,
  "deep": 30796,
  "def": 31966,
  "defe": 34050,
  "defeat": 43635,
  "define": 17273,
  "defrost": 48072,
  "deg": 38358,
  "degrees": 48111,
  "dehyde": 20618,
  "dehydration": 43891,
  "del": 32460,
  "delete": 36570,
  "dem": 19784,
  "demonstrate": 36388,
  "den": 10386,
  "dened": 42224,
  "dent": 49339,
  "dental": 35348,
  "dep": 33348,
  "depend": 37872,
  "depending": 14004,
  "depression": 45201,
  "der": 852,
  "dered": 5233,
  "derm": 34995,
  "dermal": 41529,
  "ders": 9076,
  "des": 4862,
  "describe": 39533,
  "design": 22175,
  "designate": 34245,
  "desk": 43370,
  "despite": 35188,
  "det": 4820,
  "determ": 4908,
  "determine": 5130,
  "dev": 34725,
  "develop": 15720,
  "developing": 50249,
  "dew": 27582,
  "dex": 41757,
  "dext": 41112,
  "df": 5564,
  "dge": 5513,
  "dh": 49337,
  "di": 14159,
  "dia": 12845,
  "diag": 48992,
  "diagn": 33884,
  "diagnose": 43634,
  "diagnosis": 47042,
  "dial": 29066,
  "dice": 45299,
  "did": 34994,
  "die": 28356,
  "dies": 34630,
  "diet": 49340,
  "different": 18482,
  "differentiate": 42088,
  "dig": 26084,
  "dii": 43497,
  "dil": 48195,
  "din": 49338,
  "ding": 2149,
  "dings": 12631,
  "diosis": 33270,
  "dip": 30024,
  "dir": 25841,
  "direct": 22576,
  "direction": 43707,
  "directory": 42114,
  "dis": 10833,
  "disable": 40743,
  "disassemble": 45908,
  "disc": 42719,
  "discard": 45909,
  "disconnect": 29775,
  "discover": 32385,
  "discuss": 17414,
  "disk": 28704,
  "disp": 46179,
  "display": 42027,
  "dissolve": 36768,
  "dist": 22969,
  "distinguish": 34950,
  "distract": 34577,
  "dit": 33346,
  "dits": 39779,
  "div": 18314,
  "divide": 20717,
  "dk": 24113,
  "dle": 4654,
  "dled": 24227,
  "dler": 27239,
  "dlers": 34290,
  "dles": 12006,
  "dling": 13053,
  "dm": 39778,
  "dn": 45298,
  "do": 2004,
  "dock": 18641,
  "doctors": 41208,
  "document": 38978,
  "does": 27443,
  "dog": 10834,
  "dogs": 20170,
  "doing": 17164,
  "doll": 25109,
  "dolls": 47555,
  "dom": 3832,
  "domain": 30619,
  "don": 19399,
  "donate": 41463,
  "done": 41593,
  "door": 21796,
  "doors": 48644,
  "dos": 35715,
  "double": 18859,
  "dough": 21246,
  "down": 4708,
  "download": 7905,
  "downs": 39530,
  "dp": 17102,
  "dr": 1954,
  "dra": 4310,
  "draft": 23755,
  "drag": 38016,
  "dragon": 48776,
  "drain": 30119,
  "dram": 48638,
  "drape": 46678,
  "draw": 4875,
  "drawing": 50014,
  "drawn": 17020,
  "dre": 14348,
  "dress": 10704,
  "dressing": 43452,
  "drill": 38973,
  "drink": 12953,
  "drinking": 31831,
  "drive": 16060,
  "dro": 32739,
  "droid": 39780,
  "drop": 11393,
  "drops": 28848,
  "drum": 48639,
  "dry": 12303,
  "dryer": 15340,
  "ds": 2217,
  "dsk": 31768,
  "dspe": 46567,
  "dt": 31893,
  "du": 610,
  "duck": 44693,
  "due": 28703,
  "dule": 10320,
  "duled": 35800,
  "dules": 13920,
  "dump": 47161,
  "during": 20722,
  "duro": 26672,
  "dust": 15282,
  "dvd": 40933,
  "dx": 21322,
  "dy": 780,
  "dye": 37446,
  "dynam": 18286,
  "dynamic": 21058,
  "dynamics": 32976,
  "dys": 38908,
  "e": 73,
  "each": 14407,
  "ead": 907,
  "ean": 22669,
  "ear": 41594,
  "early": 49344,
  "earn": 26636,
  "ease": 44519,
  "eat": 10136,
  "eating": 25952,
  "ec": 26635,
  "ech": 49341,
  "eck": 49343,
  "ect": 603,
  "ectic": 43873,
  "ectomy": 26813,
  "ed": 304,
  "eda": 31917,
  "ede": 7737,
  "eded": 19671,
  "edema": 29847,
  "edent": 17792,
  "edes": 24125,
  "edge": 21631,
  "edi": 23077,
  "edia": 9219,
  "ediate": 1824,
  "edible": 23423,
  "eding": 3838,
  "edit": 15154,
  "editing": 44574,
  "edle": 48305,
  "edling": 48306,
  "edo": 19051,
  "edos": 39338,
  "edrive": 16510,
  "eds": 5645,
  "educ": 20873,
  "educate": 23799,
  "education": 44358,
  "ee": 1642,
  "eed": 10581,
  "eee": 38423,
  "eel": 49342,
  "eem": 7024,
  "een": 5746,
  "eenth": 27240,
  "eer": 17144,
  "eered": 32268,
  "eering": 38748,
  "eers": 33965,
  "ees": 2394,
  "eeze": 30359,
  "egg": 36914,
  "eh": 48196,
  "ei": 14724,
  "either": 26364,
  "ek": 1044,
  "ekrom": 44751,
  "ekw": 25329,
  "eky": 47463,
  "ekyll": 49295,
  "el": 429,
  "ela": 22589,
  "eland": 35777,
  "elcome": 28065,
  "elder": 32166,
  "ele": 18693,
  "elect": 17421,
  "electric": 43526,
  "eled": 3994,
  "elevate": 45984,
  "elf": 21073,
  "elia": 31939,
  "elic": 26508,
  "elie": 29277,
  "elight": 37398,
  "eliminate": 30074,
  "eline": 6783,
  "elines": 19211,
  "eliness": 13505,
  "eling": 12741,
  "elink": 43060,
  "elity": 20450,
  "ell": 1329,
  "ella": 12832,
  "elle": 21559,
  "elles": 40437,
  "elling": 35124,
  "elo": 47328,
  "els": 1303,
  "elt": 18492,
  "em": 542,
  "ema": 8900,
  "email": 45494,
  "emaker": 31240,
  "ember": 1208,
  "embrace": 32806,
  "emia": 41079,
  "emic": 24485,
  "eminal": 35076,
  "emis": 36153,
  "emon": 32231,
  "emort": 48451,
  "emot": 36152,
  "emotional": 41539,
  "emp": 15000,
  "emper": 22662,
  "emphasize": 39161,
  "employ": 36916,
  "empty": 26611,
  "ems": 1034,
  "en": 292,
  "ena": 13948,
  "enable": 28924,
  "enade": 36948,
  "enadine": 42282,
  "ename": 44561,
  "enance": 48284,
  "enas": 39823,
  "enc": 1002,
  "ence": 826,
  "enced": 9696,
  "encer": 29490,
  "encers": 34743,
  "ences": 2469,
  "ench": 16070,
  "enches": 21570,
  "encies": 4238,
  "encil": 2429,
  "enciled": 33430,
  "encing": 11640,
  "encourage": 21645,
  "ency": 1700,
  "end": 8989,
  "ended": 26774,
  "ending": 36915,
  "ene": 1360,
  "ened": 2445,
  "ener": 6736,
  "enes": 30047,
  "eness": 4276,
  "enet": 32187,
  "enex": 38951,
  "eng": 12708,
  "engage": 15893,
  "enger": 6503,
  "engers": 11182,
  "enh": 43767,
  "enhydrinate": 48285,
  "enia": 30048,
  "enic": 8386,
  "ening": 2283,
  "enix": 26234,
  "enjoy": 27702,
  "enlist": 41643,
  "enn": 27874,
  "enna": 30522,
  "enne": 9153,
  "ennel": 8594,
  "eno": 22210,
  "enoic": 40823,
  "enol": 43768,
  "enopsis": 42281,
  "enote": 38787,
  "enpins": 30747,
  "enroll": 33065,
  "ens": 690,
  "ensable": 32822,
  "ense": 1359,
  "enseal": 31271,
  "ensed": 28955,
  "enses": 3615,
  "ensical": 35808,
  "ensin": 38356,
  "ension": 2846,
  "ensional": 13291,
  "ensions": 4762,
  "ensis": 35807,
  "ensit": 15875,
  "ensitive": 19264,
  "ensitivity": 24587,
  "ensity": 5384,
  "ensive": 2120,
  "ensual": 37870,
  "ensure": 13076,
  "ensus": 17596,
  "ent": 332,
  "ental": 2360,
  "entanyl": 41021,
  "entary": 18490,
  "entatious": 48332,
  "enter": 11680,
  "entering": 49491,
  "enth": 19792,
  "ential": 1470,
  "entialed": 47266,
  "entially": 3741,
  "entimes": 31690,
  "ention": 1215,
  "entions": 13452,
  "entious": 41020,
  "entive": 9410,
  "ently": 1098,
  "entric": 21337,
  "ents": 702,
  "enuse": 16306,
  "enz": 28548,
  "enza": 20070,
  "enzie": 36035,
  "eous": 20607,
  "ep": 451,
  "epad": 9529,
  "epads": 41709,
  "epdf": 28746,
  "eph": 47341,
  "ephedrine": 36534,
  "eprazole": 36533,
  "eps": 8507,
  "ept": 10010,
  "eption": 24823,
  "equ": 4904,
  "equip": 40072,
  "er": 275,
  "era": 22037,
  "erable": 16453,
  "eral": 2914,
  "erally": 18278,
  "erals": 6799,
  "erate": 8298,
  "erated": 46228,
  "eration": 11907,
  "erative": 27870,
  "ere": 25552,
  "ered": 2536,
  "erel": 40934,
  "erella": 36854,
  "erer": 43708,
  "erg": 1149,
  "ergart": 21430,
  "erge": 12121,
  "ergly": 32847,
  "ergy": 2142,
  "eri": 16697,
  "eria": 7637,
  "erian": 19155,
  "erias": 47209,
  "eric": 3187,
  "ericin": 45734,
  "erick": 36476,
  "erie": 24339,
  "erienced": 18310,
  "eries": 10971,
  "erin": 49415,
  "erine": 30270,
  "ering": 2593,
  "erk": 4841,
  "erm": 814,
  "erman": 31499,
  "erme": 43148,
  "ermost": 16393,
  "ern": 2406,
  "erna": 42543,
  "ername": 39481,
  "ernet": 30828,
  "ernic": 42544,
  "ero": 4783,
  "eroom": 44941,
  "erranean": 16799,
  "ers": 397,
  "ersand": 36523,
  "ersault": 36524,
  "erse": 7946,
  "ersky": 36974,
  "erson": 10016,
  "ersonal": 13038,
  "ert": 682,
  "ertain": 4659,
  "ertime": 20883,
  "erting": 8545,
  "erto": 17755,
  "ertoe": 49643,
  "erts": 45538,
  "erty": 32821,
  "erus": 47208,
  "erv": 2083,
  "erve": 2700,
  "erved": 7270,
  "erver": 17262,
  "ervers": 34302,
  "erves": 11193,
  "ervice": 31208,
  "erving": 8641,
  "ery": 3126,
  "es": 291,
  "esan": 10570,
  "esar": 23239,
  "escent": 20442,
  "ese": 2048,
  "esearch": 33453,
  "eseed": 17241,
  "esh": 47233,
  "esha": 42280,
  "esian": 36947,
  "esign": 18192,
  "esis": 25062,
  "esk": 27095,
  "esoph": 25427,
  "esophageal": 28695,
  "esophagus": 44397,
  "especially": 28547,
  "ess": 417,
  "essa": 44634,
  "essential": 27893,
  "esso": 30549,
  "essori": 31938,
  "est": 428,
  "esta": 41054,
  "estab": 15319,
  "establ": 45953,
  "establish": 15862,
  "estar": 44638,
  "ested": 22492,
  "ester": 6815,
  "estern": 8517,
  "esters": 39822,
  "estible": 41702,
  "estic": 5632,
  "estically": 34018,
  "estimate": 36979,
  "estinal": 14729,
  "estion": 14535,
  "estone": 18655,
  "estop": 42354,
  "estr": 13727,
  "estries": 37397,
  "estrone": 45936,
  "estrus": 43835,
  "estry": 14834,
  "ests": 2990,
  "esty": 17007,
  "estyle": 5050,
  "estyles": 24652,
  "esy": 15802,
  "esys": 48283,
  "et": 321,
  "eta": 22218,
  "etal": 22987,
  "etamol": 29094,
  "etboot": 43790,
  "etch": 4277,
  "eter": 2847,
  "etera": 20346,
  "eterm": 33681,
  "eters": 3969,
  "eth": 2189,
  "ethe": 16457,
  "etheless": 17184,
  "ethicone": 27447,
  "ethrin": 20099,
  "ethrough": 34780,
  "ethy": 21334,
  "ethylene": 26410,
  "etian": 39349,
  "etic": 5737,
  "etically": 40405,
  "etics": 29659,
  "etida": 33073,
  "eties": 5659,
  "etime": 9517,
  "etine": 26373,
  "eting": 28378,
  "etizing": 33998,
  "eto": 7208,
  "eton": 41661,
  "etooth": 7617,
  "etrack": 26374,
  "etric": 22988,
  "etrics": 29448,
  "ets": 1180,
  "ett": 49484,
  "etta": 27551,
  "ette": 7133,
  "ettes": 17033,
  "etti": 17748,
  "ety": 1226,
  "etyl": 35118,
  "eval": 13036,
  "evaluate": 13365,
  "even": 10985,
  "ever": 919,
  "every": 12261,
  "everybody": 46846,
  "everyone": 21827,
  "everything": 47863,
  "ew": 7161,
  "ex": 3207,
  "exam": 32032,
  "examine": 13986,
  "example": 48074,
  "examples": 38210,
  "excel": 44081,
  "exception": 45735,
  "excess": 41895,
  "exer": 15939,
  "exerc": 44307,
  "exercise": 16690,
  "exercising": 48147,
  "exf": 26422,
  "exfoliate": 28899,
  "exist": 37113,
  "existing": 24401,
  "exp": 6040,
  "expand": 40092,
  "expect": 22825,
  "exper": 30637,
  "experiment": 34978,
  "experts": 50063,
  "expl": 15767,
  "explain": 20367,
  "explore": 23056,
  "expose": 46729,
  "express": 26852,
  "ext": 30947,
  "extend": 48065,
  "ey": 10527,
  "eyc": 50182,
  "eye": 29635,
  "ez": 22668,
  "f": 74,
  "fa": 24918,
  "fab": 46181,
  "face": 7266,
  "facebook": 39094,
  "fact": 3102,
  "faction": 27300,
  "factor": 35159,
  "factory": 33792,
  "fal": 46180,
  "fall": 9968,
  "fam": 36917,
  "familiar": 16338,
  "familiarize": 16566,
  "family": 43645,
  "fan": 33349,
  "far": 32461,
  "fare": 17926,
  "fares": 39783,
  "farin": 25842,
  "farm": 48197,
  "fast": 4268,
  "fat": 22866,
  "father": 24003,
  "fax": 31435,
  "fc": 38252,
  "fe": 440,
  "fect": 701,
  "fected": 43889,
  "fed": 22294,
  "federal": 49087,
  "fee": 25073,
  "feed": 11763,
  "feedback": 27197,
  "feeding": 23429,
  "feel": 27897,
  "feeling": 39872,
  "feet": 44646,
  "fege": 39871,
  "feit": 17038,
  "feld": 41055,
  "felt": 21200,
  "fen": 31662,
  "fer": 1055,
  "fere": 695,
  "fered": 30991,
  "feree": 17008,
  "ference": 3036,
  "ferences": 3516,
  "ferencing": 34049,
  "ferent": 14973,
  "ferential": 34919,
  "fers": 9067,
  "fert": 46182,
  "fest": 38253,
  "few": 15604,
  "ff": 844,
  "ffe": 1900,
  "ffect": 1136,
  "ffected": 28091,
  "ffective": 13786,
  "ffee": 2341,
  "ffen": 37882,
  "ffered": 13667,
  "ffic": 2316,
  "ffici": 5445,
  "fficial": 29922,
  "fficient": 3977,
  "fficients": 20270,
  "ffind": 31977,
  "ffl": 38915,
  "ffle": 10355,
  "ffles": 12255,
  "fi": 30725,
  "fic": 1324,
  "fiction": 17740,
  "fied": 18588,
  "field": 13607,
  "fields": 42744,
  "fig": 9175,
  "figer": 49346,
  "fight": 30726,
  "figure": 10984,
  "fil": 28033,
  "file": 20866,
  "files": 36068,
  "fill": 5162,
  "filled": 33039,
  "fillin": 32628,
  "filling": 43377,
  "fills": 33038,
  "film": 37718,
  "filter": 49348,
  "fin": 13552,
  "find": 3428,
  "finder": 18721,
  "finding": 28799,
  "fine": 13866,
  "fined": 19902,
  "fing": 18946,
  "finger": 49347,
  "finish": 35979,
  "fir": 8649,
  "fire": 8941,
  "fires": 28357,
  "firm": 47163,
  "first": 9669,
  "firstly": 40138,
  "fish": 5732,
  "fishing": 39782,
  "fit": 18186,
  "fitness": 35271,
  "fitting": 49050,
  "fix": 29428,
  "fk": 36067,
  "fl": 3334,
  "flag": 46632,
  "flash": 44902,
  "flat": 38477,
  "flex": 39292,
  "flies": 21753,
  "flin": 49934,
  "flip": 22169,
  "flirt": 46634,
  "flix": 9652,
  "flo": 19785,
  "floor": 46934,
  "flow": 7893,
  "flower": 8955,
  "flowers": 15449,
  "flu": 32897,
  "flush": 46633,
  "fly": 17458,
  "fm": 47162,
  "fo": 3729,
  "foam": 10259,
  "focus": 13111,
  "focused": 32393,
  "foil": 25645,
  "fold": 6483,
  "folder": 26293,
  "folders": 27468,
  "folk": 42949,
  "follow": 9861,
  "following": 47814,
  "fone": 34996,
  "font": 46184,
  "food": 20981,
  "foods": 42108,
  "foot": 13528,
  "for": 2710,
  "force": 4466,
  "ford": 14482,
  "fore": 588,
  "forestation": 37009,
  "forge": 29722,
  "forget": 39009,
  "forgive": 46597,
  "fork": 29636,
  "form": 738,
  "format": 32244,
  "formatting": 45551,
  "formed": 30327,
  "formin": 37874,
  "forms": 47423,
  "fort": 1127,
  "fortunately": 28090,
  "forward": 10387,
  "found": 25553,
  "fox": 41595,
  "fps": 49345,
  "fr": 5552,
  "frame": 14013,
  "frames": 31091,
  "fre": 42225,
  "free": 18483,
  "freeze": 33966,
  "frequ": 34291,
  "frequency": 42866,
  "fres": 46183,
  "fresh": 27689,
  "friend": 4338,
  "friends": 21061,
  "friger": 40672,
  "from": 18642,
  "front": 9973,
  "fronts": 49349,
  "fruit": 10123,
  "fruits": 27321,
  "fry": 42947,
  "fs": 9930,
  "ft": 621,
  "fter": 43709,
  "fters": 29429,
  "fth": 27688,
  "fting": 6393,
  "ftpd": 47396,
  "fts": 16180,
  "fty": 16390,
  "fu": 8131,
  "ful": 797,
  "full": 35349,
  "fully": 1611,
  "fulness": 16889,
  "fun": 42226,
  "function": 10741,
  "fund": 42948,
  "fur": 37324,
  "fus": 40935,
  "fy": 10722,
  "fying": 39781,
  "g": 75,
  "ga": 4034,
  "gable": 46186,
  "gage": 4871,
  "gain": 22109,
  "gal": 5364,
  "gali": 50036,
  "gall": 46185,
  "gals": 29067,
  "galus": 32632,
  "gam": 34292,
  "game": 36454,
  "games": 36918,
  "gammon": 42867,
  "gan": 1292,
  "gang": 48198,
  "gano": 9537,
  "ganoff": 40539,
  "gant": 8980,
  "gany": 25455,
  "gar": 1132,
  "gard": 28358,
  "garden": 45175,
  "gargle": 47476,
  "gart": 49352,
  "gas": 28035,
  "gat": 49350,
  "gate": 13608,
  "gated": 38254,
  "gather": 5058,
  "gau": 35716,
  "gauge": 49211,
  "gb": 14237,
  "gd": 42227,
  "ge": 386,
  "gean": 44620,
  "gear": 21698,
  "gebra": 12919,
  "ged": 3075,
  "gee": 14392,
  "gel": 20139,
  "gels": 33091,
  "gemite": 41686,
  "gen": 3035,
  "gence": 40938,
  "gender": 15869,
  "general": 37981,
  "generally": 21892,
  "genic": 39500,
  "gens": 33040,
  "gent": 49351,
  "gently": 28912,
  "geon": 41038,
  "ger": 1042,
  "gerald": 42441,
  "gered": 11739,
  "gerid": 44750,
  "gers": 4183,
  "gery": 24495,
  "ges": 1644,
  "gest": 4108,
  "gesterone": 16285,
  "get": 646,
  "gether": 986,
  "getic": 10396,
  "getically": 38350,
  "gets": 10108,
  "getting": 19799,
  "gg": 835,
  "gged": 4573,
  "gger": 19862,
  "ggers": 24843,
  "ggest": 2401,
  "ggier": 48519,
  "gginess": 39931,
  "gging": 4362,
  "ggings": 9475,
  "ggle": 7890,
  "ggled": 35453,
  "ggles": 9481,
  "ggling": 16751,
  "ggly": 34734,
  "ggy": 9340,
  "gh": 461,
  "gha": 41063,
  "ghan": 30777,
  "ghed": 25297,
  "gher": 12026,
  "ghur": 43841,
  "ghurt": 25439,
  "ghz": 33392,
  "gi": 5257,
  "gia": 12846,
  "gian": 18861,
  "gic": 14656,
  "gie": 10162,
  "gier": 29637,
  "gies": 18860,
  "gin": 940,
  "gina": 24592,
  "gines": 8534,
  "ging": 2959,
  "gings": 39293,
  "ginine": 31983,
  "gio": 40341,
  "girl": 23701,
  "girls": 32168,
  "gis": 43710,
  "gium": 28036,
  "giv": 40936,
  "give": 9363,
  "giving": 13392,
  "givings": 47093,
  "gl": 11635,
  "glass": 9796,
  "glasses": 20653,
  "gle": 1516,
  "gled": 43711,
  "gles": 22770,
  "gling": 10885,
  "glings": 46187,
  "glo": 15775,
  "globin": 24097,
  "gloss": 24212,
  "glue": 38093,
  "gly": 8650,
  "glycer": 39104,
  "gm": 8182,
  "gment": 4958,
  "gments": 10344,
  "gms": 47164,
  "gn": 1371,
  "gnes": 39966,
  "gnito": 25613,
  "go": 2539,
  "goers": 33463,
  "gogo": 46188,
  "going": 6378,
  "gol": 40340,
  "gold": 24163,
  "gom": 45300,
  "gon": 9671,
  "gone": 22204,
  "goo": 24004,
  "good": 14531,
  "google": 28172,
  "gor": 15314,
  "gos": 39784,
  "got": 21544,
  "gotiate": 36832,
  "gous": 40937,
  "gow": 42228,
  "gown": 34631,
  "gp": 28034,
  "gr": 906,
  "gra": 8640,
  "grab": 15092,
  "grad": 9303,
  "gradable": 19891,
  "grade": 14974,
  "graduate": 11903,
  "grain": 26529,
  "gram": 1244,
  "grams": 12427,
  "gran": 13293,
  "grand": 37193,
  "grap": 7254,
  "graph": 2955,
  "graphed": 40107,
  "grapher": 25503,
  "graphers": 48868,
  "graphia": 41887,
  "graphic": 13472,
  "graphics": 20826,
  "graphy": 11819,
  "grasp": 43921,
  "grass": 13626,
  "grate": 37456,
  "grav": 11772,
  "gre": 14283,
  "grease": 26453,
  "great": 26637,
  "green": 16659,
  "greens": 22562,
  "greet": 34541,
  "greg": 10674,
  "gress": 2338,
  "grid": 39936,
  "grim": 27415,
  "grind": 34740,
  "grip": 27135,
  "gro": 31195,
  "groom": 34632,
  "grou": 9077,
  "ground": 2638,
  "grounds": 11613,
  "group": 15815,
  "groups": 32079,
  "grow": 15933,
  "growing": 41781,
  "grown": 16145,
  "growth": 26916,
  "gru": 49692,
  "gs": 3557,
  "gu": 6667,
  "guard": 12820,
  "guards": 25918,
  "gue": 15819,
  "gues": 48199,
  "guide": 42661,
  "gum": 32167,
  "gun": 7206,
  "guns": 50094,
  "gur": 21201,
  "gust": 16996,
  "guy": 46740,
  "gy": 5824,
  "gyn": 30867,
  "gypt": 15676,
  "h": 76,
  "ha": 5680,
  "hab": 39785,
  "hack": 40342,
  "had": 5307,
  "hair": 14889,
  "haired": 34835,
  "hairs": 40343,
  "hal": 23230,
  "hale": 42232,
  "hall": 36919,
  "halose": 32713,
  "ham": 8866,
  "hammer": 26442,
  "hamsters": 45886,
  "han": 27523,
  "hand": 4214,
  "handle": 31790,
  "hands": 47668,
  "hang": 16046,
  "happy": 9662,
  "haps": 3470,
  "har": 26936,
  "hard": 26638,
  "hare": 16542,
  "haring": 49354,
  "hark": 22971,
  "harvest": 33012,
  "has": 4909,
  "hasa": 39535,
  "hasic": 41301,
  "hasize": 34824,
  "hat": 33041,
  "haus": 41950,
  "have": 6943,
  "having": 14366,
  "hazard": 41596,
  "hc": 39294,
  "hd": 7888,
  "he": 262,
  "hea": 5096,
  "head": 2090,
  "headed": 15846,
  "heads": 9967,
  "heal": 33358,
  "health": 38760,
  "healthy": 30265,
  "heart": 13217,
  "hearted": 17701,
  "heartedly": 39657,
  "heast": 15203,
  "heat": 3908,
  "heav": 34642,
  "heavy": 46088,
  "hec": 47187,
  "hed": 944,
  "hedema": 29487,
  "hedrine": 32537,
  "hee": 16736,
  "hees": 40960,
  "heet": 7272,
  "heets": 14270,
  "heic": 37792,
  "heim": 30033,
  "heimer": 18276,
  "heit": 5060,
  "hel": 10472,
  "held": 11439,
  "helf": 13233,
  "helial": 39123,
  "hell": 14051,
  "hells": 15684,
  "helm": 34889,
  "help": 18012,
  "helper": 33548,
  "helves": 18796,
  "hem": 12913,
  "hemer": 48233,
  "hemian": 20125,
  "hen": 5318,
  "hene": 42257,
  "henge": 40361,
  "henol": 39546,
  "hens": 26646,
  "hent": 6967,
  "hep": 47188,
  "her": 357,
  "here": 4471,
  "hered": 7455,
  "herence": 31905,
  "herent": 13744,
  "heres": 17927,
  "heric": 27884,
  "hering": 16384,
  "hern": 7820,
  "hero": 17459,
  "hers": 15425,
  "hertz": 45422,
  "hes": 648,
  "hesda": 49629,
  "heses": 11212,
  "hesia": 34043,
  "hesians": 41103,
  "hesis": 9290,
  "hest": 4690,
  "het": 3614,
  "hetic": 4825,
  "hetical": 19478,
  "hetically": 32601,
  "hetics": 22257,
  "hetist": 47650,
  "hey": 27378,
  "hf": 43712,
  "hh": 21405,
  "hi": 16797,
  "hia": 43714,
  "hib": 22970,
  "hid": 39295,
  "hide": 19446,
  "hides": 48202,
  "hidrosis": 43657,
  "hift": 18947,
  "high": 22670,
  "highlight": 41479,
  "hile": 10157,
  "hill": 13742,
  "hine": 44520,
  "hing": 574,
  "hip": 1062,
  "hips": 8671,
  "hire": 10683,
  "hires": 23415,
  "hirt": 14759,
  "hirts": 25190,
  "his": 37773,
  "hist": 8593,
  "hit": 31196,
  "hl": 12869,
  "hm": 43713,
  "hma": 7546,
  "hn": 5853,
  "ho": 2222,
  "hobia": 49854,
  "hock": 44521,
  "hodont": 47165,
  "hoe": 17571,
  "hoea": 45972,
  "hoes": 27756,
  "hog": 12847,
  "hoidectomy": 47576,
  "hol": 1948,
  "hold": 3240,
  "holder": 15083,
  "holders": 14026,
  "holding": 43315,
  "hole": 11698,
  "holes": 19934,
  "home": 28532,
  "hon": 49353,
  "hond": 43269,
  "hone": 37325,
  "honey": 36069,
  "hoo": 42230,
  "hood": 3663,
  "hook": 29834,
  "hoot": 10890,
  "hoots": 48664,
  "hop": 6911,
  "hope": 42540,
  "hopefully": 48135,
  "hopped": 48665,
  "hopping": 43270,
  "hops": 14961,
  "hor": 11775,
  "hore": 48200,
  "horn": 25953,
  "horns": 40751,
  "horphan": 42726,
  "horse": 36350,
  "horses": 39296,
  "hose": 14936,
  "host": 19174,
  "hot": 6877,
  "hots": 12795,
  "hou": 11948,
  "hound": 16015,
  "hounds": 22032,
  "hour": 48201,
  "house": 7594,
  "houses": 18809,
  "housing": 37774,
  "how": 5565,
  "however": 26300,
  "hows": 27084,
  "hp": 28705,
  "hq": 42229,
  "hr": 17741,
  "hrase": 25700,
  "hrop": 34293,
  "hrs": 42233,
  "hs": 11559,
  "ht": 23804,
  "html": 39213,
  "hu": 11983,
  "hub": 34997,
  "hum": 15127,
  "human": 32400,
  "hun": 45301,
  "hunt": 43715,
  "hunter": 34633,
  "hus": 42231,
  "hy": 2036,
  "hyd": 26144,
  "hyde": 20268,
  "hydr": 3104,
  "hydramine": 26420,
  "hydrate": 32894,
  "hydration": 38470,
  "hydrinate": 47629,
  "hydro": 42136,
  "hydrogen": 48027,
  "hydrous": 35680,
  "hygi": 38437,
  "hyl": 33172,
  "hyp": 49839,
  "hyth": 19692,
  "hz": 19203,
  "i": 77,
  "ia": 939,
  "iable": 5382,
  "iables": 36455,
  "iably": 45302,
  "iac": 9438,
  "iacs": 47803,
  "iades": 42235,
  "iae": 48535,
  "iage": 4314,
  "iages": 17260,
  "iagnosed": 32740,
  "iago": 39786,
  "iah": 26398,
  "ial": 672,
  "ialed": 45582,
  "ialis": 38355,
  "ially": 2699,
  "ials": 7083,
  "ialyte": 26390,
  "iam": 40344,
  "ian": 1556,
  "iana": 17848,
  "iance": 11113,
  "iances": 7970,
  "iann": 35843,
  "iano": 26831,
  "ians": 4620,
  "iant": 6982,
  "ianthus": 48863,
  "iantly": 41597,
  "iao": 49701,
  "iar": 14636,
  "iaries": 16131,
  "iary": 10796,
  "ias": 5357,
  "iasis": 9661,
  "iasm": 13814,
  "iat": 5943,
  "iate": 1019,
  "iated": 11114,
  "iateness": 37589,
  "iates": 19447,
  "iatic": 16567,
  "iating": 10705,
  "iation": 5456,
  "iations": 11549,
  "iative": 49355,
  "iator": 9393,
  "iators": 19253,
  "iatric": 8341,
  "iatrics": 27971,
  "iatrist": 24878,
  "iaz": 21348,
  "iazep": 26076,
  "iazide": 47988,
  "ib": 732,
  "iba": 34727,
  "ibble": 9330,
  "ibbling": 19061,
  "ibe": 20329,
  "iber": 6415,
  "ibery": 42651,
  "ibh": 45549,
  "ibilities": 4895,
  "ibility": 2661,
  "ibit": 7106,
  "ible": 768,
  "ibles": 49667,
  "ibly": 3784,
  "ibos": 36574,
  "ibr": 18553,
  "ibre": 43894,
  "ibrium": 21471,
  "ibu": 48500,
  "ibular": 30571,
  "ibut": 19800,
  "ic": 307,
  "ica": 11934,
  "icable": 46267,
  "icade": 43013,
  "ical": 726,
  "ically": 1075,
  "icals": 18956,
  "icama": 22980,
  "ican": 31455,
  "icate": 15224,
  "icated": 28719,
  "icating": 39832,
  "ication": 19732,
  "icator": 48310,
  "icc": 20612,
  "ice": 492,
  "iced": 3299,
  "icef": 33701,
  "icella": 43072,
  "icelli": 37846,
  "icemia": 46378,
  "icer": 29086,
  "ices": 1016,
  "ich": 598,
  "iche": 6639,
  "iches": 9104,
  "ichever": 7426,
  "ichi": 38345,
  "ichu": 21880,
  "ici": 39831,
  "icia": 31456,
  "icial": 23921,
  "ician": 4640,
  "icians": 11177,
  "icidal": 12155,
  "icide": 6221,
  "icides": 12263,
  "iciency": 19451,
  "icient": 13162,
  "icil": 25964,
  "icill": 49463,
  "icillin": 28048,
  "icin": 28553,
  "icine": 33368,
  "icing": 3642,
  "icion": 33990,
  "icious": 7043,
  "icip": 6430,
  "icit": 28718,
  "icitis": 31457,
  "ick": 436,
  "icked": 22130,
  "icken": 38840,
  "icking": 8511,
  "ickle": 43062,
  "ickness": 35066,
  "icks": 6254,
  "icky": 19309,
  "icle": 1981,
  "iclean": 34430,
  "icles": 3092,
  "iclo": 36101,
  "iclovir": 36443,
  "ico": 15205,
  "icon": 15839,
  "icone": 24805,
  "icons": 21552,
  "icose": 24018,
  "ics": 1347,
  "ict": 1086,
  "icted": 13338,
  "icter": 27385,
  "icting": 19159,
  "iction": 3352,
  "ictions": 12426,
  "icts": 18649,
  "icul": 21332,
  "icular": 7930,
  "iculitis": 28162,
  "iculous": 29652,
  "icum": 22877,
  "icums": 46268,
  "icune": 41005,
  "icus": 26497,
  "icut": 22876,
  "icy": 4589,
  "id": 336,
  "ida": 8614,
  "idad": 48336,
  "idae": 47787,
  "idal": 11259,
  "idana": 46298,
  "idas": 33080,
  "idase": 49493,
  "idate": 39846,
  "idated": 38811,
  "idav": 11525,
  "iday": 40407,
  "idazole": 30977,
  "idd": 1571,
  "idded": 26000,
  "idden": 4981,
  "idding": 13403,
  "iddle": 1864,
  "ide": 433,
  "ideally": 25072,
  "idectomy": 42359,
  "ided": 2495,
  "idem": 32495,
  "idemic": 44644,
  "idemux": 38700,
  "idence": 2465,
  "idences": 40408,
  "ident": 1987,
  "identify": 6860,
  "identifying": 48640,
  "idently": 44597,
  "idents": 8228,
  "idepress": 9847,
  "ider": 748,
  "iderate": 29881,
  "idered": 3389,
  "iderm": 23353,
  "iders": 5102,
  "ides": 1213,
  "idey": 49553,
  "idge": 3307,
  "idges": 13703,
  "idi": 49492,
  "idian": 15569,
  "idians": 38294,
  "idin": 44596,
  "idine": 22122,
  "iding": 2155,
  "idious": 46297,
  "idist": 26238,
  "idium": 23614,
  "idized": 36512,
  "idlog": 45413,
  "ido": 25715,
  "idone": 37816,
  "idor": 47271,
  "idosis": 38812,
  "ids": 1376,
  "idth": 16741,
  "idy": 32193,
  "idym": 48337,
  "ie": 426,
  "iece": 18596,
  "ied": 1010,
  "ief": 2340,
  "iel": 9808,
  "ield": 1680,
  "ieldy": 32004,
  "iels": 15930,
  "ien": 34998,
  "ience": 1194,
  "iences": 12149,
  "iency": 16840,
  "ient": 1257,
  "iente": 44779,
  "iently": 14000,
  "iento": 39963,
  "ients": 1233,
  "ier": 897,
  "iere": 24244,
  "iero": 49690,
  "iers": 4056,
  "ies": 484,
  "iesel": 32224,
  "iest": 3065,
  "iet": 2985,
  "ieth": 40939,
  "iety": 2810,
  "ieu": 43834,
  "ieval": 20994,
  "ieve": 1754,
  "iew": 1057,
  "if": 422,
  "ifax": 16027,
  "ife": 2166,
  "ifenes": 39870,
  "ifer": 16665,
  "iferous": 27060,
  "ifers": 27113,
  "ifery": 39869,
  "iff": 3413,
  "iffer": 16141,
  "ifference": 39868,
  "ifferent": 16176,
  "iffy": 32037,
  "ifi": 11297,
  "ifiable": 14970,
  "ific": 829,
  "ificant": 24963,
  "ification": 2580,
  "ifications": 4905,
  "ifice": 13641,
  "ified": 2214,
  "ifier": 5889,
  "ifiers": 11969,
  "ifies": 7297,
  "ifine": 35065,
  "ifix": 37839,
  "iflor": 43832,
  "iflower": 8889,
  "ifolia": 41052,
  "iform": 5594,
  "iforn": 7728,
  "ifr": 27896,
  "ift": 2035,
  "ifter": 41701,
  "ifting": 7689,
  "ifty": 25436,
  "iful": 4529,
  "ifully": 20321,
  "ify": 1145,
  "ifying": 4834,
  "ig": 338,
  "iga": 35761,
  "igami": 38813,
  "igan": 10972,
  "igans": 18869,
  "igap": 40410,
  "igar": 45414,
  "igas": 36110,
  "igate": 3611,
  "igated": 43797,
  "igating": 29095,
  "igation": 5787,
  "ige": 11789,
  "igen": 26376,
  "iger": 2781,
  "iges": 42314,
  "igested": 35384,
  "igh": 372,
  "ighed": 18756,
  "ight": 389,
  "ighted": 28564,
  "ightedness": 32723,
  "ighten": 30766,
  "ighter": 2878,
  "ighters": 12497,
  "ightly": 1599,
  "ighty": 43815,
  "igi": 18145,
  "igigas": 40411,
  "igio": 43798,
  "igious": 25965,
  "igma": 12797,
  "igmas": 37380,
  "igmat": 23336,
  "ign": 649,
  "ignant": 27911,
  "igned": 19408,
  "ignment": 14023,
  "ignon": 20744,
  "ignore": 26522,
  "igo": 19209,
  "igold": 20509,
  "igong": 27883,
  "igr": 11032,
  "igrade": 40147,
  "igrain": 35045,
  "igram": 38295,
  "igrams": 14383,
  "igrant": 32775,
  "igree": 45415,
  "igs": 5523,
  "igslist": 9998,
  "iguous": 33375,
  "igy": 40409,
  "ih": 11495,
  "ihood": 42234,
  "ii": 16168,
  "iii": 50254,
  "ij": 27241,
  "ija": 30025,
  "ijo": 47166,
  "ik": 3203,
  "ika": 10533,
  "ikai": 47637,
  "ike": 3783,
  "iken": 46189,
  "iker": 48720,
  "iki": 14171,
  "iko": 28797,
  "ikon": 49923,
  "ikum": 44897,
  "il": 363,
  "ila": 12291,
  "ilament": 28736,
  "ilant": 7924,
  "ilanthrop": 34507,
  "ilantro": 9646,
  "ilar": 1798,
  "ilate": 29262,
  "ilated": 33085,
  "ilater": 44609,
  "ilateral": 32198,
  "ilating": 36967,
  "ilation": 21257,
  "ilations": 43803,
  "ild": 587,
  "ile": 489,
  "ileaks": 40446,
  "iled": 2841,
  "ilee": 47352,
  "ileged": 45482,
  "iler": 14415,
  "ilera": 44296,
  "ilers": 25573,
  "iles": 3264,
  "iless": 46377,
  "iley": 29470,
  "ileys": 48421,
  "ili": 2541,
  "ilia": 19303,
  "ilial": 28562,
  "ilian": 47292,
  "ilians": 37093,
  "iliar": 3115,
  "iliary": 23373,
  "iliate": 12937,
  "iliation": 31049,
  "ilic": 41678,
  "ilies": 5696,
  "ilight": 19455,
  "iligo": 49513,
  "iline": 44608,
  "iling": 3554,
  "ilings": 17426,
  "ilingual": 27775,
  "ilion": 38820,
  "ilis": 22398,
  "ilit": 3730,
  "ilitating": 22725,
  "ilitation": 13680,
  "ilities": 2636,
  "ilitis": 39035,
  "ility": 1188,
  "ilization": 31931,
  "ilize": 4701,
  "ilized": 10371,
  "ilk": 1586,
  "ill": 331,
  "illa": 3455,
  "illance": 21766,
  "illary": 22314,
  "illas": 10009,
  "ille": 9648,
  "illed": 3227,
  "illery": 33999,
  "illes": 18818,
  "illet": 4306,
  "illi": 38810,
  "illight": 25066,
  "illin": 21208,
  "illing": 12319,
  "illion": 37378,
  "illo": 19913,
  "illon": 17005,
  "illos": 22781,
  "ills": 1605,
  "illus": 21070,
  "illy": 6584,
  "ilo": 7296,
  "ilog": 47293,
  "ilon": 19794,
  "iloqu": 50096,
  "iloso": 9873,
  "ilot": 41679,
  "ils": 3974,
  "ilson": 35905,
  "ilst": 12636,
  "ilt": 2992,
  "ilter": 21769,
  "iltered": 27388,
  "ilters": 48355,
  "ilton": 24681,
  "iluted": 21340,
  "ilver": 24576,
  "ily": 716,
  "ilyn": 30570,
  "im": 358,
  "ima": 21865,
  "imag": 27885,
  "image": 38301,
  "imagine": 29056,
  "imal": 5304,
  "imals": 19353,
  "iman": 42322,
  "imasu": 36961,
  "imate": 2861,
  "imately": 3172,
  "imbur": 14912,
  "ime": 1984,
  "imedia": 22782,
  "imen": 8718,
  "imenopause": 45883,
  "imens": 19914,
  "iment": 2639,
  "imental": 12528,
  "imentary": 36654,
  "iments": 6067,
  "imer": 14941,
  "imes": 1565,
  "imet": 34335,
  "imeter": 6738,
  "imeters": 12470,
  "imi": 29663,
  "imia": 19162,
  "imic": 17034,
  "imilar": 37820,
  "imin": 43033,
  "iminate": 28732,
  "imity": 14414,
  "imize": 28934,
  "imm": 11954,
  "immar": 45919,
  "immediate": 40752,
  "immediately": 41572,
  "immune": 17737,
  "imo": 24349,
  "imod": 46309,
  "imon": 47285,
  "imony": 18870,
  "imos": 40417,
  "imoto": 49502,
  "imp": 4814,
  "import": 46310,
  "impro": 26239,
  "improve": 27859,
  "imps": 45423,
  "ims": 44601,
  "imus": 37819,
  "in": 264,
  "ina": 4274,
  "inal": 1761,
  "inally": 35359,
  "inals": 15837,
  "inarily": 32749,
  "inary": 4247,
  "inas": 30955,
  "inase": 48234,
  "inate": 2826,
  "inated": 5163,
  "inates": 8301,
  "inating": 5638,
  "ination": 1908,
  "inations": 4852,
  "inative": 42972,
  "inator": 6864,
  "inators": 15745,
  "inav": 41616,
  "inburgh": 31907,
  "inc": 6363,
  "ince": 6017,
  "incense": 23871,
  "inch": 30733,
  "inches": 45335,
  "include": 18525,
  "incorporate": 35205,
  "incre": 21756,
  "increase": 23321,
  "inct": 4689,
  "inction": 18356,
  "inctions": 39803,
  "ind": 435,
  "inda": 47334,
  "inder": 3957,
  "individ": 38839,
  "individuals": 46113,
  "indle": 16809,
  "indled": 46358,
  "indling": 41706,
  "indul": 26803,
  "ine": 443,
  "inea": 5008,
  "ineas": 38842,
  "ined": 2018,
  "inee": 34023,
  "ineering": 41056,
  "inem": 27720,
  "inence": 22035,
  "inent": 8449,
  "inephrine": 20734,
  "iner": 3278,
  "ineral": 30735,
  "iners": 19555,
  "ines": 1138,
  "inese": 7497,
  "iness": 1104,
  "inest": 11986,
  "inet": 16881,
  "inets": 36081,
  "inette": 30034,
  "inf": 32175,
  "infect": 45334,
  "infl": 30736,
  "inflate": 44428,
  "info": 35360,
  "inform": 22387,
  "ing": 284,
  "ingale": 30274,
  "inge": 5773,
  "inged": 24341,
  "ingen": 37800,
  "inger": 3682,
  "ingers": 35021,
  "inges": 10897,
  "ingle": 16305,
  "ingles": 37353,
  "ingling": 28192,
  "ingly": 11737,
  "ingo": 28544,
  "ings": 585,
  "ington": 31449,
  "ingu": 7605,
  "inguish": 34865,
  "ini": 6438,
  "inil": 40363,
  "inine": 24337,
  "ining": 2403,
  "inis": 13868,
  "inished": 16882,
  "init": 31669,
  "initial": 40276,
  "initiate": 49176,
  "initis": 20498,
  "inity": 9061,
  "inja": 33054,
  "ink": 560,
  "inkle": 16517,
  "inko": 41735,
  "inks": 34036,
  "inn": 26780,
  "ino": 4869,
  "inoa": 8835,
  "inois": 18844,
  "inon": 43739,
  "inos": 17870,
  "inous": 36080,
  "inox": 32748,
  "input": 27531,
  "inqu": 17383,
  "inquire": 39652,
  "ins": 1336,
  "inse": 1958,
  "insert": 18206,
  "inset": 47553,
  "insett": 22514,
  "insic": 23012,
  "inson": 18961,
  "inspect": 21883,
  "inst": 14598,
  "install": 13005,
  "installing": 48974,
  "instead": 16656,
  "instruct": 45336,
  "int": 687,
  "intend": 40365,
  "inter": 10015,
  "interact": 44251,
  "intern": 40364,
  "internet": 49240,
  "inters": 20558,
  "intestinal": 14733,
  "inth": 30734,
  "inthe": 21425,
  "inthians": 38692,
  "inting": 10158,
  "into": 31720,
  "inton": 24252,
  "intosh": 22698,
  "introdu": 14732,
  "introduce": 16445,
  "ints": 6527,
  "intuitive": 22415,
  "intz": 49645,
  "inum": 11003,
  "invasive": 48235,
  "invent": 46216,
  "invest": 19047,
  "investigate": 32980,
  "invite": 26489,
  "inx": 39802,
  "iny": 3100,
  "inyl": 7367,
  "io": 1381,
  "iod": 1816,
  "iogram": 28101,
  "iograph": 29902,
  "iographic": 37059,
  "iography": 17726,
  "iol": 22474,
  "iola": 43716,
  "ioles": 43210,
  "iologist": 32555,
  "iology": 25614,
  "ion": 316,
  "ional": 1409,
  "ionally": 3311,
  "ionary": 41013,
  "ionate": 45403,
  "ione": 15927,
  "ioners": 46280,
  "ionic": 32770,
  "ionine": 47256,
  "ions": 509,
  "iope": 39443,
  "ior": 1263,
  "iorno": 45610,
  "iors": 4339,
  "ios": 5786,
  "iosa": 47722,
  "iose": 33042,
  "iosis": 35000,
  "iosyn": 36290,
  "iot": 3599,
  "iotic": 16325,
  "iotics": 36674,
  "iotomy": 37548,
  "iour": 11733,
  "ious": 942,
  "iously": 27585,
  "ioxid": 7472,
  "ip": 474,
  "ipe": 1674,
  "ipedia": 12362,
  "iper": 16311,
  "ipers": 13317,
  "iperspir": 14885,
  "ipher": 11606,
  "ipid": 46374,
  "ipital": 37405,
  "iple": 23231,
  "ipoo": 27396,
  "ipp": 5111,
  "ippable": 50025,
  "ipped": 3638,
  "ipper": 5153,
  "ippers": 6617,
  "ippi": 24064,
  "ipping": 2785,
  "ippings": 11701,
  "ippo": 21446,
  "ippy": 29068,
  "ips": 1260,
  "ipse": 22688,
  "ipsych": 24500,
  "ipt": 1957,
  "iptan": 39995,
  "ipts": 7240,
  "iptyline": 43844,
  "iqu": 1668,
  "iquant": 35494,
  "iquantel": 36896,
  "ique": 2115,
  "iqueness": 24267,
  "iques": 3835,
  "iquette": 12548,
  "ir": 354,
  "ira": 24679,
  "irable": 8822,
  "iracha": 27556,
  "irachi": 41670,
  "iram": 45419,
  "iramine": 43800,
  "irates": 49501,
  "iration": 10127,
  "irc": 1320,
  "ircle": 22152,
  "ird": 7408,
  "ire": 498,
  "irect": 6102,
  "irection": 27722,
  "irector": 46382,
  "ired": 1656,
  "ires": 4427,
  "iri": 23713,
  "irical": 26110,
  "iring": 4194,
  "iris": 47278,
  "irizine": 38817,
  "irk": 20136,
  "irl": 8114,
  "irls": 29662,
  "irm": 2771,
  "iro": 31436,
  "iron": 2414,
  "irosis": 28706,
  "irt": 1123,
  "irting": 9283,
  "irts": 3495,
  "irty": 8586,
  "iru": 46307,
  "irub": 27106,
  "irus": 19623,
  "iry": 25433,
  "is": 323,
  "isa": 33682,
  "isable": 45407,
  "isal": 26237,
  "isan": 25064,
  "isation": 22121,
  "isations": 36109,
  "isaver": 48322,
  "isc": 20989,
  "isco": 17149,
  "iscope": 24807,
  "iscus": 16477,
  "ise": 811,
  "ised": 2901,
  "isen": 32773,
  "iser": 15715,
  "isers": 21335,
  "ises": 2258,
  "ish": 704,
  "isha": 32241,
  "ishas": 49648,
  "ished": 1619,
  "isher": 5990,
  "ishers": 41956,
  "ishes": 4195,
  "ishing": 2765,
  "ishly": 48493,
  "ishment": 48494,
  "ishna": 34724,
  "isibility": 31223,
  "isible": 9220,
  "isil": 38804,
  "isin": 37373,
  "ising": 2512,
  "ision": 2157,
  "isional": 22219,
  "isions": 4424,
  "isive": 26795,
  "isk": 1375,
  "isl": 14137,
  "ism": 2405,
  "isman": 28616,
  "ismo": 44592,
  "isms": 8073,
  "iso": 19734,
  "isol": 49485,
  "isolate": 43028,
  "ison": 3809,
  "isone": 16458,
  "isonic": 37374,
  "isons": 12850,
  "isor": 8286,
  "isors": 14411,
  "isory": 34670,
  "isp": 4178,
  "isplay": 45408,
  "iss": 1103,
  "issa": 27424,
  "issan": 36599,
  "issance": 21787,
  "isse": 28052,
  "issed": 40526,
  "issey": 39350,
  "issimo": 40527,
  "ission": 23935,
  "issory": 31989,
  "ist": 471,
  "ista": 10888,
  "istan": 25440,
  "istas": 39881,
  "istat": 45479,
  "istatic": 41715,
  "iste": 35416,
  "ister": 4647,
  "isters": 7967,
  "istic": 2686,
  "istical": 18550,
  "istically": 14261,
  "istics": 4973,
  "istinct": 46373,
  "istine": 25972,
  "isting": 20999,
  "istle": 41714,
  "istrib": 24579,
  "istry": 8304,
  "ists": 2159,
  "isy": 10936,
  "it": 294,
  "ita": 10923,
  "itability": 37358,
  "itable": 8734,
  "itably": 17340,
  "itake": 27248,
  "ital": 2437,
  "italopram": 46583,
  "itals": 8548,
  "itan": 17147,
  "itance": 30049,
  "itar": 36490,
  "itarian": 21252,
  "itary": 13794,
  "itas": 19670,
  "itate": 4960,
  "itated": 21861,
  "itates": 30963,
  "itating": 18142,
  "itation": 2804,
  "itational": 36491,
  "itations": 6991,
  "itative": 14551,
  "itch": 1486,
  "itched": 12935,
  "itches": 3971,
  "ite": 530,
  "itech": 41078,
  "ited": 1868,
  "itely": 4202,
  "items": 48445,
  "iter": 14350,
  "iterate": 39331,
  "iteration": 26949,
  "iters": 36949,
  "ites": 1979,
  "itex": 31239,
  "ith": 339,
  "ither": 1251,
  "ithromycin": 36956,
  "ithy": 49494,
  "iti": 18814,
  "itian": 48286,
  "itic": 19449,
  "itical": 38789,
  "itidine": 43769,
  "ities": 1017,
  "itimate": 36094,
  "itin": 19969,
  "itine": 30278,
  "iting": 1121,
  "ition": 647,
  "itional": 2966,
  "itionally": 24833,
  "itions": 1862,
  "itious": 23917,
  "itis": 4262,
  "itism": 31677,
  "itive": 1366,
  "itiveness": 28369,
  "itives": 8518,
  "itivity": 7207,
  "itize": 27382,
  "itle": 32476,
  "itled": 33668,
  "itling": 45373,
  "ito": 8084,
  "itol": 18646,
  "itone": 28044,
  "itor": 2563,
  "itored": 15868,
  "itories": 23152,
  "itors": 8602,
  "itory": 10611,
  "itos": 23607,
  "itous": 38788,
  "itr": 26098,
  "itracin": 36407,
  "itri": 46252,
  "its": 870,
  "itsu": 29296,
  "itt": 13870,
  "itted": 44562,
  "itter": 2803,
  "itters": 18752,
  "itting": 23606,
  "itude": 3733,
  "itudes": 12317,
  "itunes": 41644,
  "iture": 3004,
  "itures": 21764,
  "itus": 16307,
  "itution": 30964,
  "ity": 540,
  "itz": 9439,
  "iu": 48203,
  "ium": 1418,
  "iums": 25615,
  "ius": 4099,
  "iv": 528,
  "iva": 8818,
  "ivable": 49582,
  "ival": 5303,
  "ivals": 13057,
  "ivan": 31480,
  "ivans": 44667,
  "ivary": 31238,
  "ivate": 8931,
  "ivated": 20324,
  "ivates": 45492,
  "ivating": 23243,
  "ivation": 14421,
  "ive": 410,
  "ived": 3762,
  "ivel": 17195,
  "ively": 4066,
  "iven": 9727,
  "iveness": 5540,
  "iver": 2464,
  "ivered": 39862,
  "ivers": 2934,
  "iverse": 13079,
  "iversity": 22440,
  "ives": 1924,
  "ivet": 18952,
  "ivia": 35418,
  "ivid": 1821,
  "ivided": 21714,
  "iving": 2655,
  "ivir": 9194,
  "ivirus": 46782,
  "ivities": 15804,
  "ivitis": 13782,
  "ivity": 3709,
  "ivo": 30315,
  "ivol": 29106,
  "ivores": 26120,
  "iw": 11280,
  "iwa": 46828,
  "iway": 34999,
  "iwyg": 50194,
  "ix": 1469,
  "iy": 24789,
  "iya": 45303,
  "iyaki": 30237,
  "iz": 522,
  "izable": 11496,
  "izant": 35791,
  "izard": 40454,
  "ization": 3699,
  "izations": 13288,
  "ize": 731,
  "ized": 1474,
  "izen": 37849,
  "izer": 2963,
  "izers": 7178,
  "izes": 3044,
  "izine": 31946,
  "izing": 2471,
  "izo": 30781,
  "izon": 10639,
  "izz": 2734,
  "izzard": 23644,
  "izzards": 37532,
  "izzle": 7422,
  "j": 78,
  "ja": 11476,
  "jack": 13179,
  "jail": 42237,
  "jailbreak": 48134,
  "jal": 39298,
  "jam": 49356,
  "jan": 35717,
  "jans": 47167,
  "jap": 49357,
  "jar": 44522,
  "jaw": 42951,
  "jay": 42950,
  "je": 23329,
  "ject": 935,
  "jer": 46190,
  "jet": 20555,
  "jeweled": 49098,
  "ji": 6478,
  "jic": 32741,
  "jis": 21479,
  "jj": 36456,
  "jk": 48204,
  "jo": 10006,
  "joba": 13004,
  "jobs": 37775,
  "join": 17615,
  "joining": 26185,
  "joint": 35351,
  "jolf": 49358,
  "jon": 23144,
  "jor": 20654,
  "jos": 35350,
  "jou": 34634,
  "jour": 20982,
  "journal": 26470,
  "joy": 23805,
  "jp": 39297,
  "js": 42236,
  "ju": 8400,
  "juana": 10251,
  "jud": 12511,
  "judge": 47168,
  "judgment": 34903,
  "judgmental": 36054,
  "jug": 43717,
  "juice": 45869,
  "jump": 32742,
  "jun": 19148,
  "junctive": 24557,
  "jured": 30948,
  "jury": 24333,
  "just": 1853,
  "juven": 16404,
  "k": 79,
  "ka": 5643,
  "kah": 25421,
  "kar": 43718,
  "kas": 31197,
  "kat": 42953,
  "kb": 46191,
  "kc": 38255,
  "ke": 328,
  "ked": 6547,
  "kee": 23711,
  "keep": 4811,
  "keeper": 18338,
  "keepers": 27788,
  "keeping": 13906,
  "keh": 32774,
  "kel": 13483,
  "keley": 49488,
  "ken": 3169,
  "kend": 42310,
  "ker": 5027,
  "kered": 24348,
  "kerel": 15064,
  "kers": 9256,
  "kes": 2268,
  "kew": 5150,
  "kewarm": 7397,
  "key": 3637,
  "keys": 11952,
  "kg": 15682,
  "kh": 42952,
  "ki": 15099,
  "kia": 19786,
  "kiah": 49064,
  "kick": 29430,
  "kid": 42238,
  "kids": 26640,
  "kien": 33571,
  "kill": 10528,
  "killed": 43720,
  "killer": 36767,
  "kin": 3612,
  "kinase": 46641,
  "kind": 33043,
  "kines": 35001,
  "kinesis": 49202,
  "kinetic": 46642,
  "king": 2178,
  "kings": 32462,
  "kins": 7929,
  "kinz": 15410,
  "kirk": 37326,
  "kirt": 37776,
  "kirts": 45306,
  "kis": 43719,
  "kiss": 45304,
  "kit": 15315,
  "kits": 46192,
  "kkit": 28707,
  "kla": 49360,
  "km": 26639,
  "kn": 21754,
  "kne": 49359,
  "knife": 36399,
  "knot": 15529,
  "know": 4606,
  "knowing": 22729,
  "ko": 17548,
  "kom": 47169,
  "krit": 45305,
  "ks": 3229,
  "kt": 40940,
  "ku": 11429,
  "kuchen": 45037,
  "kum": 32169,
  "kus": 47170,
  "kward": 5869,
  "ky": 5509,
  "l": 80,
  "la": 5584,
  "lab": 19254,
  "label": 34938,
  "lac": 48205,
  "lace": 35002,
  "lack": 47171,
  "lad": 39787,
  "ladder": 33350,
  "lage": 34635,
  "lah": 22383,
  "lahoma": 22765,
  "laim": 19946,
  "lain": 22867,
  "lam": 12063,
  "lamy": 16791,
  "lan": 17589,
  "lance": 33044,
  "land": 3587,
  "lands": 17089,
  "lane": 23233,
  "lang": 32463,
  "lank": 45308,
  "lanta": 46195,
  "lap": 12824,
  "lar": 6201,
  "large": 32643,
  "larger": 47734,
  "las": 26775,
  "laser": 48207,
  "lash": 25057,
  "lasm": 43721,
  "lass": 4948,
  "lasses": 6251,
  "late": 3982,
  "lates": 8658,
  "lature": 31664,
  "laught": 49361,
  "launch": 8078,
  "launcher": 36288,
  "lav": 27866,
  "lava": 35003,
  "lave": 46193,
  "law": 19204,
  "laws": 21945,
  "lax": 28913,
  "lay": 7295,
  "layer": 14015,
  "layers": 42668,
  "lays": 42240,
  "laz": 42954,
  "lb": 25954,
  "lbs": 24005,
  "lc": 13699,
  "ld": 346,
  "lda": 23155,
  "lder": 5931,
  "ldom": 22123,
  "ldon": 47274,
  "ldown": 31923,
  "le": 288,
  "lead": 22979,
  "leader": 25061,
  "leaders": 36843,
  "leading": 15370,
  "leaf": 25958,
  "lean": 20068,
  "leans": 28923,
  "learn": 5372,
  "learning": 30159,
  "leave": 18017,
  "lect": 644,
  "lectomy": 36558,
  "lectric": 44697,
  "led": 762,
  "ledge": 2743,
  "lee": 12985,
  "leep": 5546,
  "left": 45371,
  "leg": 28546,
  "lega": 48281,
  "legs": 27543,
  "leh": 49441,
  "lein": 38784,
  "lek": 48280,
  "lement": 20728,
  "lemon": 35749,
  "len": 3960,
  "lena": 31676,
  "lence": 6896,
  "length": 21206,
  "lenic": 38008,
  "lenn": 28637,
  "lens": 34313,
  "lent": 3088,
  "lep": 40380,
  "ler": 2383,
  "lers": 6091,
  "lery": 19420,
  "les": 611,
  "lesi": 49614,
  "less": 1266,
  "lessly": 9951,
  "lessness": 11862,
  "lest": 15241,
  "leston": 36488,
  "let": 1655,
  "lete": 10491,
  "leted": 23707,
  "leting": 43765,
  "letoe": 28368,
  "leton": 15423,
  "lets": 3759,
  "lett": 40560,
  "lette": 19225,
  "lettes": 36210,
  "letting": 44809,
  "leum": 7953,
  "leur": 20560,
  "level": 31675,
  "lex": 7483,
  "lexic": 48282,
  "ley": 4079,
  "leys": 17657,
  "lf": 583,
  "lful": 46406,
  "li": 1856,
  "lia": 36458,
  "liance": 8974,
  "lias": 28610,
  "lic": 769,
  "licate": 8588,
  "lication": 11069,
  "lice": 36457,
  "licensed": 31724,
  "lich": 31663,
  "licit": 9222,
  "licited": 18879,
  "licking": 41599,
  "lide": 26641,
  "lides": 37327,
  "lie": 14334,
  "lied": 9409,
  "lier": 4179,
  "liers": 13140,
  "lies": 2551,
  "liest": 17809,
  "lif": 17654,
  "life": 9239,
  "lift": 15659,
  "lifting": 15342,
  "lifts": 21196,
  "lig": 18862,
  "light": 2071,
  "lighten": 49843,
  "lighting": 32280,
  "lightly": 31198,
  "lights": 13014,
  "like": 3517,
  "lim": 6429,
  "limate": 17261,
  "lime": 33641,
  "limit": 21302,
  "limited": 11570,
  "limus": 35934,
  "lin": 10615,
  "lina": 45309,
  "linary": 19616,
  "line": 873,
  "lined": 6391,
  "liners": 42024,
  "lines": 4782,
  "liness": 12674,
  "ling": 1168,
  "lings": 4812,
  "lington": 42454,
  "lining": 11477,
  "link": 10969,
  "lins": 39299,
  "lion": 25955,
  "lions": 39788,
  "lip": 25298,
  "liqu": 42239,
  "lish": 2272,
  "list": 3527,
  "listed": 26856,
  "listen": 12931,
  "listening": 49943,
  "lists": 12512,
  "lit": 21686,
  "lite": 19499,
  "liters": 44362,
  "little": 44363,
  "live": 2942,
  "liver": 46545,
  "ll": 293,
  "lla": 6178,
  "llan": 49444,
  "llas": 21251,
  "lle": 45307,
  "lled": 5242,
  "ller": 6133,
  "llers": 14908,
  "lli": 30962,
  "llig": 7276,
  "lline": 49445,
  "lling": 2421,
  "llist": 49446,
  "llium": 23151,
  "llo": 24932,
  "llow": 825,
  "lls": 4316,
  "llum": 20443,
  "lly": 9590,
  "ln": 26085,
  "lo": 497,
  "load": 1229,
  "loader": 26989,
  "loaf": 22598,
  "loat": 26963,
  "lobacter": 43850,
  "loc": 5140,
  "local": 40665,
  "locate": 7775,
  "location": 41308,
  "lock": 3433,
  "locker": 41904,
  "locks": 13594,
  "lode": 26806,
  "lodeon": 34256,
  "loe": 36541,
  "lofen": 38850,
  "lofenac": 47080,
  "loft": 32802,
  "log": 1707,
  "loger": 43074,
  "logged": 22599,
  "logging": 27399,
  "logic": 27937,
  "logical": 11486,
  "logically": 37069,
  "login": 34700,
  "logist": 6573,
  "logists": 17637,
  "logue": 33763,
  "logy": 10860,
  "loin": 14662,
  "lol": 33100,
  "lon": 19400,
  "long": 27690,
  "lons": 41598,
  "look": 3370,
  "looking": 39022,
  "lookup": 34128,
  "loon": 38329,
  "loose": 46194,
  "loosen": 31894,
  "loot": 32503,
  "lop": 46381,
  "lopr": 35785,
  "lopramide": 40299,
  "lor": 4138,
  "lord": 7102,
  "lore": 22868,
  "lors": 25056,
  "los": 6305,
  "losan": 47737,
  "lose": 10284,
  "losed": 10147,
  "loses": 48424,
  "losing": 19924,
  "loss": 37847,
  "losure": 6980,
  "lot": 16694,
  "lots": 40941,
  "lotte": 29792,
  "love": 28071,
  "loved": 17231,
  "low": 23232,
  "lower": 8156,
  "lox": 16480,
  "loxacin": 40190,
  "loy": 1675,
  "loyal": 43989,
  "loys": 28216,
  "lp": 15566,
  "lr": 9223,
  "ls": 1915,
  "lson": 38431,
  "lt": 2764,
  "lu": 19350,
  "lub": 48206,
  "luck": 20556,
  "lud": 742,
  "lude": 8986,
  "luded": 16314,
  "luding": 48503,
  "lue": 22295,
  "lum": 40345,
  "lusion": 31437,
  "luster": 38749,
  "lux": 11921,
  "ly": 333,
  "lycer": 20928,
  "lying": 5424,
  "lymp": 16511,
  "lyn": 26109,
  "lyph": 30287,
  "lysis": 47267,
  "lytic": 37379,
  "m": 81,
  "ma": 3530,
  "mable": 31438,
  "mac": 31665,
  "made": 5525,
  "mag": 45310,
  "magh": 32312,
  "magic": 45313,
  "maid": 39510,
  "mail": 5204,
  "mails": 28182,
  "main": 18187,
  "maint": 41601,
  "maintain": 18806,
  "maintaining": 42913,
  "major": 44909,
  "make": 3018,
  "maker": 14962,
  "makers": 21545,
  "making": 14619,
  "mal": 37778,
  "male": 42956,
  "maline": 36070,
  "man": 2506,
  "manage": 26014,
  "manager": 49876,
  "mand": 39789,
  "mania": 41230,
  "mann": 31777,
  "mans": 15865,
  "manship": 17783,
  "many": 7306,
  "map": 17655,
  "maps": 35719,
  "mar": 26937,
  "mark": 4146,
  "marked": 29350,
  "market": 21897,
  "marks": 12373,
  "mart": 10563,
  "mary": 7910,
  "mas": 4630,
  "mash": 35718,
  "mask": 30949,
  "mass": 29638,
  "massage": 36037,
  "mast": 42242,
  "master": 15799,
  "masters": 29639,
  "mat": 6669,
  "match": 25554,
  "matched": 44981,
  "mate": 6205,
  "mates": 5903,
  "math": 24567,
  "matic": 17833,
  "matically": 30259,
  "matics": 32059,
  "matis": 22734,
  "mato": 32743,
  "matrix": 20639,
  "mats": 24334,
  "max": 36459,
  "may": 21247,
  "maybe": 22962,
  "mb": 2746,
  "mber": 9172,
  "mbert": 42697,
  "mblance": 33470,
  "mble": 3923,
  "mbling": 15614,
  "mbol": 4049,
  "mbola": 40061,
  "mbps": 47613,
  "mbre": 9168,
  "mcg": 48210,
  "md": 26086,
  "me": 1015,
  "meal": 5311,
  "mean": 13685,
  "meanwhile": 36788,
  "meas": 34744,
  "measure": 9843,
  "meat": 39420,
  "mect": 26938,
  "mectin": 27082,
  "med": 4436,
  "mediate": 15508,
  "medic": 43361,
  "medical": 40067,
  "meditate": 37138,
  "meditation": 43362,
  "mee": 49714,
  "meet": 17721,
  "mein": 37465,
  "mel": 7438,
  "melt": 20482,
  "mem": 25299,
  "member": 33968,
  "members": 46024,
  "memorize": 35299,
  "men": 7648,
  "menorrhea": 32937,
  "menot": 50101,
  "ment": 477,
  "mental": 27259,
  "mention": 19057,
  "mentioned": 20180,
  "ments": 847,
  "mer": 1819,
  "mere": 21083,
  "mered": 24258,
  "merge": 8723,
  "meric": 8699,
  "mers": 9922,
  "merse": 45656,
  "mes": 9485,
  "mesis": 38078,
  "mess": 43722,
  "met": 4281,
  "metal": 32619,
  "meter": 19045,
  "meters": 40943,
  "meth": 45311,
  "method": 48154,
  "metic": 21725,
  "mets": 16377,
  "mex": 34069,
  "mg": 12064,
  "mgm": 37779,
  "mgmt": 38243,
  "mgr": 41600,
  "mhz": 39301,
  "mi": 4383,
  "mia": 9131,
  "mias": 38501,
  "mic": 8506,
  "micro": 35597,
  "microsoft": 39266,
  "microw": 38065,
  "microwave": 42184,
  "mide": 40346,
  "mies": 21628,
  "miles": 43723,
  "milk": 11115,
  "mill": 10948,
  "million": 45032,
  "mills": 28914,
  "min": 2575,
  "mina": 33184,
  "minate": 32582,
  "mination": 26485,
  "mind": 25422,
  "minded": 38177,
  "mine": 16568,
  "minecraft": 41436,
  "ming": 2542,
  "mings": 24462,
  "mini": 35522,
  "minimize": 32583,
  "mint": 33967,
  "mir": 39300,
  "mis": 48209,
  "miss": 3141,
  "missible": 27162,
  "mission": 4125,
  "missions": 8030,
  "missive": 21985,
  "mist": 49364,
  "mit": 2255,
  "mite": 26642,
  "mith": 17382,
  "mitter": 28109,
  "mium": 28183,
  "mix": 8607,
  "mixed": 39102,
  "mk": 48208,
  "ml": 5119,
  "mla": 20771,
  "mm": 7345,
  "mma": 26227,
  "mn": 25701,
  "mo": 1614,
  "mob": 25889,
  "mobile": 30241,
  "mod": 4890,
  "mode": 27753,
  "model": 42629,
  "modern": 47692,
  "mography": 31279,
  "moist": 26546,
  "moisten": 48030,
  "moisturize": 33305,
  "moji": 10979,
  "mold": 34092,
  "molo": 40556,
  "mom": 37777,
  "mon": 1547,
  "monary": 19589,
  "mond": 38962,
  "money": 37328,
  "mong": 33642,
  "monitor": 21357,
  "monkey": 41829,
  "mons": 33643,
  "mont": 47172,
  "moon": 17991,
  "mop": 34636,
  "mor": 42241,
  "more": 5607,
  "mores": 45312,
  "morph": 31199,
  "mort": 49363,
  "mos": 20497,
  "moss": 49795,
  "most": 4731,
  "mot": 40942,
  "mother": 16841,
  "motion": 41602,
  "mount": 27085,
  "mountable": 37276,
  "mouse": 47173,
  "mouth": 24335,
  "move": 17145,
  "moving": 29510,
  "mp": 487,
  "mpathetic": 41721,
  "mph": 9558,
  "mploy": 11127,
  "mpt": 19214,
  "mption": 24482,
  "mptom": 28215,
  "mr": 49362,
  "ms": 1080,
  "mu": 26087,
  "much": 40944,
  "mud": 38256,
  "mult": 25191,
  "multip": 28345,
  "multiply": 29060,
  "mun": 12207,
  "mund": 42957,
  "munk": 25844,
  "mus": 11160,
  "music": 40149,
  "mv": 25843,
  "mw": 42955,
  "my": 6066,
  "myadmin": 39076,
  "n": 82,
  "na": 3676,
  "nae": 46646,
  "nah": 31896,
  "nail": 43724,
  "nal": 3330,
  "nalia": 29534,
  "nam": 3039,
  "name": 6182,
  "named": 39501,
  "names": 14830,
  "namese": 22017,
  "nap": 26365,
  "nar": 33351,
  "narrow": 45316,
  "nas": 22296,
  "nasal": 35284,
  "nate": 16842,
  "nati": 40348,
  "national": 47174,
  "natural": 29431,
  "naturally": 47175,
  "nav": 15712,
  "navigate": 16409,
  "nc": 28533,
  "nce": 1857,
  "nces": 2886,
  "nch": 40945,
  "ncies": 45315,
  "ncing": 33045,
  "ncy": 15200,
  "nd": 283,
  "nda": 10537,
  "ndas": 36089,
  "nday": 7743,
  "nded": 1689,
  "nder": 616,
  "ndered": 18446,
  "nders": 12825,
  "ndi": 49430,
  "nding": 1026,
  "ndo": 30518,
  "ndon": 13637,
  "ndos": 43762,
  "ndr": 6830,
  "ndra": 49431,
  "ndro": 25199,
  "ndrome": 7312,
  "ndron": 30744,
  "ndrons": 34497,
  "nds": 549,
  "ne": 974,
  "nea": 11542,
  "nearly": 38928,
  "neas": 38927,
  "neath": 3485,
  "neck": 23170,
  "necks": 29688,
  "nect": 1171,
  "ned": 3702,
  "neg": 41784,
  "nel": 4494,
  "neled": 44740,
  "nell": 35460,
  "nels": 13553,
  "ner": 821,
  "nered": 30339,
  "ners": 3325,
  "nertime": 37329,
  "nes": 10163,
  "nesday": 15560,
  "nesia": 27196,
  "ness": 1125,
  "nest": 20655,
  "net": 6804,
  "neth": 49365,
  "nets": 22577,
  "nett": 38531,
  "network": 34851,
  "neum": 12490,
  "never": 17656,
  "new": 8462,
  "news": 40124,
  "nexis": 48536,
  "next": 43169,
  "ney": 2466,
  "neys": 7040,
  "ng": 878,
  "nga": 34736,
  "nge": 4549,
  "ngeal": 45786,
  "ngitis": 28087,
  "ngo": 46450,
  "ngth": 1274,
  "ngthe": 4418,
  "ngthen": 44934,
  "ni": 46196,
  "nia": 9974,
  "nic": 8547,
  "nica": 27332,
  "nie": 19903,
  "nier": 18538,
  "niers": 46198,
  "nies": 12150,
  "niest": 29243,
  "nifer": 29244,
  "night": 3635,
  "nik": 37780,
  "ning": 975,
  "nings": 11823,
  "nip": 12468,
  "nips": 21480,
  "niqu": 25423,
  "nir": 46197,
  "nis": 7673,
  "niss": 31895,
  "nitus": 19787,
  "nity": 10850,
  "nn": 36071,
  "no": 6136,
  "nob": 19904,
  "nobody": 41329,
  "nobs": 29954,
  "nog": 23806,
  "noh": 45829,
  "nold": 41328,
  "non": 28037,
  "noon": 7172,
  "nor": 31200,
  "norm": 7793,
  "normal": 38055,
  "normally": 50107,
  "nose": 40347,
  "not": 1040,
  "note": 10092,
  "notes": 15757,
  "nothing": 28763,
  "notice": 13273,
  "notify": 44749,
  "nour": 26486,
  "nourished": 29054,
  "now": 3031,
  "nown": 8157,
  "nows": 22110,
  "nox": 19553,
  "np": 33969,
  "ns": 1919,
  "nsylvan": 19323,
  "nt": 402,
  "nthia": 48376,
  "ntz": 38312,
  "number": 45314,
  "nut": 5330,
  "nutrition": 22732,
  "nuts": 7188,
  "nx": 17869,
  "ny": 2479,
  "nyl": 34112,
  "o": 83,
  "oa": 25845,
  "oaffective": 42134,
  "oam": 35004,
  "oard": 31439,
  "oat": 27374,
  "oats": 44523,
  "ob": 3119,
  "oba": 11795,
  "obac": 25775,
  "obacter": 35162,
  "obar": 27453,
  "obarbital": 27863,
  "obe": 26776,
  "obed": 34124,
  "obi": 48715,
  "obia": 35886,
  "obic": 27951,
  "obile": 14821,
  "obiles": 34125,
  "object": 45731,
  "obr": 42244,
  "obs": 9564,
  "observe": 18050,
  "obtain": 10421,
  "obvious": 32593,
  "obviously": 33632,
  "oc": 2943,
  "ocaine": 19817,
  "ocal": 37102,
  "ocamp": 44061,
  "ocar": 43303,
  "ocard": 25639,
  "ocate": 9595,
  "ocation": 43304,
  "occ": 12632,
  "occhi": 33191,
  "occup": 17067,
  "och": 17970,
  "ochond": 41452,
  "ocin": 49912,
  "ock": 1750,
  "ocks": 35848,
  "ococcal": 39790,
  "ocr": 18188,
  "ocrine": 49051,
  "ocular": 14299,
  "oculars": 16609,
  "ocus": 15889,
  "ocy": 25192,
  "od": 837,
  "oda": 46444,
  "ode": 6861,
  "odectic": 44727,
  "odefic": 31345,
  "oderm": 29886,
  "odes": 9231,
  "odiac": 28589,
  "odial": 32530,
  "odiazep": 26132,
  "odic": 42430,
  "odies": 14073,
  "odil": 28412,
  "odin": 37881,
  "odium": 26131,
  "odo": 31500,
  "odont": 31727,
  "odor": 6686,
  "odox": 45566,
  "ods": 38913,
  "ody": 6521,
  "odymium": 42655,
  "odynia": 39084,
  "oe": 5270,
  "oeconomic": 39057,
  "oes": 34294,
  "oetida": 36460,
  "of": 2388,
  "off": 7653,
  "offel": 50103,
  "offensive": 47765,
  "offer": 20483,
  "office": 21384,
  "offs": 20284,
  "oflav": 29334,
  "oft": 13515,
  "often": 19198,
  "oftentimes": 31836,
  "oful": 48213,
  "ofulvin": 49303,
  "og": 1660,
  "ogen": 16031,
  "ogene": 36625,
  "ogeneous": 37314,
  "ogenic": 12390,
  "ogenous": 36801,
  "ogens": 17537,
  "ogical": 32862,
  "oglo": 33156,
  "oglyph": 32003,
  "ogo": 40561,
  "ogram": 27524,
  "ograms": 40349,
  "ograp": 32464,
  "ograph": 7271,
  "ographer": 37330,
  "ographers": 48078,
  "ographic": 26883,
  "ographical": 47755,
  "ography": 13145,
  "ogre": 31523,
  "ogs": 39977,
  "ogue": 18421,
  "ogues": 36211,
  "ogy": 22428,
  "oh": 21546,
  "ohe": 48211,
  "oi": 32744,
  "oid": 773,
  "oidal": 17277,
  "oides": 49668,
  "oids": 5913,
  "oil": 39302,
  "oin": 38257,
  "oint": 3144,
  "ointing": 22476,
  "oints": 26421,
  "oir": 8739,
  "oire": 48212,
  "ois": 23416,
  "oise": 15660,
  "ok": 11759,
  "oke": 8272,
  "oked": 13609,
  "okes": 17185,
  "oking": 21850,
  "ol": 562,
  "ola": 6624,
  "olactone": 39383,
  "olais": 31343,
  "olalia": 38861,
  "olam": 26970,
  "olamine": 41086,
  "olan": 47369,
  "olar": 8533,
  "olas": 30319,
  "olate": 31484,
  "old": 8342,
  "older": 21248,
  "oldering": 41998,
  "olders": 40123,
  "ole": 6606,
  "oles": 22111,
  "oleum": 44185,
  "olf": 39382,
  "oli": 3875,
  "olia": 24360,
  "olian": 41736,
  "oliate": 8091,
  "olic": 17345,
  "olin": 14444,
  "olina": 29671,
  "oline": 8766,
  "olinerg": 40775,
  "olingo": 30562,
  "olini": 34711,
  "olio": 8767,
  "olios": 28458,
  "olis": 20081,
  "olitan": 20566,
  "olite": 24692,
  "olive": 37853,
  "olk": 35793,
  "oll": 22475,
  "ollen": 7876,
  "olo": 23910,
  "olog": 2248,
  "ological": 10596,
  "ologically": 26557,
  "ologies": 15440,
  "ologist": 17125,
  "ologists": 22340,
  "ology": 3515,
  "olon": 23507,
  "olone": 25082,
  "olons": 35078,
  "olor": 33405,
  "olot": 30561,
  "olph": 45503,
  "ols": 20144,
  "olt": 15990,
  "olulu": 34037,
  "oly": 18103,
  "olytic": 47950,
  "om": 305,
  "oma": 6235,
  "omaceous": 21695,
  "omail": 49459,
  "omal": 23609,
  "oman": 19731,
  "omania": 33584,
  "omas": 15511,
  "omasty": 48307,
  "omat": 38281,
  "omatic": 38282,
  "omavirus": 47244,
  "omb": 16846,
  "ombo": 41003,
  "ome": 408,
  "omed": 9601,
  "omedical": 38080,
  "omegal": 43826,
  "omegaly": 46140,
  "omel": 45458,
  "omen": 15803,
  "omena": 28197,
  "omeness": 41649,
  "omer": 26236,
  "omers": 37808,
  "omes": 13795,
  "omet": 689,
  "ometallic": 47415,
  "ometer": 4763,
  "ometers": 11107,
  "ometh": 36569,
  "ometra": 34722,
  "ometric": 12054,
  "ometrics": 27581,
  "ometry": 13664,
  "omever": 23081,
  "omi": 29256,
  "omial": 13431,
  "omials": 24804,
  "omic": 8150,
  "omical": 24344,
  "omically": 49460,
  "omies": 44575,
  "omile": 8332,
  "omill": 42293,
  "omin": 36499,
  "omine": 47243,
  "oming": 29084,
  "omist": 40393,
  "omla": 29848,
  "omm": 49458,
  "omnia": 12604,
  "omo": 37807,
  "omon": 22485,
  "omonas": 49088,
  "omous": 37809,
  "omp": 8003,
  "oms": 5520,
  "omuscular": 44576,
  "omy": 6118,
  "omycin": 40095,
  "omycosis": 43392,
  "omyopathy": 30638,
  "on": 286,
  "ona": 18359,
  "onacci": 30961,
  "onal": 5129,
  "onance": 35371,
  "onase": 45366,
  "onc": 36090,
  "once": 8853,
  "onces": 40988,
  "ond": 3216,
  "ondo": 25121,
  "onds": 9227,
  "one": 469,
  "oned": 19351,
  "oneer": 48416,
  "oneering": 45478,
  "onella": 13918,
  "onent": 3548,
  "onential": 22308,
  "onents": 4597,
  "oner": 36486,
  "ones": 1922,
  "onex": 46372,
  "oney": 1191,
  "ong": 534,
  "onge": 3757,
  "ongest": 13151,
  "ongh": 22209,
  "ongo": 48446,
  "ongr": 19740,
  "ongs": 11692,
  "oni": 11257,
  "onia": 12236,
  "onian": 47223,
  "onic": 3194,
  "onica": 43313,
  "onically": 44555,
  "onics": 24466,
  "onide": 40378,
  "onies": 15017,
  "onin": 9218,
  "oning": 12154,
  "onite": 23421,
  "onitis": 47224,
  "onium": 36943,
  "onkey": 42272,
  "online": 32184,
  "only": 18489,
  "onn": 28193,
  "onna": 9846,
  "onnaise": 10391,
  "onnect": 5687,
  "onnie": 35372,
  "ono": 23072,
  "onos": 49436,
  "onous": 27698,
  "ons": 850,
  "onse": 3772,
  "onstrate": 36091,
  "ont": 1050,
  "ontent": 39426,
  "ontin": 9675,
  "onto": 31014,
  "onts": 9416,
  "ony": 2819,
  "onym": 7843,
  "onyms": 18035,
  "oo": 337,
  "ood": 452,
  "oodle": 13221,
  "oodles": 18404,
  "oof": 8244,
  "oofer": 30288,
  "oofers": 36746,
  "ook": 437,
  "ooked": 12172,
  "ool": 750,
  "oola": 47426,
  "ooled": 6708,
  "ooler": 42416,
  "ools": 38901,
  "oom": 40946,
  "oon": 2043,
  "oonosis": 44013,
  "oons": 7952,
  "oop": 1910,
  "oopa": 36225,
  "ooperative": 37507,
  "ooping": 19869,
  "oops": 5493,
  "oos": 2114,
  "oose": 728,
  "oosen": 31533,
  "oosh": 29151,
  "ooshing": 45682,
  "oot": 42243,
  "op": 717,
  "opa": 28408,
  "opal": 32520,
  "opard": 12588,
  "opath": 13437,
  "opathic": 17517,
  "opathy": 18955,
  "opausal": 40482,
  "opause": 42411,
  "opay": 43892,
  "ope": 21946,
  "oped": 15574,
  "open": 3161,
  "opened": 20884,
  "openia": 45733,
  "opening": 38892,
  "oper": 43131,
  "operative": 36571,
  "opes": 28579,
  "oph": 5673,
  "ophan": 23663,
  "ophen": 10907,
  "ophil": 14255,
  "ophile": 32337,
  "ophiles": 41949,
  "ophilia": 27051,
  "ophilic": 32967,
  "ophilus": 17917,
  "opho": 15784,
  "ophobia": 27351,
  "ophobic": 42064,
  "ophoresis": 45815,
  "ophy": 20084,
  "ophyll": 21239,
  "opia": 25088,
  "opian": 22798,
  "opic": 23005,
  "opl": 14665,
  "oplasm": 26454,
  "oplasmic": 41417,
  "oplasmosis": 27369,
  "oplast": 37217,
  "oplasty": 25393,
  "ople": 631,
  "opolis": 40481,
  "opp": 34637,
  "opportun": 47049,
  "opr": 32243,
  "opram": 46423,
  "oprene": 49650,
  "oprim": 48496,
  "oprine": 46424,
  "opro": 48495,
  "oprop": 13186,
  "opropyl": 13302,
  "ops": 5969,
  "opsis": 18007,
  "opsy": 14229,
  "opt": 17393,
  "opular": 22612,
  "opulmonary": 43132,
  "opy": 15641,
  "oqu": 23234,
  "oque": 42245,
  "or": 289,
  "ora": 9527,
  "orage": 3492,
  "orah": 31915,
  "orak": 30276,
  "oral": 18751,
  "orama": 20986,
  "oraph": 36489,
  "oras": 24802,
  "orate": 17524,
  "orated": 34655,
  "orating": 27544,
  "oration": 7896,
  "orative": 22675,
  "orb": 42279,
  "orce": 44558,
  "ord": 758,
  "order": 3316,
  "orders": 5621,
  "ordes": 38363,
  "ordinate": 40491,
  "ordinated": 43901,
  "ording": 28409,
  "ordo": 48507,
  "ore": 458,
  "orean": 13574,
  "orectal": 39368,
  "ored": 1938,
  "oree": 30304,
  "orementioned": 20997,
  "orer": 35779,
  "orers": 44653,
  "ores": 4193,
  "orescent": 12381,
  "oresis": 40633,
  "orexia": 36536,
  "orf": 37355,
  "organ": 9267,
  "organic": 25514,
  "organization": 43435,
  "organize": 17961,
  "organized": 18901,
  "orge": 9981,
  "orgot": 49442,
  "ori": 18191,
  "oria": 29441,
  "orial": 15661,
  "oric": 20069,
  "orice": 11723,
  "orient": 35750,
  "ories": 1682,
  "orig": 37356,
  "original": 41547,
  "orily": 39821,
  "oring": 2940,
  "orino": 38786,
  "orious": 14002,
  "oris": 38785,
  "orium": 47229,
  "orize": 9365,
  "ork": 1236,
  "orkie": 44776,
  "orld": 17264,
  "orm": 596,
  "ormal": 25594,
  "orms": 31956,
  "orn": 2707,
  "orned": 47608,
  "orns": 13367,
  "oro": 33366,
  "orous": 10690,
  "orox": 38277,
  "orp": 35373,
  "orpg": 45372,
  "orph": 19728,
  "orphine": 45122,
  "orporate": 31215,
  "orps": 30520,
  "orr": 8113,
  "orrect": 34314,
  "orrent": 23331,
  "orrh": 9739,
  "orrhea": 18176,
  "orrow": 10610,
  "orrvask": 41993,
  "ors": 706,
  "orse": 19911,
  "orses": 24698,
  "orship": 14117,
  "ort": 444,
  "orta": 36531,
  "orted": 24948,
  "orter": 4030,
  "orters": 16845,
  "orth": 2455,
  "orthal": 45696,
  "orthodox": 45697,
  "orthy": 7291,
  "ortic": 19213,
  "orting": 41057,
  "ortion": 14683,
  "orts": 2481,
  "ortun": 2486,
  "orum": 35026,
  "orus": 10886,
  "ory": 950,
  "os": 618,
  "osa": 16968,
  "osas": 36159,
  "osate": 31486,
  "osaur": 14731,
  "osaurus": 50237,
  "oscope": 14316,
  "oscopes": 41744,
  "oscopic": 28226,
  "oscopy": 17392,
  "ose": 673,
  "osec": 44705,
  "osed": 1961,
  "osen": 4061,
  "osene": 25732,
  "oses": 4766,
  "oset": 48487,
  "osexual": 18916,
  "osexuals": 45537,
  "osh": 14203,
  "oshi": 35638,
  "osine": 35433,
  "osing": 13202,
  "osis": 3815,
  "osition": 6949,
  "ositions": 26521,
  "ositories": 23723,
  "ository": 14056,
  "osity": 17529,
  "oske": 21965,
  "oskelet": 27367,
  "oskeletal": 30245,
  "oskeleton": 32420,
  "osot": 15843,
  "osotros": 15923,
  "osp": 3565,
  "osperm": 42590,
  "osph": 9687,
  "ospitable": 41911,
  "ospor": 46411,
  "oss": 5716,
  "ost": 3898,
  "ostale": 30146,
  "ostane": 48753,
  "ostatic": 41268,
  "oste": 33203,
  "oster": 7004,
  "osterone": 10974,
  "ostic": 35546,
  "osus": 42398,
  "osy": 14489,
  "ot": 308,
  "ota": 15685,
  "otal": 22042,
  "otane": 41006,
  "otation": 25568,
  "otaur": 39834,
  "otc": 49464,
  "otch": 9467,
  "ote": 2348,
  "otechn": 28786,
  "otechnology": 31881,
  "otect": 12605,
  "otein": 29717,
  "otene": 43014,
  "oter": 36501,
  "otes": 12496,
  "oth": 881,
  "othe": 45394,
  "othed": 10724,
  "other": 851,
  "otherap": 19988,
  "otherapist": 22378,
  "otherapists": 39197,
  "otherapy": 8018,
  "othered": 35753,
  "othermal": 45567,
  "othermic": 44731,
  "otherwise": 46447,
  "othgar": 41779,
  "othing": 39833,
  "otho": 48526,
  "othor": 41129,
  "othorax": 42211,
  "oths": 47448,
  "othy": 11287,
  "otic": 7879,
  "otics": 17148,
  "otidine": 46269,
  "otill": 31918,
  "otillomania": 42154,
  "otin": 18650,
  "otine": 10723,
  "otion": 26102,
  "otivated": 30751,
  "otive": 14182,
  "otle": 22310,
  "oto": 15747,
  "otomy": 29849,
  "oton": 33991,
  "otonin": 12698,
  "otope": 29595,
  "otor": 48311,
  "otr": 22583,
  "otrache": 48002,
  "otrans": 27223,
  "otrex": 34321,
  "otri": 37810,
  "otriene": 41550,
  "otrop": 30527,
  "ots": 1268,
  "otsie": 45611,
  "ott": 30526,
  "otta": 14857,
  "otti": 35377,
  "otto": 24238,
  "oty": 9314,
  "otypal": 48921,
  "otype": 21739,
  "otypes": 38073,
  "otypical": 36329,
  "ou": 265,
  "ouble": 1528,
  "oubted": 23494,
  "oubtedly": 23596,
  "ouch": 1510,
  "ouched": 19666,
  "ouching": 23530,
  "ouchure": 28772,
  "oud": 2608,
  "oufl": 14408,
  "oug": 33975,
  "ough": 569,
  "oughly": 2176,
  "oughs": 37003,
  "ought": 4504,
  "ougne": 47043,
  "oul": 35361,
  "ould": 405,
  "ouli": 24569,
  "oumi": 37345,
  "oun": 1152,
  "ounce": 3568,
  "ounced": 26535,
  "ounces": 4903,
  "ouncing": 48558,
  "ound": 804,
  "ounded": 32526,
  "ounder": 27693,
  "ounding": 39406,
  "ounds": 2171,
  "ounge": 19007,
  "ount": 593,
  "ountered": 18954,
  "oupe": 14310,
  "our": 514,
  "oura": 2152,
  "ourable": 37087,
  "ourage": 20098,
  "ource": 34704,
  "oured": 9374,
  "ourer": 47191,
  "ouri": 26119,
  "ours": 24688,
  "ourse": 12639,
  "ourt": 33394,
  "ous": 651,
  "ousal": 21266,
  "ouse": 1056,
  "oused": 31490,
  "ouses": 10003,
  "ousing": 26257,
  "ously": 3664,
  "ousy": 35440,
  "out": 356,
  "outh": 1728,
  "outhing": 47283,
  "outline": 35390,
  "outputstream": 36960,
  "outs": 4632,
  "outube": 47284,
  "ov": 11505,
  "ova": 33352,
  "ovable": 40947,
  "ove": 676,
  "ovel": 5392,
  "oven": 36072,
  "over": 3976,
  "overed": 7739,
  "overs": 8659,
  "ovie": 20057,
  "ovirus": 27827,
  "ovski": 39130,
  "ow": 320,
  "owa": 28377,
  "owed": 26107,
  "owel": 6248,
  "owels": 45405,
  "ower": 807,
  "owered": 20186,
  "owers": 28723,
  "owing": 13872,
  "owl": 22986,
  "owling": 41660,
  "owls": 38802,
  "own": 506,
  "owner": 43852,
  "owness": 29870,
  "ownload": 43078,
  "owrim": 38803,
  "owrimo": 39284,
  "ows": 766,
  "ox": 2920,
  "oxetine": 26566,
  "oxic": 18001,
  "oxicam": 32408,
  "oxid": 27012,
  "oxide": 4944,
  "oxidil": 29823,
  "oxin": 31059,
  "oxine": 49910,
  "oxins": 48708,
  "oxone": 48707,
  "oxy": 32890,
  "oy": 1448,
  "oyl": 13958,
  "oys": 9147,
  "oz": 19255,
  "p": 84,
  "pa": 7493,
  "pace": 7883,
  "paces": 41604,
  "pack": 5578,
  "packing": 39550,
  "packs": 16798,
  "pad": 9705,
  "pads": 42247,
  "page": 6416,
  "pages": 21687,
  "pain": 40350,
  "paint": 19150,
  "pair": 23145,
  "pak": 46200,
  "pal": 6760,
  "pan": 2922,
  "panel": 33190,
  "panic": 33474,
  "pans": 32171,
  "pants": 16449,
  "paper": 5128,
  "papers": 27086,
  "par": 1712,
  "paragus": 8488,
  "paralle": 44818,
  "parate": 18832,
  "pard": 45318,
  "pare": 5469,
  "parent": 6422,
  "parents": 34844,
  "park": 20983,
  "part": 10450,
  "particip": 36339,
  "participate": 40890,
  "particular": 48930,
  "parts": 16732,
  "partum": 18387,
  "pas": 41603,
  "pass": 9099,
  "passes": 39595,
  "password": 46780,
  "pasta": 49373,
  "pat": 29835,
  "path": 27242,
  "patient": 16132,
  "patrol": 47025,
  "paw": 40351,
  "pay": 10393,
  "payment": 30438,
  "pc": 32170,
  "pd": 37331,
  "pdf": 49370,
  "pe": 375,
  "peace": 39852,
  "peak": 29266,
  "pec": 27888,
  "pecially": 1284,
  "pecific": 41498,
  "peck": 22488,
  "pect": 982,
  "pected": 8015,
  "pecting": 25990,
  "pection": 10540,
  "pective": 4404,
  "ped": 16771,
  "pedia": 20608,
  "pee": 19917,
  "peed": 45437,
  "peel": 17388,
  "peeled": 29097,
  "pees": 20076,
  "peg": 14161,
  "pegg": 32782,
  "pegs": 48362,
  "peh": 19918,
  "pel": 9823,
  "pell": 45436,
  "pella": 49518,
  "pelled": 17150,
  "pen": 19617,
  "pend": 3409,
  "penda": 48736,
  "pended": 14727,
  "pending": 11033,
  "pens": 48215,
  "pent": 16235,
  "pentine": 19345,
  "people": 12069,
  "pept": 43810,
  "per": 9627,
  "peramide": 48926,
  "pered": 13485,
  "perfect": 39116,
  "perform": 17452,
  "performing": 38616,
  "perhaps": 22549,
  "peridone": 50165,
  "perm": 45319,
  "pers": 35005,
  "person": 12675,
  "personal": 38750,
  "pes": 6290,
  "pet": 12870,
  "peter": 39793,
  "pg": 4574,
  "ph": 1455,
  "pha": 46507,
  "phad": 43974,
  "phal": 14670,
  "phan": 19008,
  "phar": 40546,
  "phe": 22384,
  "phen": 35007,
  "pher": 10949,
  "phers": 27040,
  "pherson": 50185,
  "phia": 26405,
  "phin": 15580,
  "phins": 11754,
  "phone": 2317,
  "phones": 6368,
  "phosph": 42477,
  "phot": 33751,
  "photo": 20340,
  "photos": 40285,
  "phrase": 34083,
  "phrine": 18884,
  "phy": 30106,
  "physical": 33752,
  "phyx": 45629,
  "pi": 27691,
  "pia": 36461,
  "pic": 13262,
  "pical": 16843,
  "pically": 23417,
  "pick": 7153,
  "picking": 32932,
  "pict": 39792,
  "picture": 45250,
  "picuous": 13968,
  "picuously": 45059,
  "pid": 46199,
  "pie": 6400,
  "piece": 7402,
  "pieces": 14850,
  "pies": 39791,
  "pig": 42958,
  "pik": 48216,
  "pike": 43725,
  "pile": 19149,
  "piles": 39304,
  "pill": 11922,
  "pin": 11776,
  "pinch": 42727,
  "pine": 49367,
  "pinephrine": 33970,
  "ping": 8673,
  "pinpoint": 47853,
  "pins": 16068,
  "pip": 39303,
  "pipe": 18353,
  "pipes": 46116,
  "pir": 3872,
  "pire": 47176,
  "pired": 40948,
  "pit": 26088,
  "pitch": 49368,
  "pite": 35006,
  "pix": 36920,
  "pjp": 41605,
  "pl": 793,
  "place": 1834,
  "placeable": 41840,
  "placed": 18287,
  "places": 16579,
  "placing": 31497,
  "plain": 48511,
  "plan": 9312,
  "plane": 10420,
  "planes": 24432,
  "planet": 35605,
  "planning": 44235,
  "plant": 6501,
  "planted": 23519,
  "plants": 13371,
  "plash": 22140,
  "plasia": 18917,
  "plastic": 33725,
  "plate": 20454,
  "play": 1293,
  "player": 24598,
  "players": 47493,
  "playing": 35832,
  "ple": 416,
  "please": 41050,
  "pled": 33696,
  "plen": 11652,
  "pler": 24367,
  "plers": 48512,
  "ples": 5839,
  "pless": 15104,
  "plet": 43828,
  "plete": 11479,
  "plex": 23619,
  "pley": 41699,
  "plic": 16205,
  "plicated": 35264,
  "plify": 45560,
  "pling": 15644,
  "plings": 20573,
  "plish": 34056,
  "plug": 17157,
  "plus": 17117,
  "ply": 1389,
  "pm": 8047,
  "pn": 10252,
  "po": 1068,
  "pod": 22869,
  "pods": 28888,
  "point": 5321,
  "pointing": 37042,
  "points": 14879,
  "poke": 36183,
  "poken": 29691,
  "pol": 33046,
  "pole": 28240,
  "poly": 43941,
  "pon": 49366,
  "ponder": 38398,
  "pons": 17480,
  "pool": 21062,
  "poon": 2181,
  "poons": 2958,
  "pop": 31440,
  "popular": 37781,
  "por": 2874,
  "porate": 29160,
  "porin": 26565,
  "port": 2905,
  "portant": 21719,
  "porter": 44056,
  "ports": 11824,
  "pos": 25194,
  "position": 16611,
  "positive": 42814,
  "poss": 43942,
  "post": 17936,
  "posts": 29494,
  "posure": 35675,
  "pot": 9855,
  "pots": 30026,
  "pour": 9059,
  "pow": 25193,
  "powder": 29615,
  "power": 10293,
  "pox": 18608,
  "pp": 387,
  "pped": 1789,
  "pper": 1346,
  "ppers": 3460,
  "pperware": 15354,
  "ppie": 27890,
  "ppies": 17627,
  "pping": 1235,
  "ppings": 7550,
  "pple": 48368,
  "ppm": 39855,
  "pport": 14242,
  "pps": 47303,
  "ppy": 2475,
  "pr": 2721,
  "pract": 10218,
  "practice": 10392,
  "praise": 49372,
  "pray": 39010,
  "pre": 3526,
  "pread": 19554,
  "prefer": 37994,
  "preferably": 41553,
  "preheat": 7155,
  "prene": 17902,
  "prep": 18468,
  "prepar": 40040,
  "prepare": 6143,
  "prepared": 25935,
  "preparing": 49239,
  "pres": 19966,
  "prescription": 39196,
  "present": 24217,
  "press": 4720,
  "pressed": 38021,
  "presso": 9711,
  "pret": 27375,
  "pretend": 42588,
  "prevent": 28455,
  "price": 42561,
  "prime": 34445,
  "pring": 28915,
  "prings": 44879,
  "print": 9334,
  "printing": 29337,
  "prints": 11818,
  "prior": 22522,
  "prioritize": 30009,
  "prising": 43293,
  "prisingly": 44495,
  "prits": 23022,
  "priv": 41236,
  "private": 36657,
  "pro": 4044,
  "prob": 38009,
  "probably": 45231,
  "process": 47664,
  "produ": 19095,
  "prof": 9235,
  "profess": 19288,
  "professional": 20063,
  "profile": 44232,
  "program": 46666,
  "project": 37557,
  "prom": 25472,
  "promazine": 38667,
  "pron": 31305,
  "proof": 5979,
  "prop": 22297,
  "proper": 36462,
  "prosy": 49969,
  "protect": 12730,
  "protected": 17303,
  "protein": 41881,
  "prov": 46665,
  "provide": 16086,
  "proxy": 40628,
  "prune": 37096,
  "ps": 1051,
  "pse": 45317,
  "psi": 42443,
  "pson": 29491,
  "psons": 43938,
  "psy": 13629,
  "psych": 32394,
  "pt": 960,
  "ptic": 8865,
  "ptics": 33428,
  "pting": 6778,
  "ption": 4938,
  "ptions": 13439,
  "ptious": 49703,
  "pto": 16280,
  "ptom": 30260,
  "ptophan": 23730,
  "pts": 4740,
  "pu": 24790,
  "public": 49371,
  "puff": 30027,
  "pul": 42246,
  "pull": 16997,
  "pulse": 47101,
  "pump": 47177,
  "punch": 49369,
  "puppies": 32998,
  "pur": 38258,
  "purch": 7257,
  "purchase": 7290,
  "pure": 48214,
  "push": 29069,
  "put": 2833,
  "putable": 38460,
  "putstream": 33788,
  "putting": 40023,
  "px": 7000,
  "py": 21323,
  "pyr": 38639,
  "q": 85,
  "qab": 40352,
  "ql": 20867,
  "qrd": 39305,
  "qs": 49374,
  "qt": 43726,
  "qu": 409,
  "qual": 15870,
  "qualified": 37658,
  "quar": 16211,
  "quarter": 49026,
  "quarters": 16795,
  "quaza": 31472,
  "que": 5830,
  "quel": 47314,
  "quential": 39861,
  "quer": 28741,
  "query": 49534,
  "ques": 21416,
  "quest": 29274,
  "question": 38313,
  "quet": 9394,
  "quets": 20188,
  "quick": 25212,
  "quil": 35402,
  "quilibrium": 49208,
  "quin": 17752,
  "quinone": 24654,
  "quins": 47315,
  "quire": 40433,
  "quis": 33694,
  "quit": 33693,
  "quite": 37835,
  "quote": 46348,
  "r": 86,
  "ra": 465,
  "rab": 32221,
  "rabbits": 39250,
  "rabi": 22596,
  "rable": 36991,
  "rack": 20437,
  "ract": 1100,
  "ractive": 19579,
  "ractor": 12878,
  "rad": 14109,
  "rade": 45322,
  "rader": 37651,
  "radio": 44293,
  "raditional": 40770,
  "rag": 27565,
  "rage": 9188,
  "raged": 41711,
  "ragon": 22494,
  "rah": 18758,
  "raid": 3473,
  "rail": 18319,
  "rails": 24824,
  "rain": 5376,
  "rained": 19944,
  "rais": 8151,
  "raise": 26514,
  "ral": 2569,
  "ralin": 49883,
  "rally": 42959,
  "rals": 9939,
  "ram": 6538,
  "rame": 38260,
  "ramine": 35353,
  "rams": 17707,
  "ran": 22972,
  "rand": 37404,
  "rane": 15713,
  "ranean": 15818,
  "range": 45320,
  "rans": 48217,
  "rant": 7836,
  "rants": 20869,
  "rap": 15343,
  "rape": 4966,
  "rar": 14856,
  "rars": 45321,
  "ras": 4450,
  "rase": 4706,
  "rat": 36073,
  "rate": 4000,
  "rated": 4999,
  "rates": 13070,
  "rather": 28916,
  "rating": 7108,
  "ration": 2726,
  "rations": 8464,
  "rative": 37332,
  "rator": 13516,
  "rators": 33047,
  "raught": 42368,
  "raut": 23242,
  "rava": 47344,
  "ravel": 12667,
  "raw": 19457,
  "rax": 45475,
  "raxia": 48414,
  "ray": 5154,
  "rays": 29640,
  "raz": 18496,
  "razole": 27496,
  "rc": 30950,
  "rd": 10635,
  "re": 269,
  "reach": 18539,
  "react": 18013,
  "read": 813,
  "reader": 30329,
  "reading": 26981,
  "reads": 23354,
  "ready": 1484,
  "real": 12848,
  "realize": 15250,
  "really": 49398,
  "ream": 42976,
  "reat": 547,
  "reated": 11306,
  "reatening": 48452,
  "reath": 7568,
  "reating": 21210,
  "reats": 47362,
  "reau": 42977,
  "reboot": 48240,
  "rec": 17835,
  "recall": 41623,
  "rece": 30509,
  "receive": 32455,
  "reci": 3259,
  "reciated": 30389,
  "recogn": 9050,
  "recognize": 9190,
  "record": 27065,
  "recorder": 45975,
  "recr": 47195,
  "recruit": 49288,
  "rect": 1811,
  "rection": 11950,
  "rectomy": 29147,
  "recycle": 39317,
  "red": 619,
  "redict": 14244,
  "redit": 31959,
  "redu": 17623,
  "reduce": 18640,
  "ree": 594,
  "reed": 11014,
  "reek": 7881,
  "reen": 861,
  "rees": 1966,
  "reeze": 11117,
  "ref": 15800,
  "refer": 39807,
  "reflect": 24771,
  "refrain": 31134,
  "reg": 5125,
  "regard": 15478,
  "regardless": 27999,
  "regist": 31573,
  "register": 21179,
  "registration": 48069,
  "regon": 18472,
  "regular": 8321,
  "regulated": 43376,
  "rehe": 7966,
  "rek": 46219,
  "rel": 4387,
  "related": 14523,
  "relax": 25133,
  "rele": 45338,
  "release": 48155,
  "relin": 44139,
  "rell": 39806,
  "rels": 10905,
  "rely": 47194,
  "rem": 4784,
  "remain": 27172,
  "reme": 2747,
  "remember": 11293,
  "remesis": 46693,
  "remia": 35916,
  "remind": 27787,
  "remove": 7115,
  "removing": 39318,
  "ren": 1035,
  "rence": 11669,
  "rences": 23009,
  "rench": 3792,
  "renched": 25453,
  "rend": 34643,
  "rene": 15866,
  "renheit": 5078,
  "renia": 16711,
  "renorphine": 45590,
  "rent": 1633,
  "rently": 33443,
  "rep": 35729,
  "repair": 32752,
  "repe": 40964,
  "repeat": 45256,
  "replace": 25559,
  "report": 30738,
  "represent": 32753,
  "reputable": 40965,
  "requ": 10825,
  "request": 27337,
  "requis": 16233,
  "rer": 11748,
  "rers": 21690,
  "res": 1029,
  "resa": 46461,
  "rese": 41622,
  "research": 9589,
  "reset": 47196,
  "resh": 1717,
  "resist": 36596,
  "respect": 29302,
  "respo": 5477,
  "respond": 38518,
  "ress": 592,
  "ressed": 21964,
  "resses": 17318,
  "ressin": 46409,
  "ression": 2898,
  "ressive": 38344,
  "ressure": 18111,
  "rest": 1059,
  "restart": 36182,
  "restim": 28419,
  "restimate": 16421,
  "ret": 2729,
  "retch": 46600,
  "rete": 4434,
  "reth": 12676,
  "retin": 44882,
  "retino": 21220,
  "retinoin": 21404,
  "retion": 13443,
  "rets": 9205,
  "rett": 49901,
  "rette": 13789,
  "return": 36658,
  "reve": 40963,
  "review": 15240,
  "rew": 7846,
  "reward": 48239,
  "rex": 18811,
  "rey": 17339,
  "rh": 17186,
  "rhiz": 40786,
  "ri": 9307,
  "ria": 18694,
  "rial": 10553,
  "rian": 27376,
  "riasis": 39794,
  "rib": 2293,
  "ribly": 18968,
  "ribs": 44853,
  "ribute": 49862,
  "ribution": 44031,
  "ric": 956,
  "rical": 9265,
  "ricated": 36180,
  "rice": 41606,
  "riced": 33737,
  "rices": 27419,
  "rich": 15509,
  "rick": 46201,
  "rics": 7048,
  "rict": 8497,
  "ricted": 31985,
  "riction": 47454,
  "ricts": 22144,
  "ricular": 12775,
  "rid": 26643,
  "ride": 36921,
  "ridge": 21547,
  "ridges": 49377,
  "rie": 2968,
  "ried": 5480,
  "riel": 35883,
  "riend": 3364,
  "riended": 49915,
  "riending": 34449,
  "riends": 15963,
  "rier": 27526,
  "ries": 2003,
  "rieve": 49376,
  "right": 3925,
  "rika": 11949,
  "rikaans": 38098,
  "ril": 22205,
  "rill": 24791,
  "rim": 7116,
  "riment": 35352,
  "rin": 10609,
  "rina": 37333,
  "rine": 13429,
  "riness": 43727,
  "ring": 2577,
  "ringe": 7612,
  "ringes": 23853,
  "rings": 6886,
  "rink": 42960,
  "rins": 32172,
  "rinse": 14269,
  "rint": 14238,
  "rints": 28708,
  "rio": 41607,
  "riosis": 26597,
  "rious": 42961,
  "rip": 40949,
  "ripe": 37782,
  "ris": 12120,
  "rise": 17786,
  "rist": 9600,
  "rists": 22477,
  "rit": 1999,
  "ritic": 25348,
  "rition": 20868,
  "ritious": 9935,
  "ritis": 7305,
  "ritol": 48643,
  "ritten": 49837,
  "rium": 40950,
  "rive": 15180,
  "rix": 9835,
  "rl": 49375,
  "rm": 10778,
  "rn": 47178,
  "ro": 334,
  "roach": 17387,
  "roachable": 39653,
  "roaches": 21338,
  "road": 10332,
  "roads": 41023,
  "roast": 43030,
  "roban": 35760,
  "robe": 6952,
  "robes": 34000,
  "roc": 32486,
  "rocessor": 47269,
  "rock": 13180,
  "rocket": 27387,
  "rockets": 35759,
  "rocks": 43795,
  "rod": 22990,
  "rodis": 47268,
  "rodu": 2462,
  "roductive": 24391,
  "roe": 31922,
  "rof": 9011,
  "rofen": 9426,
  "rofloxacin": 44229,
  "rog": 11883,
  "rogen": 4346,
  "rogena": 28281,
  "rogenic": 44932,
  "rogens": 22556,
  "rogs": 35044,
  "roid": 3215,
  "roidism": 11975,
  "roids": 16806,
  "roit": 48333,
  "roke": 30976,
  "rokee": 48334,
  "roken": 25858,
  "rol": 13073,
  "role": 45412,
  "rolimus": 41664,
  "roll": 2573,
  "rolled": 14217,
  "rolling": 10708,
  "rols": 42313,
  "rom": 4758,
  "romatic": 24623,
  "rome": 24114,
  "romes": 42622,
  "romet": 42248,
  "rompt": 23760,
  "romycin": 27171,
  "ron": 5441,
  "ronic": 43728,
  "ronics": 37156,
  "ronil": 41948,
  "rons": 19905,
  "ront": 7494,
  "ronts": 47711,
  "ronutr": 24877,
  "ronutrient": 37702,
  "ronutrients": 29817,
  "roof": 41022,
  "room": 1607,
  "rooms": 23533,
  "root": 12407,
  "roots": 28054,
  "rop": 916,
  "rope": 28053,
  "roper": 9738,
  "roph": 6469,
  "rophic": 22001,
  "rophies": 22266,
  "ropho": 21213,
  "rophobia": 32987,
  "rophobic": 28017,
  "rophy": 23835,
  "ropical": 46453,
  "roportion": 32535,
  "ropr": 1833,
  "ropriate": 1843,
  "rops": 27918,
  "ropylene": 30800,
  "ror": 2888,
  "rored": 23613,
  "rors": 5221,
  "ros": 6402,
  "rosclerosis": 28295,
  "roscope": 44179,
  "roscopic": 47739,
  "rose": 16024,
  "rosis": 18682,
  "ross": 1483,
  "rosse": 26038,
  "rost": 11738,
  "rot": 38259,
  "rou": 459,
  "roud": 7611,
  "rough": 697,
  "rought": 5806,
  "roulette": 34026,
  "round": 597,
  "rounds": 22317,
  "roup": 30076,
  "rous": 10031,
  "rout": 26089,
  "row": 1211,
  "rower": 14595,
  "rown": 10970,
  "rows": 18235,
  "rox": 15065,
  "roxine": 41421,
  "royal": 43796,
  "rozen": 34329,
  "rr": 27525,
  "rrhiz": 42249,
  "rs": 8876,
  "rt": 9191,
  "rtec": 34295,
  "ru": 31897,
  "rub": 21688,
  "ruff": 12092,
  "rule": 33971,
  "rum": 8395,
  "rums": 17337,
  "run": 14698,
  "running": 35257,
  "rup": 2377,
  "rupt": 5408,
  "ruptc": 8169,
  "rupted": 17082,
  "rus": 5614,
  "rush": 39306,
  "rusions": 31093,
  "rusive": 16907,
  "rust": 14831,
  "ry": 714,
  "rying": 28407,
  "ryl": 16930,
  "rylic": 6443,
  "rypt": 29481,
  "rys": 20572,
  "s": 87,
  "sa": 5281,
  "safe": 43380,
  "safety": 49382,
  "sal": 37783,
  "salt": 41608,
  "san": 49378,
  "sand": 30261,
  "sapp": 8448,
  "saturated": 21063,
  "saut": 36464,
  "saute": 44953,
  "save": 20795,
  "say": 17103,
  "sc": 3134,
  "scale": 20045,
  "scan": 26288,
  "scanner": 41494,
  "scape": 28116,
  "scence": 40609,
  "scene": 23745,
  "scents": 48716,
  "sch": 46202,
  "schedule": 18992,
  "school": 29641,
  "schools": 47022,
  "scient": 42250,
  "scoop": 36663,
  "scout": 38472,
  "scr": 22112,
  "scrape": 30611,
  "scre": 22523,
  "screen": 5551,
  "screens": 23323,
  "screw": 8705,
  "scroll": 40610,
  "scrub": 25831,
  "se": 311,
  "sea": 23814,
  "seal": 37814,
  "search": 7129,
  "sease": 39840,
  "season": 26951,
  "seat": 26498,
  "sec": 35040,
  "second": 44580,
  "seconds": 44581,
  "secr": 32483,
  "section": 14440,
  "sections": 26791,
  "secure": 26372,
  "secut": 10331,
  "sed": 20723,
  "see": 8095,
  "seed": 11329,
  "seeds": 21954,
  "seeing": 20285,
  "seek": 17071,
  "seen": 23079,
  "sees": 49470,
  "sel": 2121,
  "select": 6630,
  "self": 645,
  "sell": 20073,
  "seller": 30754,
  "sellers": 35378,
  "selling": 42299,
  "sels": 6833,
  "selves": 2692,
  "sema": 36103,
  "semble": 17746,
  "sement": 16237,
  "send": 20731,
  "sene": 45323,
  "separate": 19972,
  "sequ": 4686,
  "ser": 36922,
  "sera": 43729,
  "serve": 31202,
  "ses": 2951,
  "set": 2180,
  "sets": 11801,
  "sette": 18618,
  "settes": 25112,
  "setting": 36641,
  "setto": 34106,
  "setup": 35512,
  "sever": 34666,
  "several": 35340,
  "sew": 46278,
  "sex": 23611,
  "sexual": 29090,
  "sey": 20072,
  "seye": 29444,
  "sh": 3162,
  "sha": 16256,
  "shad": 28453,
  "shade": 39017,
  "shadow": 36416,
  "shake": 29726,
  "shamp": 30386,
  "shampoo": 31185,
  "shape": 40612,
  "share": 24051,
  "shared": 30138,
  "sharing": 35535,
  "sharp": 46621,
  "shave": 47633,
  "shaw": 46620,
  "she": 28534,
  "shi": 11710,
  "shield": 10469,
  "shift": 29162,
  "shine": 13859,
  "ship": 5485,
  "shire": 20471,
  "shirt": 44073,
  "shoot": 46204,
  "shop": 20101,
  "shore": 22634,
  "short": 33794,
  "shot": 15765,
  "shots": 20761,
  "show": 16592,
  "shower": 30137,
  "shred": 48718,
  "shs": 48717,
  "shuffle": 41894,
  "shut": 29532,
  "side": 1388,
  "sift": 33644,
  "sight": 36923,
  "sign": 13351,
  "signs": 46860,
  "sim": 15924,
  "similar": 47911,
  "simmer": 45094,
  "simple": 26613,
  "simplify": 49022,
  "simply": 24898,
  "sin": 21851,
  "since": 11984,
  "sing": 3445,
  "single": 44096,
  "sion": 19151,
  "sis": 8356,
  "sit": 15181,
  "sitting": 50241,
  "six": 46203,
  "sk": 16733,
  "sketch": 23315,
  "ski": 37334,
  "skin": 21324,
  "skip": 31616,
  "sky": 40951,
  "sl": 13867,
  "sleep": 24792,
  "slice": 21830,
  "slide": 32397,
  "slip": 42747,
  "slow": 29786,
  "slowly": 40269,
  "sm": 11281,
  "small": 27826,
  "smart": 49380,
  "sme": 39307,
  "smell": 45248,
  "smile": 24203,
  "smiling": 43460,
  "smith": 18635,
  "smo": 27527,
  "smoking": 38189,
  "smooth": 42828,
  "sn": 40353,
  "snap": 47179,
  "snow": 48218,
  "so": 481,
  "soak": 15347,
  "soci": 2242,
  "social": 25441,
  "socialize": 45156,
  "sod": 31476,
  "sodium": 37294,
  "sody": 41720,
  "soever": 20736,
  "soft": 4934,
  "soften": 41303,
  "soil": 17075,
  "sol": 2079,
  "sole": 36147,
  "solid": 48650,
  "sols": 36540,
  "solve": 28781,
  "solved": 23100,
  "some": 6920,
  "someone": 41339,
  "somet": 11689,
  "something": 39132,
  "sometimes": 12061,
  "son": 15201,
  "soon": 47351,
  "sop": 34028,
  "soph": 44661,
  "soprazole": 49197,
  "sor": 2476,
  "sort": 28038,
  "sos": 44660,
  "sover": 26247,
  "sp": 1947,
  "space": 17360,
  "spawn": 48637,
  "spay": 49830,
  "spe": 14760,
  "speak": 18580,
  "spec": 42059,
  "special": 50238,
  "speed": 44298,
  "spend": 16450,
  "spending": 49381,
  "sperm": 47552,
  "spice": 23185,
  "spin": 20341,
  "spinal": 41843,
  "spire": 46549,
  "spl": 30951,
  "splash": 45324,
  "split": 36876,
  "spor": 27441,
  "sporin": 48034,
  "spot": 11589,
  "spots": 27607,
  "spr": 21885,
  "spray": 6561,
  "spread": 17810,
  "spring": 17994,
  "sprinkle": 26212,
  "spwn": 49831,
  "squ": 7587,
  "square": 19134,
  "squeeze": 30877,
  "squirt": 50099,
  "ss": 400,
  "sses": 26957,
  "sson": 44627,
  "st": 306,
  "sta": 41004,
  "stack": 33989,
  "stacks": 48309,
  "staff": 29085,
  "stage": 26101,
  "stain": 7738,
  "stained": 46759,
  "stairs": 18697,
  "staking": 38795,
  "stal": 22120,
  "stalk": 39339,
  "stall": 5234,
  "stalled": 19852,
  "stand": 1170,
  "standard": 27590,
  "standing": 11791,
  "stands": 49733,
  "star": 13554,
  "starch": 7622,
  "stars": 35752,
  "start": 4506,
  "starter": 29782,
  "starting": 27784,
  "stat": 28717,
  "state": 16804,
  "states": 43778,
  "static": 27103,
  "station": 10224,
  "stations": 46266,
  "stay": 11354,
  "staying": 36500,
  "ste": 8231,
  "stead": 39830,
  "steam": 38062,
  "sted": 14160,
  "steer": 30881,
  "stein": 20011,
  "steine": 34511,
  "steins": 32364,
  "stem": 16805,
  "stems": 22393,
  "sten": 19500,
  "step": 21066,
  "steps": 40395,
  "ster": 1956,
  "steran": 44836,
  "stered": 21067,
  "sterilize": 39468,
  "steroidal": 25891,
  "sterol": 7453,
  "sters": 5201,
  "stery": 7452,
  "stic": 8706,
  "stically": 13480,
  "stick": 3462,
  "sticks": 10903,
  "stics": 30281,
  "still": 39829,
  "stim": 40394,
  "stir": 25567,
  "stit": 22677,
  "stitch": 17265,
  "stitute": 42116,
  "sto": 30750,
  "stock": 7759,
  "ston": 12526,
  "stone": 7029,
  "stones": 9417,
  "stood": 24936,
  "stop": 12288,
  "stopian": 44279,
  "stops": 49461,
  "storage": 34320,
  "store": 8126,
  "stores": 13161,
  "storm": 7128,
  "story": 39340,
  "stoy": 48308,
  "str": 1829,
  "stra": 18546,
  "strack": 49817,
  "straight": 46915,
  "straighten": 39187,
  "strap": 22430,
  "straps": 40565,
  "strate": 33163,
  "stratus": 48624,
  "stre": 8348,
  "streaks": 50131,
  "stream": 9956,
  "street": 29183,
  "strengthen": 48900,
  "stress": 24345,
  "stret": 20245,
  "stretch": 22025,
  "stretched": 21454,
  "stretching": 43549,
  "strike": 32008,
  "string": 17570,
  "strings": 35133,
  "strip": 24982,
  "stripe": 44828,
  "stripping": 38970,
  "strips": 34768,
  "strive": 47541,
  "stro": 14136,
  "stroke": 16836,
  "strokes": 27997,
  "strom": 34424,
  "strong": 33164,
  "strual": 31031,
  "struck": 49818,
  "struct": 8336,
  "structed": 24634,
  "struction": 15582,
  "structure": 22272,
  "strum": 22911,
  "sts": 6508,
  "stud": 13915,
  "students": 41408,
  "studies": 27489,
  "study": 17518,
  "stuff": 43779,
  "stura": 49462,
  "sty": 7992,
  "style": 2118,
  "su": 17622,
  "sub": 25300,
  "submit": 39709,
  "subs": 49379,
  "substitute": 43581,
  "such": 41447,
  "sugar": 47938,
  "suggest": 37236,
  "suit": 35720,
  "sum": 36463,
  "summer": 48104,
  "sun": 31201,
  "supp": 40202,
  "support": 34222,
  "sur": 17070,
  "sure": 1357,
  "surround": 37664,
  "survey": 50264,
  "svr": 42251,
  "sw": 1939,
  "swagen": 47550,
  "swap": 48634,
  "swe": 12007,
  "sweep": 31376,
  "sweet": 38751,
  "swim": 42519,
  "swing": 27440,
  "swipe": 36226,
  "switch": 24718,
  "sy": 10112,
  "symbol": 44252,
  "symptom": 37203,
  "symptoms": 37762,
  "systems": 30436,
  "t": 88,
  "ta": 5675,
  "tab": 42963,
  "table": 22973,
  "tack": 46205,
  "tag": 39309,
  "tage": 7595,
  "tail": 3621,
  "tails": 9435,
  "tain": 1578,
  "tainable": 39974,
  "taining": 4976,
  "take": 4116,
  "taking": 15890,
  "tal": 12543,
  "tale": 18948,
  "talk": 7698,
  "talking": 37608,
  "tals": 47181,
  "tan": 44524,
  "tance": 39795,
  "tap": 12404,
  "tape": 34638,
  "tar": 30028,
  "target": 40272,
  "taste": 31666,
  "tax": 40953,
  "tc": 1498,
  "tched": 21011,
  "te": 652,
  "tea": 36559,
  "teach": 18243,
  "teaching": 44698,
  "tear": 40476,
  "tease": 45530,
  "tebr": 34044,
  "tec": 29117,
  "tech": 46413,
  "techn": 43885,
  "ted": 1259,
  "tee": 30565,
  "teen": 7841,
  "teens": 45531,
  "teenth": 36160,
  "tees": 39909,
  "tegr": 23352,
  "tek": 36560,
  "tel": 45325,
  "tell": 12324,
  "tellig": 36561,
  "telling": 35441,
  "temp": 34718,
  "ten": 806,
  "tenant": 46435,
  "tend": 5360,
  "tended": 13785,
  "tender": 46414,
  "teness": 46436,
  "tenham": 48514,
  "tens": 7103,
  "tent": 10040,
  "tently": 27867,
  "teon": 47401,
  "ter": 379,
  "tera": 28389,
  "terday": 16514,
  "tered": 5250,
  "terer": 42405,
  "terest": 8487,
  "terested": 16369,
  "teresting": 30429,
  "teries": 43811,
  "tering": 21867,
  "terior": 24943,
  "term": 19739,
  "termine": 43044,
  "tern": 858,
  "terness": 20147,
  "ternut": 15404,
  "terone": 16275,
  "ters": 1640,
  "tershire": 19590,
  "tery": 9351,
  "tes": 5059,
  "test": 11045,
  "tex": 27122,
  "text": 24363,
  "th": 462,
  "tha": 36142,
  "thal": 17152,
  "thank": 34359,
  "that": 18318,
  "thaw": 36989,
  "the": 1492,
  "their": 47512,
  "theless": 17888,
  "themia": 41825,
  "then": 18831,
  "ther": 447,
  "there": 4531,
  "theria": 48409,
  "these": 7856,
  "they": 12159,
  "thi": 36987,
  "thick": 46369,
  "thin": 48412,
  "thing": 1025,
  "things": 36537,
  "think": 6711,
  "thinking": 48854,
  "thir": 47343,
  "this": 2701,
  "thood": 18062,
  "thor": 29278,
  "thorn": 34027,
  "thoroughly": 38690,
  "those": 34358,
  "though": 2192,
  "thought": 32572,
  "thread": 36988,
  "threatening": 49563,
  "three": 43842,
  "thren": 48413,
  "through": 21875,
  "throw": 22132,
  "ths": 19002,
  "thy": 15259,
  "ti": 8262,
  "tic": 11013,
  "tical": 16069,
  "tically": 26228,
  "tick": 35354,
  "tics": 12037,
  "tie": 16271,
  "tier": 19906,
  "ties": 7225,
  "tight": 22113,
  "tim": 31441,
  "time": 3363,
  "times": 18643,
  "tiness": 37784,
  "ting": 532,
  "tingu": 12563,
  "tion": 3986,
  "tip": 30262,
  "tips": 46206,
  "tis": 39308,
  "tle": 772,
  "tled": 8031,
  "tler": 28359,
  "tles": 4134,
  "tless": 23518,
  "tling": 10080,
  "tm": 42962,
  "to": 1238,
  "toast": 34412,
  "tocin": 19744,
  "tod": 33353,
  "today": 43633,
  "toddlers": 45202,
  "todext": 42462,
  "toe": 24971,
  "toes": 39436,
  "token": 47489,
  "tom": 824,
  "ton": 918,
  "tone": 11122,
  "tones": 11619,
  "tons": 22298,
  "tonutr": 49694,
  "too": 40952,
  "top": 2370,
  "tor": 10422,
  "torrent": 19389,
  "tors": 23597,
  "toss": 35831,
  "total": 48220,
  "touch": 42964,
  "towel": 29245,
  "town": 33645,
  "tp": 14596,
  "tps": 26939,
  "tr": 3973,
  "tra": 28709,
  "trace": 28638,
  "track": 15523,
  "tracks": 42601,
  "trad": 27960,
  "trade": 42600,
  "traditional": 36865,
  "traditionally": 37279,
  "train": 20407,
  "training": 34142,
  "trak": 22082,
  "trans": 23658,
  "transfer": 31413,
  "trap": 26157,
  "traps": 40057,
  "tration": 16206,
  "travel": 24115,
  "treat": 17787,
  "tree": 39310,
  "tress": 5282,
  "trex": 48219,
  "trim": 22352,
  "trip": 43344,
  "tro": 47180,
  "true": 47662,
  "trust": 33490,
  "try": 5690,
  "trying": 48829,
  "ts": 845,
  "tt": 14385,
  "ttage": 46207,
  "tte": 5919,
  "ttes": 10405,
  "tto": 23330,
  "ttos": 25390,
  "ttt": 45070,
  "tuck": 41609,
  "tum": 44525,
  "tune": 38752,
  "tur": 40354,
  "turn": 8083,
  "turned": 24753,
  "turning": 48892,
  "tv": 18810,
  "tw": 17521,
  "twe": 16378,
  "tweet": 42965,
  "two": 25174,
  "ty": 1311,
  "tyline": 41812,
  "type": 14975,
  "types": 28600,
  "typical": 42469,
  "typically": 26687,
  "tz": 20181,
  "tzee": 40808,
  "u": 89,
  "ua": 11352,
  "uable": 16207,
  "ual": 913,
  "ualize": 25738,
  "ually": 787,
  "uals": 4131,
  "uan": 39796,
  "uar": 23146,
  "uaries": 26778,
  "uars": 42967,
  "uary": 8207,
  "uas": 26777,
  "uate": 3086,
  "uated": 22478,
  "uates": 24228,
  "uating": 16960,
  "uation": 5328,
  "uations": 47182,
  "uator": 39797,
  "uay": 48221,
  "ub": 667,
  "uba": 23251,
  "ubarb": 13270,
  "ube": 2311,
  "uber": 33354,
  "ubers": 37015,
  "ubes": 33718,
  "ubl": 30567,
  "uble": 10171,
  "ublic": 16577,
  "ublish": 48485,
  "ublished": 33322,
  "ubs": 8362,
  "ubuntu": 35804,
  "uc": 2022,
  "uca": 28440,
  "ucas": 42527,
  "ucc": 17187,
  "uccess": 19997,
  "ucci": 47557,
  "uccino": 22851,
  "ucco": 21014,
  "uce": 6446,
  "uced": 42252,
  "uces": 29246,
  "uch": 20128,
  "uci": 23912,
  "uciating": 42121,
  "ucil": 37079,
  "ucing": 37335,
  "uck": 1715,
  "ucker": 37070,
  "uckered": 43257,
  "ucking": 37937,
  "uckle": 23535,
  "ucks": 38425,
  "ucky": 18509,
  "ucle": 42968,
  "ucop": 29070,
  "uct": 1158,
  "uction": 3294,
  "uctive": 12279,
  "uctor": 7069,
  "ud": 524,
  "uda": 22409,
  "udal": 33400,
  "ude": 2735,
  "uded": 32507,
  "udes": 10986,
  "udge": 6929,
  "udges": 24827,
  "udi": 31947,
  "uding": 15069,
  "udo": 19313,
  "uds": 13183,
  "udsman": 38106,
  "ue": 580,
  "ued": 4218,
  "uede": 36686,
  "uel": 26644,
  "uency": 49383,
  "uent": 21852,
  "uents": 30728,
  "uer": 45326,
  "ues": 1425,
  "uese": 30594,
  "uf": 36074,
  "uff": 1752,
  "uffle": 36219,
  "uffs": 20755,
  "ug": 1243,
  "uga": 36608,
  "ugal": 19520,
  "ugated": 24972,
  "uge": 25702,
  "uges": 41806,
  "ugg": 2706,
  "ugged": 8484,
  "ugger": 31304,
  "uggest": 37336,
  "ugging": 7480,
  "ugh": 30029,
  "ught": 35320,
  "ugin": 9342,
  "ugreek": 19314,
  "ugs": 5498,
  "uh": 36075,
  "ui": 23911,
  "uice": 43731,
  "uigi": 47183,
  "uin": 31667,
  "uinal": 33048,
  "uine": 6092,
  "uing": 3952,
  "uit": 3120,
  "uitable": 25359,
  "uitary": 24277,
  "uite": 25301,
  "uities": 26940,
  "uitive": 22114,
  "uits": 9060,
  "uity": 13893,
  "uk": 10797,
  "ukast": 48940,
  "uke": 23598,
  "uki": 23578,
  "ukin": 48222,
  "uks": 39311,
  "ul": 404,
  "ula": 2537,
  "ulant": 46343,
  "ular": 770,
  "ularies": 45556,
  "ulary": 7864,
  "ulas": 9078,
  "ulate": 2236,
  "ulated": 4560,
  "ulately": 47311,
  "ulates": 12157,
  "ulating": 8347,
  "ulation": 2919,
  "ulations": 5524,
  "ulative": 15750,
  "ulator": 11596,
  "ulators": 19307,
  "ulatory": 15988,
  "ule": 9240,
  "uled": 35008,
  "ulence": 24006,
  "ulent": 10219,
  "uler": 29273,
  "ules": 10317,
  "ulf": 19920,
  "ulfate": 32126,
  "ulfite": 47973,
  "ulhu": 47312,
  "uli": 41692,
  "ulia": 43824,
  "uliar": 34692,
  "ulin": 45454,
  "ulina": 22128,
  "uling": 9726,
  "ulis": 48378,
  "ulite": 24477,
  "ulk": 46342,
  "ull": 703,
  "ulled": 49530,
  "ullet": 41693,
  "ully": 1588,
  "ulmonary": 41694,
  "ulner": 43823,
  "ulose": 40432,
  "ulous": 10715,
  "ulously": 26505,
  "ulph": 48379,
  "uls": 7503,
  "ulsion": 26591,
  "ult": 615,
  "ulting": 5137,
  "ultural": 25869,
  "ulture": 19513,
  "ultures": 31248,
  "ulu": 16052,
  "ulum": 10043,
  "ulums": 32791,
  "ulus": 27393,
  "uly": 21755,
  "um": 414,
  "uma": 36527,
  "umab": 39363,
  "umatic": 49539,
  "umb": 2102,
  "umba": 22339,
  "umbai": 36640,
  "umbent": 34105,
  "umber": 8474,
  "umbered": 32213,
  "umble": 6168,
  "umbling": 15847,
  "umbs": 5558,
  "umcised": 48393,
  "ume": 1635,
  "umed": 25969,
  "umen": 36135,
  "ument": 3853,
  "umental": 18363,
  "uments": 5915,
  "umer": 37838,
  "umerable": 45461,
  "umes": 4907,
  "umi": 39865,
  "umin": 4055,
  "uming": 22129,
  "uminous": 20408,
  "ummer": 47322,
  "ummy": 12516,
  "umn": 10128,
  "ump": 1447,
  "umps": 3591,
  "umpy": 18830,
  "ums": 2974,
  "un": 476,
  "una": 16054,
  "unas": 36539,
  "unate": 15953,
  "unately": 6238,
  "unch": 1758,
  "unched": 23823,
  "uncher": 36146,
  "unches": 14661,
  "unchy": 48617,
  "unci": 8899,
  "uncle": 44657,
  "uncles": 47349,
  "unct": 15229,
  "unction": 7333,
  "unctions": 21877,
  "uncture": 41718,
  "unculus": 31944,
  "und": 6041,
  "undable": 44970,
  "under": 3958,
  "undergo": 44921,
  "understand": 4528,
  "understanding": 18380,
  "undi": 46730,
  "unding": 28917,
  "unds": 30727,
  "une": 3005,
  "uned": 30778,
  "unes": 3601,
  "unfold": 44658,
  "unfortunately": 30556,
  "ung": 2806,
  "unge": 6159,
  "ungunya": 32300,
  "uning": 41717,
  "uninstall": 47350,
  "union": 14471,
  "unk": 2357,
  "unking": 29668,
  "unless": 20880,
  "unlike": 22404,
  "unlock": 33700,
  "uno": 30307,
  "unplug": 25076,
  "uns": 16389,
  "unscrew": 42372,
  "unt": 2224,
  "unter": 27398,
  "untu": 11961,
  "unya": 31707,
  "unzel": 44659,
  "uo": 43730,
  "uous": 5876,
  "uously": 33049,
  "up": 696,
  "upac": 49647,
  "update": 25322,
  "uperv": 22797,
  "upgrade": 39399,
  "upid": 10813,
  "upload": 46421,
  "upon": 21777,
  "upp": 32173,
  "ups": 7818,
  "upt": 12135,
  "uptial": 32389,
  "upulous": 33720,
  "ur": 384,
  "ura": 12275,
  "urable": 14391,
  "urably": 47302,
  "urai": 29268,
  "ural": 4719,
  "urally": 21557,
  "urance": 2560,
  "urances": 39854,
  "uras": 40427,
  "uration": 35058,
  "urb": 5692,
  "urbed": 18171,
  "urbs": 27107,
  "urch": 4256,
  "urd": 24577,
  "ure": 418,
  "ured": 3248,
  "urer": 3593,
  "ures": 1521,
  "uresis": 33757,
  "ureth": 14511,
  "ureus": 32494,
  "urf": 38308,
  "urface": 42333,
  "urg": 20319,
  "urgery": 33090,
  "urgical": 44349,
  "uri": 25577,
  "uria": 34346,
  "uric": 30068,
  "uries": 5642,
  "urin": 30067,
  "uring": 937,
  "urinol": 42148,
  "urion": 46334,
  "urious": 17713,
  "urist": 38830,
  "uristic": 30069,
  "urists": 46335,
  "urium": 34685,
  "urize": 26502,
  "urized": 16138,
  "url": 23820,
  "urn": 662,
  "urnal": 19361,
  "urned": 45533,
  "uro": 5601,
  "uron": 47301,
  "urop": 18695,
  "urous": 14658,
  "urp": 15951,
  "urpose": 32693,
  "urr": 43047,
  "urre": 43813,
  "urry": 43814,
  "urs": 8525,
  "ursor": 31469,
  "urt": 2198,
  "urts": 25578,
  "urus": 41685,
  "urved": 30984,
  "ury": 2813,
  "uryl": 27768,
  "urys": 24475,
  "us": 425,
  "usa": 30989,
  "usal": 19857,
  "usale": 36978,
  "usalem": 37318,
  "usc": 31233,
  "uscular": 26958,
  "usd": 42352,
  "use": 1704,
  "used": 4205,
  "user": 8318,
  "username": 42353,
  "users": 17196,
  "uses": 4462,
  "uset": 20622,
  "ush": 816,
  "ushed": 4687,
  "usher": 23082,
  "ushes": 4800,
  "ushi": 47436,
  "ushing": 2989,
  "using": 5062,
  "usion": 4317,
  "usional": 29102,
  "usions": 9301,
  "usive": 6345,
  "usively": 48398,
  "usk": 16416,
  "uss": 1933,
  "ussis": 37951,
  "ust": 470,
  "ustainable": 48417,
  "uster": 25720,
  "usters": 35415,
  "ustomed": 47347,
  "usually": 22403,
  "ut": 344,
  "utable": 35385,
  "ute": 1602,
  "uted": 5047,
  "uten": 38296,
  "uter": 20447,
  "utered": 14604,
  "uterine": 30006,
  "utes": 5597,
  "uth": 5226,
  "utic": 13779,
  "util": 38297,
  "utilize": 35386,
  "uting": 6928,
  "ution": 1442,
  "utional": 23338,
  "utions": 4026,
  "uto": 19259,
  "utr": 23154,
  "uts": 37817,
  "utsu": 39355,
  "utter": 11016,
  "uttered": 28727,
  "utters": 28726,
  "utto": 34331,
  "utum": 34330,
  "utz": 48338,
  "uu": 44526,
  "uum": 3771,
  "uv": 20239,
  "uva": 38753,
  "uvian": 40809,
  "ux": 4593,
  "uxe": 30862,
  "uz": 42966,
  "uzz": 36465,
  "v": 90,
  "va": 7934,
  "vab": 33355,
  "vable": 7038,
  "vably": 44528,
  "vac": 16208,
  "vacc": 35265,
  "vacuum": 25171,
  "vado": 44529,
  "vag": 17708,
  "vage": 35721,
  "vagia": 49043,
  "vaginal": 40793,
  "vah": 21134,
  "vak": 40954,
  "val": 3053,
  "vale": 30263,
  "vals": 31898,
  "value": 28626,
  "valued": 32028,
  "values": 45728,
  "van": 11326,
  "vana": 32465,
  "vance": 18354,
  "vances": 28039,
  "vant": 3793,
  "var": 22033,
  "vard": 22870,
  "vari": 42969,
  "variety": 47109,
  "vary": 44527,
  "vas": 5032,
  "vascular": 10096,
  "vasive": 32914,
  "vask": 41610,
  "vastatin": 40356,
  "vat": 42253,
  "vate": 39798,
  "vation": 24336,
  "vc": 31442,
  "vd": 28535,
  "ve": 313,
  "ved": 1093,
  "veget": 43021,
  "veil": 44584,
  "vek": 31920,
  "vel": 1070,
  "veled": 16739,
  "velling": 41656,
  "velo": 1430,
  "velop": 1541,
  "veloped": 40552,
  "velops": 10747,
  "velt": 30807,
  "ven": 1332,
  "vency": 41611,
  "venir": 17938,
  "vens": 29071,
  "vent": 6966,
  "vention": 22299,
  "ventional": 24108,
  "ver": 353,
  "verage": 3204,
  "verages": 6683,
  "veratrol": 42320,
  "vere": 3189,
  "vered": 28722,
  "verify": 19737,
  "verine": 32779,
  "verly": 40415,
  "vern": 25432,
  "verns": 42319,
  "vers": 869,
  "verse": 3918,
  "version": 14705,
  "versions": 39934,
  "vert": 2396,
  "verted": 10637,
  "vertine": 26843,
  "verts": 14533,
  "verty": 16620,
  "very": 543,
  "ves": 955,
  "vest": 4821,
  "vests": 40355,
  "vet": 9552,
  "vets": 41012,
  "vette": 45396,
  "vey": 4980,
  "vi": 21325,
  "via": 14832,
  "vial": 48224,
  "vic": 11315,
  "vice": 1067,
  "vices": 1788,
  "vid": 18315,
  "vide": 15060,
  "video": 37656,
  "vie": 30729,
  "view": 1681,
  "viewer": 29907,
  "views": 43990,
  "vig": 37785,
  "vil": 18395,
  "ville": 14084,
  "villea": 34540,
  "vils": 36076,
  "vin": 16339,
  "vine": 20656,
  "vinegar": 42106,
  "vines": 40955,
  "ving": 760,
  "vings": 6550,
  "vio": 16410,
  "violet": 17703,
  "vious": 3581,
  "vir": 17971,
  "virt": 47184,
  "virus": 42082,
  "vis": 5736,
  "visable": 46715,
  "vise": 46209,
  "vish": 45327,
  "vision": 37337,
  "visit": 7499,
  "visual": 41951,
  "visualize": 32339,
  "vit": 34639,
  "vitamin": 39750,
  "vite": 24919,
  "vity": 17834,
  "vlar": 37338,
  "vn": 43732,
  "vo": 18104,
  "voc": 30030,
  "voir": 48225,
  "voked": 49384,
  "vol": 21853,
  "vole": 36924,
  "volence": 49221,
  "volent": 35996,
  "volunt": 30479,
  "volunteer": 30940,
  "volved": 44364,
  "vor": 27529,
  "vos": 48223,
  "vot": 46208,
  "vous": 24793,
  "voy": 43733,
  "vpn": 33646,
  "vr": 33972,
  "vs": 27528,
  "vu": 29247,
  "vuls": 28536,
  "vy": 10616,
  "w": 91,
  "wa": 20924,
  "wag": 48226,
  "wait": 14576,
  "wak": 31203,
  "wake": 31900,
  "wal": 37339,
  "wali": 37340,
  "walk": 8828,
  "walker": 39109,
  "walking": 28303,
  "wall": 7511,
  "wallet": 46102,
  "wan": 22115,
  "war": 31899,
  "ward": 823,
  "wards": 1558,
  "ware": 1264,
  "warm": 15033,
  "warmers": 43505,
  "warming": 33888,
  "wart": 30730,
  "warts": 27377,
  "was": 5463,
  "wash": 5038,
  "washes": 25058,
  "washing": 22927,
  "watch": 8360,
  "watches": 48227,
  "watching": 37615,
  "water": 5593,
  "watering": 47715,
  "wau": 49385,
  "wave": 25846,
  "waves": 42970,
  "wax": 10172,
  "way": 632,
  "wayne": 49624,
  "ways": 1020,
  "wd": 22300,
  "we": 691,
  "wealth": 31721,
  "wear": 4402,
  "wearing": 33415,
  "weave": 45540,
  "weaver": 29675,
  "web": 21499,
  "webs": 20571,
  "website": 46946,
  "wed": 47185,
  "wee": 20812,
  "weed": 10692,
  "week": 24365,
  "weekly": 31159,
  "ween": 978,
  "weep": 41111,
  "wees": 47416,
  "weet": 9576,
  "weetened": 13655,
  "weets": 31252,
  "wegian": 21970,
  "wei": 41755,
  "weigh": 16929,
  "weight": 5211,
  "weled": 36166,
  "well": 8578,
  "wells": 38889,
  "wer": 35009,
  "wered": 27410,
  "west": 15633,
  "western": 26366,
  "wet": 14335,
  "wetting": 19341,
  "wh": 3386,
  "what": 5141,
  "whatever": 29165,
  "whe": 1514,
  "wheat": 19866,
  "wheel": 14356,
  "wheels": 25887,
  "whel": 5065,
  "when": 4311,
  "whenever": 23199,
  "where": 2059,
  "whether": 12368,
  "which": 41257,
  "while": 5702,
  "whip": 35355,
  "whisk": 27955,
  "white": 26853,
  "who": 35010,
  "whole": 39312,
  "why": 33647,
  "wich": 35722,
  "wick": 38755,
  "wide": 12738,
  "wig": 38754,
  "wiki": 29836,
  "wild": 31668,
  "will": 13700,
  "win": 21481,
  "wind": 14216,
  "window": 46869,
  "windows": 28494,
  "wine": 44530,
  "wing": 31443,
  "winter": 29642,
  "wipe": 18644,
  "wire": 15683,
  "wired": 39799,
  "wires": 44531,
  "wise": 2064,
  "wist": 24116,
  "wisting": 40956,
  "wit": 42254,
  "with": 12784,
  "without": 33875,
  "wn": 785,
  "wny": 38366,
  "wo": 29432,
  "wol": 17788,
  "woman": 35723,
  "women": 32466,
  "wood": 4611,
  "wooden": 47687,
  "wool": 31901,
  "word": 1921,
  "words": 16936,
  "work": 1463,
  "working": 15696,
  "works": 12333,
  "world": 19788,
  "worm": 5713,
  "worms": 9217,
  "wort": 33356,
  "worth": 22116,
  "worthiness": 25538,
  "worthy": 9486,
  "woven": 48055,
  "wr": 4648,
  "wrap": 17210,
  "wre": 41612,
  "wright": 36466,
  "writ": 9931,
  "write": 6193,
  "writer": 15856,
  "writers": 23399,
  "writes": 46689,
  "writing": 9370,
  "written": 14615,
  "ws": 9186,
  "wur": 21326,
  "wurst": 22379,
  "ww": 45328,
  "x": 92,
  "xa": 37786,
  "xc": 40357,
  "xdx": 49386,
  "xe": 42971,
  "xec": 48229,
  "xi": 48228,
  "xia": 13743,
  "xic": 4158,
  "xid": 7212,
  "xidine": 27807,
  "xie": 37788,
  "xiety": 35724,
  "xin": 37787,
  "xis": 39313,
  "xist": 33050,
  "xof": 42255,
  "xor": 30952,
  "xp": 35356,
  "xs": 35357,
  "xsie": 49205,
  "xt": 643,
  "xtap": 40475,
  "xton": 31961,
  "xtrous": 49628,
  "xture": 1187,
  "xual": 10368,
  "xuals": 32745,
  "xx": 11294,
  "xxx": 42030,
  "xxxx": 32086,
  "xy": 6888,
  "y": 93,
  "ya": 14258,
  "yal": 6039,
  "yalgia": 21182,
  "yan": 40957,
  "yani": 49387,
  "yard": 7771,
  "yards": 22034,
  "ycardia": 30731,
  "ych": 23068,
  "ycin": 24795,
  "yclo": 16379,
  "yd": 28184,
  "ye": 9789,
  "year": 46796,
  "yer": 20240,
  "yere": 36763,
  "yers": 46211,
  "yes": 27243,
  "yg": 46210,
  "yin": 38756,
  "ying": 2019,
  "yk": 36077,
  "yl": 5082,
  "yle": 1143,
  "ylene": 14187,
  "yless": 37905,
  "ylie": 39536,
  "ylon": 44948,
  "ylos": 41613,
  "ylvan": 19285,
  "ym": 3439,
  "ymia": 42587,
  "ymmet": 18972,
  "yn": 12583,
  "ync": 15795,
  "ynt": 29433,
  "yo": 36467,
  "yog": 38757,
  "you": 2080,
  "young": 37082,
  "your": 5722,
  "youtube": 49388,
  "yp": 45329,
  "ype": 22771,
  "yrin": 26090,
  "yrus": 34640,
  "ys": 929,
  "ysical": 29486,
  "ysics": 39418,
  "ysis": 6256,
  "ystem": 33973,
  "yte": 24794,
  "yu": 31902,
  "yx": 21327,
  "yy": 23147,
  "z": 94,
  "za": 12405,
  "zaa": 38758,
  "zac": 26367,
  "zah": 40359,
  "zan": 27868,
  "zapine": 48230,
  "zar": 33051,
  "zas": 32174,
  "ze": 2009,
  "zech": 31291,
  "zed": 10294,
  "zel": 25555,
  "zema": 10798,
  "zen": 3610,
  "zens": 14284,
  "zer": 7404,
  "zerland": 25264,
  "zero": 43735,
  "zers": 8266,
  "zes": 16735,
  "zi": 28360,
  "zia": 36078,
  "zie": 43734,
  "zilla": 14133,
  "zing": 5446,
  "zip": 13329,
  "zo": 16734,
  "zone": 20870,
  "zones": 49389,
  "zoo": 44532,
  "zoonosis": 46212,
  "zou": 40358,
  "ztr": 40958,
  "ztraminer": 41574,
  "zu": 12106,
  "zuki": 38759,
  "zy": 4883,
  "zygous": 41300,
  "zym": 10461,
  "zyme": 11675,
  "zz": 3331,
  "zzle": 4798,
  "zzled": 48727,
  "zzles": 10222,
  "zzling": 34795,
  "zzo": 35538,
  "zzy": 46631,
  "{": 95,
  "|": 96,
  "}": 97,
  "~": 98,
  "¡": 99,
  "¢": 100,
  "£": 101,
  "¤": 102,
  "¥": 103,
  "¦": 104,
  "§": 105,
  "¨": 106,
  "©": 107,
  "ª": 108,
  "«": 109,
  "¬": 110,
  "®": 111,
  "¯": 112,
  "°": 113,
  "±": 114,
  "²": 115,
  "³": 116,
  "´": 117,
  "µ": 118,
  "¶": 119,
  "·": 120,
  "¸": 121,
  "¹": 122,
  "º": 123,
  "»": 124,
  "¼": 125,
  "½": 126,
  "¾": 127,
  "¿": 128,
  "À": 129,
  "Á": 130,
  "Â": 131,
  "Ã": 132,
  "Ä": 133,
  "Å": 134,
  "Æ": 135,
  "Ç": 136,
  "È": 137,
  "É": 138,
  "Ê": 139,
  "Ë": 140,
  "Ì": 141,
  "Í": 142,
  "Î": 143,
  "Ï": 144,
  "Ð": 145,
  "Ñ": 146,
  "Ò": 147,
  "Ó": 148,
  "Ô": 149,
  "Õ": 150,
  "Ö": 151,
  "×": 152,
  "Ø": 153,
  "Ù": 154,
  "Ú": 155,
  "Û": 156,
  "Ü": 157,
  "Ý": 158,
  "Þ": 159,
  "ß": 160,
  "à": 161,
  "á": 162,
  "â": 163,
  "ã": 164,
  "ä": 165,
  "å": 166,
  "æ": 167,
  "ç": 168,
  "è": 169,
  "é": 170,
  "ê": 171,
  "ë": 172,
  "ì": 173,
  "í": 174,
  "î": 175,
  "ï": 176,
  "ð": 177,
  "ñ": 178,
  "ò": 179,
  "ó": 180,
  "ô": 181,
  "õ": 182,
  "ö": 183,
  "÷": 184,
  "ø": 185,
  "ù": 186,
  "ú": 187,
  "û": 188,
  "ü": 189,
  "ý": 190,
  "þ": 191,
  "ÿ": 192,
  "Ā": 193,
  "ā": 194,
  "Ă": 195,
  "ă": 196,
  "Ą": 197,
  "ą": 198,
  "Ć": 199,
  "ć": 200,
  "Ĉ": 201,
  "ĉ": 202,
  "Ċ": 203,
  "ċ": 204,
  "Č": 205,
  "č": 206,
  "Ď": 207,
  "ď": 208,
  "Đ": 209,
  "đ": 210,
  "Ē": 211,
  "ē": 212,
  "Ĕ": 213,
  "ĕ": 214,
  "Ė": 215,
  "ė": 216,
  "Ę": 217,
  "ę": 218,
  "Ě": 219,
  "ě": 220,
  "Ĝ": 221,
  "ĝ": 222,
  "Ğ": 223,
  "ğ": 224,
  "Ġ": 225,
  "Ġ,": 277,
  "Ġ.": 266,
  "Ġ0": 7790,
  "Ġ00": 6800,
  "Ġ000": 19480,
  "Ġ0000": 23038,
  "Ġ001": 40697,
  "Ġ0011": 38045,
  "Ġ01": 23772,
  "Ġ010": 46763,
  "Ġ011": 20415,
  "Ġ02": 28835,
  "Ġ03": 29014,
  "Ġ04": 40709,
  "Ġ05": 31351,
  "Ġ06": 26045,
  "Ġ07": 33845,
  "Ġ08": 27811,
  "Ġ0800": 38190,
  "Ġ08002": 49229,
  "Ġ09": 34166,
  "Ġ1": 599,
  "Ġ10": 1006,
  "Ġ100": 2776,
  "Ġ1000": 8698,
  "Ġ10000": 40720,
  "Ġ1001": 48703,
  "Ġ101": 15493,
  "Ġ102": 15647,
  "Ġ1023": 50248,
  "Ġ1024": 33893,
  "Ġ103": 24033,
  "Ġ104": 18506,
  "Ġ1040": 18605,
  "Ġ105": 19808,
  "Ġ106": 24034,
  "Ġ107": 31261,
  "Ġ108": 24493,
  "Ġ1080": 22235,
  "Ġ109": 31013,
  "Ġ1099": 22898,
  "Ġ11": 3764,
  "Ġ110": 13493,
  "Ġ1100": 43334,
  "Ġ111": 30618,
  "Ġ112": 23657,
  "Ġ1120": 49956,
  "Ġ113": 19703,
  "Ġ114": 31558,
  "Ġ115": 17244,
  "Ġ116": 31074,
  "Ġ117": 31318,
  "Ġ118": 14924,
  "Ġ119": 33800,
  "Ġ12": 1991,
  "Ġ120": 7223,
  "Ġ1200": 20400,
  "Ġ121": 27442,
  "Ġ122": 32012,
  "Ġ123": 18512,
  "Ġ1234": 37675,
  "Ġ12345": 35999,
  "Ġ1234567": 42876,
  "Ġ12345678": 47107,
  "Ġ124": 38976,
  "Ġ125": 11398,
  "Ġ1250": 44838,
  "Ġ126": 37510,
  "Ġ127": 20578,
  "Ġ128": 20818,
  "Ġ1280": 41207,
  "Ġ129": 31527,
  "Ġ13": 4507,
  "Ġ130": 14747,
  "Ġ1300": 37567,
  "Ġ131": 38505,
  "Ġ132": 30413,
  "Ġ133": 40645,
  "Ġ1337": 47683,
  "Ġ134": 49996,
  "Ġ135": 20216,
  "Ġ1350": 46686,
  "Ġ137": 34820,
  "Ġ138": 40646,
  "Ġ14": 4142,
  "Ġ140": 12978,
  "Ġ1400": 40632,
  "Ġ141": 37558,
  "Ġ142": 37130,
  "Ġ144": 25782,
  "Ġ145": 22529,
  "Ġ146": 46671,
  "Ġ1460": 39040,
  "Ġ147": 36684,
  "Ġ148": 38497,
  "Ġ149": 31563,
  "Ġ15": 1784,
  "Ġ150": 6951,
  "Ġ1500": 17762,
  "Ġ151": 36628,
  "Ġ152": 27605,
  "Ġ154": 46536,
  "Ġ155": 26406,
  "Ġ156": 35499,
  "Ġ157": 42505,
  "Ġ158": 42506,
  "Ġ16": 3677,
  "Ġ160": 11877,
  "Ġ1600": 29348,
  "Ġ161": 40047,
  "Ġ162": 34466,
  "Ġ163": 37123,
  "Ġ164": 48744,
  "Ġ165": 18781,
  "Ġ166": 46647,
  "Ġ167": 44914,
  "Ġ168": 38001,
  "Ġ169": 36263,
  "Ġ17": 5391,
  "Ġ170": 16435,
  "Ġ1700": 40078,
  "Ġ172": 46709,
  "Ġ173": 43382,
  "Ġ175": 15300,
  "Ġ176": 22447,
  "Ġ177": 17645,
  "Ġ178": 47709,
  "Ġ18": 3255,
  "Ġ180": 7490,
  "Ġ1800": 23957,
  "Ġ182": 35536,
  "Ġ183": 44084,
  "Ġ185": 25122,
  "Ġ187": 48722,
  "Ġ188": 36667,
  "Ġ189": 35169,
  "Ġ19": 4078,
  "Ġ190": 14045,
  "Ġ1900": 29941,
  "Ġ191": 38496,
  "Ġ192": 15497,
  "Ġ1920": 24407,
  "Ġ1924": 49014,
  "Ġ1930": 32321,
  "Ġ1933": 47665,
  "Ġ1940": 27628,
  "Ġ195": 23197,
  "Ġ1950": 21989,
  "Ġ1955": 49971,
  "Ġ196": 18843,
  "Ġ1960": 24408,
  "Ġ1964": 39189,
  "Ġ1965": 40210,
  "Ġ1967": 45116,
  "Ġ1968": 44335,
  "Ġ1969": 45986,
  "Ġ197": 15473,
  "Ġ1970": 21832,
  "Ġ1976": 45087,
  "Ġ1978": 38604,
  "Ġ198": 19534,
  "Ġ1980": 21370,
  "Ġ1982": 34564,
  "Ġ1984": 46927,
  "Ġ1985": 46928,
  "Ġ199": 14361,
  "Ġ1990": 25683,
  "Ġ1992": 46871,
  "Ġ1993": 45944,
  "Ġ1994": 46872,
  "Ġ1995": 40179,
  "Ġ1996": 38122,
  "Ġ1997": 42750,
  "Ġ1998": 38592,
  "Ġ1999": 35982,
  "Ġ2": 898,
  "Ġ20": 1529,
  "Ġ200": 4385,
  "Ġ2000": 12833,
  "Ġ2001": 31081,
  "Ġ2002": 32044,
  "Ġ2003": 17500,
  "Ġ2004": 33497,
  "Ġ2005": 23861,
  "Ġ2006": 29942,
  "Ġ2007": 15007,
  "Ġ2008": 23027,
  "Ġ2009": 22357,
  "Ġ201": 5929,
  "Ġ2010": 14548,
  "Ġ2011": 20540,
  "Ġ2012": 16598,
  "Ġ2013": 15448,
  "Ġ2014": 18845,
  "Ġ2015": 16787,
  "Ġ2016": 17368,
  "Ġ2017": 24189,
  "Ġ2018": 40687,
  "Ġ202": 29509,
  "Ġ2020": 48597,
  "Ġ203": 37491,
  "Ġ204": 22808,
  "Ġ2048": 42799,
  "Ġ205": 27290,
  "Ġ206": 49786,
  "Ġ208": 33759,
  "Ġ21": 5995,
  "Ġ210": 27799,
  "Ġ211": 44169,
  "Ġ212": 26433,
  "Ġ213": 43387,
  "Ġ214": 40689,
  "Ġ215": 42643,
  "Ġ216": 45826,
  "Ġ217": 47728,
  "Ġ218": 35202,
  "Ġ22": 5793,
  "Ġ220": 14902,
  "Ġ2200": 46718,
  "Ġ221": 47723,
  "Ġ222": 40678,
  "Ġ224": 40088,
  "Ġ225": 16161,
  "Ġ226": 29362,
  "Ġ227": 27796,
  "Ġ228": 46717,
  "Ġ23": 6790,
  "Ġ230": 20953,
  "Ġ2300": 50082,
  "Ġ232": 34850,
  "Ġ235": 27641,
  "Ġ236": 21732,
  "Ġ237": 17909,
  "Ġ238": 44983,
  "Ġ24": 3186,
  "Ġ240": 9928,
  "Ġ2400": 39502,
  "Ġ243": 46623,
  "Ġ245": 44079,
  "Ġ249": 47635,
  "Ġ25": 3125,
  "Ġ250": 7972,
  "Ġ2500": 29530,
  "Ġ255": 23280,
  "Ġ256": 22824,
  "Ġ26": 9792,
  "Ġ260": 27823,
  "Ġ265": 44245,
  "Ġ27": 9302,
  "Ġ270": 32949,
  "Ġ273": 35604,
  "Ġ275": 26735,
  "Ġ28": 8350,
  "Ġ280": 31356,
  "Ġ285": 48901,
  "Ġ288": 45868,
  "Ġ29": 10175,
  "Ġ290": 42019,
  "Ġ294": 40143,
  "Ġ295": 42020,
  "Ġ3": 1065,
  "Ġ30": 1603,
  "Ġ300": 5828,
  "Ġ3000": 21280,
  "Ġ301": 41173,
  "Ġ303": 36207,
  "Ġ30348": 46099,
  "Ġ304": 37932,
  "Ġ305": 40555,
  "Ġ31": 11165,
  "Ġ310": 34403,
  "Ġ312": 45595,
  "Ġ314": 48946,
  "Ġ315": 39613,
  "Ġ319": 50191,
  "Ġ32": 6488,
  "Ġ320": 24880,
  "Ġ325": 16063,
  "Ġ33": 11358,
  "Ġ330": 34532,
  "Ġ333": 50195,
  "Ġ335": 43463,
  "Ġ34": 12760,
  "Ġ340": 24496,
  "Ġ341": 39630,
  "Ġ35": 4395,
  "Ġ350": 6775,
  "Ġ3500": 48781,
  "Ġ351": 48780,
  "Ġ354": 41280,
  "Ġ355": 29735,
  "Ġ357": 45778,
  "Ġ36": 5534,
  "Ġ360": 8141,
  "Ġ365": 20218,
  "Ġ37": 8483,
  "Ġ370": 42687,
  "Ġ375": 12300,
  "Ġ38": 11563,
  "Ġ380": 40525,
  "Ġ39": 13615,
  "Ġ390": 47886,
  "Ġ395": 50220,
  "Ġ4": 1670,
  "Ġ40": 3716,
  "Ġ400": 7027,
  "Ġ4000": 27030,
  "Ġ401": 15165,
  "Ġ403": 49950,
  "Ġ404": 39516,
  "Ġ405": 46649,
  "Ġ409": 44104,
  "Ġ41": 16633,
  "Ġ410": 42498,
  "Ġ411": 36213,
  "Ġ415": 42761,
  "Ġ42": 10548,
  "Ġ420": 34189,
  "Ġ425": 17698,
  "Ġ43": 15328,
  "Ġ432": 46527,
  "Ġ44": 13376,
  "Ġ440": 37934,
  "Ġ45": 3903,
  "Ġ450": 12398,
  "Ġ4500": 49962,
  "Ġ4506": 36780,
  "Ġ453": 32611,
  "Ġ454": 28806,
  "Ġ455": 44114,
  "Ġ456": 44919,
  "Ġ46": 15543,
  "Ġ465": 47905,
  "Ġ47": 11715,
  "Ġ470": 31826,
  "Ġ473": 20705,
  "Ġ474": 47849,
  "Ġ475": 25924,
  "Ġ48": 7549,
  "Ġ480": 21602,
  "Ġ485": 40705,
  "Ġ49": 15906,
  "Ġ5": 1799,
  "Ġ50": 3129,
  "Ġ500": 5591,
  "Ġ5000": 21813,
  "Ġ501": 32594,
  "Ġ504": 40608,
  "Ġ508": 47631,
  "Ġ51": 16755,
  "Ġ510": 35502,
  "Ġ512": 30114,
  "Ġ52": 11912,
  "Ġ525": 47856,
  "Ġ529": 41386,
  "Ġ53": 18422,
  "Ġ532": 48623,
  "Ġ539": 42778,
  "Ġ54": 15760,
  "Ġ540": 29320,
  "Ġ549": 50251,
  "Ġ55": 9579,
  "Ġ550": 10168,
  "Ġ55000": 48924,
  "Ġ555": 41367,
  "Ġ56": 14709,
  "Ġ57": 17538,
  "Ġ58": 18118,
  "Ġ59": 12201,
  "Ġ590": 47862,
  "Ġ6": 2257,
  "Ġ60": 3653,
  "Ġ600": 11052,
  "Ġ6000": 29978,
  "Ġ609": 46645,
  "Ġ61": 14740,
  "Ġ62": 16081,
  "Ġ620": 47578,
  "Ġ625": 49024,
  "Ġ63": 16894,
  "Ġ64": 9522,
  "Ġ640": 38079,
  "Ġ65": 9072,
  "Ġ650": 25464,
  "Ġ655": 39114,
  "Ġ66": 17283,
  "Ġ67": 17814,
  "Ġ670": 47943,
  "Ġ675": 47944,
  "Ġ68": 16758,
  "Ġ680": 31041,
  "Ġ69": 21218,
  "Ġ690": 49858,
  "Ġ7": 2889,
  "Ġ70": 6058,
  "Ġ700": 15909,
  "Ġ7000": 45093,
  "Ġ703": 50064,
  "Ġ709": 42647,
  "Ġ71": 22719,
  "Ġ710": 46607,
  "Ġ72": 10012,
  "Ġ720": 23575,
  "Ġ73": 21718,
  "Ġ74": 17730,
  "Ġ740": 40602,
  "Ġ75": 7101,
  "Ġ750": 18971,
  "Ġ76": 16254,
  "Ġ77": 19647,
  "Ġ777": 42787,
  "Ġ78": 17052,
  "Ġ780": 45722,
  "Ġ79": 19278,
  "Ġ797": 44339,
  "Ġ8": 2855,
  "Ġ80": 5744,
  "Ġ800": 7903,
  "Ġ802": 34154,
  "Ġ808": 48832,
  "Ġ81": 19375,
  "Ġ811": 41244,
  "Ġ82": 16115,
  "Ġ83": 23377,
  "Ġ84": 19646,
  "Ġ840": 43300,
  "Ġ85": 11349,
  "Ġ850": 28447,
  "Ġ855": 42032,
  "Ġ86": 16082,
  "Ġ864": 39640,
  "Ġ866": 25931,
  "Ġ87": 16361,
  "Ġ877": 22284,
  "Ġ88": 14898,
  "Ġ880": 45719,
  "Ġ888": 21395,
  "Ġ89": 21800,
  "Ġ9": 2674,
  "Ġ90": 4331,
  "Ġ900": 16554,
  "Ġ9055": 44931,
  "Ġ905512": 45290,
  "Ġ907": 36272,
  "Ġ91": 14711,
  "Ġ911": 13630,
  "Ġ914": 40778,
  "Ġ92": 23543,
  "Ġ920": 48698,
  "Ġ93": 20894,
  "Ġ94": 17085,
  "Ġ946": 32114,
  "Ġ95": 12216,
  "Ġ950": 22821,
  "Ġ96": 18253,
  "Ġ960": 42559,
  "Ġ97": 20271,
  "Ġ98": 16152,
  "Ġ99": 10454,
  "Ġ990": 33253,
  "Ġ993": 44259,
  "Ġ995": 45905,
  "Ġ999": 30662,
  "Ġa": 263,
  "Ġaa": 16612,
  "Ġaaa": 18589,
  "Ġaac": 20796,
  "Ġaaf": 32747,
  "Ġaafco": 35329,
  "Ġaap": 30266,
  "Ġaapc": 42848,
  "Ġaar": 33651,
  "Ġaaron": 42162,
  "Ġaarp": 38761,
  "Ġab": 441,
  "Ġaba": 35410,
  "Ġabab": 46359,
  "Ġaback": 48404,
  "Ġabandon": 9593,
  "Ġabandoned": 13739,
  "Ġabandoning": 34183,
  "Ġabandonment": 25157,
  "Ġabap": 39874,
  "Ġabate": 26660,
  "Ġabatement": 29416,
  "Ġabba": 34698,
  "Ġabbey": 41707,
  "Ġabbrev": 9405,
  "Ġabbreviate": 27988,
  "Ġabbreviated": 19029,
  "Ġabbreviation": 16405,
  "Ġabbreviations": 15792,
  "Ġabby": 49555,
  "Ġabc": 17009,
  "Ġabcs": 46360,
  "Ġabdom": 4670,
  "Ġabdomen": 7075,
  "Ġabdomens": 42617,
  "Ġabdominal": 7145,
  "Ġabdominals": 27630,
  "Ġabdu": 23822,
  "Ġabducted": 41484,
  "Ġabduction": 36846,
  "Ġabductor": 46013,
  "Ġabe": 47335,
  "Ġaber": 22996,
  "Ġabercrombie": 25542,
  "Ġabet": 43837,
  "Ġabg": 47336,
  "Ġabide": 19922,
  "Ġabiding": 40439,
  "Ġabilities": 6347,
  "Ġability": 2900,
  "Ġabkc": 47337,
  "Ġabl": 26962,
  "Ġablation": 37275,
  "Ġablative": 42139,
  "Ġable": 959,
  "Ġableton": 35111,
  "Ġabnorm": 8036,
  "Ġabnormal": 8657,
  "Ġabnormalities": 16439,
  "Ġabnormality": 34877,
  "Ġabnormally": 20842,
  "Ġaboard": 38320,
  "Ġabol": 45469,
  "Ġabort": 27564,
  "Ġabortion": 17228,
  "Ġabortions": 37715,
  "Ġabound": 37840,
  "Ġabout": 495,
  "Ġabove": 1730,
  "Ġabr": 32794,
  "Ġabra": 30300,
  "Ġabrade": 41518,
  "Ġabraham": 33027,
  "Ġabras": 6715,
  "Ġabrasion": 21819,
  "Ġabrasions": 23974,
  "Ġabrasive": 7742,
  "Ġabrasiveness": 43400,
  "Ġabrasives": 30421,
  "Ġabre": 27719,
  "Ġabreast": 28525,
  "Ġabroad": 11330,
  "Ġabrupt": 14660,
  "Ġabruptly": 18853,
  "Ġabs": 5466,
  "Ġabscess": 13048,
  "Ġabscessed": 48976,
  "Ġabscesses": 22101,
  "Ġabsence": 13032,
  "Ġabsences": 27024,
  "Ġabsent": 13963,
  "Ġabsentee": 21393,
  "Ġabsinthe": 21729,
  "Ġabsol": 4711,
  "Ġabsolute": 4765,
  "Ġabsolutely": 5708,
  "Ġabsor": 2982,
  "Ġabsorb": 3481,
  "Ġabsorbable": 49939,
  "Ġabsorbance": 41906,
  "Ġabsorbed": 8077,
  "Ġabsorbency": 25478,
  "Ġabsorbent": 11010,
  "Ġabsorber": 39015,
  "Ġabsorbers": 36254,
  "Ġabsorbing": 13195,
  "Ġabsorbs": 13063,
  "Ġabsorpt": 41889,
  "Ġabsorption": 12614,
  "Ġabst": 8783,
  "Ġabstain": 21492,
  "Ġabstaining": 34175,
  "Ġabstinence": 22742,
  "Ġabstinent": 37618,
  "Ġabstract": 10057,
  "Ġabstracts": 33861,
  "Ġabsurd": 25138,
  "Ġabund": 13763,
  "Ġabundance": 18270,
  "Ġabundant": 21051,
  "Ġabundantly": 43492,
  "Ġabuse": 4739,
  "Ġabused": 13115,
  "Ġabuser": 13747,
  "Ġabusers": 23430,
  "Ġabuses": 34022,
  "Ġabusing": 19310,
  "Ġabusive": 9763,
  "Ġabut": 43064,
  "Ġabv": 39873,
  "Ġaby": 32496,
  "Ġabyss": 33952,
  "Ġac": 523,
  "Ġaca": 32506,
  "Ġacacia": 32229,
  "Ġacadem": 5877,
  "Ġacademia": 41323,
  "Ġacademic": 7375,
  "Ġacademically": 27970,
  "Ġacademics": 24187,
  "Ġacademies": 42640,
  "Ġacademy": 13652,
  "Ġacai": 23930,
  "Ġacc": 721,
  "Ġacce": 4753,
  "Ġacceler": 7959,
  "Ġaccelerate": 13993,
  "Ġaccelerated": 25921,
  "Ġaccelerates": 34168,
  "Ġaccelerating": 26440,
  "Ġacceleration": 13537,
  "Ġaccelerator": 24298,
  "Ġaccent": 5831,
  "Ġaccented": 29749,
  "Ġaccenting": 41952,
  "Ġaccents": 12276,
  "Ġaccentuate": 12269,
  "Ġaccentuated": 44163,
  "Ġaccentuates": 29363,
  "Ġaccentuating": 32924,
  "Ġaccept": 2143,
  "Ġacceptable": 5799,
  "Ġacceptance": 9547,
  "Ġaccepted": 7136,
  "Ġaccepting": 7899,
  "Ġaccepts": 12016,
  "Ġaccess": 1353,
  "Ġaccessed": 10299,
  "Ġaccesses": 38949,
  "Ġaccessibility": 14669,
  "Ġaccessible": 6769,
  "Ġaccessing": 12012,
  "Ġaccessor": 26404,
  "Ġaccessories": 4251,
  "Ġaccessorize": 12332,
  "Ġaccessorizing": 31169,
  "Ġaccessory": 11216,
  "Ġaccident": 4073,
  "Ġaccidental": 14713,
  "Ġaccidentally": 5676,
  "Ġaccidently": 44713,
  "Ġaccidents": 10019,
  "Ġacclaim": 36572,
  "Ġacclaimed": 39759,
  "Ġacclim": 18765,
  "Ġacclimate": 17494,
  "Ġacclimated": 27497,
  "Ġacclimating": 42780,
  "Ġacclimation": 35654,
  "Ġacclimatize": 44334,
  "Ġaccol": 45547,
  "Ġaccolades": 47128,
  "Ġaccom": 2601,
  "Ġaccommod": 5222,
  "Ġaccommodate": 7383,
  "Ġaccommodated": 37150,
  "Ġaccommodates": 33820,
  "Ġaccommodating": 23288,
  "Ġaccommodation": 15009,
  "Ġaccommodations": 11226,
  "Ġaccompan": 6032,
  "Ġaccompanied": 10198,
  "Ġaccompanies": 24068,
  "Ġaccompaniment": 26722,
  "Ġaccompaniments": 39075,
  "Ġaccompany": 11558,
  "Ġaccompanying": 14525,
  "Ġaccompl": 4120,
  "Ġaccomplice": 49976,
  "Ġaccomplish": 4857,
  "Ġaccomplished": 10383,
  "Ġaccomplishes": 40631,
  "Ġaccomplishing": 19332,
  "Ġaccomplishment": 14793,
  "Ġaccomplishments": 9712,
  "Ġaccord": 2751,
  "Ġaccordance": 20824,
  "Ġaccording": 2853,
  "Ġaccordingly": 5971,
  "Ġaccordion": 19070,
  "Ġaccount": 1033,
  "Ġaccountability": 18607,
  "Ġaccountable": 12759,
  "Ġaccountancy": 49718,
  "Ġaccountant": 13598,
  "Ġaccountants": 22146,
  "Ġaccounted": 26401,
  "Ġaccounting": 8138,
  "Ġaccounts": 3628,
  "Ġaccr": 14867,
  "Ġaccred": 9053,
  "Ġaccreditation": 17214,
  "Ġaccredited": 11174,
  "Ġaccrediting": 34520,
  "Ġaccrual": 32106,
  "Ġaccrue": 24647,
  "Ġaccrued": 24547,
  "Ġaccrues": 47900,
  "Ġaccruing": 38126,
  "Ġaccum": 6934,
  "Ġaccumulate": 11946,
  "Ġaccumulated": 13281,
  "Ġaccumulates": 21911,
  "Ġaccumulating": 20283,
  "Ġaccumulation": 18627,
  "Ġaccur": 3366,
  "Ġaccuracy": 8894,
  "Ġaccurate": 4570,
  "Ġaccurately": 8294,
  "Ġaccus": 13523,
  "Ġaccusation": 29031,
  "Ġaccusations": 20365,
  "Ġaccusative": 45932,
  "Ġaccusatory": 21535,
  "Ġaccuse": 20746,
  "Ġaccused": 21426,
  "Ġaccuser": 36168,
  "Ġaccuses": 45548,
  "Ġaccusing": 23252,
  "Ġaccust": 11541,
  "Ġaccustom": 45918,
  "Ġaccustomed": 11788,
  "Ġaccut": 30082,
  "Ġaccutane": 31182,
  "Ġace": 12170,
  "Ġacepromazine": 42728,
  "Ġacer": 43083,
  "Ġaces": 21962,
  "Ġacet": 5961,
  "Ġacetaldehyde": 38524,
  "Ġacetaminophen": 11012,
  "Ġacetate": 17410,
  "Ġacetic": 26249,
  "Ġacetone": 8667,
  "Ġacetyl": 43084,
  "Ġacetylene": 44166,
  "Ġacf": 37850,
  "Ġacfs": 48441,
  "Ġach": 2698,
  "Ġache": 18284,
  "Ġaches": 12387,
  "Ġachie": 6204,
  "Ġachievable": 17953,
  "Ġachieve": 3303,
  "Ġachieved": 9295,
  "Ġachievement": 13124,
  "Ġachievements": 10605,
  "Ġachieves": 26878,
  "Ġachieving": 11242,
  "Ġachilles": 21982,
  "Ġaching": 23376,
  "Ġachy": 31779,
  "Ġacid": 2585,
  "Ġacidic": 7466,
  "Ġacidify": 49887,
  "Ġacidity": 14452,
  "Ġacidophilus": 18836,
  "Ġacidosis": 37094,
  "Ġacids": 5553,
  "Ġack": 4950,
  "Ġacknow": 4953,
  "Ġacknowled": 10641,
  "Ġacknowledge": 5803,
  "Ġacknowledged": 22554,
  "Ġacknowledgement": 21595,
  "Ġacknowledges": 31114,
  "Ġacknowledging": 14031,
  "Ġacknowledgment": 26320,
  "Ġacl": 24245,
  "Ġaclu": 31710,
  "Ġacme": 49579,
  "Ġacne": 4033,
  "Ġacnes": 49580,
  "Ġacorn": 19676,
  "Ġacorns": 21076,
  "Ġacou": 14289,
  "Ġacoustic": 15859,
  "Ġacoustics": 32687,
  "Ġacp": 41074,
  "Ġacqu": 4901,
  "Ġacquaint": 9816,
  "Ġacquaintance": 16371,
  "Ġacquaintances": 12822,
  "Ġacquainted": 18520,
  "Ġacquire": 8925,
  "Ġacquired": 13384,
  "Ġacquirer": 38069,
  "Ġacquires": 50018,
  "Ġacquiring": 17770,
  "Ġacquis": 22925,
  "Ġacquisition": 26215,
  "Ġacquisitions": 39695,
  "Ġacr": 14917,
  "Ġacre": 22885,
  "Ġacreage": 42800,
  "Ġacres": 26964,
  "Ġacro": 16744,
  "Ġacrobat": 18480,
  "Ġacrobatics": 45980,
  "Ġacronym": 19718,
  "Ġacronyms": 24648,
  "Ġacross": 2210,
  "Ġacrostic": 42763,
  "Ġacrylic": 6495,
  "Ġacrylics": 25916,
  "Ġact": 680,
  "Ġacted": 18551,
  "Ġacth": 48489,
  "Ġactin": 36164,
  "Ġacting": 4956,
  "Ġactinomycosis": 48101,
  "Ġaction": 2794,
  "Ġactionable": 27766,
  "Ġactions": 3799,
  "Ġactionscript": 35901,
  "Ġactiv": 1322,
  "Ġactivate": 6348,
  "Ġactivated": 9238,
  "Ġactivates": 20527,
  "Ġactivating": 18827,
  "Ġactivation": 13556,
  "Ġactivator": 40541,
  "Ġactive": 2572,
  "Ġactively": 7224,
  "Ġactivex": 44867,
  "Ġactivision": 49757,
  "Ġactivism": 28426,
  "Ġactivist": 29700,
  "Ġactivists": 33435,
  "Ġactivities": 2201,
  "Ġactivity": 2420,
  "Ġacto": 21565,
  "Ġactor": 12773,
  "Ġactors": 9673,
  "Ġactress": 25978,
  "Ġactresses": 27913,
  "Ġacts": 6112,
  "Ġactual": 3944,
  "Ġactuality": 42599,
  "Ġactually": 2016,
  "Ġactuar": 34047,
  "Ġactuarial": 34284,
  "Ġactuaries": 49641,
  "Ġactuary": 47413,
  "Ġactuator": 39915,
  "Ġacuity": 38334,
  "Ġacup": 8856,
  "Ġacupressure": 18570,
  "Ġacupun": 10106,
  "Ġacupunctur": 19194,
  "Ġacupuncture": 11747,
  "Ġacupuncturist": 21684,
  "Ġacupuncturists": 34234,
  "Ġacute": 10899,
  "Ġacutely": 47832,
  "Ġacv": 30313,
  "Ġacyclo": 33399,
  "Ġacyclovir": 33639,
  "Ġad": 421,
  "Ġada": 24357,
  "Ġadage": 25312,
  "Ġadai": 48396,
  "Ġadam": 18196,
  "Ġadamant": 27667,
  "Ġadams": 37396,
  "Ġadap": 4604,
  "Ġadapt": 8147,
  "Ġadaptability": 48894,
  "Ġadaptable": 24428,
  "Ġadaptation": 32659,
  "Ġadaptations": 38551,
  "Ġadapted": 18519,
  "Ġadapter": 7395,
  "Ġadapters": 16983,
  "Ġadapting": 26578,
  "Ġadaptive": 31352,
  "Ġadaptor": 27191,
  "Ġadapts": 41292,
  "Ġadb": 29864,
  "Ġadblock": 16925,
  "Ġadc": 41051,
  "Ġadd": 505,
  "Ġadded": 2603,
  "Ġaddend": 24581,
  "Ġaddendum": 26621,
  "Ġadder": 28750,
  "Ġadderall": 30496,
  "Ġaddict": 10167,
  "Ġaddicted": 16685,
  "Ġaddicting": 37411,
  "Ġaddiction": 7839,
  "Ġaddictions": 22746,
  "Ġaddictive": 18342,
  "Ġaddicts": 26515,
  "Ġadding": 2010,
  "Ġaddison": 31477,
  "Ġaddition": 1428,
  "Ġadditional": 2286,
  "Ġadditionally": 5626,
  "Ġadditions": 12421,
  "Ġadditive": 20252,
  "Ġadditives": 10652,
  "Ġaddons": 32226,
  "Ġaddres": 38332,
  "Ġaddress": 1438,
  "Ġaddressed": 10286,
  "Ġaddressee": 39764,
  "Ġaddresses": 6745,
  "Ġaddressing": 10613,
  "Ġadds": 6784,
  "Ġade": 31702,
  "Ġadela": 44636,
  "Ġadelaide": 45283,
  "Ġaden": 25717,
  "Ġadenine": 46991,
  "Ġadenosine": 46028,
  "Ġadept": 21418,
  "Ġadequ": 5224,
  "Ġadequate": 6124,
  "Ġadequately": 11000,
  "Ġadhd": 8232,
  "Ġadhere": 8719,
  "Ġadhered": 30988,
  "Ġadherence": 35405,
  "Ġadherent": 46351,
  "Ġadheres": 24134,
  "Ġadhering": 20877,
  "Ġadhes": 4610,
  "Ġadhesion": 25906,
  "Ġadhesive": 4868,
  "Ġadhesives": 20351,
  "Ġadi": 43830,
  "Ġadidas": 34016,
  "Ġadj": 10996,
  "Ġadjacent": 12327,
  "Ġadject": 11838,
  "Ġadjective": 17254,
  "Ġadjectives": 15742,
  "Ġadjoining": 27895,
  "Ġadjud": 35619,
  "Ġadjudicated": 49210,
  "Ġadjunct": 48942,
  "Ġadjust": 1917,
  "Ġadjustable": 11101,
  "Ġadjusted": 9586,
  "Ġadjuster": 20681,
  "Ġadjusters": 39993,
  "Ġadjusting": 8520,
  "Ġadjustment": 9750,
  "Ġadjustments": 7256,
  "Ġadjusts": 20624,
  "Ġadm": 7377,
  "Ġadmin": 3124,
  "Ġadminist": 3329,
  "Ġadminister": 8851,
  "Ġadministered": 12245,
  "Ġadministering": 16223,
  "Ġadministers": 30846,
  "Ġadministr": 5499,
  "Ġadministration": 7880,
  "Ġadministrative": 10577,
  "Ġadministrator": 7657,
  "Ġadministrators": 15272,
  "Ġadmins": 29013,
  "Ġadmir": 46751,
  "Ġadmirable": 27031,
  "Ġadmiration": 23393,
  "Ġadmire": 9473,
  "Ġadmired": 27976,
  "Ġadmirer": 27989,
  "Ġadmiring": 34163,
  "Ġadmissible": 46352,
  "Ġadmission": 13396,
  "Ġadmissions": 14556,
  "Ġadmit": 7727,
  "Ġadmits": 33525,
  "Ġadmittance": 45003,
  "Ġadmitted": 18435,
  "Ġadmittedly": 39185,
  "Ġadmitting": 19482,
  "Ġadmon": 43831,
  "Ġado": 7355,
  "Ġadobe": 9236,
  "Ġadobo": 35940,
  "Ġadoles": 13536,
  "Ġadolesc": 16686,
  "Ġadolescence": 27660,
  "Ġadolescent": 21312,
  "Ġadolescents": 19776,
  "Ġadop": 3544,
  "Ġadopt": 6123,
  "Ġadoptable": 41327,
  "Ġadopted": 11189,
  "Ġadoptee": 37996,
  "Ġadoptees": 44910,
  "Ġadopter": 39029,
  "Ġadopters": 33797,
  "Ġadopting": 11119,
  "Ġadoption": 6781,
  "Ġadoptions": 23665,
  "Ġadoptive": 18681,
  "Ġadopts": 38483,
  "Ġador": 17663,
  "Ġadorable": 18907,
  "Ġadoration": 44635,
  "Ġadore": 27562,
  "Ġadores": 48395,
  "Ġadorn": 21417,
  "Ġadorned": 37249,
  "Ġadornments": 38642,
  "Ġadr": 26244,
  "Ġadren": 11185,
  "Ġadrenal": 15886,
  "Ġadrenalin": 49020,
  "Ġadrenaline": 15793,
  "Ġadriana": 44401,
  "Ġadrive": 35064,
  "Ġads": 6174,
  "Ġadsense": 21730,
  "Ġadt": 45463,
  "Ġadul": 16346,
  "Ġadult": 2578,
  "Ġadulter": 45096,
  "Ġadultery": 39169,
  "Ġadulthood": 18309,
  "Ġadults": 4519,
  "Ġadv": 1512,
  "Ġadvance": 3752,
  "Ġadvanced": 4500,
  "Ġadvancement": 18625,
  "Ġadvancements": 34468,
  "Ġadvances": 17321,
  "Ġadvancing": 21085,
  "Ġadvant": 3469,
  "Ġadvantage": 3847,
  "Ġadvantageous": 24056,
  "Ġadvantages": 10365,
  "Ġadvantix": 43325,
  "Ġadvent": 6659,
  "Ġadventure": 9805,
  "Ġadventurer": 42660,
  "Ġadventures": 14927,
  "Ġadventuring": 47741,
  "Ġadventurous": 14881,
  "Ġadver": 17716,
  "Ġadverb": 25933,
  "Ġadverbs": 24445,
  "Ġadvers": 21072,
  "Ġadversary": 41468,
  "Ġadverse": 11163,
  "Ġadversely": 24202,
  "Ġadversity": 26348,
  "Ġadvert": 3545,
  "Ġadvertise": 5324,
  "Ġadvertised": 14225,
  "Ġadvertisement": 14079,
  "Ġadvertisements": 10931,
  "Ġadvertiser": 34804,
  "Ġadvertisers": 25362,
  "Ġadvertises": 28990,
  "Ġadvertising": 6301,
  "Ġadverts": 42350,
  "Ġadvice": 3328,
  "Ġadvil": 18770,
  "Ġadvis": 6436,
  "Ġadvisable": 11027,
  "Ġadvise": 8904,
  "Ġadvised": 10518,
  "Ġadviser": 17954,
  "Ġadvisers": 33834,
  "Ġadvises": 24382,
  "Ġadvising": 27934,
  "Ġadvisor": 11647,
  "Ġadvisories": 34846,
  "Ġadvisors": 21523,
  "Ġadvisory": 30419,
  "Ġadvoc": 14919,
  "Ġadvocacy": 21195,
  "Ġadvocate": 12790,
  "Ġadvocated": 50240,
  "Ġadvocates": 23688,
  "Ġadvocating": 35987,
  "Ġadw": 28064,
  "Ġadware": 18491,
  "Ġadwcleaner": 30712,
  "Ġadwords": 23927,
  "Ġadzuki": 42351,
  "Ġae": 17338,
  "Ġaed": 34297,
  "Ġaegean": 47929,
  "Ġaela": 38264,
  "Ġaer": 5920,
  "Ġaerate": 23564,
  "Ġaerated": 36712,
  "Ġaerating": 40686,
  "Ġaeration": 29550,
  "Ġaerator": 21815,
  "Ġaerators": 46726,
  "Ġaerial": 18896,
  "Ġaero": 13658,
  "Ġaerob": 8218,
  "Ġaerobic": 9563,
  "Ġaerobics": 16437,
  "Ġaerodynamic": 37649,
  "Ġaeron": 46725,
  "Ġaerop": 25002,
  "Ġaeropostale": 30238,
  "Ġaeropress": 38664,
  "Ġaerosol": 16539,
  "Ġaerosols": 41406,
  "Ġaes": 39801,
  "Ġaest": 10700,
  "Ġaesthet": 16877,
  "Ġaesthetic": 13635,
  "Ġaesthetically": 22285,
  "Ġaesthetics": 24900,
  "Ġaf": 581,
  "Ġafar": 24585,
  "Ġafc": 47385,
  "Ġafci": 48466,
  "Ġaff": 2758,
  "Ġaffair": 14820,
  "Ġaffairs": 15163,
  "Ġaffect": 1993,
  "Ġaffected": 4165,
  "Ġaffecting": 9838,
  "Ġaffection": 6710,
  "Ġaffectionate": 14432,
  "Ġaffectionately": 41336,
  "Ġaffections": 35853,
  "Ġaffective": 31034,
  "Ġaffects": 7085,
  "Ġaffenpins": 30833,
  "Ġaffenpinscher": 35690,
  "Ġaffenpinschers": 49169,
  "Ġaffidav": 11531,
  "Ġaffidavit": 12105,
  "Ġaffidavits": 32670,
  "Ġaffili": 12550,
  "Ġaffiliate": 13631,
  "Ġaffiliated": 17256,
  "Ġaffiliates": 29584,
  "Ġaffiliation": 24439,
  "Ġaffiliations": 32390,
  "Ġaffinity": 32586,
  "Ġaffir": 24274,
  "Ġaffirm": 9636,
  "Ġaffirmation": 19715,
  "Ġaffirmations": 13621,
  "Ġaffirmative": 26181,
  "Ġaffirming": 25549,
  "Ġaffix": 13296,
  "Ġaffixed": 26059,
  "Ġaffixing": 45930,
  "Ġafflic": 20897,
  "Ġafflict": 37245,
  "Ġafflicted": 28015,
  "Ġaffliction": 40225,
  "Ġafflictions": 47072,
  "Ġafflu": 45714,
  "Ġafford": 4289,
  "Ġaffordability": 38015,
  "Ġaffordable": 8666,
  "Ġafforded": 44133,
  "Ġaffording": 41923,
  "Ġaffords": 33496,
  "Ġafghan": 32236,
  "Ġafghanistan": 45189,
  "Ġaficion": 34377,
  "Ġaficionados": 40289,
  "Ġafield": 45517,
  "Ġafloat": 27728,
  "Ġaforementioned": 21002,
  "Ġafraid": 3509,
  "Ġafric": 9604,
  "Ġafrica": 14824,
  "Ġafrican": 12556,
  "Ġafrikaans": 38342,
  "Ġafro": 26972,
  "Ġafter": 678,
  "Ġaftercare": 26676,
  "Ġafterlife": 39914,
  "Ġaftermarket": 23515,
  "Ġaftermath": 26524,
  "Ġafterno": 28406,
  "Ġafternoon": 7179,
  "Ġafternoons": 28528,
  "Ġafterschool": 41108,
  "Ġaftersh": 19363,
  "Ġaftershave": 21472,
  "Ġaftershocks": 46925,
  "Ġaftertaste": 33120,
  "Ġafterthought": 48488,
  "Ġafterward": 9784,
  "Ġafterwards": 6604,
  "Ġaftra": 37008,
  "Ġag": 705,
  "Ġagain": 958,
  "Ġagainst": 1809,
  "Ġagar": 19109,
  "Ġagave": 15667,
  "Ġage": 2103,
  "Ġaged": 10737,
  "Ġageing": 47568,
  "Ġagencies": 5912,
  "Ġagency": 4378,
  "Ġagenda": 14191,
  "Ġagendas": 39473,
  "Ġagender": 40577,
  "Ġagent": 4053,
  "Ġagents": 7032,
  "Ġages": 6995,
  "Ġaggrav": 11959,
  "Ġaggravate": 15309,
  "Ġaggravated": 26194,
  "Ġaggravates": 45045,
  "Ġaggravating": 28666,
  "Ġaggravation": 43471,
  "Ġaggreg": 17156,
  "Ġaggregate": 24214,
  "Ġaggregation": 46899,
  "Ġaggregator": 32117,
  "Ġaggregators": 39177,
  "Ġaggress": 3857,
  "Ġaggression": 9033,
  "Ġaggressive": 4985,
  "Ġaggressively": 13734,
  "Ġaggressiveness": 32318,
  "Ġaggressor": 26573,
  "Ġaggro": 38357,
  "Ġagi": 35442,
  "Ġagile": 29121,
  "Ġagility": 14184,
  "Ġaging": 9196,
  "Ġagit": 12876,
  "Ġagitate": 17981,
  "Ġagitated": 15631,
  "Ġagitating": 33265,
  "Ġagitation": 18704,
  "Ġagitator": 27485,
  "Ġagn": 37017,
  "Ġagnostic": 40305,
  "Ġago": 10425,
  "Ġagon": 25597,
  "Ġagonist": 45157,
  "Ġagonists": 39221,
  "Ġagonizing": 46990,
  "Ġagony": 43890,
  "Ġagoraph": 37871,
  "Ġagoraphobia": 40307,
  "Ġagree": 2677,
  "Ġagreeable": 20758,
  "Ġagreed": 11355,
  "Ġagreeing": 15584,
  "Ġagreement": 4482,
  "Ġagreements": 13379,
  "Ġagrees": 15375,
  "Ġagric": 12196,
  "Ġagricult": 12273,
  "Ġagricultural": 16952,
  "Ġagriculture": 17026,
  "Ġags": 47418,
  "Ġagu": 43130,
  "Ġaguilera": 44493,
  "Ġah": 10074,
  "Ġaha": 29839,
  "Ġahas": 40362,
  "Ġahb": 40142,
  "Ġahead": 2964,
  "Ġahh": 42708,
  "Ġahhh": 45028,
  "Ġahi": 45901,
  "Ġahima": 42709,
  "Ġahn": 39316,
  "Ġahold": 38263,
  "Ġahs": 45027,
  "Ġai": 17309,
  "Ġaid": 4113,
  "Ġaide": 23493,
  "Ġaided": 33053,
  "Ġaides": 34298,
  "Ġaiding": 29838,
  "Ġaids": 8968,
  "Ġaik": 38762,
  "Ġaikido": 45239,
  "Ġail": 14597,
  "Ġailing": 38763,
  "Ġailment": 27208,
  "Ġailments": 16767,
  "Ġaim": 3107,
  "Ġaimed": 14208,
  "Ġaiming": 10440,
  "Ġaimlessly": 35160,
  "Ġaims": 20158,
  "Ġaioli": 45968,
  "Ġair": 1214,
  "Ġairbag": 31995,
  "Ġairbags": 43195,
  "Ġairbn": 23172,
  "Ġairbnb": 23492,
  "Ġairborne": 18612,
  "Ġairbrush": 25610,
  "Ġairbrushed": 44773,
  "Ġairbrushing": 43196,
  "Ġaircraft": 13307,
  "Ġairdisk": 35473,
  "Ġairdroid": 43197,
  "Ġairdrop": 24597,
  "Ġaired": 37343,
  "Ġaires": 36470,
  "Ġairfare": 23526,
  "Ġairfares": 45608,
  "Ġairflow": 14448,
  "Ġairhorn": 48565,
  "Ġairing": 27929,
  "Ġairless": 43194,
  "Ġairline": 8756,
  "Ġairlines": 11118,
  "Ġairlock": 34078,
  "Ġairplane": 11224,
  "Ġairplanes": 24970,
  "Ġairplay": 31267,
  "Ġairpods": 37479,
  "Ġairport": 7685,
  "Ġairports": 15023,
  "Ġairprint": 27744,
  "Ġairs": 36192,
  "Ġairship": 39960,
  "Ġairsoft": 27743,
  "Ġairspace": 49741,
  "Ġairstone": 46483,
  "Ġairt": 6648,
  "Ġairtight": 6855,
  "Ġairtime": 38042,
  "Ġairtrain": 44187,
  "Ġairway": 14643,
  "Ġairways": 16628,
  "Ġairy": 20093,
  "Ġais": 9479,
  "Ġaisle": 11192,
  "Ġaisles": 20362,
  "Ġaj": 22480,
  "Ġajar": 34948,
  "Ġajax": 41476,
  "Ġak": 13676,
  "Ġaka": 19292,
  "Ġakbar": 40170,
  "Ġakc": 21613,
  "Ġakin": 28710,
  "Ġakita": 38114,
  "Ġal": 398,
  "Ġala": 23926,
  "Ġalab": 18951,
  "Ġalabama": 20553,
  "Ġalabaster": 40213,
  "Ġaladd": 44625,
  "Ġaladdin": 45282,
  "Ġalai": 49528,
  "Ġalaikum": 46973,
  "Ġalak": 43817,
  "Ġalakazam": 49269,
  "Ġalan": 41044,
  "Ġalarm": 4928,
  "Ġalarmed": 19536,
  "Ġalarming": 29545,
  "Ġalarms": 13908,
  "Ġalaska": 16387,
  "Ġalaskan": 34690,
  "Ġalay": 49526,
  "Ġalb": 4538,
  "Ġalba": 43364,
  "Ġalbacore": 41930,
  "Ġalbeit": 27716,
  "Ġalber": 35400,
  "Ġalbert": 34689,
  "Ġalberta": 37309,
  "Ġalbum": 5734,
  "Ġalbumin": 35556,
  "Ġalbums": 9274,
  "Ġalbuter": 48786,
  "Ġalbuterol": 49321,
  "Ġalche": 30546,
  "Ġalchem": 33093,
  "Ġalchemist": 36884,
  "Ġalchemy": 31186,
  "Ġalcohol": 2093,
  "Ġalcoholic": 10118,
  "Ġalcoholics": 30123,
  "Ġalcoholism": 23276,
  "Ġalcohols": 23848,
  "Ġald": 20129,
  "Ġaldan": 40218,
  "Ġalde": 37680,
  "Ġaldebaran": 46106,
  "Ġalder": 35012,
  "Ġaldosterone": 49068,
  "Ġalduin": 35660,
  "Ġale": 14052,
  "Ġalert": 4476,
  "Ġalerted": 30624,
  "Ġalerting": 28739,
  "Ġalertness": 19753,
  "Ġalerts": 11218,
  "Ġales": 33052,
  "Ġaleve": 24311,
  "Ġalex": 16304,
  "Ġalexa": 30683,
  "Ġalexand": 37231,
  "Ġalexander": 36803,
  "Ġalexandria": 43647,
  "Ġalf": 14969,
  "Ġalfalfa": 19038,
  "Ġalfred": 25522,
  "Ġalfredo": 28522,
  "Ġalga": 9618,
  "Ġalgae": 9655,
  "Ġalgaec": 32664,
  "Ġalgaecide": 39253,
  "Ġalgaecides": 48080,
  "Ġalgal": 43818,
  "Ġalgebra": 12970,
  "Ġalgebraic": 22847,
  "Ġalgebraically": 47877,
  "Ġalger": 48374,
  "Ġalgin": 32790,
  "Ġalginate": 33331,
  "Ġalgor": 16964,
  "Ġalgorith": 16995,
  "Ġalgorithm": 21316,
  "Ġalgorithms": 25687,
  "Ġali": 10226,
  "Ġalias": 23720,
  "Ġaliases": 35614,
  "Ġaliasing": 46803,
  "Ġalib": 39359,
  "Ġalice": 20804,
  "Ġalicia": 36130,
  "Ġalien": 12484,
  "Ġalienate": 29982,
  "Ġalienated": 44282,
  "Ġalienating": 39626,
  "Ġaliens": 21189,
  "Ġalight": 45450,
  "Ġalign": 4408,
  "Ġaligned": 8135,
  "Ġaligner": 46682,
  "Ġaligners": 35182,
  "Ġaligning": 22636,
  "Ġalignment": 10839,
  "Ġaligns": 23382,
  "Ġalike": 14272,
  "Ġalimony": 19164,
  "Ġalison": 49527,
  "Ġalive": 8952,
  "Ġalk": 9877,
  "Ġalka": 35401,
  "Ġalkal": 15501,
  "Ġalkali": 27656,
  "Ġalkaline": 13313,
  "Ġalkalinity": 22018,
  "Ġalkyl": 45898,
  "Ġall": 460,
  "Ġallah": 17528,
  "Ġallay": 49562,
  "Ġalle": 6631,
  "Ġalleg": 23293,
  "Ġallegations": 26355,
  "Ġallege": 50076,
  "Ġalleged": 24881,
  "Ġallegedly": 41486,
  "Ġalleges": 50077,
  "Ġallegi": 38528,
  "Ġallegiance": 40314,
  "Ġallegra": 37173,
  "Ġallele": 36300,
  "Ġalleles": 31581,
  "Ġallen": 19975,
  "Ġaller": 46367,
  "Ġallerg": 3372,
  "Ġallergen": 15701,
  "Ġallergenic": 33196,
  "Ġallergens": 10140,
  "Ġallergic": 6009,
  "Ġallergies": 5855,
  "Ġallergist": 22350,
  "Ġallergy": 6957,
  "Ġallev": 8220,
  "Ġalleviate": 8815,
  "Ġalleviated": 42682,
  "Ġalleviates": 40121,
  "Ġalleviating": 27812,
  "Ġalley": 20511,
  "Ġalleys": 39086,
  "Ġalleyway": 49071,
  "Ġalli": 45473,
  "Ġalliance": 15989,
  "Ġalliances": 35780,
  "Ġallicin": 32797,
  "Ġallie": 43840,
  "Ġallied": 36141,
  "Ġallies": 18821,
  "Ġallig": 15462,
  "Ġalligator": 18308,
  "Ġalligators": 26202,
  "Ġalliteration": 28069,
  "Ġalloc": 15373,
  "Ġallocate": 18364,
  "Ġallocated": 21054,
  "Ġallocating": 39638,
  "Ġallocation": 25027,
  "Ġallop": 44654,
  "Ġallopurinol": 45285,
  "Ġallot": 13264,
  "Ġallotment": 44288,
  "Ġallotted": 16538,
  "Ġallow": 886,
  "Ġallowable": 27133,
  "Ġallowance": 8868,
  "Ġallowances": 18918,
  "Ġallowed": 4223,
  "Ġallowing": 3739,
  "Ġallows": 2347,
  "Ġalloy": 22318,
  "Ġalloys": 32499,
  "Ġalls": 37842,
  "Ġallspice": 23505,
  "Ġallure": 36986,
  "Ġalluring": 28397,
  "Ġallusion": 46368,
  "Ġallusions": 48411,
  "Ġally": 20998,
  "Ġalm": 41043,
  "Ġalman": 44624,
  "Ġalmanac": 48148,
  "Ġalmighty": 44474,
  "Ġalmo": 2292,
  "Ġalmond": 5992,
  "Ġalmonds": 7725,
  "Ġalmost": 2880,
  "Ġalo": 46337,
  "Ġaloe": 6164,
  "Ġalone": 2570,
  "Ġalong": 1473,
  "Ġalongside": 9181,
  "Ġaloof": 27257,
  "Ġalope": 28938,
  "Ġalopecia": 29065,
  "Ġaloud": 10938,
  "Ġalp": 18237,
  "Ġalpaca": 34229,
  "Ġalph": 5646,
  "Ġalpha": 10097,
  "Ġalphabet": 7584,
  "Ġalphabetic": 47758,
  "Ġalphabetical": 18385,
  "Ġalphabetically": 20227,
  "Ġalphabetize": 27979,
  "Ġalphabetized": 47759,
  "Ġalphabetizing": 46754,
  "Ġalphabets": 39552,
  "Ġalphanum": 32921,
  "Ġalphanumeric": 33335,
  "Ġalphas": 47717,
  "Ġalpine": 32410,
  "Ġalpraz": 27359,
  "Ġalprazolam": 27521,
  "Ġalps": 46338,
  "Ġalready": 1485,
  "Ġalright": 15459,
  "Ġals": 36975,
  "Ġalso": 519,
  "Ġalstro": 45451,
  "Ġalstroem": 46155,
  "Ġalstroemeria": 47136,
  "Ġalt": 6608,
  "Ġaltar": 14632,
  "Ġaltars": 40693,
  "Ġalter": 5770,
  "Ġalteration": 28292,
  "Ġalterations": 20354,
  "Ġaltercation": 37585,
  "Ġaltercations": 50053,
  "Ġaltered": 14313,
  "Ġaltering": 14986,
  "Ġaltern": 1890,
  "Ġalternate": 5724,
  "Ġalternately": 8042,
  "Ġalternates": 39992,
  "Ġalternating": 10466,
  "Ġalternative": 2524,
  "Ġalternatively": 3639,
  "Ġalternatives": 7746,
  "Ġalternator": 23641,
  "Ġalters": 27715,
  "Ġalthough": 2333,
  "Ġaltitude": 16091,
  "Ġaltitudes": 26726,
  "Ġalto": 7760,
  "Ġaltogether": 8193,
  "Ġaltr": 28567,
  "Ġaltru": 28908,
  "Ġaltruism": 48050,
  "Ġaltruists": 49157,
  "Ġalum": 19456,
  "Ġalumin": 4954,
  "Ġaluminium": 29175,
  "Ġaluminum": 5051,
  "Ġalumn": 19976,
  "Ġalumni": 20554,
  "Ġalve": 49525,
  "Ġalways": 1072,
  "Ġaly": 44537,
  "Ġalz": 18317,
  "Ġalzheimer": 18536,
  "Ġam": 733,
  "Ġama": 49657,
  "Ġamal": 42414,
  "Ġamanda": 41760,
  "Ġamarant": 24836,
  "Ġamaranth": 24914,
  "Ġamaretto": 33416,
  "Ġamaryll": 48501,
  "Ġamass": 35091,
  "Ġamate": 15260,
  "Ġamateur": 16335,
  "Ġamateurs": 35990,
  "Ġamaz": 4403,
  "Ġamaze": 35554,
  "Ġamazed": 21371,
  "Ġamazing": 7467,
  "Ġamazingly": 31104,
  "Ġamazon": 6226,
  "Ġamb": 7581,
  "Ġambass": 32936,
  "Ġambassador": 36431,
  "Ġamber": 15827,
  "Ġambiance": 22643,
  "Ġambide": 48879,
  "Ġambience": 45000,
  "Ġambient": 16092,
  "Ġambig": 22737,
  "Ġambiguity": 37694,
  "Ġambiguous": 29220,
  "Ġambition": 26886,
  "Ġambitions": 26887,
  "Ġambitious": 19571,
  "Ġambiv": 39574,
  "Ġambivalent": 42900,
  "Ġambros": 36733,
  "Ġambrosia": 37315,
  "Ġambul": 17692,
  "Ġambulance": 17925,
  "Ġambush": 29758,
  "Ġambushed": 41986,
  "Ġamd": 25979,
  "Ġame": 16519,
  "Ġamebiasis": 50257,
  "Ġamel": 43895,
  "Ġamelior": 47114,
  "Ġamen": 13153,
  "Ġamenable": 29586,
  "Ġamend": 11708,
  "Ġamended": 28866,
  "Ġamending": 37663,
  "Ġamendment": 17374,
  "Ġamendments": 25677,
  "Ġamends": 23314,
  "Ġamenities": 16300,
  "Ġamer": 41115,
  "Ġameric": 3338,
  "Ġamerica": 8162,
  "Ġamerican": 4170,
  "Ġamericano": 49979,
  "Ġamericans": 14251,
  "Ġamericas": 41897,
  "Ġamericorps": 32309,
  "Ġamethy": 22614,
  "Ġamethyst": 23228,
  "Ġami": 38896,
  "Ġamiable": 47421,
  "Ġamic": 30572,
  "Ġamicable": 38201,
  "Ġamicably": 44427,
  "Ġamid": 28580,
  "Ġamidst": 38684,
  "Ġamine": 49659,
  "Ġamines": 47420,
  "Ġamino": 12197,
  "Ġaminos": 39920,
  "Ġamish": 25980,
  "Ġamiss": 38897,
  "Ġamit": 43136,
  "Ġamitr": 43896,
  "Ġamitriptyline": 45274,
  "Ġamla": 39403,
  "Ġammeter": 31970,
  "Ġammo": 13578,
  "Ġammon": 6802,
  "Ġammonia": 7157,
  "Ġammonium": 23391,
  "Ġammu": 35092,
  "Ġammun": 17274,
  "Ġammunition": 17381,
  "Ġamn": 18458,
  "Ġamnesia": 27914,
  "Ġamnesty": 38625,
  "Ġamnio": 36385,
  "Ġamniocentesis": 36904,
  "Ġamniotic": 22954,
  "Ġamo": 49658,
  "Ġamong": 4536,
  "Ġamongst": 14609,
  "Ġamort": 18067,
  "Ġamortization": 20303,
  "Ġamortized": 42775,
  "Ġamos": 34051,
  "Ġamount": 1036,
  "Ġamounts": 3750,
  "Ġamoxic": 31969,
  "Ġamoxicillin": 33034,
  "Ġamp": 5569,
  "Ġampe": 30326,
  "Ġamper": 24418,
  "Ġamperage": 25291,
  "Ġampere": 37290,
  "Ġamperes": 43615,
  "Ġampersand": 37157,
  "Ġamphet": 27969,
  "Ġamphetamine": 40256,
  "Ġamphetamines": 34259,
  "Ġamphib": 26032,
  "Ġamphibian": 40845,
  "Ġamphibians": 30922,
  "Ġamphot": 45812,
  "Ġampl": 10390,
  "Ġample": 11576,
  "Ġamplification": 36766,
  "Ġamplified": 28308,
  "Ġamplifier": 14678,
  "Ġamplifiers": 32666,
  "Ġamplifies": 46807,
  "Ġamplify": 24539,
  "Ġamplifying": 45904,
  "Ġamplitude": 40145,
  "Ġamps": 16159,
  "Ġamput": 33509,
  "Ġamputation": 42861,
  "Ġamster": 36169,
  "Ġamsterdam": 36448,
  "Ġamt": 42413,
  "Ġamtrak": 22323,
  "Ġamu": 20330,
  "Ġamulet": 22861,
  "Ġamulets": 49070,
  "Ġamuse": 16181,
  "Ġamused": 31494,
  "Ġamusement": 18181,
  "Ġamusing": 22799,
  "Ġamv": 40485,
  "Ġamy": 22613,
  "Ġamygd": 49091,
  "Ġamygdala": 49325,
  "Ġan": 351,
  "Ġana": 19854,
  "Ġanab": 48347,
  "Ġanabolic": 37383,
  "Ġanac": 35387,
  "Ġanach": 48346,
  "Ġanacond": 39264,
  "Ġanaconda": 42898,
  "Ġanaer": 29604,
  "Ġanaerobic": 30717,
  "Ġanaest": 49067,
  "Ġanagram": 38300,
  "Ġanagrams": 47277,
  "Ġanaheim": 44345,
  "Ġanak": 41025,
  "Ġanakin": 42910,
  "Ġanal": 3391,
  "Ġanalges": 21366,
  "Ġanalgesic": 29607,
  "Ġanalgesics": 28508,
  "Ġanalog": 11433,
  "Ġanalogies": 40153,
  "Ġanalogous": 31374,
  "Ġanalogue": 47842,
  "Ġanalogues": 48950,
  "Ġanalogy": 29979,
  "Ġanaly": 4873,
  "Ġanalys": 32310,
  "Ġanalyse": 27966,
  "Ġanalyses": 37736,
  "Ġanalysis": 8013,
  "Ġanalyst": 24284,
  "Ġanalysts": 28463,
  "Ġanalytic": 39055,
  "Ġanalytical": 19942,
  "Ġanalytics": 16289,
  "Ġanalyze": 6759,
  "Ġanalyzed": 23200,
  "Ġanalyzer": 46697,
  "Ġanalyzes": 42627,
  "Ġanalyzing": 16005,
  "Ġanap": 44599,
  "Ġanaph": 21864,
  "Ġanaphyl": 22473,
  "Ġanaphylactic": 31408,
  "Ġanaphylaxis": 28884,
  "Ġanarch": 27105,
  "Ġanarchism": 44411,
  "Ġanarchist": 46039,
  "Ġanat": 13916,
  "Ġanatomical": 32102,
  "Ġanatomy": 15796,
  "Ġanc": 14202,
  "Ġancest": 18802,
  "Ġancestor": 33904,
  "Ġancestors": 23411,
  "Ġancestral": 41460,
  "Ġancestry": 24094,
  "Ġanch": 6893,
  "Ġancho": 30422,
  "Ġanchor": 8836,
  "Ġanchorage": 44987,
  "Ġanchored": 24631,
  "Ġanchoring": 31584,
  "Ġanchors": 18222,
  "Ġanchov": 28648,
  "Ġanchovies": 28700,
  "Ġanchovy": 41510,
  "Ġancient": 11953,
  "Ġancillary": 40174,
  "Ġand": 298,
  "Ġanderson": 38279,
  "Ġandre": 28045,
  "Ġandreas": 35315,
  "Ġandrew": 32477,
  "Ġandro": 28925,
  "Ġandrogen": 27704,
  "Ġandrogens": 32478,
  "Ġandrogyn": 35318,
  "Ġandrogynous": 35345,
  "Ġandroid": 4028,
  "Ġandroids": 37802,
  "Ġandrom": 47236,
  "Ġandy": 43772,
  "Ġane": 12895,
  "Ġanecd": 14827,
  "Ġanecdotal": 28862,
  "Ġanecdote": 22756,
  "Ġanecdotes": 23686,
  "Ġanem": 9991,
  "Ġanemia": 10976,
  "Ġanemic": 30660,
  "Ġanemometer": 38569,
  "Ġanest": 9125,
  "Ġanesthes": 13312,
  "Ġanesthesia": 14157,
  "Ġanesthesiologist": 33563,
  "Ġanesthet": 31360,
  "Ġanesthetic": 14433,
  "Ġanesthetics": 30886,
  "Ġanesthetized": 40274,
  "Ġaneurys": 24768,
  "Ġaneurysm": 28517,
  "Ġaneurysms": 40837,
  "Ġanew": 36112,
  "Ġang": 2891,
  "Ġange": 8056,
  "Ġangel": 12463,
  "Ġangela": 41992,
  "Ġangeles": 17911,
  "Ġangelf": 24531,
  "Ġangelfish": 24788,
  "Ġangelic": 30879,
  "Ġangelica": 38204,
  "Ġangelina": 32960,
  "Ġangels": 20544,
  "Ġanger": 4623,
  "Ġangered": 33530,
  "Ġangi": 41886,
  "Ġangie": 40025,
  "Ġangina": 25431,
  "Ġangio": 39013,
  "Ġangioedema": 42190,
  "Ġangiogram": 43301,
  "Ġangioplasty": 48131,
  "Ġangiot": 38463,
  "Ġangiotensin": 38739,
  "Ġangle": 2965,
  "Ġangled": 10485,
  "Ġangler": 38462,
  "Ġanglers": 28448,
  "Ġangles": 7144,
  "Ġangling": 23856,
  "Ġango": 49499,
  "Ġangola": 48705,
  "Ġangora": 24048,
  "Ġangoras": 44057,
  "Ġangr": 25966,
  "Ġangrier": 33304,
  "Ġangrily": 36406,
  "Ġangry": 4222,
  "Ġangst": 34448,
  "Ġangu": 44885,
  "Ġanguish": 47123,
  "Ġangular": 17683,
  "Ġangus": 22164,
  "Ġanhydrous": 35763,
  "Ġanim": 1766,
  "Ġanimal": 2673,
  "Ġanimals": 3084,
  "Ġanimate": 26837,
  "Ġanimated": 17638,
  "Ġanimating": 41189,
  "Ġanimation": 10694,
  "Ġanimations": 19173,
  "Ġanimator": 41190,
  "Ġanimators": 49814,
  "Ġanimatronics": 39463,
  "Ġanime": 12643,
  "Ġanimosity": 37940,
  "Ġanion": 36111,
  "Ġanions": 47276,
  "Ġanip": 41669,
  "Ġanipryl": 44478,
  "Ġanise": 20317,
  "Ġanist": 48345,
  "Ġanjou": 48349,
  "Ġank": 4742,
  "Ġankle": 6094,
  "Ġankles": 8924,
  "Ġanklet": 39532,
  "Ġanklets": 50008,
  "Ġann": 2749,
  "Ġanna": 23546,
  "Ġanne": 24131,
  "Ġannie": 43296,
  "Ġannivers": 13925,
  "Ġanniversaries": 27490,
  "Ġanniversary": 15858,
  "Ġannot": 18194,
  "Ġannotate": 31619,
  "Ġannotated": 32119,
  "Ġannotation": 40205,
  "Ġannotations": 31399,
  "Ġannoun": 16677,
  "Ġannounce": 9169,
  "Ġannounced": 26458,
  "Ġannouncement": 16201,
  "Ġannouncements": 19027,
  "Ġannouncer": 34555,
  "Ġannounces": 34118,
  "Ġannouncing": 24651,
  "Ġannoy": 5300,
  "Ġannoyance": 20637,
  "Ġannoyances": 35922,
  "Ġannoyed": 11833,
  "Ġannoying": 7425,
  "Ġannoys": 22916,
  "Ġannual": 5939,
  "Ġannualized": 33828,
  "Ġannually": 14224,
  "Ġannuals": 21716,
  "Ġannuities": 31306,
  "Ġannuity": 16867,
  "Ġannul": 22344,
  "Ġannulment": 24661,
  "Ġanod": 39847,
  "Ġanode": 30061,
  "Ġanodized": 43662,
  "Ġanointing": 48348,
  "Ġanole": 35388,
  "Ġanoles": 34677,
  "Ġanom": 41668,
  "Ġanomal": 36113,
  "Ġanomalies": 36899,
  "Ġanonym": 9187,
  "Ġanonymity": 26734,
  "Ġanonymous": 11437,
  "Ġanonymously": 18048,
  "Ġanore": 14338,
  "Ġanorexia": 15176,
  "Ġanorexic": 41413,
  "Ġanother": 951,
  "Ġans": 31925,
  "Ġansi": 42155,
  "Ġansw": 1996,
  "Ġanswe": 13008,
  "Ġanswer": 2302,
  "Ġanswered": 13147,
  "Ġanswering": 9253,
  "Ġanswers": 4974,
  "Ġant": 1527,
  "Ġantac": 17535,
  "Ġantacid": 27063,
  "Ġantacids": 21468,
  "Ġantagon": 23531,
  "Ġantagonist": 25998,
  "Ġantagonistic": 44384,
  "Ġantagonists": 37697,
  "Ġantagonize": 42804,
  "Ġantar": 29705,
  "Ġantarctica": 31181,
  "Ġante": 21555,
  "Ġanteced": 36014,
  "Ġantecedent": 38720,
  "Ġanten": 11094,
  "Ġantenna": 11535,
  "Ġantennae": 22654,
  "Ġantennas": 36343,
  "Ġanterior": 28055,
  "Ġanth": 13352,
  "Ġanthe": 34334,
  "Ġanthem": 37307,
  "Ġanther": 48344,
  "Ġanthill": 45931,
  "Ġanthocy": 38108,
  "Ġanthocyan": 38246,
  "Ġanthocyanins": 46108,
  "Ġanthologies": 45060,
  "Ġanthology": 22659,
  "Ġanthony": 39633,
  "Ġanthrop": 29587,
  "Ġanthropology": 40268,
  "Ġanthurium": 36362,
  "Ġanti": 3300,
  "Ġantian": 43223,
  "Ġantianxiety": 43692,
  "Ġantib": 3652,
  "Ġantibacterial": 7974,
  "Ġantibiot": 4547,
  "Ġantibiotic": 8230,
  "Ġantibiotics": 5811,
  "Ġantibodies": 18841,
  "Ġantibody": 32603,
  "Ġantich": 41827,
  "Ġanticholinerg": 46124,
  "Ġanticip": 7884,
  "Ġanticipate": 9832,
  "Ġanticipated": 21661,
  "Ġanticipating": 26593,
  "Ġanticipation": 21184,
  "Ġantico": 25999,
  "Ġanticoagul": 26223,
  "Ġanticoagulant": 34588,
  "Ġanticoagulants": 34589,
  "Ġanticon": 28773,
  "Ġanticonvuls": 28910,
  "Ġanticonvulsant": 38687,
  "Ġanticonvulsants": 38194,
  "Ġantics": 34763,
  "Ġantid": 29904,
  "Ġantidepress": 9867,
  "Ġantidepressant": 15944,
  "Ġantidepressants": 12402,
  "Ġantidi": 48060,
  "Ġantidote": 37725,
  "Ġantie": 41168,
  "Ġantif": 12186,
  "Ġantifreeze": 20849,
  "Ġantifung": 14653,
  "Ġantifungal": 15223,
  "Ġantifungals": 43501,
  "Ġantig": 40551,
  "Ġantigen": 33758,
  "Ġantihist": 9744,
  "Ġantihistamine": 15236,
  "Ġantihistamines": 12525,
  "Ġantimal": 29706,
  "Ġantimalware": 32152,
  "Ġantimic": 17939,
  "Ġantimicro": 17969,
  "Ġantimicrobial": 18234,
  "Ġantioxid": 7485,
  "Ġantioxidant": 13716,
  "Ġantioxidants": 9119,
  "Ġantip": 34089,
  "Ġantiperspir": 14895,
  "Ġantiperspirant": 17098,
  "Ġantiperspirants": 27348,
  "Ġantipsych": 24712,
  "Ġantipsychotic": 35672,
  "Ġantipsychotics": 30703,
  "Ġantiqu": 25617,
  "Ġantiquated": 43585,
  "Ġantique": 10748,
  "Ġantiques": 22508,
  "Ġantiquing": 33923,
  "Ġantise": 11755,
  "Ġantiseptic": 12169,
  "Ġantiseptics": 39620,
  "Ġantiso": 26692,
  "Ġantisocial": 26771,
  "Ġantisp": 31998,
  "Ġantispasmod": 34609,
  "Ġantispasmodic": 39749,
  "Ġantistatic": 42486,
  "Ġantit": 28253,
  "Ġantitoxin": 49150,
  "Ġantitrust": 36414,
  "Ġantivir": 9503,
  "Ġantiviral": 15338,
  "Ġantivirals": 43439,
  "Ġantivirus": 12630,
  "Ġantiviruses": 47805,
  "Ġantler": 32266,
  "Ġantlers": 21166,
  "Ġantlion": 30818,
  "Ġantlions": 44802,
  "Ġanton": 29855,
  "Ġants": 7862,
  "Ġantsy": 46764,
  "Ġanus": 12489,
  "Ġanvil": 22045,
  "Ġanx": 2427,
  "Ġanxiet": 18425,
  "Ġanxieties": 18442,
  "Ġanxiety": 2877,
  "Ġanxious": 5934,
  "Ġany": 499,
  "Ġanybody": 12722,
  "Ġanyhow": 42375,
  "Ġanymore": 6926,
  "Ġanyone": 2782,
  "Ġanything": 1499,
  "Ġanytime": 10492,
  "Ġanyway": 6829,
  "Ġanyways": 28942,
  "Ġanywhere": 3768,
  "Ġao": 37342,
  "Ġaoe": 24007,
  "Ġaol": 19046,
  "Ġaorta": 37344,
  "Ġaortic": 27869,
  "Ġap": 877,
  "Ġapa": 17805,
  "Ġapache": 24256,
  "Ġapart": 2550,
  "Ġapartment": 7371,
  "Ġapartments": 17728,
  "Ġapathetic": 48525,
  "Ġapathy": 34061,
  "Ġape": 18864,
  "Ġapert": 13337,
  "Ġaperture": 14033,
  "Ġapertures": 42045,
  "Ġapex": 20493,
  "Ġaph": 16858,
  "Ġaphid": 41440,
  "Ġaphids": 19777,
  "Ġaphrodis": 47922,
  "Ġapi": 25326,
  "Ġapical": 46449,
  "Ġapiece": 32533,
  "Ġapis": 47447,
  "Ġapk": 19167,
  "Ġapn": 32532,
  "Ġapnea": 14811,
  "Ġapo": 41777,
  "Ġapoc": 35456,
  "Ġapocaly": 36437,
  "Ġapocalypse": 48103,
  "Ġapocalyptic": 47064,
  "Ġapoll": 38920,
  "Ġapollo": 48115,
  "Ġapolo": 31730,
  "Ġapolog": 6388,
  "Ġapologetic": 33627,
  "Ġapologies": 23973,
  "Ġapologise": 41962,
  "Ġapologize": 7664,
  "Ġapologized": 40097,
  "Ġapologizes": 46735,
  "Ġapologizing": 16090,
  "Ġapology": 9878,
  "Ġapost": 19574,
  "Ġapostrop": 22762,
  "Ġapostrophe": 27224,
  "Ġapostrophes": 35287,
  "Ġapot": 26134,
  "Ġapothem": 28524,
  "Ġapp": 510,
  "Ġappal": 30558,
  "Ġappaloos": 34603,
  "Ġappaloosa": 37747,
  "Ġappar": 22407,
  "Ġapparatus": 23901,
  "Ġapparel": 19261,
  "Ġapparent": 11607,
  "Ġapparently": 24766,
  "Ġappcleaner": 47356,
  "Ġappdata": 25078,
  "Ġappe": 1117,
  "Ġappeal": 7033,
  "Ġappealed": 49728,
  "Ġappealing": 8195,
  "Ġappeals": 13078,
  "Ġappear": 1392,
  "Ġappearance": 3272,
  "Ġappearances": 18828,
  "Ġappeared": 16971,
  "Ġappearing": 11412,
  "Ġappears": 3537,
  "Ġappease": 43946,
  "Ġappeasing": 44759,
  "Ġappell": 28422,
  "Ġappellate": 30249,
  "Ġappend": 17885,
  "Ġappendage": 42773,
  "Ġappendages": 38143,
  "Ġappendices": 42081,
  "Ġappendicitis": 47945,
  "Ġappendix": 29601,
  "Ġappet": 5850,
  "Ġappetite": 6936,
  "Ġappetites": 36710,
  "Ġappetizer": 18729,
  "Ġappetizers": 20281,
  "Ġappetizing": 26035,
  "Ġappl": 3524,
  "Ġapplaud": 30848,
  "Ġapplause": 35894,
  "Ġapple": 2513,
  "Ġappleid": 47590,
  "Ġapplejack": 41868,
  "Ġapples": 4533,
  "Ġapplesauce": 13531,
  "Ġapplet": 37412,
  "Ġappliance": 11005,
  "Ġappliances": 8170,
  "Ġapplic": 1525,
  "Ġapplicable": 6772,
  "Ġapplicant": 11911,
  "Ġapplicants": 10809,
  "Ġapplication": 2049,
  "Ġapplications": 4305,
  "Ġapplicator": 10666,
  "Ġapplicators": 26996,
  "Ġapplied": 4258,
  "Ġapplies": 7409,
  "Ġappliqu": 43328,
  "Ġapplique": 32899,
  "Ġappliques": 49942,
  "Ġapply": 909,
  "Ġapplying": 2713,
  "Ġappoint": 3540,
  "Ġappointed": 20628,
  "Ġappointing": 45488,
  "Ġappointment": 4250,
  "Ġappointments": 8956,
  "Ġapportion": 46388,
  "Ġappra": 19058,
  "Ġapprais": 9367,
  "Ġappraisal": 14082,
  "Ġappraisals": 29189,
  "Ġappraise": 31624,
  "Ġappraised": 24779,
  "Ġappraiser": 15707,
  "Ġappraisers": 23976,
  "Ġappraising": 42783,
  "Ġappreci": 3508,
  "Ġappreciate": 4381,
  "Ġappreciated": 12309,
  "Ġappreciates": 27624,
  "Ġappreciating": 24279,
  "Ġappreciation": 10401,
  "Ġappreciative": 24280,
  "Ġapprehe": 22690,
  "Ġapprehens": 25410,
  "Ġapprehension": 35676,
  "Ġapprehensive": 34952,
  "Ġapprent": 11331,
  "Ġapprentice": 19958,
  "Ġapprentices": 13499,
  "Ġapprenticeship": 15817,
  "Ġapprenticeships": 30895,
  "Ġappro": 1695,
  "Ġapproach": 2805,
  "Ġapproachable": 14008,
  "Ġapproached": 19688,
  "Ġapproaches": 9450,
  "Ġapproaching": 9197,
  "Ġappropr": 30996,
  "Ġappropriate": 1934,
  "Ġappropriately": 6955,
  "Ġappropriateness": 37731,
  "Ġapproval": 8963,
  "Ġapprovals": 35496,
  "Ġapprove": 13139,
  "Ġapproved": 6120,
  "Ġapproves": 25104,
  "Ġapproving": 37936,
  "Ġapprox": 3459,
  "Ġapproxim": 20047,
  "Ġapproximate": 12505,
  "Ġapproximately": 3873,
  "Ġapproximates": 44347,
  "Ġapproximation": 24781,
  "Ġapproximations": 45124,
  "Ġapps": 3154,
  "Ġappstore": 34703,
  "Ġappsync": 45732,
  "Ġapr": 10152,
  "Ġapric": 12125,
  "Ġapricot": 19139,
  "Ġapricots": 15149,
  "Ġapril": 12382,
  "Ġapron": 15073,
  "Ġaprons": 34887,
  "Ġaps": 41778,
  "Ġapt": 13095,
  "Ġaptitude": 21612,
  "Ġaptly": 42741,
  "Ġapy": 29485,
  "Ġaq": 41615,
  "Ġaqu": 5383,
  "Ġaqua": 22638,
  "Ġaquaf": 50040,
  "Ġaquam": 26584,
  "Ġaquamarine": 31640,
  "Ġaquaphor": 47708,
  "Ġaquarium": 7028,
  "Ġaquariums": 21447,
  "Ġaquarius": 35195,
  "Ġaquatic": 16681,
  "Ġaqueous": 33507,
  "Ġar": 663,
  "Ġara": 12544,
  "Ġarab": 39628,
  "Ġarabia": 34904,
  "Ġarabian": 41393,
  "Ġarabic": 15421,
  "Ġarach": 36564,
  "Ġarachn": 45221,
  "Ġarbit": 11875,
  "Ġarbitr": 20171,
  "Ġarbitrage": 38581,
  "Ġarbitrary": 22958,
  "Ġarbitrate": 46839,
  "Ġarbitration": 17915,
  "Ġarbitrator": 29581,
  "Ġarbitrators": 43548,
  "Ġarbor": 32237,
  "Ġarbore": 38885,
  "Ġarbut": 39911,
  "Ġarbutin": 40911,
  "Ġarc": 8566,
  "Ġarcade": 20956,
  "Ġarcades": 48909,
  "Ġarcana": 38555,
  "Ġarcane": 35599,
  "Ġarceus": 33717,
  "Ġarch": 4351,
  "Ġarchae": 40637,
  "Ġarchaic": 38500,
  "Ġarchangel": 49986,
  "Ġarche": 26261,
  "Ġarched": 22138,
  "Ġarcher": 17934,
  "Ġarchers": 27270,
  "Ġarchery": 24215,
  "Ġarches": 18152,
  "Ġarchetype": 34959,
  "Ġarchetypes": 41493,
  "Ġarching": 23962,
  "Ġarchite": 10763,
  "Ġarchitect": 13839,
  "Ġarchitects": 29589,
  "Ġarchitectural": 21234,
  "Ġarchitecture": 16562,
  "Ġarchiv": 46680,
  "Ġarchival": 25252,
  "Ġarchive": 10271,
  "Ġarchived": 19129,
  "Ġarchives": 16982,
  "Ġarchiving": 29541,
  "Ġarchway": 44137,
  "Ġarcing": 42408,
  "Ġarcs": 23513,
  "Ġarctic": 23092,
  "Ġard": 34046,
  "Ġardougne": 47045,
  "Ġardu": 24250,
  "Ġarduino": 28515,
  "Ġarduous": 39215,
  "Ġare": 335,
  "Ġarea": 904,
  "Ġareas": 1768,
  "Ġarena": 14620,
  "Ġarenas": 38293,
  "Ġareola": 35383,
  "Ġarepas": 47270,
  "Ġares": 48335,
  "Ġarg": 3605,
  "Ġargan": 16748,
  "Ġargent": 25779,
  "Ġargentina": 28696,
  "Ġarginine": 32239,
  "Ġargon": 29728,
  "Ġargs": 28405,
  "Ġargu": 21295,
  "Ġarguably": 21624,
  "Ġargue": 9525,
  "Ġargued": 30403,
  "Ġargues": 32600,
  "Ġarguing": 13345,
  "Ġargument": 5872,
  "Ġargumentative": 27797,
  "Ġarguments": 9109,
  "Ġargyle": 45748,
  "Ġaria": 31251,
  "Ġarial": 28077,
  "Ġarid": 30566,
  "Ġariel": 32518,
  "Ġaries": 24697,
  "Ġarig": 48483,
  "Ġarils": 45534,
  "Ġarise": 9388,
  "Ġarisen": 41107,
  "Ġarises": 15783,
  "Ġarising": 33414,
  "Ġarist": 37014,
  "Ġaristocr": 49222,
  "Ġarith": 23003,
  "Ġarithmetic": 23325,
  "Ġarizon": 14490,
  "Ġarizona": 14529,
  "Ġark": 18201,
  "Ġarkansas": 22287,
  "Ġarm": 2194,
  "Ġarmad": 25113,
  "Ġarmadillo": 33299,
  "Ġarmadillos": 35673,
  "Ġarmani": 46566,
  "Ġarmature": 35864,
  "Ġarmch": 28782,
  "Ġarmchair": 33937,
  "Ġarmchairs": 44419,
  "Ġarmed": 15613,
  "Ġarmen": 47573,
  "Ġarmhole": 25114,
  "Ġarmholes": 30377,
  "Ġarmies": 30605,
  "Ġarming": 43266,
  "Ġarmo": 43127,
  "Ġarmor": 8269,
  "Ġarmored": 37962,
  "Ġarmors": 36642,
  "Ġarmory": 47574,
  "Ġarmour": 19274,
  "Ġarmp": 9413,
  "Ġarmpit": 13792,
  "Ġarmpits": 12843,
  "Ġarmrest": 26555,
  "Ġarmrests": 33928,
  "Ġarms": 2499,
  "Ġarmy": 9681,
  "Ġarnge": 41105,
  "Ġarngeir": 41582,
  "Ġarnica": 27578,
  "Ġarnold": 47406,
  "Ġarom": 9195,
  "Ġaroma": 12772,
  "Ġaromantic": 46783,
  "Ġaromas": 22649,
  "Ġaromather": 14233,
  "Ġaromatherapy": 14575,
  "Ġaromatic": 16990,
  "Ġaromatics": 24534,
  "Ġarose": 36471,
  "Ġarou": 25703,
  "Ġaround": 722,
  "Ġarous": 18355,
  "Ġarousal": 23220,
  "Ġarouse": 32141,
  "Ġaroused": 27214,
  "Ġarousing": 39711,
  "Ġarpegg": 32820,
  "Ġarpeggios": 38701,
  "Ġarr": 1974,
  "Ġarra": 30324,
  "Ġarraignment": 34265,
  "Ġarrange": 3212,
  "Ġarranged": 11452,
  "Ġarrangement": 8572,
  "Ġarrangements": 8573,
  "Ġarranges": 49835,
  "Ġarranging": 14585,
  "Ġarray": 11131,
  "Ġarrays": 43254,
  "Ġarre": 36563,
  "Ġarrears": 41541,
  "Ġarrest": 9317,
  "Ġarrested": 16874,
  "Ġarresting": 40724,
  "Ġarrests": 36330,
  "Ġarrhyth": 20203,
  "Ġarrhythmia": 23222,
  "Ġarrhythmias": 40219,
  "Ġarrival": 11852,
  "Ġarrivals": 36634,
  "Ġarrive": 5011,
  "Ġarrived": 15216,
  "Ġarrives": 11682,
  "Ġarriving": 14376,
  "Ġarro": 18151,
  "Ġarrog": 32238,
  "Ġarrogance": 33328,
  "Ġarrogant": 19252,
  "Ġarrow": 4326,
  "Ġarrowhead": 32620,
  "Ġarrowheads": 45771,
  "Ġarrowroot": 26865,
  "Ġarrows": 8923,
  "Ġars": 21267,
  "Ġarsen": 25179,
  "Ġarsenal": 25946,
  "Ġarsenic": 36396,
  "Ġarson": 41106,
  "Ġart": 1434,
  "Ġartboard": 36199,
  "Ġartemis": 36200,
  "Ġarter": 13896,
  "Ġarterial": 33882,
  "Ġarteries": 15175,
  "Ġartery": 14291,
  "Ġartex": 36565,
  "Ġartful": 39448,
  "Ġarth": 7390,
  "Ġarthritic": 27032,
  "Ġarthritis": 8079,
  "Ġarthur": 31347,
  "Ġartic": 13422,
  "Ġartich": 14143,
  "Ġartichoke": 18579,
  "Ġartichokes": 20426,
[...]
