{
  "!": 5,
  "\"": 6,
  "#": 7,
  "$": 8,
  "%": 9,
  "&": 10,
  "'": 11,
  "(": 12,
  ")": 13,
  "*": 14,
  "+": 15,
  ",": 16,
  "-": 17,
  ".": 18,
  "/": 19,
  "0": 20,
  "00": 810,
  "000": 2113,
  "0000": 16180,
  "000000": 41838,
  "0001": 44123,
  "001": 35714,
  "007": 48566,
  "008": 48047,
  "01": 19274,
  "02": 17129,
  "03": 29952,
  "04": 33337,
  "05": 45160,
  "06": 44343,
  "07": 49553,
  "08": 45161,
  "09": 43210,
  "1": 21,
  "10": 4251,
  "100": 10081,
  "1000": 25574,
  "1001": 41805,
  "101": 24638,
  "1010": 39982,
  "102": 30855,
  "103": 36317,
  "104": 46252,
  "105": 36140,
  "106": 49862,
  "107": 41099,
  "108": 47671,
  "11": 5117,
  "110": 31002,
  "1100": 36148,
  "111": 33283,
  "1111": 43780,
  "112": 34400,
  "113": 44978,
  "114": 45417,
  "115": 33009,
  "116": 47204,
  "117": 46267,
  "12": 3907,
  "120": 22603,
  "121": 39974,
  "1212": 45395,
  "122": 32166,
  "123": 27857,
  "124": 47664,
  "125": 29192,
  "127": 39975,
  "13": 7005,
  "130": 34401,
  "132": 41127,
  "135": 40854,
  "14": 6267,
  "140": 36935,
  "1444": 46736,
  "1445": 48735,
  "1446": 37542,
  "1447": 26348,
  "145": 49893,
  "1450": 43797,
  "147": 45433,
  "15": 6314,
  "150": 23068,
  "152": 41436,
  "153": 39480,
  "155": 39744,
  "156": 47221,
  "157": 48201,
  "158": 49894,
  "159": 38757,
  "16": 6561,
  "160": 32460,
  "162": 49341,
  "166": 41437,
  "17": 8567,
  "170": 40301,
  "1728": 17771,
  "17285": 23244,
  "17286": 31972,
  "17287": 48834,
  "175": 38265,
  "18": 11450,
  "180": 14835,
  "19": 13088,
  "190": 32104,
  "192": 49386,
  "2": 22,
  "20": 6268,
  "200": 18895,
  "2000": 38115,
  "201": 44187,
  "202": 49331,
  "21": 13852,
  "210": 33058,
  "2100": 44344,
  "212": 29632,
  "214": 40396,
  "216": 38618,
  "22": 6985,
  "220": 33619,
  "222": 45000,
  "223": 36523,
  "224": 32325,
  "225": 29701,
  "228": 36333,
  "23": 10336,
  "230": 41574,
  "232": 42896,
  "236": 40036,
  "24": 9659,
  "240": 37227,
  "242": 49935,
  "243": 45020,
  "25": 7312,
  "250": 33618,
  "252": 49348,
  "255": 22704,
  "256": 33573,
  "26": 14636,
  "264": 46464,
  "27": 14740,
  "28": 8949,
  "280": 45589,
  "281": 38989,
  "283": 31802,
  "288": 46762,
  "2886": 22613,
  "29": 14145,
  "3": 23,
  "30": 6734,
  "300": 28318,
  "31": 17047,
  "310": 47396,
  "312": 46465,
  "32": 7851,
  "320": 46466,
  "321": 45836,
  "323": 49913,
  "325": 45590,
  "327": 40861,
  "33": 10678,
  "330": 46467,
  "337": 49940,
  "339": 49373,
  "34": 11166,
  "345": 37370,
  "348": 48792,
  "35": 12270,
  "350": 25203,
  "36": 11372,
  "360": 25403,
  "362": 38056,
  "363": 41809,
  "364": 45036,
  "365": 36349,
  "366": 46327,
  "37": 13365,
  "375": 45877,
  "376": 23647,
  "38": 20298,
  "386": 35652,
  "39": 20616,
  "4": 24,
  "40": 7332,
  "400": 28570,
  "41": 22304,
  "412": 44345,
  "42": 16213,
  "43": 18008,
  "44": 14154,
  "442": 48263,
  "45": 12614,
  "450": 48392,
  "456": 49959,
  "46": 21340,
  "47": 17337,
  "48": 16248,
  "480": 47397,
  "49": 19199,
  "5": 25,
  "50": 3497,
  "500": 25575,
  "51": 25893,
  "512": 46468,
  "52": 17486,
  "53": 31134,
  "54": 26515,
  "55": 12924,
  "550": 47398,
  "555": 40596,
  "56": 29531,
  "57": 25136,
  "58": 39586,
  "586": 49554,
  "59": 31490,
  "6": 26,
  "60": 9020,
  "600": 35234,
  "6000": 46909,
  "61": 24081,
  "62": 20299,
  "63": 25894,
  "64": 12411,
  "65": 16861,
  "66": 12242,
  "67": 19275,
  "678": 48842,
  "68": 22067,
  "69": 23248,
  "7": 27,
  "70": 10880,
  "700": 38116,
  "71": 28144,
  "72": 21735,
  "720": 45591,
  "73": 29953,
  "74": 28145,
  "75": 16260,
  "76": 29431,
  "77": 11916,
  "778": 46333,
  "78": 30139,
  "79": 39056,
  "8": 28,
  "80": 7358,
  "800": 32645,
  "81": 30252,
  "82": 26152,
  "83": 31491,
  "84": 25636,
  "85": 22893,
  "86": 10923,
  "87": 23249,
  "88": 17660,
  "89": 21012,
  "9": 29,
  "90": 10134,
  "900": 40665,
  "91": 34714,
  "92": 28833,
  "93": 29633,
  "94": 38117,
  "95": 18306,
  "96": 27574,
  "97": 28936,
  "98": 26153,
  "99": 9707,
  "999": 36162,
  ":": 30,
  ";": 31,
  "<": 32,
  "</s>": 1,
  "<mask>": 4,
  "<pad>": 2,
  "<s>": 0,
  "<unk>": 3,
  "=": 33,
  ">": 34,
  "?": 35,
  "@": 36,
  "A": 37,
  "B": 38,
  "C": 39,
  "D": 40,
  "E": 41,
  "F": 42,
  "G": 43,
  "H": 44,
  "I": 45,
  "J": 46,
  "K": 47,
  "L": 48,
  "M": 49,
  "N": 50,
  "O": 51,
  "P": 52,
  "Q": 53,
  "R": 54,
  "S": 55,
  "T": 56,
  "U": 57,
  "V": 58,
  "W": 59,
  "X": 60,
  "Y": 61,
  "Z": 62,
  "[": 63,
  "\\": 64,
  "]": 65,
  "^": 66,
  "_": 67,
  "__": 3193,
  "___": 15602,
  "____": 5949,
  "________": 17957,
  "________________": 46360,
  "`": 68,
  "a": 69,
  "aa": 9641,
  "aaa": 48775,
  "ab": 521,
  "aba": 28504,
  "abad": 46566,
  "abase": 39121,
  "abb": 45257,
  "abc": 41010,
  "abdom": 27601,
  "abdominal": 29427,
  "abe": 29360,
  "abel": 44822,
  "abet": 3836,
  "abetes": 28616,
  "abeth": 19299,
  "abets": 41968,
  "abi": 22680,
  "abic": 40446,
  "abies": 44430,
  "abilia": 24151,
  "abilities": 6502,
  "ability": 2446,
  "abilly": 39899,
  "able": 495,
  "abler": 43286,
  "ables": 1311,
  "ablet": 42964,
  "abling": 12536,
  "ablo": 37272,
  "ably": 1268,
  "abnormal": 44823,
  "abol": 6578,
  "abolic": 35379,
  "aboo": 37054,
  "abor": 6559,
  "aborate": 8773,
  "about": 20058,
  "abouts": 24221,
  "above": 40191,
  "abra": 40190,
  "abras": 17544,
  "abrasion": 19115,
  "abrasive": 40892,
  "abs": 12177,
  "absor": 23161,
  "abst": 47007,
  "abund": 48008,
  "aby": 14257,
  "abyte": 32336,
  "abytes": 22336,
  "ac": 318,
  "aca": 14742,
  "academ": 40156,
  "acam": 18592,
  "acamole": 19399,
  "acao": 21457,
  "acar": 44788,
  "acas": 30917,
  "acc": 21586,
  "acceler": 40431,
  "accept": 12758,
  "access": 15785,
  "accessories": 45060,
  "acchar": 37256,
  "accharides": 41559,
  "acci": 35875,
  "accord": 31120,
  "according": 31843,
  "account": 24089,
  "accounts": 42851,
  "ace": 473,
  "acea": 14525,
  "aceae": 44030,
  "aced": 2583,
  "acement": 4363,
  "acent": 9723,
  "aceous": 18622,
  "acer": 39093,
  "aces": 1427,
  "acet": 28075,
  "acetic": 39870,
  "aceut": 21666,
  "ach": 503,
  "acha": 26245,
  "achable": 46098,
  "ache": 4062,
  "ached": 2913,
  "acher": 24664,
  "achers": 27982,
  "aches": 2927,
  "achi": 23208,
  "achian": 29860,
  "achieve": 29971,
  "achine": 46097,
  "aching": 15950,
  "acho": 48520,
  "achuset": 21175,
  "achusetts": 21202,
  "acia": 31019,
  "acial": 49630,
  "acic": 29443,
  "acid": 23866,
  "acidity": 48316,
  "acidosis": 35432,
  "acies": 18593,
  "acin": 26596,
  "acing": 1815,
  "acinth": 36430,
  "acious": 26815,
  "acity": 6030,
  "ack": 462,
  "ackaged": 22002,
  "acking": 2853,
  "ackle": 23442,
  "ackling": 40728,
  "acknow": 21174,
  "acknowledge": 22228,
  "acks": 2093,
  "acle": 10670,
  "acles": 16598,
  "acne": 45215,
  "aco": 31157,
  "acol": 43999,
  "acom": 41268,
  "acon": 22820,
  "acond": 39356,
  "aconda": 43932,
  "acore": 46052,
  "acp": 47953,
  "acqu": 10629,
  "acquire": 16067,
  "acre": 47461,
  "acrylic": 37034,
  "acs": 28154,
  "act": 488,
  "acter": 1548,
  "acterial": 9112,
  "acters": 3185,
  "actic": 21317,
  "actin": 35287,
  "acting": 32672,
  "action": 4669,
  "actions": 41291,
  "activ": 44032,
  "activate": 34584,
  "active": 7943,
  "activecell": 41787,
  "actively": 28420,
  "actives": 37053,
  "activesheet": 38343,
  "activities": 44816,
  "activity": 15626,
  "actone": 38157,
  "actory": 48003,
  "acts": 13027,
  "acular": 22311,
  "acup": 40698,
  "acur": 12532,
  "acurricular": 12799,
  "acus": 32807,
  "acusis": 38334,
  "acute": 47954,
  "acy": 2956,
  "acyclovir": 42410,
  "ad": 361,
  "ada": 7054,
  "adam": 23394,
  "adas": 20245,
  "adata": 32127,
  "adays": 16236,
  "add": 4762,
  "adder": 7051,
  "adders": 16803,
  "addies": 45411,
  "adding": 30918,
  "additional": 45412,
  "addle": 18679,
  "address": 19957,
  "addy": 30572,
  "ade": 872,
  "adec": 28512,
  "adecimal": 29238,
  "aded": 10353,
  "adel": 21274,
  "adelph": 24655,
  "adem": 5200,
  "adequ": 14094,
  "ader": 14723,
  "aderie": 31360,
  "aders": 32392,
  "ades": 4203,
  "adesh": 38496,
  "adhd": 48483,
  "adhes": 47971,
  "adi": 44402,
  "adian": 12026,
  "adine": 18646,
  "ading": 6717,
  "adisplaystyle": 31517,
  "adium": 17905,
  "adj": 26747,
  "adjust": 21703,
  "admin": 25842,
  "administ": 40636,
  "admit": 34739,
  "ado": 5365,
  "adobe": 31441,
  "adol": 35276,
  "adon": 36610,
  "adone": 28244,
  "adopt": 31216,
  "ador": 20586,
  "adorn": 39876,
  "adors": 41944,
  "ados": 10414,
  "adow": 5806,
  "adows": 22981,
  "adrine": 42608,
  "adryl": 20587,
  "ads": 11529,
  "adult": 32937,
  "adults": 45549,
  "adv": 31731,
  "advanced": 41549,
  "advant": 11384,
  "advent": 45222,
  "advert": 14691,
  "advertise": 43138,
  "advertising": 48818,
  "advis": 29255,
  "advisable": 49476,
  "advisor": 35219,
  "ady": 44800,
  "ae": 13841,
  "aea": 47769,
  "af": 2534,
  "afarian": 38730,
  "afe": 9771,
  "afed": 47144,
  "afety": 30392,
  "aff": 10095,
  "affe": 22030,
  "affeinated": 26447,
  "affin": 23507,
  "affle": 47259,
  "afin": 39434,
  "afine": 47639,
  "afinil": 40391,
  "afone": 43050,
  "afood": 44525,
  "afraid": 42059,
  "after": 8994,
  "afx": 49811,
  "ag": 528,
  "aga": 25845,
  "again": 26826,
  "agana": 30279,
  "agara": 44826,
  "agas": 34270,
  "agascar": 45956,
  "age": 508,
  "ageal": 19331,
  "aged": 2792,
  "agement": 49105,
  "agen": 13343,
  "agent": 43288,
  "ager": 3397,
  "agers": 5821,
  "ages": 1217,
  "aget": 35505,
  "agethe": 49112,
  "agged": 13649,
  "agger": 8553,
  "agging": 12741,
  "aghet": 11930,
  "aghetti": 12000,
  "agi": 42629,
  "agia": 34924,
  "agic": 18945,
  "aging": 2552,
  "agland": 27832,
  "agle": 14851,
  "agles": 23356,
  "agn": 11492,
  "agna": 16413,
  "agne": 13354,
  "agnet": 46567,
  "agnetic": 25940,
  "agnosed": 28722,
  "agnum": 26143,
  "ago": 13028,
  "agon": 8160,
  "agonal": 28859,
  "agonist": 13570,
  "agons": 33371,
  "agos": 44433,
  "agotch": 27462,
  "agr": 31886,
  "agra": 30808,
  "agram": 6453,
  "agrams": 30073,
  "agraph": 34121,
  "agree": 40449,
  "ags": 8849,
  "agul": 23080,
  "agus": 7611,
  "ah": 2547,
  "aha": 30841,
  "ahi": 39958,
  "ahn": 42719,
  "ahs": 41724,
  "ahu": 12920,
  "ai": 5071,
  "aic": 17031,
  "aicin": 23061,
  "aid": 7049,
  "aids": 26021,
  "aif": 45592,
  "aign": 6554,
  "ail": 559,
  "ailand": 23081,
  "ailed": 3819,
  "ailing": 19831,
  "ailles": 49120,
  "ails": 1297,
  "aim": 2539,
  "ain": 390,
  "ainable": 40167,
  "aind": 36050,
  "aine": 9060,
  "ained": 8618,
  "aines": 14080,
  "aining": 1113,
  "ains": 1878,
  "aint": 2379,
  "aintaining": 39707,
  "ainted": 14055,
  "ainties": 39429,
  "ainting": 13916,
  "aints": 24217,
  "air": 992,
  "aire": 24828,
  "aired": 8880,
  "aires": 38118,
  "airs": 3534,
  "airy": 4787,
  "ais": 26219,
  "ait": 5289,
  "aith": 27051,
  "aj": 22384,
  "ak": 547,
  "aka": 24898,
  "akable": 48014,
  "ake": 370,
  "aked": 4680,
  "aken": 2468,
  "aker": 4458,
  "akers": 6193,
  "akes": 981,
  "akh": 33082,
  "aki": 14124,
  "akia": 46104,
  "aking": 669,
  "akis": 22349,
  "aks": 4417,
  "aku": 27917,
  "aky": 9320,
  "al": 311,
  "ala": 13360,
  "alam": 26974,
  "alamus": 37848,
  "alan": 21100,
  "alas": 45636,
  "alay": 24270,
  "alb": 37670,
  "alcohol": 22627,
  "alcoholic": 45523,
  "ald": 21864,
  "aldehyde": 32934,
  "ale": 1295,
  "aled": 6827,
  "alem": 33105,
  "alence": 28976,
  "alene": 45726,
  "alent": 3798,
  "alert": 44779,
  "ales": 6494,
  "alese": 42006,
  "alet": 49186,
  "alf": 7551,
  "alfa": 18681,
  "ali": 30570,
  "alia": 31156,
  "alicy": 34109,
  "alicylate": 45955,
  "align": 27060,
  "aligned": 13264,
  "alignment": 33357,
  "alin": 40428,
  "aline": 10366,
  "aling": 4126,
  "alini": 43613,
  "alis": 32249,
  "alities": 23967,
  "ality": 12597,
  "alize": 32658,
  "alizing": 42282,
  "alk": 788,
  "alking": 1523,
  "all": 367,
  "allah": 37676,
  "allax": 48487,
  "alle": 2080,
  "alled": 3671,
  "allen": 11004,
  "allerg": 17462,
  "allergenic": 18893,
  "allese": 49796,
  "allest": 9113,
  "allets": 16933,
  "alley": 46192,
  "allic": 9074,
  "alling": 24214,
  "alloc": 26978,
  "allocated": 29734,
  "allow": 3762,
  "alloway": 39211,
  "allowing": 45786,
  "allows": 11142,
  "alls": 26236,
  "ally": 440,
  "alm": 28495,
  "almon": 44391,
  "almond": 39354,
  "almonds": 44781,
  "almost": 31626,
  "alms": 44780,
  "alo": 17565,
  "aloe": 38378,
  "alog": 9457,
  "alon": 34733,
  "alone": 23569,
  "along": 40429,
  "alose": 40152,
  "alous": 6486,
  "alph": 23308,
  "alpha": 33760,
  "als": 820,
  "alsa": 11332,
  "also": 16330,
  "alt": 11072,
  "alted": 16054,
  "alter": 45637,
  "altern": 18743,
  "alternate": 49427,
  "alternately": 43487,
  "alternatively": 23145,
  "alth": 4614,
  "although": 12370,
  "althy": 5699,
  "alu": 42590,
  "aluminum": 43245,
  "alur": 31016,
  "alus": 32250,
  "always": 13807,
  "aly": 7813,
  "alypt": 12246,
  "alyptus": 12367,
  "alysis": 15388,
  "am": 357,
  "ama": 9483,
  "amac": 43617,
  "amaged": 27523,
  "amake": 45221,
  "aman": 37258,
  "amar": 25644,
  "amas": 11902,
  "amate": 31516,
  "amation": 15271,
  "amatory": 29961,
  "amax": 48480,
  "amazon": 47968,
  "amb": 4834,
  "amba": 47679,
  "ambda": 43080,
  "amble": 13075,
  "ambling": 11440,
  "amboo": 8909,
  "ambulance": 35361,
  "amcinolone": 48481,
  "ame": 548,
  "amectin": 41297,
  "amed": 4355,
  "amel": 6569,
  "amele": 19652,
  "amels": 30158,
  "ament": 7810,
  "amental": 14048,
  "aments": 14375,
  "amer": 31396,
  "americ": 27372,
  "american": 30663,
  "ames": 1585,
  "amese": 23406,
  "amet": 42949,
  "ameter": 31023,
  "ameth": 36834,
  "amethasone": 39319,
  "ami": 10213,
  "amic": 7752,
  "amide": 21273,
  "amiliar": 9177,
  "amin": 2367,
  "aminate": 44128,
  "amination": 12403,
  "amine": 6408,
  "aminer": 44921,
  "amines": 11585,
  "aming": 3827,
  "aminophen": 11286,
  "amins": 5120,
  "amis": 29039,
  "amish": 32002,
  "amm": 2622,
  "amma": 14241,
  "ammad": 28611,
  "ammed": 16572,
  "ammers": 14573,
  "ammy": 18191,
  "amo": 39100,
  "amol": 27912,
  "amos": 32936,
  "amot": 26746,
  "amount": 36608,
  "amous": 19074,
  "amp": 1264,
  "amphet": 35532,
  "ample": 14350,
  "amples": 29162,
  "ampoo": 3128,
  "ampp": 32255,
  "amps": 4561,
  "ams": 2461,
  "amy": 19353,
  "amycin": 34368,
  "an": 290,
  "ana": 3797,
  "analy": 22675,
  "analyze": 26015,
  "anas": 6073,
  "anasana": 39996,
  "anc": 35261,
  "ance": 601,
  "anced": 2964,
  "ancer": 17200,
  "ancers": 25208,
  "ances": 1720,
  "ancet": 37902,
  "anch": 5670,
  "ancies": 18899,
  "ancing": 4321,
  "ancy": 3844,
  "and": 512,
  "anda": 17665,
  "andaise": 47798,
  "andal": 18648,
  "andel": 17991,
  "ander": 5479,
  "andering": 37697,
  "anders": 23976,
  "andex": 22042,
  "andi": 42308,
  "anding": 28589,
  "ando": 42626,
  "andom": 4618,
  "andon": 9197,
  "android": 32817,
  "ands": 6255,
  "andy": 23032,
  "ane": 2691,
  "anean": 17954,
  "aneity": 27853,
  "anelle": 40424,
  "aneous": 8812,
  "aneously": 8400,
  "anes": 13018,
  "anese": 43989,
  "anet": 36225,
  "anets": 47941,
  "ang": 676,
  "anga": 28508,
  "angan": 39660,
  "ange": 793,
  "anged": 8303,
  "angel": 37484,
  "anger": 2844,
  "angered": 22401,
  "angering": 37707,
  "angers": 6614,
  "anges": 6150,
  "angible": 21180,
  "anging": 7013,
  "angle": 2914,
  "angled": 22490,
  "angler": 25470,
  "angles": 5173,
  "angling": 12749,
  "ango": 29459,
  "angs": 15257,
  "angu": 2051,
  "anguage": 42701,
  "angular": 6406,
  "angus": 48037,
  "ani": 21862,
  "ania": 32246,
  "anian": 22978,
  "anians": 36817,
  "anim": 26382,
  "animal": 31856,
  "animals": 39082,
  "animity": 46961,
  "anine": 36423,
  "aning": 27586,
  "anis": 47940,
  "anish": 46505,
  "anitary": 27059,
  "anity": 22863,
  "anium": 14328,
  "ank": 1127,
  "anks": 31296,
  "anky": 33394,
  "ann": 3073,
  "anna": 20286,
  "annah": 25435,
  "annas": 33707,
  "anne": 45623,
  "anned": 9420,
  "annel": 13951,
  "annie": 37755,
  "annies": 20190,
  "annon": 48142,
  "annual": 42730,
  "ano": 10981,
  "anol": 18414,
  "anor": 41924,
  "another": 20334,
  "ans": 633,
  "ansas": 17015,
  "answ": 24483,
  "answer": 28140,
  "answered": 29169,
  "ant": 388,
  "anta": 22346,
  "antac": 41278,
  "ante": 23818,
  "antec": 47979,
  "anted": 4302,
  "antel": 36048,
  "anth": 25024,
  "antha": 35691,
  "anthem": 29042,
  "anthin": 41194,
  "anti": 23766,
  "antial": 36614,
  "antib": 36049,
  "antic": 4593,
  "antically": 16818,
  "anticip": 37776,
  "anticipated": 48917,
  "anting": 13784,
  "antis": 42614,
  "antly": 2773,
  "anto": 30469,
  "ants": 1155,
  "anum": 36036,
  "anus": 15970,
  "anx": 28071,
  "anxiety": 31128,
  "any": 6963,
  "anyl": 46028,
  "anyone": 35584,
  "anything": 24002,
  "anza": 45624,
  "ap": 426,
  "apa": 35495,
  "apace": 45236,
  "apan": 6727,
  "ape": 1054,
  "aped": 15983,
  "apel": 22907,
  "apels": 33099,
  "apen": 26600,
  "apentin": 38886,
  "aper": 873,
  "apered": 42348,
  "apers": 3669,
  "apes": 7284,
  "apeÃ±": 27390,
  "aph": 2238,
  "aphil": 32844,
  "aphone": 32156,
  "aphor": 45755,
  "aphrag": 9977,
  "api": 41284,
  "apia": 27681,
  "apine": 42302,
  "aping": 8591,
  "apist": 41285,
  "apl": 46551,
  "aple": 39587,
  "apolis": 40722,
  "apon": 41959,
  "apons": 37463,
  "apor": 6902,
  "app": 2451,
  "appd": 45355,
  "appdata": 46206,
  "appe": 6194,
  "appealing": 23730,
  "appear": 22918,
  "apped": 16895,
  "apper": 20446,
  "appers": 31664,
  "apping": 3932,
  "apple": 7736,
  "apples": 18498,
  "applic": 39430,
  "application": 20396,
  "applications": 47878,
  "apply": 7104,
  "applying": 35334,
  "appreci": 43734,
  "appreciate": 45152,
  "appro": 33265,
  "approach": 27155,
  "appropriate": 7705,
  "approx": 36115,
  "apps": 21111,
  "appy": 21670,
  "apro": 43631,
  "aps": 1610,
  "apse": 9580,
  "apsed": 22591,
  "apses": 45738,
  "apt": 6235,
  "apter": 4799,
  "aptive": 37786,
  "apture": 30017,
  "apy": 6669,
  "apyrus": 39230,
  "aq": 34544,
  "aqu": 43563,
  "aque": 8350,
  "ar": 299,
  "ara": 10107,
  "arados": 44771,
  "arag": 46034,
  "aran": 31153,
  "arant": 5406,
  "aras": 40976,
  "aration": 5751,
  "arations": 14905,
  "arazz": 44383,
  "arc": 36426,
  "arcer": 23566,
  "arch": 888,
  "arching": 27763,
  "archive": 40215,
  "archment": 6800,
  "ard": 444,
  "ardi": 31526,
  "ardo": 35497,
  "ardrop": 20525,
  "ards": 3804,
  "are": 466,
  "area": 24274,
  "arean": 30472,
  "areas": 44029,
  "ared": 3274,
  "arel": 20092,
  "arella": 14200,
  "aren": 25149,
  "arena": 47000,
  "arent": 1167,
  "arer": 10097,
  "arers": 19122,
  "ares": 7535,
  "aresis": 47001,
  "arest": 6532,
  "aret": 37048,
  "arg": 23760,
  "arge": 43602,
  "ari": 1134,
  "aria": 16550,
  "arial": 24378,
  "arian": 3176,
  "arians": 9533,
  "ariat": 35528,
  "ariatric": 40110,
  "arid": 27131,
  "aridin": 35439,
  "aried": 35072,
  "aries": 3288,
  "ariest": 35719,
  "arily": 3018,
  "arin": 15021,
  "arine": 31505,
  "aring": 1663,
  "ario": 22284,
  "aris": 29544,
  "arish": 47449,
  "arital": 37250,
  "arity": 33354,
  "arium": 6032,
  "ariums": 31651,
  "arius": 28771,
  "ark": 778,
  "arking": 22072,
  "arks": 9796,
  "arly": 25705,
  "arm": 909,
  "arma": 18769,
  "armac": 49165,
  "armed": 32414,
  "armint": 24045,
  "armony": 44469,
  "arms": 7465,
  "arn": 777,
  "arned": 30482,
  "arness": 8828,
  "arning": 23671,
  "arnish": 5273,
  "aro": 31858,
  "arone": 49614,
  "aroo": 28673,
  "around": 20484,
  "arounds": 46509,
  "arp": 26383,
  "arpen": 48446,
  "arr": 1630,
  "arrange": 22911,
  "arranted": 45334,
  "arrass": 5150,
  "array": 30189,
  "arre": 22071,
  "arriage": 36296,
  "arried": 21526,
  "arring": 10193,
  "arrive": 39171,
  "arrow": 19251,
  "arrows": 35539,
  "ars": 809,
  "arse": 7256,
  "arseness": 35098,
  "arsh": 4486,
  "art": 415,
  "arted": 49082,
  "arter": 15890,
  "arth": 4885,
  "arthe": 45660,
  "arthritis": 21063,
  "article": 40174,
  "articles": 44017,
  "artist": 46548,
  "artment": 39634,
  "arts": 6740,
  "aru": 30915,
  "arum": 46508,
  "arus": 42277,
  "ary": 696,
  "arya": 42647,
  "aryl": 42979,
  "aryng": 47031,
  "as": 352,
  "asa": 20946,
  "asana": 19647,
  "asant": 5262,
  "asantly": 47472,
  "asaur": 42603,
  "aschino": 29161,
  "asco": 34113,
  "ascript": 15907,
  "ase": 562,
  "ased": 2124,
  "aseds": 26976,
  "asel": 37471,
  "aser": 4987,
  "asers": 16156,
  "ases": 1346,
  "ash": 1052,
  "asha": 41339,
  "ashed": 11617,
  "asher": 29160,
  "ashers": 32124,
  "ashes": 3820,
  "ashi": 29464,
  "ashing": 7706,
  "ashion": 34943,
  "asi": 26526,
  "asia": 17968,
  "aside": 45647,
  "asil": 32001,
  "asiness": 34259,
  "asing": 2186,
  "asion": 16217,
  "asis": 19145,
  "asive": 9620,
  "asize": 37912,
  "ask": 1539,
  "aska": 14420,
  "asket": 11809,
  "askets": 24493,
  "asking": 25643,
  "asm": 9072,
  "asma": 13783,
  "asmic": 42604,
  "asmine": 18503,
  "asmod": 39874,
  "asms": 46978,
  "ason": 1320,
  "asone": 27985,
  "asonic": 24233,
  "asonry": 47586,
  "asons": 2977,
  "asp": 4499,
  "asparagus": 41942,
  "asper": 35685,
  "aspirin": 49863,
  "ass": 579,
  "asse": 8511,
  "assemb": 26427,
  "assemble": 10111,
  "assembling": 29106,
  "assembly": 26876,
  "asses": 24430,
  "assess": 14667,
  "assign": 34930,
  "assis": 22400,
  "assist": 35703,
  "assisted": 48911,
  "assium": 8154,
  "associ": 34114,
  "associate": 46874,
  "assume": 37932,
  "assuming": 35296,
  "assy": 13231,
  "ast": 490,
  "asta": 44817,
  "astatin": 34750,
  "aste": 1905,
  "asted": 29760,
  "aster": 2971,
  "astered": 11430,
  "asteride": 36910,
  "asters": 15737,
  "astes": 21245,
  "asteurized": 30497,
  "astia": 40731,
  "astic": 1593,
  "astics": 11086,
  "asting": 15291,
  "asts": 13901,
  "asty": 10893,
  "asu": 40435,
  "asure": 5911,
  "asus": 41624,
  "asy": 6525,
  "at": 279,
  "ata": 9709,
  "atable": 13927,
  "atadine": 36599,
  "atal": 11555,
  "atar": 13277,
  "atars": 28948,
  "atas": 34725,
  "atch": 1257,
  "atched": 22624,
  "atches": 35868,
  "atching": 31179,
  "ate": 382,
  "ated": 682,
  "atee": 33799,
  "ateg": 2250,
  "atell": 15205,
  "ately": 1829,
  "aten": 40972,
  "ater": 513,
  "ateral": 12223,
  "atered": 12990,
  "aterial": 44821,
  "atern": 33370,
  "aternal": 36626,
  "aternity": 15032,
  "aters": 17460,
  "ates": 890,
  "atever": 2314,
  "ath": 1590,
  "atha": 29779,
  "athan": 36101,
  "athbf": 37735,
  "athe": 26882,
  "ather": 954,
  "athered": 9554,
  "athers": 37953,
  "athetic": 15560,
  "athing": 24424,
  "athione": 33538,
  "athlet": 48626,
  "athrm": 28981,
  "aths": 36294,
  "athy": 6886,
  "athyroid": 49346,
  "ati": 21995,
  "atians": 46955,
  "atic": 2619,
  "atical": 16052,
  "atically": 2921,
  "atics": 20361,
  "atile": 9881,
  "atility": 19740,
  "atim": 29845,
  "atin": 7837,
  "atina": 49589,
  "ating": 766,
  "ation": 376,
  "ational": 2167,
  "ationally": 14501,
  "ationd": 21996,
  "ations": 605,
  "atious": 17179,
  "atiously": 49590,
  "atis": 13712,
  "atitis": 13944,
  "ativ": 42579,
  "ative": 946,
  "atively": 2648,
  "atives": 3849,
  "ativity": 10197,
  "atize": 36421,
  "atized": 49005,
  "ato": 1936,
  "atoes": 27401,
  "atology": 45750,
  "atomic": 35260,
  "aton": 42921,
  "atonic": 26026,
  "atonin": 13955,
  "ator": 1500,
  "atories": 13321,
  "atorname": 41604,
  "ators": 3389,
  "atorship": 45775,
  "atory": 3343,
  "atos": 39345,
  "atou": 47935,
  "atown": 46498,
  "atr": 38636,
  "atra": 40143,
  "atro": 42578,
  "atrol": 41255,
  "ats": 1558,
  "atsu": 33689,
  "att": 4110,
  "atta": 30011,
  "attach": 13261,
  "attached": 46704,
  "attack": 28618,
  "attain": 32117,
  "attainable": 34394,
  "atte": 13505,
  "attempt": 40537,
  "attend": 27652,
  "attended": 15605,
  "atter": 9667,
  "attered": 13995,
  "attering": 16367,
  "atters": 25837,
  "atts": 48433,
  "atu": 49588,
  "atum": 23814,
  "atums": 43593,
  "atur": 1271,
  "aturate": 33834,
  "aturated": 14343,
  "aturation": 35319,
  "ature": 1076,
  "atures": 35312,
  "aturity": 33103,
  "atus": 18281,
  "atz": 38362,
  "au": 555,
  "auba": 44036,
  "auce": 14746,
  "aucoma": 18596,
  "aud": 6062,
  "audio": 38028,
  "augh": 2282,
  "aught": 4116,
  "aughter": 19897,
  "ault": 2723,
  "aulting": 33194,
  "aund": 18595,
  "aundice": 19884,
  "aunt": 10566,
  "aunting": 14844,
  "aur": 3380,
  "aura": 49837,
  "aural": 45382,
  "aurus": 17800,
  "aus": 11232,
  "ausal": 23606,
  "ause": 645,
  "ausea": 45275,
  "aust": 6104,
  "austral": 48731,
  "aut": 2658,
  "auth": 32573,
  "authent": 36908,
  "authentic": 42536,
  "author": 18426,
  "authorize": 47862,
  "authorized": 19699,
  "aution": 16449,
  "autions": 9303,
  "autistic": 37104,
  "auto": 37515,
  "autom": 41080,
  "auts": 42721,
  "autÃ©": 35936,
  "aux": 30809,
  "av": 592,
  "ava": 6131,
  "avable": 28169,
  "avail": 14188,
  "availability": 44637,
  "available": 14834,
  "avas": 45270,
  "ave": 690,
  "aved": 15478,
  "avel": 16475,
  "avement": 37476,
  "aven": 36266,
  "avender": 6540,
  "aver": 13881,
  "average": 36409,
  "avers": 25831,
  "aves": 5279,
  "avg": 41304,
  "avian": 48537,
  "aving": 4833,
  "avior": 23578,
  "avir": 43657,
  "avirus": 29664,
  "avis": 36267,
  "avoc": 28340,
  "avocado": 40099,
  "avocados": 41211,
  "avoid": 7038,
  "avoiding": 31685,
  "avomiting": 43298,
  "avor": 1480,
  "avored": 24624,
  "avory": 40739,
  "aw": 993,
  "awa": 30180,
  "awai": 28350,
  "awaii": 30897,
  "aware": 14108,
  "awares": 48577,
  "away": 10037,
  "aways": 17372,
  "awk": 19658,
  "awking": 47566,
  "awks": 38920,
  "awn": 21695,
  "aws": 4996,
  "ax": 907,
  "axanthin": 41333,
  "axed": 42340,
  "axia": 43333,
  "axis": 20905,
  "ay": 325,
  "aya": 12371,
  "ayas": 29749,
  "ayed": 11174,
  "ayer": 20244,
  "ayers": 36825,
  "aying": 10561,
  "ayou": 36232,
  "ays": 3230,
  "az": 1756,
  "aza": 19362,
  "azam": 38459,
  "azard": 25659,
  "aze": 5785,
  "azed": 26903,
  "azel": 46655,
  "azep": 22446,
  "azepam": 25400,
  "azepine": 46375,
  "azer": 42691,
  "azi": 44904,
  "azine": 24495,
  "azing": 19408,
  "azole": 15314,
  "azoline": 48106,
  "azon": 43359,
  "azy": 36891,
  "azz": 9236,
  "azzle": 46767,
  "azzled": 34838,
  "aÃ±": 48393,
  "b": 70,
  "ba": 7716,
  "bab": 24136,
  "babies": 40353,
  "baby": 26023,
  "bac": 7612,
  "back": 3309,
  "background": 37521,
  "backs": 9595,
  "backup": 25987,
  "bacon": 46751,
  "bacter": 38347,
  "bad": 26022,
  "bag": 12116,
  "bage": 5284,
  "bages": 40124,
  "bags": 18815,
  "bait": 35655,
  "baits": 35387,
  "bake": 24658,
  "baked": 40397,
  "baking": 27902,
  "bal": 3370,
  "balance": 24303,
  "ball": 2970,
  "balls": 8364,
  "ban": 8641,
  "banana": 41794,
  "bananas": 34670,
  "band": 4106,
  "bands": 32310,
  "bang": 39326,
  "bank": 21624,
  "banks": 39291,
  "bar": 4038,
  "bara": 33275,
  "bard": 49556,
  "barrow": 21091,
  "bars": 11830,
  "bas": 15488,
  "basa": 30036,
  "base": 20773,
  "based": 47399,
  "basic": 30770,
  "basically": 47778,
  "basil": 40057,
  "basket": 28403,
  "bat": 11311,
  "bate": 45593,
  "bath": 17680,
  "bathe": 38780,
  "battle": 41466,
  "bay": 36806,
  "bb": 8011,
  "bbing": 24708,
  "bble": 3546,
  "bc": 23915,
  "bd": 43564,
  "bden": 46469,
  "bdenum": 47393,
  "bdisplaystyle": 35654,
  "be": 1174,
  "beam": 45312,
  "bean": 15130,
  "beans": 14293,
  "bear": 17189,
  "bearance": 29324,
  "bearing": 22442,
  "beat": 8248,
  "beats": 26762,
  "beaut": 42355,
  "bec": 13843,
  "because": 15019,
  "become": 20031,
  "becoming": 36286,
  "bed": 7731,
  "beds": 35058,
  "bee": 12398,
  "beef": 37164,
  "beer": 37958,
  "bees": 29073,
  "beez": 46785,
  "before": 5792,
  "begin": 10994,
  "beginpmatrix": 35402,
  "beh": 30945,
  "behavior": 48899,
  "behind": 44311,
  "being": 11115,
  "beit": 25918,
  "bel": 11262,
  "belief": 29811,
  "believe": 32886,
  "bell": 5618,
  "bells": 12264,
  "belly": 28904,
  "below": 36740,
  "bels": 34545,
  "ben": 35653,
  "bench": 21815,
  "bend": 16850,
  "bendazole": 35617,
  "bends": 43346,
  "bene": 48394,
  "benz": 35656,
  "ber": 588,
  "bered": 9626,
  "berg": 15597,
  "bergine": 39520,
  "bering": 48536,
  "berries": 4055,
  "berry": 4893,
  "bers": 1471,
  "bersome": 25424,
  "bert": 16870,
  "berta": 33088,
  "berts": 28591,
  "berty": 13688,
  "bery": 30583,
  "bes": 14663,
  "best": 13882,
  "bet": 12210,
  "beta": 23293,
  "beth": 49558,
  "better": 44629,
  "between": 25322,
  "beware": 41684,
  "bey": 34768,
  "bf": 10609,
  "bh": 29140,
  "bi": 10201,
  "bia": 42246,
  "bian": 15828,
  "bians": 32504,
  "biased": 23055,
  "bic": 27284,
  "bid": 14522,
  "bie": 20447,
  "bies": 5199,
  "big": 28834,
  "bike": 37425,
  "bility": 36807,
  "bill": 34715,
  "bills": 37008,
  "bin": 10130,
  "binary": 43566,
  "bind": 35057,
  "bing": 2587,
  "bins": 44346,
  "bio": 41575,
  "bird": 11254,
  "birds": 16512,
  "birth": 15944,
  "bis": 29141,
  "bish": 20654,
  "bit": 2048,
  "bital": 32843,
  "bite": 14530,
  "bites": 43565,
  "biting": 49557,
  "bitious": 18293,
  "bitol": 34153,
  "bits": 3096,
  "bitten": 41371,
  "bium": 47908,
  "bl": 5616,
  "black": 14670,
  "bladder": 21930,
  "blade": 25548,
  "blades": 43085,
  "blading": 45425,
  "blank": 34651,
  "blast": 42112,
  "ble": 393,
  "bleach": 39108,
  "bleeding": 33959,
  "blem": 21132,
  "blems": 31401,
  "blend": 22395,
  "bler": 36410,
  "blers": 35371,
  "bles": 17827,
  "blind": 36151,
  "bling": 9611,
  "blo": 31609,
  "block": 10328,
  "blocks": 23433,
  "blog": 34546,
  "blood": 19438,
  "blore": 39221,
  "blot": 32862,
  "blow": 29099,
  "blower": 34488,
  "blu": 43422,
  "blue": 18524,
  "blueberries": 42839,
  "blur": 31332,
  "blurred": 39826,
  "bly": 17250,
  "bn": 24264,
  "bo": 1098,
  "board": 1865,
  "boarding": 40791,
  "boards": 9453,
  "boat": 24341,
  "boats": 41683,
  "bob": 28598,
  "bod": 33772,
  "body": 3846,
  "boil": 15246,
  "boiled": 31546,
  "boiling": 42667,
  "bok": 45713,
  "bol": 3993,
  "bola": 31785,
  "bold": 39676,
  "bole": 42351,
  "bolt": 19365,
  "bolts": 44552,
  "bomb": 33928,
  "bon": 2908,
  "bonate": 19487,
  "bond": 47066,
  "bone": 9394,
  "bones": 11813,
  "bons": 9446,
  "boo": 30554,
  "book": 1773,
  "booking": 19468,
  "books": 7068,
  "boost": 35642,
  "boot": 8244,
  "booth": 44882,
  "boots": 26615,
  "bor": 12540,
  "bore": 37007,
  "born": 5943,
  "borne": 32105,
  "boro": 45874,
  "bos": 38839,
  "boss": 21140,
  "bot": 13672,
  "both": 20868,
  "bots": 48957,
  "bottom": 38287,
  "bou": 40123,
  "bought": 45162,
  "bound": 19826,
  "bour": 30448,
  "bourne": 39553,
  "bow": 9067,
  "bowl": 32332,
  "bowls": 49361,
  "bows": 24659,
  "box": 3090,
  "boxes": 26189,
  "boxing": 23045,
  "boy": 11242,
  "boyfriend": 39252,
  "boys": 23776,
  "br": 1335,
  "bra": 7584,
  "brace": 29879,
  "braces": 49189,
  "braided": 49351,
  "brain": 23883,
  "brainstorm": 28226,
  "brake": 20559,
  "bral": 25160,
  "bran": 40488,
  "brance": 35534,
  "brances": 43696,
  "brand": 33436,
  "bras": 46629,
  "bre": 3889,
  "bread": 13963,
  "break": 8401,
  "breaker": 21719,
  "breakers": 34329,
  "breakfast": 42462,
  "breaking": 16404,
  "breaks": 16481,
  "breast": 42427,
  "breat": 22767,
  "breathe": 28223,
  "breathing": 34378,
  "bred": 16112,
  "breed": 39452,
  "breeding": 36919,
  "brev": 10287,
  "brew": 13618,
  "brews": 37762,
  "brick": 46162,
  "bridge": 18317,
  "bright": 27393,
  "brine": 38442,
  "bring": 11991,
  "bringing": 28043,
  "bro": 11856,
  "broad": 47400,
  "brocc": 29316,
  "broccol": 40369,
  "broccoli": 44688,
  "broken": 16383,
  "broker": 35981,
  "bron": 38441,
  "brow": 9076,
  "brown": 20315,
  "brows": 6427,
  "browse": 29109,
  "browser": 46284,
  "bru": 13673,
  "bruary": 14298,
  "brus": 40774,
  "brush": 4211,
  "brushed": 42009,
  "brushes": 15437,
  "brushing": 34774,
  "bs": 803,
  "bt": 4751,
  "bted": 19559,
  "btedly": 21578,
  "bu": 4613,
  "bub": 38119,
  "buck": 13983,
  "bucket": 31357,
  "buckle": 38290,
  "bucks": 17753,
  "bud": 20408,
  "buddy": 38806,
  "budget": 41509,
  "buds": 19276,
  "buff": 37877,
  "bug": 20972,
  "bugs": 16742,
  "build": 8100,
  "builder": 27491,
  "builders": 39760,
  "building": 23899,
  "buildings": 44598,
  "built": 33277,
  "bul": 14919,
  "bulin": 35987,
  "bull": 28402,
  "bullet": 40888,
  "bullies": 45543,
  "bully": 22894,
  "bund": 24175,
  "bur": 6729,
  "burg": 24580,
  "burgh": 32590,
  "burn": 7191,
  "burner": 38765,
  "burning": 40855,
  "burns": 25807,
  "burst": 35161,
  "bury": 33481,
  "bus": 18329,
  "bush": 38840,
  "business": 22028,
  "bust": 38619,
  "buster": 35448,
  "but": 8931,
  "butter": 23236,
  "button": 18121,
  "buttons": 48227,
  "buy": 7438,
  "buying": 33144,
  "bx": 49555,
  "bxc": 48395,
  "by": 2289,
  "bye": 47134,
  "bys": 26376,
  "bytes": 20532,
  "c": 71,
  "ca": 7459,
  "caa": 34040,
  "cab": 30140,
  "cabbage": 44307,
  "cache": 39839,
  "caffe": 37794,
  "caffeine": 42540,
  "cage": 21736,
  "cah": 48398,
  "cake": 12736,
  "cakes": 29142,
  "cal": 6682,
  "cala": 38255,
  "calcium": 41779,
  "calcul": 18214,
  "calculate": 21991,
  "cale": 16956,
  "calend": 42493,
  "caling": 32107,
  "call": 11505,
  "calling": 38781,
  "calm": 34660,
  "cals": 40945,
  "cam": 12989,
  "came": 33195,
  "camera": 42163,
  "camp": 23859,
  "cams": 35850,
  "can": 7309,
  "cance": 33338,
  "cancel": 38335,
  "cancer": 38767,
  "cand": 35235,
  "candy": 33929,
  "cane": 37639,
  "canned": 42898,
  "cannot": 43095,
  "cans": 13595,
  "cant": 28481,
  "cap": 15781,
  "cape": 15886,
  "capes": 41897,
  "caps": 28404,
  "capture": 40947,
  "car": 4570,
  "carbon": 35359,
  "carbonate": 36144,
  "carbons": 46256,
  "card": 9151,
  "cardboard": 37361,
  "cardia": 29111,
  "cardio": 45017,
  "cards": 10620,
  "care": 5228,
  "career": 46724,
  "carefully": 28547,
  "carf": 37775,
  "caring": 49560,
  "carn": 35059,
  "carr": 12879,
  "carriage": 41154,
  "carrot": 41473,
  "carrots": 36171,
  "carry": 31207,
  "cars": 37009,
  "cart": 26730,
  "carves": 49299,
  "cas": 15279,
  "case": 5663,
  "cases": 13207,
  "cash": 24265,
  "cass": 17936,
  "cast": 4986,
  "caster": 24421,
  "casting": 29200,
  "castle": 39468,
  "casual": 46802,
  "cat": 14920,
  "catch": 25272,
  "catcher": 38790,
  "cate": 14569,
  "cated": 25576,
  "categ": 45992,
  "cates": 35236,
  "cating": 22305,
  "cation": 20049,
  "cats": 23016,
  "caul": 40857,
  "cauliflower": 48367,
  "cb": 44735,
  "cc": 1397,
  "cca": 25656,
  "ccal": 31054,
  "ccas": 28877,
  "ccer": 8005,
  "cci": 32106,
  "cd": 6481,
  "cdisplaystyle": 28937,
  "cdot": 22094,
  "ce": 363,
  "ced": 1322,
  "cede": 34455,
  "cedent": 42007,
  "cedes": 39160,
  "cedit": 48607,
  "cedrin": 46627,
  "cee": 49056,
  "ceed": 3205,
  "ceeding": 7411,
  "ceeds": 11613,
  "ceived": 35078,
  "cel": 2432,
  "celain": 15725,
  "cele": 24954,
  "celebr": 40357,
  "celer": 7850,
  "celery": 42056,
  "celes": 29445,
  "cell": 13899,
  "cen": 48397,
  "cence": 28057,
  "cend": 13353,
  "cended": 42950,
  "cending": 12514,
  "cene": 23963,
  "cension": 45594,
  "cent": 2617,
  "cented": 15584,
  "center": 25542,
  "centesis": 37749,
  "centimeters": 39435,
  "central": 46677,
  "cents": 39057,
  "ceph": 49643,
  "cephal": 23924,
  "cephalic": 40906,
  "cept": 1212,
  "ception": 10149,
  "ceptions": 15260,
  "ceptive": 21592,
  "cer": 2169,
  "cere": 49057,
  "cerity": 21147,
  "cers": 6037,
  "cert": 27122,
  "certain": 16999,
  "certific": 43518,
  "certified": 46859,
  "ces": 701,
  "cess": 575,
  "cession": 45266,
  "cessive": 24223,
  "cest": 14548,
  "cet": 8221,
  "cethe": 48218,
  "cetin": 36528,
  "cets": 19065,
  "cf": 20774,
  "cg": 22664,
  "ch": 360,
  "cha": 12672,
  "chain": 18692,
  "chains": 44799,
  "chair": 13765,
  "chairs": 27134,
  "chal": 29750,
  "challe": 33502,
  "challenge": 37867,
  "cham": 34912,
  "chamel": 40163,
  "chamomile": 42228,
  "chan": 4871,
  "chances": 37914,
  "change": 4269,
  "changes": 25955,
  "changing": 30159,
  "channel": 47970,
  "chant": 44006,
  "char": 4600,
  "character": 28621,
  "charge": 5627,
  "charged": 34177,
  "charger": 41760,
  "chargers": 48179,
  "charges": 43409,
  "charging": 38968,
  "chart": 29163,
  "chat": 8598,
  "chats": 38141,
  "che": 1818,
  "cheats": 27244,
  "cheatsenabled": 28657,
  "check": 4538,
  "checking": 28778,
  "checks": 28360,
  "ched": 3297,
  "chedule": 15158,
  "cheduled": 33403,
  "cheduling": 34478,
  "chee": 38208,
  "cheese": 30496,
  "chel": 31059,
  "chem": 15539,
  "chemical": 34361,
  "chemicals": 34684,
  "chemistry": 49403,
  "chen": 24801,
  "chenne": 45100,
  "cheon": 34782,
  "cher": 3853,
  "cherry": 49847,
  "chers": 7723,
  "ches": 1381,
  "chess": 41359,
  "chest": 26620,
  "chester": 32984,
  "chet": 13884,
  "chetta": 43470,
  "chew": 35325,
  "chewing": 43713,
  "chi": 17826,
  "chia": 38385,
  "chiato": 43146,
  "chic": 36835,
  "chick": 46532,
  "chicken": 30571,
  "chief": 16024,
  "chiev": 30690,
  "child": 9712,
  "children": 12774,
  "chill": 33650,
  "chin": 33501,
  "ching": 9230,
  "chino": 28681,
  "chins": 49642,
  "chio": 42607,
  "chips": 42606,
  "chlor": 14186,
  "chn": 26040,
  "cho": 10671,
  "chocol": 22676,
  "chocolate": 23513,
  "choice": 48785,
  "chond": 28680,
  "choo": 33072,
  "chool": 9132,
  "chooled": 32126,
  "choose": 4168,
  "choosing": 35230,
  "chop": 21432,
  "chopped": 38272,
  "chos": 49641,
  "christ": 35686,
  "christmas": 46425,
  "chrome": 31870,
  "chron": 47969,
  "chronic": 33651,
  "chs": 22274,
  "cht": 37913,
  "chu": 41273,
  "chy": 23027,
  "chÃ©": 23441,
  "ci": 532,
  "cia": 16440,
  "cial": 856,
  "cially": 1194,
  "cials": 12725,
  "cibility": 47507,
  "cible": 19709,
  "cibly": 36629,
  "ciclovir": 43567,
  "cid": 19991,
  "cience": 20151,
  "cient": 10162,
  "cier": 44827,
  "cies": 11842,
  "cii": 33227,
  "cil": 10294,
  "cils": 31383,
  "cin": 10428,
  "cing": 1721,
  "cings": 12129,
  "cinnamon": 35174,
  "cinolone": 47745,
  "cious": 4580,
  "ciously": 11152,
  "cip": 7143,
  "cipe": 3864,
  "ciplinary": 44193,
  "cir": 33483,
  "circle": 39840,
  "cis": 10019,
  "cise": 1368,
  "cising": 36024,
  "ciss": 11329,
  "cission": 43460,
  "cissors": 26281,
  "cit": 23810,
  "cite": 40398,
  "cithin": 40399,
  "citrus": 32356,
  "city": 19700,
  "cium": 5237,
  "ciutto": 39653,
  "civ": 47909,
  "ck": 494,
  "cked": 48519,
  "cket": 2627,
  "ckets": 5865,
  "ckey": 12953,
  "cking": 3055,
  "ckles": 15127,
  "cks": 2567,
  "cky": 36256,
  "cl": 2144,
  "cla": 42706,
  "claim": 12813,
  "claimed": 25688,
  "clamps": 24109,
  "clampsia": 24707,
  "clan": 26188,
  "clap": 48115,
  "clar": 38940,
  "clarify": 42884,
  "class": 16702,
  "classes": 34064,
  "classic": 38559,
  "classmen": 43479,
  "clay": 49798,
  "cle": 1341,
  "clean": 7840,
  "cleaner": 21536,
  "cleaning": 26274,
  "cleanse": 39758,
  "clear": 9785,
  "cled": 11960,
  "cler": 27154,
  "clerosis": 27818,
  "cles": 2025,
  "clic": 20973,
  "click": 5678,
  "client": 33853,
  "clim": 38720,
  "clin": 42397,
  "cline": 22578,
  "cling": 6616,
  "clip": 11502,
  "clips": 22952,
  "clipse": 19907,
  "clists": 41374,
  "clo": 11453,
  "clock": 12439,
  "clocking": 39506,
  "clockwise": 13000,
  "close": 19943,
  "closing": 34353,
  "clot": 22558,
  "cloth": 5040,
  "clothes": 28051,
  "clothing": 37193,
  "cloud": 7262,
  "clovir": 41812,
  "club": 43038,
  "clusive": 29384,
  "cm": 3277,
  "cmd": 35558,
  "cmdisplaystyle": 49264,
  "cmp": 48147,
  "cn": 33059,
  "co": 684,
  "coal": 49141,
  "coat": 10681,
  "coats": 29062,
  "coc": 24282,
  "coccus": 26084,
  "cock": 26465,
  "coco": 39381,
  "cocoa": 49517,
  "coconut": 29264,
  "cod": 17922,
  "code": 7472,
  "codes": 26610,
  "codone": 35811,
  "coffee": 28260,
  "cogn": 10102,
  "cognitive": 38050,
  "cohol": 2171,
  "coin": 41310,
  "coins": 25961,
  "col": 2184,
  "cold": 24547,
  "cole": 25417,
  "coll": 27077,
  "colle": 28985,
  "collect": 14705,
  "college": 32492,
  "color": 11973,
  "colored": 32704,
  "colors": 23365,
  "colour": 38942,
  "column": 39954,
  "com": 2068,
  "coma": 17573,
  "comastia": 40796,
  "comb": 9130,
  "combine": 10834,
  "come": 3588,
  "comed": 21327,
  "comedogenic": 32353,
  "comes": 10507,
  "comfort": 35929,
  "comic": 48643,
  "coming": 5918,
  "comings": 22167,
  "comm": 19033,
  "command": 25694,
  "comme": 39187,
  "comment": 41373,
  "commer": 27770,
  "commerce": 38322,
  "commercial": 37608,
  "commit": 24803,
  "common": 26845,
  "commun": 14958,
  "communicate": 28302,
  "communication": 23551,
  "communications": 31234,
  "community": 38556,
  "comp": 27769,
  "compan": 23177,
  "companied": 36772,
  "company": 31123,
  "compare": 25662,
  "compens": 33123,
  "compet": 28606,
  "compile": 48112,
  "compl": 24166,
  "comple": 39704,
  "complete": 18628,
  "compliment": 34379,
  "compost": 32439,
  "comput": 24345,
  "computer": 27048,
  "con": 1423,
  "conazole": 28096,
  "conce": 41694,
  "conceal": 44722,
  "concent": 39937,
  "concentrate": 49520,
  "concil": 49763,
  "cond": 12468,
  "condition": 25001,
  "conditioner": 45103,
  "conditioning": 39027,
  "conds": 28764,
  "conduct": 19398,
  "cone": 35449,
  "cones": 30187,
  "conf": 14731,
  "confidence": 38789,
  "confident": 36362,
  "config": 16931,
  "confirm": 22971,
  "confront": 44491,
  "confusion": 36751,
  "cong": 34716,
  "connect": 10782,
  "connected": 28128,
  "connecting": 45032,
  "connection": 32884,
  "conomic": 35725,
  "cons": 3816,
  "conscious": 11057,
  "consciously": 16771,
  "consider": 6452,
  "console": 49764,
  "const": 26057,
  "constant": 40360,
  "constip": 38320,
  "constipation": 42880,
  "constr": 40776,
  "construct": 42674,
  "construction": 44492,
  "consult": 17365,
  "consum": 49846,
  "consume": 35567,
  "cont": 7878,
  "contact": 14031,
  "contain": 34829,
  "container": 41554,
  "content": 37356,
  "contin": 21409,
  "continue": 25197,
  "contract": 40292,
  "contrast": 42459,
  "control": 21889,
  "conut": 3973,
  "convert": 29880,
  "converter": 48616,
  "cook": 10304,
  "cooked": 22710,
  "cookies": 44614,
  "cooking": 21418,
  "cool": 29239,
  "coon": 47533,
  "cop": 14057,
  "cope": 8648,
  "copes": 24789,
  "copic": 16603,
  "copies": 33743,
  "coping": 36865,
  "copy": 8381,
  "copypaste": 16510,
  "cor": 10547,
  "cord": 44736,
  "core": 11017,
  "cores": 36209,
  "corn": 6994,
  "corp": 48240,
  "corporate": 40589,
  "corps": 43457,
  "correct": 37154,
  "cort": 16422,
  "cortisone": 17844,
  "cos": 8847,
  "cosa": 25743,
  "cosay": 34836,
  "cosb": 47252,
  "cose": 42646,
  "cosis": 40946,
  "cosrow": 45457,
  "cost": 24733,
  "costs": 40463,
  "cosÎ¸": 31343,
  "cot": 13779,
  "cotch": 26807,
  "cotic": 36210,
  "cotics": 28465,
  "cotton": 29612,
  "cou": 30253,
  "cough": 28835,
  "coughing": 35637,
  "could": 39328,
  "coun": 31492,
  "count": 13582,
  "counter": 40377,
  "country": 27107,
  "county": 42486,
  "cour": 49559,
  "course": 46911,
  "court": 39841,
  "cous": 14582,
  "cover": 10271,
  "covered": 46119,
  "covers": 38169,
  "covery": 39661,
  "cow": 39327,
  "cp": 13581,
  "cpd": 34209,
  "cprogram": 45163,
  "cr": 1243,
  "cra": 4421,
  "crack": 19307,
  "cracker": 33603,
  "crackers": 38571,
  "craft": 5348,
  "crafting": 39984,
  "cran": 40770,
  "crape": 34643,
  "cras": 46156,
  "crast": 11098,
  "cratic": 30827,
  "craw": 42088,
  "cre": 3991,
  "cream": 13981,
  "creas": 19840,
  "creased": 44154,
  "creat": 30449,
  "create": 6667,
  "creating": 27123,
  "credit": 20845,
  "creditreport": 34871,
  "creen": 5955,
  "creens": 22292,
  "crete": 48693,
  "crew": 8754,
  "crews": 40579,
  "crib": 2106,
  "cribe": 16320,
  "cribed": 31193,
  "criber": 20066,
  "cribing": 32986,
  "crim": 28356,
  "crimin": 45542,
  "criminal": 48332,
  "cript": 2269,
  "cription": 2848,
  "criptions": 12047,
  "cripts": 13305,
  "crit": 27614,
  "critical": 37406,
  "cro": 10242,
  "crop": 37878,
  "cross": 19827,
  "crow": 12295,
  "crum": 34142,
  "crush": 31300,
  "crushed": 48086,
  "crust": 37960,
  "cry": 32646,
  "crypt": 37426,
  "crystal": 46414,
  "cs": 6822,
  "css": 48958,
  "ct": 342,
  "ctal": 40160,
  "cted": 34424,
  "ctic": 16023,
  "ctica": 35877,
  "ctin": 21431,
  "ction": 879,
  "ctions": 1526,
  "ctive": 5630,
  "ctomy": 23026,
  "ctor": 1143,
  "ctors": 3746,
  "ctory": 13403,
  "ctr": 19947,
  "ctrl": 30124,
  "cts": 32252,
  "ctur": 19527,
  "cture": 5558,
  "cu": 33482,
  "cub": 47910,
  "cube": 25404,
  "cucum": 40932,
  "cue": 6401,
  "cul": 2071,
  "cular": 6595,
  "cule": 42897,
  "cules": 40666,
  "cult": 41896,
  "cultivate": 48368,
  "culus": 31558,
  "cum": 1329,
  "cument": 33252,
  "cumented": 46871,
  "cumin": 30829,
  "cup": 23916,
  "cupid": 47911,
  "cups": 46910,
  "cur": 7348,
  "cure": 7683,
  "curities": 14977,
  "curity": 16039,
  "curl": 41786,
  "current": 16917,
  "currently": 49990,
  "currentversion": 34517,
  "cus": 1186,
  "cush": 42553,
  "cushion": 47376,
  "cuss": 12071,
  "cussions": 21687,
  "cust": 23514,
  "custom": 31476,
  "cut": 2697,
  "cutaneous": 23722,
  "cuts": 32049,
  "cutting": 22169,
  "cv": 48396,
  "cy": 2190,
  "cyan": 47127,
  "cycle": 10790,
  "cycline": 32441,
  "cycling": 40798,
  "cyrrh": 38721,
  "cyrrhiz": 38838,
  "cyto": 44124,
  "d": 72,
  "da": 7603,
  "dab": 43950,
  "dad": 35060,
  "daily": 41130,
  "dain": 37879,
  "dairy": 35237,
  "dale": 43568,
  "dam": 24206,
  "dampen": 37397,
  "dance": 33060,
  "dancing": 32921,
  "dark": 22306,
  "das": 46470,
  "dat": 31845,
  "data": 21238,
  "date": 14711,
  "dated": 15623,
  "dates": 29341,
  "daughter": 40667,
  "day": 2120,
  "db": 23434,
  "dc": 17583,
  "dd": 2240,
  "dded": 46664,
  "dden": 4592,
  "dder": 24082,
  "dders": 43041,
  "dding": 11109,
  "ddisplaystyle": 47131,
  "de": 715,
  "dead": 36453,
  "deal": 23930,
  "death": 35298,
  "deaux": 48555,
  "deb": 40464,
  "debit": 32141,
  "debt": 49706,
  "dec": 5817,
  "decide": 6361,
  "deck": 45284,
  "decor": 19983,
  "decorate": 25071,
  "decorating": 38075,
  "decre": 30371,
  "decreased": 37855,
  "ded": 4507,
  "deen": 39385,
  "deep": 27532,
  "def": 13975,
  "default": 28918,
  "defe": 27604,
  "defeat": 45932,
  "defender": 37204,
  "define": 19878,
  "deg": 37480,
  "degrees": 42539,
  "dehyde": 21182,
  "dehydration": 46121,
  "del": 18589,
  "delete": 24283,
  "delta": 28822,
  "dem": 17373,
  "demean": 21304,
  "demon": 34864,
  "demonstrate": 41221,
  "den": 8685,
  "dened": 39588,
  "dental": 34547,
  "deodor": 44055,
  "dep": 21946,
  "depend": 37940,
  "depending": 15436,
  "depression": 33610,
  "der": 851,
  "dered": 5445,
  "derm": 19561,
  "dermabrasion": 23698,
  "dermal": 45911,
  "ders": 11524,
  "des": 5089,
  "describe": 34818,
  "design": 22842,
  "designate": 42513,
  "desk": 49313,
  "desktop": 34337,
  "despite": 42102,
  "dest": 37010,
  "det": 24530,
  "details": 45099,
  "determ": 6402,
  "determine": 6442,
  "dev": 33819,
  "develo": 16370,
  "develop": 18279,
  "developed": 40611,
  "developing": 49985,
  "dew": 30710,
  "dex": 28089,
  "dext": 46120,
  "df": 6000,
  "dfrac": 47401,
  "dge": 5688,
  "dh": 34892,
  "di": 11263,
  "dia": 13056,
  "diabetes": 45863,
  "diagn": 34352,
  "diagnosed": 45469,
  "diagonal": 49374,
  "diagram": 30028,
  "dial": 23119,
  "dialog": 37195,
  "diam": 42478,
  "diamond": 49530,
  "diarr": 29412,
  "diarrhea": 36196,
  "dice": 40948,
  "did": 18349,
  "die": 29954,
  "dies": 31610,
  "diet": 46912,
  "dif": 14861,
  "different": 20934,
  "difficulty": 22025,
  "dig": 19560,
  "digital": 41850,
  "dim": 39842,
  "din": 30141,
  "ding": 2341,
  "dinger": 48122,
  "dings": 12201,
  "dinner": 43178,
  "diosis": 38055,
  "dip": 27124,
  "dir": 23250,
  "direct": 20448,
  "direction": 36211,
  "directory": 37387,
  "dis": 2524,
  "disability": 49244,
  "disable": 34318,
  "disc": 49243,
  "discard": 43049,
  "disconnect": 30304,
  "discover": 35337,
  "discuss": 19079,
  "dish": 45164,
  "disk": 29634,
  "disney": 49245,
  "display": 30303,
  "displaystyle": 2762,
  "dissolve": 34626,
  "dist": 20974,
  "distinguish": 41512,
  "distract": 42193,
  "div": 13984,
  "divide": 20138,
  "dizziness": 32647,
  "dk": 18738,
  "dl": 13112,
  "dle": 5078,
  "dled": 24605,
  "dler": 30142,
  "dlers": 37011,
  "dles": 11681,
  "dling": 12982,
  "dm": 27203,
  "dn": 42899,
  "do": 1931,
  "dock": 17937,
  "docs": 47622,
  "doctor": 44119,
  "doctors": 42385,
  "docum": 19806,
  "document": 27891,
  "documents": 26582,
  "does": 12959,
  "dog": 11176,
  "dogs": 22100,
  "doing": 16270,
  "doll": 27084,
  "dolls": 43362,
  "dom": 3793,
  "domain": 25486,
  "domin": 20534,
  "doms": 39843,
  "don": 19116,
  "donate": 41181,
  "dont": 31846,
  "door": 20638,
  "doors": 44512,
  "doras": 42554,
  "dos": 30343,
  "double": 17387,
  "dough": 24028,
  "down": 4478,
  "download": 7599,
  "downloads": 44593,
  "downs": 39461,
  "dp": 18307,
  "dr": 2004,
  "dra": 3980,
  "draft": 22643,
  "drag": 32857,
  "dragon": 41096,
  "drain": 27707,
  "drape": 48692,
  "draw": 4531,
  "drawing": 33143,
  "drawn": 16784,
  "dre": 14335,
  "dress": 11568,
  "dresses": 48797,
  "dressing": 35796,
  "dried": 33540,
  "drill": 33850,
  "drink": 15839,
  "drinking": 30388,
  "drive": 15724,
  "driver": 41369,
  "drivers": 39951,
  "driving": 41368,
  "dro": 22665,
  "droid": 45993,
  "drop": 11982,
  "drops": 32891,
  "drug": 40949,
  "drum": 45345,
  "dry": 11553,
  "dryer": 16972,
  "dryers": 48796,
  "drying": 46780,
  "ds": 3212,
  "dsk": 34015,
  "dt": 19447,
  "dtdisplaystyle": 41502,
  "du": 619,
  "dub": 46113,
  "duck": 38678,
  "dudisplaystyle": 48399,
  "due": 34239,
  "dule": 10601,
  "duled": 33379,
  "dules": 14561,
  "during": 21768,
  "dust": 15593,
  "dv": 32228,
  "dvd": 34089,
  "dx": 15685,
  "dxdisplaystyle": 30344,
  "dy": 773,
  "dydx": 42333,
  "dye": 29763,
  "dynam": 18949,
  "dynamic": 23195,
  "dynamics": 33599,
  "dyou": 47039,
  "dys": 29983,
  "dÎ¸": 36588,
  "e": 73,
  "ea": 15061,
  "each": 15111,
  "ead": 912,
  "eads": 38696,
  "eal": 22229,
  "ean": 19914,
  "ear": 31256,
  "early": 41576,
  "earn": 30056,
  "eas": 37880,
  "easy": 43569,
  "eat": 10532,
  "eating": 24207,
  "ec": 18896,
  "ech": 3854,
  "echo": 32062,
  "eco": 44737,
  "ect": 602,
  "ectomy": 30369,
  "ed": 303,
  "eda": 35471,
  "ede": 26814,
  "eded": 19742,
  "edema": 34567,
  "edes": 20485,
  "edge": 23567,
  "edi": 24269,
  "edia": 20897,
  "ediate": 1808,
  "edible": 26669,
  "eding": 2841,
  "edit": 13289,
  "editing": 39613,
  "edo": 16586,
  "edos": 37449,
  "eds": 1971,
  "educ": 20943,
  "educate": 29017,
  "education": 36185,
  "ee": 1629,
  "eed": 9838,
  "eee": 47102,
  "eel": 47402,
  "eem": 6341,
  "een": 5939,
  "eenth": 26154,
  "eer": 15845,
  "eered": 30188,
  "eering": 33773,
  "eers": 29532,
  "ees": 2135,
  "eeze": 28777,
  "ef": 22385,
  "efined": 38579,
  "eg": 35450,
  "egg": 27666,
  "eggbasket": 45934,
  "eggs": 40950,
  "eh": 35657,
  "ei": 16450,
  "eight": 45595,
  "either": 26296,
  "ek": 1022,
  "eks": 40763,
  "ekw": 26177,
  "el": 430,
  "ela": 28253,
  "eland": 37689,
  "elcome": 25711,
  "elder": 37228,
  "ele": 16758,
  "elect": 15829,
  "electric": 38792,
  "electrical": 49404,
  "eled": 4347,
  "elf": 20055,
  "elia": 32812,
  "elic": 27525,
  "elight": 35083,
  "elim": 31030,
  "eliminate": 34886,
  "eline": 6745,
  "elines": 19796,
  "eliness": 13162,
  "eling": 10065,
  "elist": 36248,
  "ell": 1269,
  "ella": 13987,
  "elle": 22041,
  "elles": 38668,
  "elling": 28268,
  "ellosellasustedes": 39932,
  "elo": 44022,
  "els": 1366,
  "elt": 17427,
  "elts": 49664,
  "em": 449,
  "ema": 8785,
  "email": 11862,
  "emails": 30927,
  "emake": 32400,
  "emaker": 22152,
  "emakers": 33662,
  "emaking": 43272,
  "eman": 29757,
  "emark": 8307,
  "emask": 34436,
  "ember": 1019,
  "embour": 49669,
  "embrace": 36845,
  "eme": 44418,
  "emen": 35498,
  "ement": 2063,
  "ements": 7580,
  "emeter": 17449,
  "emia": 28588,
  "emic": 24622,
  "eminal": 43273,
  "emis": 46557,
  "emn": 23159,
  "emnity": 37266,
  "emo": 47999,
  "emon": 32399,
  "emort": 44419,
  "emot": 31165,
  "emotional": 34707,
  "emp": 9824,
  "emper": 21784,
  "emperature": 47318,
  "emph": 42619,
  "emphasize": 46897,
  "empl": 26823,
  "employ": 10196,
  "employee": 48780,
  "employment": 37152,
  "empt": 2604,
  "emption": 24299,
  "empty": 28532,
  "ems": 1074,
  "emy": 32814,
  "en": 292,
  "ena": 12419,
  "enable": 19248,
  "enabled": 25824,
  "enade": 45203,
  "enadine": 43600,
  "enal": 25840,
  "ename": 39860,
  "enance": 37248,
  "enas": 24949,
  "enc": 978,
  "ence": 769,
  "enced": 9193,
  "encer": 32024,
  "encers": 31649,
  "ences": 2236,
  "encesupporting": 47130,
  "ench": 16368,
  "enches": 21283,
  "encies": 4084,
  "encil": 2685,
  "enciled": 35524,
  "encing": 10464,
  "encourage": 24553,
  "ency": 1627,
  "encys": 19657,
  "end": 2704,
  "endaligned": 25927,
  "ended": 20270,
  "ender": 48959,
  "enders": 27406,
  "ending": 33620,
  "endpmatrix": 27710,
  "ends": 49562,
  "ene": 1291,
  "ened": 3325,
  "ener": 7478,
  "energy": 41609,
  "enes": 31014,
  "enesin": 48900,
  "eness": 4070,
  "enet": 30062,
  "enew": 46158,
  "enex": 37081,
  "eng": 11877,
  "engage": 15519,
  "engaging": 48250,
  "enger": 6941,
  "engers": 10973,
  "engine": 48799,
  "english": 34506,
  "enic": 8762,
  "ening": 3053,
  "enix": 25901,
  "enjoy": 27215,
  "enlist": 49017,
  "enn": 26521,
  "enna": 37666,
  "enne": 11173,
  "ennel": 9616,
  "eno": 16865,
  "enos": 23121,
  "enot": 38641,
  "enote": 29543,
  "enough": 49016,
  "enous": 37027,
  "enpins": 40974,
  "enroll": 38642,
  "ens": 817,
  "ense": 1314,
  "enseal": 34773,
  "enses": 10052,
  "ensical": 37071,
  "ensin": 37945,
  "ension": 20950,
  "ensions": 48048,
  "ensis": 48567,
  "ensit": 16556,
  "ensitive": 18493,
  "ensitivity": 24434,
  "ensity": 5243,
  "ensive": 5004,
  "ensory": 48568,
  "ensual": 37946,
  "ensure": 14715,
  "ensus": 18067,
  "ent": 331,
  "enta": 21129,
  "ental": 2268,
  "entangle": 40432,
  "entary": 17757,
  "enter": 8442,
  "entertain": 46057,
  "enth": 18690,
  "ential": 1439,
  "entialed": 47959,
  "entially": 3565,
  "entimes": 37672,
  "entin": 35480,
  "ention": 1211,
  "entional": 28077,
  "entionally": 21023,
  "entions": 22234,
  "entious": 38382,
  "entive": 9436,
  "ently": 1158,
  "ento": 41936,
  "entric": 22235,
  "entry": 47958,
  "ents": 677,
  "enuse": 19564,
  "env": 36226,
  "environ": 38830,
  "enz": 25839,
  "enza": 21309,
  "enzie": 43889,
  "enzyme": 38643,
  "eo": 49561,
  "eous": 19226,
  "ep": 450,
  "epad": 9333,
  "epass": 49095,
  "epdf": 39116,
  "eph": 41644,
  "ephedrine": 38154,
  "ephr": 19204,
  "ephrine": 19245,
  "eplay": 16620,
  "eprazole": 42304,
  "epronunciation": 49096,
  "eps": 7367,
  "epsilon": 23420,
  "ept": 9960,
  "eption": 21900,
  "equ": 4666,
  "equip": 39216,
  "er": 275,
  "era": 17423,
  "erable": 15847,
  "erad": 20979,
  "eradish": 21382,
  "eral": 2727,
  "erally": 19703,
  "erals": 7057,
  "erate": 26455,
  "eration": 18717,
  "erations": 30060,
  "erb": 8116,
  "ercise": 44370,
  "ere": 17661,
  "ered": 2465,
  "erel": 45165,
  "erer": 45167,
  "erest": 7369,
  "erg": 1192,
  "ergart": 20218,
  "erge": 11653,
  "erged": 10755,
  "ergency": 40485,
  "erging": 18700,
  "ergy": 2122,
  "eria": 7793,
  "erial": 47932,
  "erian": 19992,
  "eric": 3183,
  "erick": 38859,
  "erie": 25347,
  "eries": 11313,
  "erin": 46951,
  "ering": 2588,
  "erk": 3961,
  "erkraut": 24116,
  "erks": 9772,
  "erm": 832,
  "ermake": 49717,
  "ermal": 46599,
  "erman": 45296,
  "ermint": 7745,
  "ermost": 16441,
  "ern": 2507,
  "ernet": 34156,
  "ero": 4844,
  "erob": 27583,
  "erobic": 29528,
  "eroom": 41108,
  "eros": 22538,
  "err": 17148,
  "ers": 394,
  "erse": 9369,
  "erson": 16926,
  "ersonal": 12018,
  "ert": 759,
  "ertain": 4633,
  "erthe": 25365,
  "ertification": 34130,
  "ertify": 49153,
  "ertime": 20690,
  "erting": 8667,
  "erto": 23313,
  "erty": 37482,
  "erv": 2415,
  "erve": 2698,
  "erved": 7015,
  "erver": 15833,
  "ervers": 31498,
  "erves": 6577,
  "ervice": 22815,
  "ervices": 29844,
  "erving": 8629,
  "ery": 3214,
  "es": 291,
  "esan": 11669,
  "esc": 35262,
  "escent": 19584,
  "escript": 49015,
  "ese": 2193,
  "esearch": 36112,
  "eseed": 20097,
  "eses": 37665,
  "esh": 37446,
  "esian": 35870,
  "esign": 20109,
  "esis": 26156,
  "esity": 10958,
  "esk": 33790,
  "esktop": 47447,
  "esoph": 27909,
  "esophageal": 31127,
  "especially": 21467,
  "ess": 413,
  "essa": 46547,
  "essage": 19000,
  "essages": 32664,
  "essential": 26819,
  "essert": 6147,
  "ession": 34432,
  "esso": 28963,
  "essori": 30922,
  "est": 416,
  "estab": 16942,
  "establ": 41169,
  "establish": 18026,
  "establishing": 48927,
  "estart": 38884,
  "estate": 46990,
  "este": 49656,
  "ested": 19948,
  "ester": 9281,
  "estern": 8955,
  "esters": 39608,
  "esth": 7267,
  "esthe": 19280,
  "esthum": 27178,
  "esthumb": 7784,
  "esthumbee": 29138,
  "estic": 5642,
  "estically": 37685,
  "estimate": 42616,
  "estion": 14166,
  "esto": 41637,
  "estone": 20247,
  "estop": 38146,
  "estr": 14123,
  "estring": 33804,
  "estruct": 49657,
  "estrus": 48499,
  "ests": 2954,
  "esty": 16455,
  "estyle": 4710,
  "estyles": 24933,
  "esy": 15123,
  "et": 322,
  "eta": 21701,
  "etake": 43251,
  "etal": 33647,
  "etboot": 46972,
  "etbootin": 47395,
  "etc": 26457,
  "etch": 4260,
  "etchup": 13204,
  "ete": 44397,
  "etect": 27592,
  "eter": 3082,
  "etera": 21923,
  "eterm": 5937,
  "etermined": 20291,
  "eters": 4457,
  "eth": 2302,
  "ethat": 40800,
  "ethe": 8834,
  "etheless": 16549,
  "ether": 44001,
  "ethere": 46055,
  "ethicone": 33127,
  "ethink": 44126,
  "ethis": 27623,
  "ethrin": 22639,
  "ethrough": 39428,
  "ethy": 25211,
  "ethyl": 47956,
  "ethylene": 28006,
  "etian": 46054,
  "etic": 5854,
  "etics": 28955,
  "etida": 32516,
  "eties": 6214,
  "etime": 9469,
  "etizing": 37910,
  "eto": 7872,
  "eton": 43250,
  "etooth": 8761,
  "etr": 44790,
  "etrack": 25020,
  "etric": 22345,
  "etrics": 34110,
  "etry": 38136,
  "ets": 1193,
  "ett": 49632,
  "etta": 33496,
  "ette": 7564,
  "ettes": 21044,
  "etti": 20522,
  "etting": 39871,
  "ettings": 49041,
  "ety": 1229,
  "etyl": 31549,
  "etype": 33102,
  "eux": 45166,
  "ev": 32366,
  "evaluate": 18388,
  "even": 6241,
  "event": 28938,
  "ever": 889,
  "evers": 48400,
  "every": 13550,
  "everyone": 23648,
  "everything": 45484,
  "evid": 48960,
  "evidence": 49489,
  "evidencesupporting": 49551,
  "ew": 7053,
  "ex": 2995,
  "examine": 16718,
  "example": 20860,
  "examples": 34011,
  "exc": 42062,
  "excel": 44934,
  "exception": 44140,
  "excessive": 29478,
  "exec": 47153,
  "exer": 15957,
  "exercise": 17248,
  "exercising": 39522,
  "exfol": 31667,
  "exfoliate": 34708,
  "exist": 41389,
  "existing": 25796,
  "exit": 37110,
  "exp": 29790,
  "expand": 40921,
  "expect": 25929,
  "exper": 24450,
  "experience": 39538,
  "experiment": 35630,
  "expl": 15727,
  "explain": 22806,
  "explained": 41487,
  "explore": 23297,
  "explorer": 38086,
  "export": 34797,
  "exposure": 47650,
  "express": 27776,
  "ext": 5733,
  "extend": 49323,
  "extra": 43088,
  "extreme": 35155,
  "ey": 10576,
  "eye": 26377,
  "eyes": 44224,
  "ez": 20514,
  "ezing": 16082,
  "f": 74,
  "fa": 17458,
  "fab": 24531,
  "fabric": 27968,
  "fac": 28660,
  "face": 7193,
  "facebook": 31577,
  "facial": 40644,
  "fact": 3131,
  "faction": 24911,
  "factor": 23947,
  "factory": 28534,
  "fah": 18412,
  "fail": 33621,
  "failure": 45953,
  "fainting": 48963,
  "fair": 39844,
  "fake": 45596,
  "fal": 28836,
  "fall": 8942,
  "falls": 42141,
  "false": 33053,
  "fam": 18174,
  "familiar": 19885,
  "familiarize": 20327,
  "family": 19557,
  "fan": 30143,
  "far": 31719,
  "fare": 17755,
  "fares": 46471,
  "farin": 25578,
  "farm": 39058,
  "fashion": 43211,
  "fast": 4268,
  "fasten": 36318,
  "fat": 16050,
  "father": 21656,
  "fatig": 25127,
  "fatigue": 29234,
  "fatty": 42491,
  "favor": 35453,
  "favorite": 43918,
  "fax": 28661,
  "fc": 25577,
  "fd": 47403,
  "fe": 437,
  "fear": 38153,
  "fect": 708,
  "fection": 16266,
  "fections": 44851,
  "fed": 20381,
  "federal": 35424,
  "fee": 27600,
  "feed": 12396,
  "feedback": 23425,
  "feeding": 23768,
  "feel": 19862,
  "feeling": 17133,
  "feelings": 29938,
  "fees": 47500,
  "feet": 31739,
  "feit": 17409,
  "feld": 38891,
  "felt": 20976,
  "female": 36619,
  "femin": 45664,
  "fen": 29839,
  "fer": 1094,
  "fere": 706,
  "fered": 30579,
  "feree": 17219,
  "feren": 31896,
  "ference": 2990,
  "ferences": 3426,
  "ferencing": 34710,
  "ferent": 15405,
  "ferential": 33748,
  "fers": 8985,
  "fert": 44738,
  "fest": 36808,
  "fever": 22396,
  "few": 16868,
  "ff": 837,
  "ffe": 1970,
  "ffect": 1137,
  "ffected": 27468,
  "ffective": 13956,
  "ffee": 2482,
  "ffen": 35519,
  "ffered": 11762,
  "ffic": 4208,
  "fficial": 28370,
  "fficient": 15310,
  "fficients": 20789,
  "ffind": 36459,
  "ffle": 11094,
  "ffles": 12932,
  "fib": 38348,
  "fic": 1272,
  "fiction": 16364,
  "ficult": 1474,
  "ficulty": 18874,
  "fied": 17305,
  "field": 12574,
  "fields": 38547,
  "fig": 9725,
  "fight": 30057,
  "figure": 12764,
  "figuring": 48778,
  "fil": 20975,
  "fild": 48962,
  "file": 15418,
  "files": 27903,
  "fill": 4962,
  "filled": 29143,
  "filling": 41110,
  "fills": 36589,
  "film": 34525,
  "filter": 36002,
  "fin": 11079,
  "final": 35851,
  "finally": 42801,
  "finan": 29410,
  "financial": 29837,
  "find": 3857,
  "finder": 18708,
  "finding": 28283,
  "fine": 20357,
  "fing": 17822,
  "finger": 39590,
  "fingers": 41174,
  "finish": 33308,
  "finished": 49944,
  "fir": 19856,
  "fire": 8152,
  "firefox": 35168,
  "fires": 27205,
  "firing": 49563,
  "firm": 44347,
  "first": 8444,
  "firstly": 38041,
  "fish": 5711,
  "fishing": 33340,
  "fit": 19066,
  "fitness": 33319,
  "fits": 35452,
  "five": 35238,
  "fix": 13698,
  "fixed": 48811,
  "fk": 39589,
  "fl": 3318,
  "flag": 43387,
  "flash": 25988,
  "flat": 28991,
  "flav": 48679,
  "flax": 37522,
  "fle": 47404,
  "flex": 36809,
  "flies": 25204,
  "flight": 47912,
  "flip": 19339,
  "flirt": 46689,
  "flix": 10718,
  "flo": 16582,
  "floor": 20543,
  "flor": 48150,
  "flour": 47166,
  "flow": 7994,
  "flower": 9733,
  "flowers": 16610,
  "flows": 38481,
  "flu": 24861,
  "fluid": 45101,
  "flush": 49265,
  "fly": 18739,
  "fm": 40951,
  "fo": 3802,
  "foam": 11921,
  "focus": 13802,
  "focused": 32335,
  "focusing": 47768,
  "foil": 25608,
  "fol": 4050,
  "fold": 6449,
  "folder": 23998,
  "folders": 27558,
  "folk": 46246,
  "follow": 10175,
  "following": 40034,
  "fone": 41236,
  "font": 33339,
  "fonts": 39329,
  "food": 14688,
  "foods": 25751,
  "foot": 13412,
  "for": 2418,
  "force": 4080,
  "forceable": 40823,
  "ford": 14439,
  "fore": 590,
  "foreign": 46580,
  "forestation": 43656,
  "forge": 34155,
  "forget": 39709,
  "fork": 29533,
  "form": 714,
  "formal": 45690,
  "format": 26759,
  "formin": 41666,
  "forms": 40208,
  "fort": 1119,
  "fortunately": 32972,
  "forward": 10054,
  "found": 22895,
  "foundation": 41856,
  "four": 27204,
  "fox": 27974,
  "fr": 2666,
  "fra": 40668,
  "frac": 6903,
  "frame": 13397,
  "frames": 29684,
  "frank": 48661,
  "fre": 36212,
  "free": 15668,
  "freeze": 33061,
  "french": 34240,
  "frequ": 23700,
  "frequency": 38087,
  "frequent": 31124,
  "fresh": 20329,
  "friday": 41727,
  "frie": 28107,
  "fried": 36119,
  "friend": 4284,
  "friended": 46396,
  "friending": 32635,
  "friends": 13139,
  "fro": 28482,
  "frog": 36590,
  "frogs": 38598,
  "from": 14128,
  "front": 9297,
  "frontal": 43109,
  "fronts": 45762,
  "frost": 37881,
  "frozen": 42216,
  "fru": 22230,
  "fruit": 10577,
  "fruits": 23654,
  "fry": 35451,
  "fs": 8590,
  "ft": 638,
  "fter": 45168,
  "fters": 32229,
  "fth": 26449,
  "fting": 6245,
  "fts": 17114,
  "fty": 14302,
  "fu": 8167,
  "fuel": 40015,
  "ful": 768,
  "full": 22809,
  "fully": 1608,
  "fulness": 16006,
  "fun": 29737,
  "function": 10519,
  "functions": 31611,
  "fund": 35852,
  "fundme": 45555,
  "fur": 30345,
  "furn": 41237,
  "furniture": 44719,
  "fus": 38120,
  "fut": 48961,
  "fx": 21696,
  "fy": 10418,
  "fying": 42247,
  "g": 75,
  "ga": 4133,
  "gable": 46914,
  "gae": 9766,
  "gage": 4615,
  "gain": 24373,
  "gainvillea": 44671,
  "gal": 11776,
  "gali": 48248,
  "gall": 35658,
  "gals": 29635,
  "gam": 28319,
  "game": 23017,
  "games": 28571,
  "gamma": 28058,
  "gammon": 42524,
  "gan": 1296,
  "gano": 11095,
  "ganoff": 46625,
  "gany": 24849,
  "gar": 1237,
  "gard": 25205,
  "garden": 40358,
  "garlic": 29276,
  "gars": 29240,
  "gary": 48402,
  "gas": 21816,
  "gast": 45169,
  "gat": 28939,
  "gate": 21463,
  "gated": 40125,
  "gather": 6076,
  "gau": 37640,
  "gb": 13001,
  "gbox": 48964,
  "gd": 37882,
  "ge": 389,
  "gean": 47481,
  "gear": 21315,
  "gebra": 12393,
  "ged": 2975,
  "gee": 14388,
  "gel": 17709,
  "gels": 30921,
  "gen": 3109,
  "gence": 33774,
  "gender": 14270,
  "gener": 41391,
  "general": 23136,
  "generally": 24170,
  "genic": 44939,
  "gens": 46472,
  "gent": 30555,
  "gently": 27575,
  "geon": 42957,
  "ger": 1066,
  "gered": 11491,
  "gerid": 49734,
  "germ": 33930,
  "german": 46872,
  "gers": 4202,
  "gery": 23583,
  "ges": 1602,
  "gest": 4188,
  "gester": 16057,
  "gesterone": 16081,
  "get": 661,
  "gethe": 47027,
  "gether": 994,
  "getic": 10446,
  "getically": 41309,
  "gets": 10838,
  "getting": 17508,
  "gg": 860,
  "gged": 5115,
  "gger": 21520,
  "ggers": 24491,
  "ggest": 2331,
  "gginess": 37488,
  "gging": 4402,
  "ggings": 10387,
  "ggle": 8440,
  "ggled": 40754,
  "ggles": 9918,
  "ggling": 16909,
  "ggly": 36460,
  "ggs": 19594,
  "ggy": 9982,
  "gh": 458,
  "ghan": 32401,
  "ghed": 26731,
  "ghost": 48507,
  "ghum": 31284,
  "ghz": 39642,
  "gi": 5555,
  "gia": 12379,
  "gian": 18059,
  "gic": 15517,
  "gie": 10688,
  "gier": 31135,
  "gies": 17562,
  "gin": 950,
  "gina": 20456,
  "ging": 2919,
  "ginger": 37518,
  "gings": 41238,
  "gio": 45994,
  "gir": 18966,
  "girl": 21625,
  "girlfr": 24824,
  "girlfriend": 25632,
  "girls": 29514,
  "gium": 29241,
  "give": 9978,
  "given": 48965,
  "giving": 12880,
  "gl": 9418,
  "glas": 36950,
  "glass": 10058,
  "glasses": 21383,
  "gle": 1691,
  "gled": 39591,
  "glers": 45171,
  "gles": 15006,
  "gling": 11574,
  "glitter": 45850,
  "glo": 30346,
  "gloss": 25076,
  "glove": 47405,
  "gloves": 39818,
  "glow": 43447,
  "glue": 19394,
  "gly": 8369,
  "glyce": 15172,
  "glycemia": 16613,
  "gm": 17422,
  "gmail": 34090,
  "gmcosa": 41841,
  "gment": 4209,
  "gments": 10398,
  "gmll": 32203,
  "gmlls": 45902,
  "gms": 40400,
  "gmy": 42248,
  "gn": 1358,
  "gne": 45170,
  "go": 2139,
  "goal": 47126,
  "goals": 43725,
  "god": 36591,
  "goers": 36662,
  "gogo": 46474,
  "going": 5979,
  "gol": 39059,
  "gold": 19484,
  "golden": 44275,
  "gom": 48401,
  "gon": 11167,
  "goo": 18761,
  "good": 18614,
  "google": 20968,
  "gor": 15005,
  "gorith": 16974,
  "gos": 21419,
  "got": 46913,
  "goth": 46915,
  "goto": 41898,
  "gover": 45348,
  "govern": 42046,
  "government": 43939,
  "gow": 49564,
  "gown": 37229,
  "gp": 25579,
  "gr": 902,
  "gra": 34548,
  "grab": 16153,
  "grad": 9024,
  "gradable": 21843,
  "grade": 15425,
  "grades": 39149,
  "grading": 28513,
  "graduate": 11378,
  "grain": 26894,
  "gram": 1248,
  "grams": 12547,
  "gran": 14147,
  "grand": 30450,
  "grap": 4218,
  "grape": 44348,
  "grapes": 36509,
  "graph": 3583,
  "graphed": 43075,
  "grapher": 30854,
  "graphers": 41751,
  "graphia": 48684,
  "graphic": 9560,
  "graphical": 14858,
  "graphically": 33000,
  "graphics": 16296,
  "graphies": 22507,
  "graphs": 32854,
  "graphy": 5742,
  "grasp": 44874,
  "grass": 15703,
  "grat": 47554,
  "grate": 23171,
  "gray": 39148,
  "gre": 13602,
  "grease": 25325,
  "greased": 31356,
  "great": 35239,
  "green": 13191,
  "greens": 23510,
  "greet": 38286,
  "greg": 14299,
  "gres": 47913,
  "gress": 2417,
  "gression": 13287,
  "gressions": 37102,
  "gressive": 36671,
  "grey": 49390,
  "grid": 43677,
  "grind": 33386,
  "grip": 30284,
  "gro": 31003,
  "groom": 34717,
  "grou": 9038,
  "ground": 2654,
  "grounds": 11533,
  "group": 16168,
  "groups": 33883,
  "grow": 16181,
  "growing": 40757,
  "grown": 17376,
  "growth": 26362,
  "grub": 49723,
  "gs": 3495,
  "gu": 6497,
  "guard": 12427,
  "guarded": 48804,
  "guardian": 42159,
  "guardians": 42807,
  "guards": 24928,
  "gue": 14560,
  "gues": 46473,
  "guess": 49897,
  "gui": 49338,
  "guide": 42773,
  "guided": 35377,
  "guit": 49565,
  "gum": 28662,
  "gun": 7527,
  "guns": 45446,
  "gur": 22579,
  "gust": 16896,
  "guy": 40003,
  "guys": 47701,
  "gx": 38349,
  "gy": 5930,
  "gyn": 22962,
  "gynous": 38583,
  "gypt": 16062,
  "h": 76,
  "ha": 7558,
  "hab": 30671,
  "hack": 39845,
  "had": 40953,
  "haft": 44199,
  "hair": 13763,
  "haired": 42455,
  "hal": 19067,
  "hale": 28146,
  "halexin": 40642,
  "half": 31493,
  "hall": 34718,
  "halose": 44272,
  "ham": 9015,
  "hammer": 24183,
  "han": 19767,
  "hand": 4239,
  "handle": 32169,
  "hands": 41752,
  "hang": 23861,
  "happy": 44740,
  "haps": 3344,
  "har": 18060,
  "hard": 21268,
  "hare": 17032,
  "haring": 44350,
  "hark": 28405,
  "harm": 48966,
  "harp": 44268,
  "hart": 25341,
  "harvest": 32620,
  "has": 4777,
  "hasic": 43775,
  "hat": 17524,
  "haul": 30214,
  "haus": 43809,
  "haust": 47914,
  "have": 6425,
  "haven": 47915,
  "having": 12093,
  "hawk": 48967,
  "hay": 44739,
  "hazard": 37884,
  "hc": 42249,
  "hd": 7894,
  "hdisplaystyle": 38621,
  "he": 263,
  "hea": 5619,
  "head": 2104,
  "headache": 31192,
  "headaches": 32702,
  "headed": 16091,
  "heads": 10293,
  "heal": 28842,
  "health": 26228,
  "healthy": 35668,
  "hear": 48993,
  "hearing": 44366,
  "heart": 11688,
  "hearted": 16720,
  "heartedly": 40061,
  "heast": 15288,
  "heat": 4089,
  "heated": 10419,
  "heating": 46014,
  "heav": 23072,
  "heavy": 28477,
  "hed": 937,
  "hedral": 33389,
  "hedrine": 35523,
  "hedron": 45302,
  "hee": 15559,
  "heet": 21737,
  "heets": 44751,
  "height": 31616,
  "heim": 15085,
  "heit": 5535,
  "hel": 10413,
  "held": 11299,
  "helf": 14689,
  "hell": 15832,
  "hello": 29034,
  "hells": 16841,
  "helm": 37153,
  "help": 17420,
  "helper": 39248,
  "helping": 47744,
  "helves": 20928,
  "hem": 13460,
  "hemian": 21894,
  "hemp": 49580,
  "hen": 5343,
  "henhydramine": 27333,
  "henol": 46270,
  "hens": 24139,
  "hent": 7363,
  "her": 355,
  "herbs": 39361,
  "here": 4373,
  "hered": 7106,
  "herence": 31144,
  "herent": 12659,
  "heres": 19069,
  "heric": 28956,
  "hering": 17164,
  "hern": 8353,
  "hernal": 32254,
  "hero": 17199,
  "hers": 5478,
  "herself": 41943,
  "hertz": 47966,
  "hes": 687,
  "hese": 39854,
  "heses": 11654,
  "heshe": 49701,
  "hesia": 34756,
  "hesians": 33818,
  "hesis": 9752,
  "hest": 4702,
  "het": 3663,
  "hetic": 4958,
  "hetical": 18676,
  "hetically": 33421,
  "hetics": 24306,
  "hex": 34406,
  "hexidine": 27668,
  "hey": 24612,
  "hf": 42555,
  "hg": 29636,
  "hh": 22481,
  "hi": 13603,
  "hib": 38350,
  "hibited": 48920,
  "hid": 30899,
  "hide": 19089,
  "hides": 40401,
  "hidrosis": 33332,
  "hift": 18250,
  "hig": 42556,
  "high": 13853,
  "higher": 48933,
  "highlight": 32608,
  "hiking": 36746,
  "hill": 13612,
  "him": 23338,
  "hine": 13727,
  "hing": 581,
  "hings": 31847,
  "hip": 974,
  "hips": 5891,
  "hire": 11220,
  "hires": 27366,
  "hirt": 15307,
  "hirts": 26220,
  "his": 21075,
  "hist": 8597,
  "history": 32329,
  "hit": 23860,
  "hkey": 33622,
  "hl": 16101,
  "hm": 40952,
  "hma": 7693,
  "hn": 16051,
  "hns": 15317,
  "ho": 2117,
  "hob": 13051,
  "hobia": 25943,
  "hobic": 29607,
  "hock": 39330,
  "hode": 34787,
  "hoe": 18424,
  "hoes": 23497,
  "hog": 13135,
  "hogany": 24981,
  "hol": 2019,
  "hold": 3232,
  "holder": 16254,
  "holders": 12771,
  "holding": 34016,
  "hole": 10920,
  "holes": 20531,
  "holic": 15601,
  "holics": 31062,
  "home": 16583,
  "hon": 16172,
  "hone": 25342,
  "honey": 28059,
  "hoo": 37883,
  "hood": 3562,
  "hook": 28940,
  "hoot": 11387,
  "hoots": 45753,
  "hop": 7213,
  "hope": 39952,
  "hopefully": 48925,
  "hopping": 39190,
  "hops": 14461,
  "hor": 12117,
  "hore": 44349,
  "horm": 46916,
  "horn": 27365,
  "horse": 34847,
  "horses": 41899,
  "hort": 29432,
  "hortness": 41540,
  "hose": 16437,
  "hosp": 45995,
  "host": 6495,
  "hosting": 48739,
  "hot": 7181,
  "hots": 14013,
  "hou": 12756,
  "hould": 37230,
  "hound": 18439,
  "hounds": 24083,
  "hour": 32367,
  "house": 7498,
  "household": 42780,
  "houses": 19140,
  "housing": 38622,
  "hovah": 38213,
  "hover": 42044,
  "how": 4021,
  "hower": 38620,
  "however": 20319,
  "hows": 18045,
  "hp": 26516,
  "hq": 45597,
  "hr": 12271,
  "hrase": 22666,
  "hrop": 31004,
  "hrs": 49566,
  "hs": 11049,
  "ht": 9783,
  "html": 30976,
  "http": 42475,
  "hu": 11635,
  "hua": 37159,
  "huahu": 14233,
  "hub": 36213,
  "hum": 13972,
  "human": 30766,
  "hun": 24606,
  "hunt": 41577,
  "hunter": 32481,
  "hunters": 40907,
  "hus": 7488,
  "hy": 1784,
  "hyd": 31188,
  "hyde": 20759,
  "hydr": 3219,
  "hydramine": 27325,
  "hydrate": 36311,
  "hydration": 35136,
  "hydro": 32564,
  "hydrogen": 41213,
  "hydrous": 45950,
  "hygi": 37975,
  "hyl": 19032,
  "hylo": 34618,
  "hyper": 29285,
  "hyse": 30299,
  "hyth": 19103,
  "hz": 20805,
  "i": 77,
  "ia": 952,
  "iabetes": 33624,
  "iable": 5382,
  "iably": 48968,
  "iac": 8843,
  "iacs": 44604,
  "iae": 34292,
  "iage": 4100,
  "iages": 16233,
  "iagnosed": 33775,
  "iago": 38121,
  "iah": 20756,
  "ial": 667,
  "ialed": 43679,
  "ially": 2600,
  "ials": 7360,
  "ialyte": 30584,
  "iam": 29637,
  "ian": 1605,
  "iana": 17972,
  "ianc": 21086,
  "iance": 10759,
  "iances": 8542,
  "iander": 14078,
  "iann": 37501,
  "iano": 33399,
  "ians": 4027,
  "iant": 6528,
  "iantly": 44351,
  "iants": 25273,
  "iar": 14105,
  "iaries": 43570,
  "iarr": 39592,
  "iary": 15238,
  "ias": 5170,
  "iasis": 10933,
  "iasm": 12375,
  "iat": 5694,
  "iate": 1013,
  "iated": 9368,
  "iateness": 39474,
  "iates": 17198,
  "iatic": 24772,
  "iating": 6354,
  "iation": 4102,
  "iations": 9660,
  "iative": 44741,
  "iator": 6921,
  "iators": 15029,
  "iatric": 8462,
  "iatrics": 28116,
  "iaz": 18377,
  "iazep": 22852,
  "iazide": 41846,
  "ib": 727,
  "iba": 34281,
  "ibal": 36272,
  "ibar": 45692,
  "ibble": 9495,
  "ibbling": 18015,
  "ibe": 18927,
  "iber": 3161,
  "ibery": 45377,
  "ibilit": 49149,
  "ibilities": 4683,
  "ibility": 2505,
  "ibit": 6447,
  "ible": 760,
  "ibles": 41319,
  "ibly": 3480,
  "ibos": 45693,
  "ibr": 16907,
  "ibrary": 30431,
  "ibrill": 39275,
  "ibrium": 23469,
  "ibu": 47537,
  "ibular": 30481,
  "ibut": 23625,
  "ic": 308,
  "ica": 11269,
  "icable": 26160,
  "icably": 36040,
  "ical": 721,
  "ically": 1033,
  "icals": 19863,
  "icam": 42280,
  "ican": 32386,
  "icapped": 35008,
  "icate": 7300,
  "icated": 20111,
  "icates": 49622,
  "icating": 37669,
  "ication": 15562,
  "ications": 22147,
  "icative": 49623,
  "icator": 49033,
  "ice": 496,
  "iced": 3375,
  "icella": 47005,
  "icep": 43611,
  "ices": 1011,
  "ich": 596,
  "icha": 46582,
  "iche": 6896,
  "iches": 9092,
  "ichever": 7802,
  "ichi": 42316,
  "ichl": 25713,
  "icholinerg": 41660,
  "ichu": 26987,
  "ichÃ©": 17002,
  "ici": 5158,
  "icia": 38870,
  "icial": 18620,
  "ician": 4671,
  "icians": 9813,
  "icidal": 10633,
  "icide": 6143,
  "icides": 13379,
  "iciency": 18989,
  "icient": 3606,
  "icil": 25522,
  "icill": 49032,
  "icillin": 27217,
  "icin": 31155,
  "icing": 3486,
  "icion": 35474,
  "icious": 6910,
  "icip": 5896,
  "icit": 9933,
  "icitis": 28675,
  "icity": 17708,
  "ick": 456,
  "icked": 23355,
  "icken": 25148,
  "icking": 1983,
  "ickle": 39640,
  "ickness": 39641,
  "icks": 6417,
  "icky": 20553,
  "icle": 2022,
  "iclean": 41370,
  "icles": 2976,
  "iclo": 37668,
  "iclovir": 39050,
  "ico": 16216,
  "icon": 16261,
  "icone": 28848,
  "icons": 20944,
  "icose": 29647,
  "icoster": 11539,
  "ics": 1315,
  "ict": 979,
  "icted": 9891,
  "icter": 28327,
  "icting": 18619,
  "iction": 3032,
  "ictional": 45703,
  "ictions": 9508,
  "ictor": 36874,
  "ictorian": 43196,
  "icts": 16655,
  "icul": 27590,
  "icular": 7862,
  "icularly": 44201,
  "iculitis": 31480,
  "icum": 24472,
  "icus": 29037,
  "icut": 23255,
  "icy": 4902,
  "id": 336,
  "ida": 8510,
  "idable": 49047,
  "idad": 41623,
  "idal": 8568,
  "idas": 30463,
  "idate": 39621,
  "idated": 40157,
  "idav": 9107,
  "iday": 31632,
  "idazole": 31392,
  "idd": 1635,
  "idded": 29079,
  "idden": 5017,
  "idders": 30092,
  "idding": 13172,
  "iddish": 38453,
  "iddle": 1924,
  "iddles": 44899,
  "ide": 441,
  "ideally": 28082,
  "idectomy": 44024,
  "ided": 2427,
  "idel": 17885,
  "idels": 36432,
  "idem": 29555,
  "idemic": 41288,
  "idemux": 43907,
  "idence": 2006,
  "idences": 38653,
  "ident": 1909,
  "idential": 27825,
  "identify": 8311,
  "identifying": 44909,
  "idently": 48473,
  "idents": 7614,
  "idepress": 10320,
  "ider": 758,
  "idered": 3217,
  "ideriv": 38688,
  "iders": 4861,
  "ides": 1231,
  "idge": 3410,
  "idges": 10698,
  "idi": 42598,
  "idian": 18085,
  "idine": 22771,
  "iding": 2159,
  "idious": 44793,
  "idisplaystyle": 32661,
  "idium": 27062,
  "idized": 44004,
  "ido": 27061,
  "idone": 41272,
  "idor": 36606,
  "idosis": 41937,
  "ids": 1394,
  "idy": 31515,
  "ie": 423,
  "iece": 19861,
  "ieces": 33077,
  "ied": 982,
  "ief": 2216,
  "iel": 11093,
  "ield": 1705,
  "ieldy": 33402,
  "iels": 15348,
  "iem": 40720,
  "ien": 9332,
  "ience": 1139,
  "iences": 9962,
  "iencies": 43952,
  "iency": 27052,
  "iend": 3267,
  "iends": 9742,
  "iens": 31985,
  "ient": 1261,
  "iently": 14206,
  "iento": 44888,
  "ients": 1235,
  "ier": 918,
  "iera": 45701,
  "iere": 22151,
  "ieres": 41957,
  "iers": 3955,
  "iery": 33526,
  "ies": 483,
  "iesel": 39647,
  "iess": 32922,
  "iest": 3132,
  "iesta": 45770,
  "iesthe": 34014,
  "iet": 2935,
  "ieth": 38841,
  "iety": 2752,
  "iev": 14801,
  "ievable": 11360,
  "ievably": 41832,
  "ieval": 19746,
  "ieve": 1684,
  "ieved": 6221,
  "iever": 35885,
  "ievers": 41639,
  "ieves": 8179,
  "ieving": 5571,
  "iew": 1012,
  "if": 420,
  "ifa": 49085,
  "ifax": 18791,
  "ife": 2307,
  "ifen": 49086,
  "ifer": 15747,
  "iferous": 29417,
  "ifers": 23312,
  "iff": 2795,
  "iffer": 31638,
  "ifficulty": 32397,
  "iffs": 33857,
  "iffy": 32160,
  "ifi": 32526,
  "ifiable": 15434,
  "ific": 822,
  "ificant": 22281,
  "ification": 2569,
  "ifications": 5061,
  "ifice": 12871,
  "ified": 2090,
  "ifier": 6195,
  "ifiers": 11970,
  "ifies": 6850,
  "ifine": 44804,
  "ifix": 39111,
  "iflor": 49087,
  "iflower": 9830,
  "ifolia": 43267,
  "iform": 5747,
  "iforn": 6980,
  "ift": 2111,
  "iftc": 37687,
  "ifted": 33216,
  "ifter": 30923,
  "ifters": 41956,
  "ifting": 11029,
  "ifts": 18871,
  "ifty": 25843,
  "iful": 4522,
  "ifully": 20589,
  "ify": 1145,
  "ifying": 4956,
  "ifys": 47989,
  "ig": 338,
  "iga": 49049,
  "igan": 11335,
  "igans": 19795,
  "igap": 47470,
  "igar": 47469,
  "igas": 40158,
  "igate": 3615,
  "igated": 46528,
  "igating": 26816,
  "igation": 5076,
  "ige": 12151,
  "igen": 22980,
  "igent": 44399,
  "iger": 2944,
  "iges": 45641,
  "igested": 39360,
  "igh": 375,
  "ighb": 3384,
  "ighed": 18841,
  "ight": 392,
  "ighted": 29963,
  "ightedness": 36018,
  "ighten": 46982,
  "ighter": 3120,
  "ighters": 12503,
  "ightly": 1708,
  "ights": 26980,
  "igi": 21509,
  "igible": 25021,
  "igigas": 45218,
  "igious": 20623,
  "igis": 48474,
  "igma": 14236,
  "igmas": 36829,
  "igmat": 24953,
  "ign": 651,
  "ignant": 25221,
  "igned": 11435,
  "ignment": 13244,
  "ignon": 22586,
  "ignore": 29263,
  "igns": 40744,
  "igo": 18691,
  "igong": 28676,
  "igor": 6654,
  "igos": 45642,
  "igr": 6671,
  "igrade": 44191,
  "igram": 40703,
  "igrams": 14720,
  "igrant": 35380,
  "igrap": 19473,
  "igrate": 39098,
  "igration": 10243,
  "igs": 5638,
  "iguous": 33649,
  "ih": 11849,
  "ihood": 36025,
  "ii": 14862,
  "iii": 49395,
  "ij": 26297,
  "ija": 34719,
  "ijo": 49568,
  "ik": 3056,
  "ika": 11580,
  "ike": 2632,
  "iken": 34799,
  "iki": 14594,
  "iko": 34013,
  "ikon": 44936,
  "iks": 27285,
  "ikum": 48666,
  "il": 368,
  "ila": 13209,
  "ilac": 45649,
  "ilament": 32393,
  "iland": 49061,
  "ilant": 8719,
  "ilanthrop": 31091,
  "ilantro": 11452,
  "ilar": 1777,
  "ilate": 29550,
  "ilated": 35079,
  "ilater": 47474,
  "ilateral": 34429,
  "ilating": 37260,
  "ilation": 20660,
  "ild": 585,
  "ilde": 32271,
  "ile": 491,
  "iled": 2751,
  "ilem": 26825,
  "iler": 9355,
  "ilers": 21170,
  "iles": 3024,
  "iless": 44425,
  "ilet": 46563,
  "ili": 2580,
  "ilia": 21632,
  "ilial": 27826,
  "ilian": 46980,
  "ilians": 32045,
  "iliar": 3168,
  "iliary": 25103,
  "iliate": 14227,
  "iliation": 25541,
  "ilic": 42292,
  "ilies": 5853,
  "iling": 3616,
  "ilings": 18998,
  "ilingual": 31203,
  "ilion": 33653,
  "ilis": 20875,
  "ilit": 3966,
  "ilitary": 39730,
  "ilitating": 22127,
  "ilitation": 12629,
  "ilities": 2475,
  "ilitis": 47665,
  "ility": 1118,
  "ilize": 5575,
  "ilized": 10623,
  "ilk": 1758,
  "ill": 332,
  "illa": 3701,
  "illah": 45216,
  "illance": 22770,
  "illaries": 30800,
  "illary": 24271,
  "illas": 10689,
  "ille": 9937,
  "illed": 3298,
  "illery": 34112,
  "illes": 20054,
  "illet": 5079,
  "illi": 42943,
  "illin": 19706,
  "illing": 11367,
  "illion": 31728,
  "illo": 24145,
  "illon": 21272,
  "illos": 26038,
  "ills": 1554,
  "illus": 23123,
  "illy": 6628,
  "ilm": 43257,
  "ilo": 7056,
  "ilol": 49062,
  "ilon": 17945,
  "iloqu": 42777,
  "iloso": 8998,
  "ilot": 31024,
  "ils": 3987,
  "ilst": 12747,
  "ilt": 2985,
  "ilter": 25352,
  "iltered": 30363,
  "ilton": 27913,
  "iluted": 24035,
  "ilver": 22939,
  "ily": 718,
  "im": 356,
  "ima": 24427,
  "imag": 9563,
  "image": 23154,
  "images": 48479,
  "imagesthumb": 36535,
  "imagine": 26709,
  "imal": 7287,
  "imals": 20386,
  "iman": 44400,
  "imap": 42948,
  "imate": 2787,
  "imately": 3114,
  "imbur": 13714,
  "ime": 2017,
  "imedia": 23078,
  "imen": 8530,
  "imens": 20336,
  "iment": 2660,
  "imental": 12252,
  "imentary": 40810,
  "iments": 5931,
  "imer": 33361,
  "imes": 1490,
  "imet": 32391,
  "imeter": 7384,
  "imeters": 13435,
  "imi": 31395,
  "imia": 19859,
  "imic": 18942,
  "imicrob": 20143,
  "imilar": 35077,
  "imity": 14848,
  "imm": 11878,
  "immediate": 36350,
  "immediately": 39572,
  "immer": 38655,
  "immigrant": 35605,
  "imming": 29960,
  "immune": 17932,
  "imo": 26039,
  "imod": 49640,
  "imon": 13819,
  "imony": 7931,
  "imos": 47967,
  "imp": 5862,
  "impl": 42289,
  "imple": 35275,
  "imply": 40436,
  "import": 16425,
  "important": 19880,
  "impro": 23155,
  "improve": 29021,
  "imps": 28079,
  "ims": 12787,
  "imsy": 19787,
  "imum": 49639,
  "imus": 34426,
  "in": 264,
  "ina": 4503,
  "inability": 32115,
  "inacea": 19562,
  "inal": 1679,
  "inals": 15534,
  "inarily": 33780,
  "inary": 4220,
  "inas": 30456,
  "inate": 2909,
  "inated": 5019,
  "inates": 8924,
  "inating": 5684,
  "ination": 1850,
  "inational": 47621,
  "inations": 5023,
  "inator": 8198,
  "inators": 17731,
  "inb": 48994,
  "inburgh": 41251,
  "inc": 5942,
  "ince": 13517,
  "incense": 29915,
  "incere": 22926,
  "inch": 28322,
  "inches": 43587,
  "inching": 48418,
  "include": 17477,
  "including": 29101,
  "income": 37020,
  "incor": 31944,
  "incorpor": 47859,
  "incorporate": 39556,
  "incre": 15686,
  "increase": 23512,
  "increased": 22302,
  "increasing": 43850,
  "inct": 4695,
  "inction": 19172,
  "inctions": 39069,
  "ind": 438,
  "indale": 47501,
  "indamycin": 41004,
  "inde": 49092,
  "inder": 4169,
  "index": 32668,
  "individ": 32947,
  "individual": 48346,
  "individuals": 41217,
  "indows": 43635,
  "indust": 47995,
  "ine": 453,
  "inea": 5196,
  "ineas": 37047,
  "ined": 1993,
  "inee": 36846,
  "ineering": 41645,
  "inem": 26454,
  "inement": 29346,
  "inence": 23200,
  "inent": 8575,
  "iner": 3482,
  "ineral": 34245,
  "iners": 19049,
  "ines": 1101,
  "inese": 7808,
  "iness": 1020,
  "inest": 12969,
  "inet": 16672,
  "inets": 35861,
  "inette": 35669,
  "ineurin": 44812,
  "inex": 40727,
  "inf": 26736,
  "infect": 6981,
  "infected": 44591,
  "infection": 46294,
  "infl": 27289,
  "inflamm": 40366,
  "inflammation": 47881,
  "info": 31991,
  "inform": 15289,
  "informal": 45884,
  "information": 19466,
  "informed": 33896,
  "infty": 22814,
  "ing": 284,
  "ingale": 35068,
  "inge": 6100,
  "inged": 24779,
  "ingen": 37659,
  "inger": 4047,
  "ingers": 35674,
  "inges": 10943,
  "inging": 34102,
  "ingle": 16395,
  "ingles": 44376,
  "ings": 541,
  "ington": 32798,
  "ingu": 7691,
  "inguish": 31687,
  "inguishable": 43185,
  "inhale": 46944,
  "ini": 6092,
  "inia": 47928,
  "inian": 39070,
  "inine": 23863,
  "ining": 2409,
  "inis": 13699,
  "inished": 17487,
  "init": 25080,
  "initial": 38588,
  "initiate": 49458,
  "initis": 25081,
  "inity": 9098,
  "inja": 46492,
  "inject": 48995,
  "ink": 599,
  "inking": 2924,
  "inkle": 16622,
  "inks": 15338,
  "inky": 18399,
  "inn": 27978,
  "ino": 5034,
  "inoa": 10141,
  "inois": 16986,
  "inoplasty": 49874,
  "inos": 17902,
  "inous": 33938,
  "inox": 33939,
  "input": 26378,
  "inputstream": 32237,
  "inqu": 16309,
  "inquire": 45895,
  "ins": 1343,
  "inse": 2310,
  "inseed": 24679,
  "insert": 16105,
  "insic": 23884,
  "inside": 38708,
  "inson": 32551,
  "insons": 21025,
  "inspect": 25161,
  "inst": 11934,
  "install": 6116,
  "installed": 22023,
  "installing": 49329,
  "instead": 15556,
  "instru": 46943,
  "insurance": 36093,
  "int": 672,
  "inte": 22489,
  "intel": 48552,
  "intend": 13592,
  "intense": 48553,
  "inter": 9224,
  "interest": 8516,
  "interested": 15576,
  "interesting": 28630,
  "intern": 22862,
  "internal": 47421,
  "international": 44286,
  "internet": 27198,
  "interrupt": 21037,
  "inters": 46491,
  "intest": 15193,
  "intestinal": 15278,
  "inth": 21466,
  "inthe": 23982,
  "inthians": 28393,
  "inting": 9997,
  "into": 27531,
  "intosh": 23824,
  "introdu": 14893,
  "introduce": 17775,
  "introduction": 42818,
  "ints": 6519,
  "intu": 22781,
  "intuitive": 23197,
  "inum": 12970,
  "inv": 25834,
  "invent": 38855,
  "inventory": 46885,
  "invest": 19969,
  "investigate": 37185,
  "invite": 28653,
  "invol": 47422,
  "inx": 36594,
  "iny": 3266,
  "inyl": 8216,
  "io": 1327,
  "ioca": 24629,
  "iocentesis": 39161,
  "iod": 1783,
  "iogram": 23037,
  "iography": 17190,
  "iol": 23069,
  "ioles": 47084,
  "iolet": 17627,
  "iologist": 34299,
  "iology": 23631,
  "ion": 315,
  "ional": 1171,
  "ionally": 3249,
  "ionary": 49036,
  "ionate": 48465,
  "iond": 15340,
  "iondo": 38296,
  "ione": 19499,
  "ionic": 31508,
  "ions": 501,
  "iop": 43951,
  "iope": 47587,
  "ior": 1239,
  "iors": 4125,
  "ios": 5503,
  "iose": 34549,
  "iosis": 33623,
  "iosyn": 38249,
  "iot": 3608,
  "iotensin": 38484,
  "iotic": 17400,
  "iotics": 31326,
  "iou": 49567,
  "ious": 905,
  "iously": 13576,
  "ioxid": 7820,
  "ip": 478,
  "ipad": 29759,
  "ipe": 1867,
  "iped": 10666,
  "ipede": 28912,
  "ipedes": 25183,
  "iper": 13543,
  "ipers": 13998,
  "iperspir": 16670,
  "ipher": 11823,
  "iphone": 32527,
  "ipine": 48514,
  "ipital": 46560,
  "iple": 21697,
  "ipod": 35699,
  "ipoo": 34749,
  "ipp": 3775,
  "ipped": 3676,
  "ipper": 5435,
  "ippers": 6969,
  "ipping": 2951,
  "ippings": 12863,
  "ippy": 18912,
  "ipramine": 41964,
  "ips": 1303,
  "ipse": 21244,
  "ipsych": 27149,
  "ipt": 1912,
  "iptan": 43716,
  "ipts": 6820,
  "iqu": 1653,
  "iquantel": 38714,
  "ique": 2137,
  "iques": 3697,
  "iquet": 17996,
  "iquets": 39945,
  "iquette": 13132,
  "iquettes": 32753,
  "ir": 358,
  "ira": 20778,
  "irable": 8391,
  "iracha": 32125,
  "iram": 45648,
  "iramate": 49055,
  "iramine": 44401,
  "iration": 5366,
  "ircle": 20450,
  "ircul": 29850,
  "ird": 1642,
  "ire": 499,
  "irect": 6290,
  "irection": 26390,
  "irector": 39898,
  "irectories": 47367,
  "ired": 1665,
  "ires": 7759,
  "iri": 23970,
  "irical": 26977,
  "irin": 39875,
  "iring": 3529,
  "iris": 48482,
  "irizine": 36609,
  "irk": 21777,
  "irl": 8324,
  "irm": 2821,
  "iro": 30144,
  "iron": 2436,
  "irosis": 32923,
  "irregular": 49054,
  "irrit": 27595,
  "irritability": 35215,
  "irs": 17181,
  "irst": 6202,
  "irt": 1431,
  "irth": 14949,
  "irting": 8471,
  "irts": 3715,
  "irty": 3612,
  "irus": 19995,
  "iry": 27133,
  "is": 321,
  "isa": 22391,
  "isable": 46971,
  "isan": 47462,
  "isation": 22115,
  "isations": 36431,
  "isc": 7899,
  "isclosure": 36941,
  "iscope": 31020,
  "iscus": 17277,
  "ise": 798,
  "ised": 2788,
  "isell": 37485,
  "isellosellasustedes": 39577,
  "isen": 33068,
  "iser": 14387,
  "isers": 20385,
  "ises": 2152,
  "isex": 37942,
  "ish": 716,
  "isha": 28173,
  "ishable": 47034,
  "ished": 1560,
  "isher": 7342,
  "ishers": 11822,
  "ishes": 4245,
  "ishi": 49707,
  "ishing": 2793,
  "ishment": 45691,
  "isian": 46053,
  "isible": 9532,
  "isil": 46970,
  "isin": 35273,
  "ising": 2347,
  "isingly": 47137,
  "ision": 1962,
  "isional": 19144,
  "isions": 3899,
  "isite": 26098,
  "isk": 1387,
  "isl": 12785,
  "ism": 2334,
  "ismo": 44789,
  "isms": 7805,
  "ismus": 40251,
  "iso": 18369,
  "isocial": 24018,
  "isol": 41622,
  "isolate": 47955,
  "isoles": 43149,
  "ison": 3895,
  "isone": 17685,
  "isonic": 40988,
  "isons": 12251,
  "isor": 14479,
  "isors": 20747,
  "isp": 14047,
  "isplaystyle": 10823,
  "iss": 1071,
  "issa": 30291,
  "issan": 48072,
  "issance": 23404,
  "isse": 30068,
  "isserie": 38432,
  "issimo": 44082,
  "ission": 25367,
  "issipp": 25719,
  "issippi": 26088,
  "issory": 29567,
  "issue": 37297,
  "ist": 469,
  "ista": 10683,
  "istan": 26677,
  "istant": 28503,
  "istas": 38401,
  "istatic": 46558,
  "iste": 41963,
  "istent": 26104,
  "ister": 4932,
  "isters": 7732,
  "istic": 2573,
  "istical": 17134,
  "istically": 13341,
  "istics": 5016,
  "istine": 26984,
  "isting": 21557,
  "istrib": 24668,
  "istry": 8063,
  "ists": 2036,
  "isy": 11204,
  "it": 294,
  "ita": 11348,
  "itable": 8237,
  "itably": 16310,
  "itaire": 28212,
  "itake": 30913,
  "ital": 2125,
  "italian": 49229,
  "italop": 42396,
  "italopram": 43207,
  "itals": 8262,
  "itamin": 16084,
  "itamins": 26230,
  "itan": 17664,
  "itance": 35263,
  "itans": 49604,
  "itar": 33492,
  "itarian": 21819,
  "itary": 14054,
  "itas": 15030,
  "itasking": 20443,
  "itate": 5029,
  "itated": 12382,
  "itates": 28150,
  "itating": 17201,
  "itation": 2766,
  "itational": 42276,
  "itations": 7285,
  "itative": 14757,
  "itch": 1508,
  "itched": 13025,
  "itches": 4157,
  "itching": 34459,
  "ite": 543,
  "itech": 48529,
  "ited": 1803,
  "itely": 3984,
  "item": 31857,
  "items": 35469,
  "iter": 10850,
  "iterate": 45033,
  "itering": 49605,
  "iters": 39083,
  "ites": 2008,
  "itex": 39903,
  "ith": 339,
  "ithe": 46962,
  "ither": 1232,
  "ithin": 40159,
  "ithromycin": 41938,
  "ithub": 35482,
  "iti": 19741,
  "itic": 19351,
  "itical": 42275,
  "itidine": 45204,
  "ities": 977,
  "itimate": 44382,
  "itin": 20809,
  "itine": 30914,
  "iting": 1080,
  "ition": 640,
  "itional": 3070,
  "itionally": 24625,
  "itioned": 42976,
  "itions": 1796,
  "itious": 27745,
  "itis": 4378,
  "itish": 48444,
  "itism": 31502,
  "itive": 1301,
  "itiveness": 29348,
  "itives": 8709,
  "itivity": 7297,
  "itize": 30798,
  "itle": 25349,
  "itled": 33352,
  "ito": 8872,
  "itol": 19917,
  "iton": 41259,
  "itone": 31620,
  "itor": 8782,
  "itors": 9276,
  "itory": 10928,
  "itos": 24210,
  "itosis": 45626,
  "itous": 35264,
  "itrac": 39609,
  "itracin": 40121,
  "itrade": 49019,
  "its": 862,
  "itsu": 31901,
  "itt": 13120,
  "itted": 41926,
  "itter": 3097,
  "itters": 15086,
  "itting": 10106,
  "ittle": 23439,
  "itud": 41925,
  "itude": 3516,
  "itudes": 11516,
  "itunes": 33353,
  "iture": 3314,
  "itures": 18510,
  "itus": 16694,
  "itution": 28951,
  "ity": 534,
  "itz": 10529,
  "itzer": 20211,
  "itzerland": 23911,
  "iu": 45598,
  "ium": 1538,
  "iumph": 26900,
  "iums": 25857,
  "ius": 4532,
  "iv": 523,
  "iva": 9129,
  "ivable": 17309,
  "ivably": 40447,
  "ivaids": 27792,
  "ival": 5480,
  "ivals": 12778,
  "ivan": 31034,
  "ivate": 8917,
  "ivated": 20249,
  "ivating": 24152,
  "ivation": 15477,
  "ive": 411,
  "ived": 3392,
  "ively": 3765,
  "iven": 9045,
  "iveness": 5218,
  "iver": 2765,
  "ivered": 41281,
  "ivers": 2560,
  "iverse": 11571,
  "iversity": 23180,
  "ives": 1883,
  "ivet": 20719,
  "ivetouch": 35819,
  "ivia": 36061,
  "ivid": 1765,
  "ivided": 21398,
  "iving": 2529,
  "ivings": 48523,
  "ivir": 9600,
  "ivisor": 48524,
  "ivities": 15867,
  "ivitis": 15219,
  "ivity": 3647,
  "ivo": 32134,
  "ivol": 26985,
  "ivore": 31405,
  "ivores": 21318,
  "ivorous": 26678,
  "iw": 12010,
  "iway": 34091,
  "ix": 840,
  "ixt": 42557,
  "ixture": 1520,
  "iy": 19615,
  "iyaki": 30237,
  "iz": 526,
  "izable": 11950,
  "izant": 36260,
  "izard": 37698,
  "ization": 3630,
  "izations": 12496,
  "ize": 750,
  "ized": 1485,
  "izen": 41294,
  "izens": 49110,
  "izer": 3197,
  "izers": 7470,
  "izes": 3115,
  "izine": 30930,
  "izing": 2434,
  "izo": 33225,
  "izon": 11614,
  "izor": 49109,
  "izz": 2884,
  "izzard": 24568,
  "izzards": 37989,
  "izziness": 26553,
  "izzle": 7846,
  "izzled": 35745,
  "izzles": 31929,
  "izzling": 22994,
  "j": 78,
  "ja": 11643,
  "jac": 21582,
  "jack": 14695,
  "jacket": 46797,
  "jacks": 43212,
  "jail": 47406,
  "jal": 37231,
  "jam": 34721,
  "jamas": 45601,
  "jamb": 46919,
  "jamin": 37642,
  "jan": 29342,
  "japan": 39846,
  "japanese": 45971,
  "jar": 33931,
  "jas": 32368,
  "jav": 29840,
  "java": 22896,
  "jaw": 42558,
  "jay": 46918,
  "jdk": 31720,
  "je": 22859,
  "jeans": 48863,
  "ject": 911,
  "jell": 49569,
  "jer": 45599,
  "jet": 21505,
  "jew": 35240,
  "jewel": 39568,
  "jewelry": 45969,
  "ji": 7819,
  "jic": 37641,
  "jim": 45600,
  "jis": 22667,
  "jj": 28147,
  "jo": 8883,
  "job": 31986,
  "joba": 14884,
  "jobs": 32331,
  "jog": 41239,
  "jogging": 44605,
  "john": 27637,
  "join": 17882,
  "joining": 25496,
  "joint": 28941,
  "jojoba": 46761,
  "jon": 25137,
  "jong": 45172,
  "jor": 22031,
  "joram": 25511,
  "jos": 43953,
  "jou": 39060,
  "jour": 20240,
  "journal": 24654,
  "joy": 22860,
  "jp": 46917,
  "jpeg": 49570,
  "jre": 34720,
  "js": 22720,
  "ju": 8192,
  "juana": 10326,
  "jud": 11843,
  "judge": 41900,
  "judgment": 33159,
  "jug": 40402,
  "juice": 36158,
  "jump": 30254,
  "jumping": 43213,
  "jun": 19792,
  "junctive": 27276,
  "jured": 31494,
  "jury": 21506,
  "just": 1863,
  "jutsu": 46920,
  "juven": 17212,
  "jÃł": 40126,
  "k": 79,
  "ka": 6091,
  "kah": 22861,
  "kale": 33932,
  "kalemia": 46873,
  "kan": 39847,
  "kar": 42559,
  "kas": 32505,
  "kat": 41240,
  "kate": 48403,
  "kb": 40954,
  "kdisplaystyle": 44352,
  "ke": 327,
  "ked": 6242,
  "kee": 27824,
  "keep": 4887,
  "keeper": 16548,
  "keepers": 25438,
  "keeping": 13567,
  "kees": 33212,
  "keh": 37036,
  "kel": 15377,
  "keley": 44002,
  "ken": 6347,
  "kend": 42594,
  "ker": 8137,
  "kerchief": 18022,
  "kered": 25146,
  "kerel": 16411,
  "kers": 11888,
  "kes": 2161,
  "ket": 36810,
  "kew": 5700,
  "kewarm": 8481,
  "kexpand": 26234,
  "key": 3847,
  "keys": 10947,
  "kg": 12810,
  "kh": 33196,
  "kha": 41579,
  "ki": 16410,
  "kia": 22032,
  "kick": 27975,
  "kid": 30451,
  "kidney": 38820,
  "kids": 24884,
  "kie": 35454,
  "kien": 42250,
  "kiens": 49986,
  "kill": 10135,
  "killed": 43571,
  "killer": 43454,
  "kin": 4215,
  "kind": 14712,
  "kines": 33341,
  "kinetic": 46706,
  "king": 435,
  "kings": 34577,
  "kins": 8051,
  "kinz": 17041,
  "kip": 44742,
  "kirk": 41580,
  "kirt": 40955,
  "kirts": 33625,
  "kis": 48969,
  "kiss": 40404,
  "kit": 16921,
  "kitchen": 48284,
  "kits": 40403,
  "kiw": 45173,
  "kk": 46475,
  "kkit": 43954,
  "km": 11482,
  "kmh": 21573,
  "kn": 7765,
  "kne": 35455,
  "knee": 48351,
  "knife": 32729,
  "knit": 49354,
  "knot": 17388,
  "know": 5606,
  "knowing": 20130,
  "knowledge": 47208,
  "known": 8657,
  "ko": 18996,
  "kok": 42901,
  "kos": 48404,
  "kot": 35241,
  "krit": 38122,
  "ks": 3033,
  "kt": 41578,
  "ktop": 28483,
  "ku": 12896,
  "kum": 42900,
  "kus": 39593,
  "kward": 5471,
  "ky": 5560,
  "kÃ©": 22190,
  "l": 80,
  "la": 6403,
  "lab": 17662,
  "label": 30536,
  "labeled": 37822,
  "lace": 24940,
  "lack": 26877,
  "lad": 33342,
  "ladder": 36411,
  "ladesh": 45602,
  "lage": 32924,
  "lah": 21769,
  "laim": 15887,
  "lain": 25405,
  "lake": 48970,
  "lam": 12368,
  "lamy": 18961,
  "lan": 17636,
  "lance": 32506,
  "land": 3650,
  "lando": 27856,
  "lands": 16934,
  "lane": 28663,
  "lang": 27450,
  "language": 46477,
  "lans": 48971,
  "lap": 14673,
  "laptop": 44247,
  "lar": 7365,
  "large": 21888,
  "larger": 46298,
  "las": 24532,
  "laser": 46921,
  "lash": 23751,
  "lass": 5281,
  "lasses": 6887,
  "last": 26963,
  "lasting": 44354,
  "lat": 38842,
  "latch": 49571,
  "late": 14283,
  "lates": 37232,
  "lation": 42251,
  "lature": 30556,
  "laugh": 45996,
  "laught": 42560,
  "laughter": 49572,
  "launch": 9267,
  "launcher": 44994,
  "lav": 26593,
  "lava": 37644,
  "lave": 29534,
  "lavender": 33484,
  "law": 14583,
  "laws": 17900,
  "lax": 28572,
  "lay": 4527,
  "layer": 14059,
  "layers": 45406,
  "laying": 49296,
  "layout": 46714,
  "lays": 48972,
  "lb": 24709,
  "lbs": 25580,
  "lc": 14756,
  "ld": 345,
  "lder": 5998,
  "ldisplaystyle": 45643,
  "ldom": 21471,
  "ldown": 31633,
  "ldr": 46060,
  "le": 288,
  "lead": 20051,
  "leader": 23658,
  "leaders": 29723,
  "leading": 15254,
  "leaf": 24663,
  "leafy": 39296,
  "lean": 19051,
  "leans": 30685,
  "learn": 6134,
  "learning": 25114,
  "leather": 39858,
  "leave": 16287,
  "leaves": 47446,
  "leaving": 38366,
  "lect": 662,
  "lection": 23131,
  "lections": 33969,
  "lectomy": 35898,
  "lectric": 36268,
  "led": 753,
  "ledge": 2581,
  "lee": 12591,
  "leep": 5299,
  "leeping": 30616,
  "left": 18938,
  "leftfrac": 32755,
  "leg": 4923,
  "lega": 39350,
  "legal": 31943,
  "legs": 26811,
  "legumes": 39217,
  "leh": 47444,
  "lein": 43599,
  "lek": 43598,
  "lement": 21998,
  "lemon": 23437,
  "len": 4189,
  "lena": 34255,
  "lence": 6564,
  "lend": 4552,
  "lender": 43988,
  "lene": 46027,
  "length": 20210,
  "lenic": 46249,
  "lenn": 27630,
  "lenol": 17108,
  "lens": 28070,
  "lent": 3145,
  "lenta": 32992,
  "lentils": 49258,
  "lep": 43987,
  "ler": 2901,
  "lers": 6043,
  "lery": 21149,
  "les": 621,
  "lesque": 36448,
  "less": 1233,
  "lessly": 9700,
  "lessness": 11656,
  "lest": 15386,
  "let": 1726,
  "lete": 11432,
  "leted": 23478,
  "lethargy": 40423,
  "leting": 47445,
  "letoe": 32799,
  "leton": 15906,
  "lets": 3887,
  "lett": 32982,
  "lette": 22166,
  "letter": 42376,
  "letters": 39690,
  "lettes": 38932,
  "letting": 42377,
  "leum": 8927,
  "leur": 23815,
  "lev": 45202,
  "levant": 17564,
  "level": 20089,
  "lex": 7301,
  "lexible": 30867,
  "lexic": 33205,
  "ley": 4171,
  "leys": 16155,
  "lf": 560,
  "lfish": 28168,
  "lfr": 5462,
  "lful": 48530,
  "lg": 47407,
  "li": 1767,
  "lia": 35061,
  "liance": 9255,
  "lias": 30190,
  "lib": 26964,
  "library": 33197,
  "lic": 776,
  "lication": 11074,
  "lice": 38351,
  "liced": 39142,
  "licens": 31294,
  "license": 47543,
  "licensed": 33769,
  "lich": 34893,
  "licited": 20419,
  "lick": 37427,
  "lide": 24773,
  "lides": 43956,
  "liding": 43572,
  "lie": 14982,
  "lied": 9280,
  "lier": 3981,
  "liers": 12139,
  "lies": 2709,
  "liest": 17257,
  "lif": 48405,
  "life": 9002,
  "lift": 17033,
  "lifting": 15375,
  "lifts": 22810,
  "lig": 13829,
  "light": 2130,
  "lighter": 41582,
  "lighting": 29578,
  "lightly": 28235,
  "lights": 12889,
  "like": 3479,
  "likes": 39692,
  "lim": 6087,
  "limate": 18009,
  "lime": 28320,
  "limit": 22699,
  "limited": 11975,
  "limus": 38253,
  "lin": 10318,
  "linary": 15239,
  "line": 881,
  "lined": 5965,
  "liner": 44744,
  "liners": 45859,
  "lines": 4423,
  "liness": 12775,
  "ling": 1189,
  "linger": 48591,
  "lings": 4717,
  "lington": 43691,
  "lining": 11264,
  "link": 11210,
  "links": 24364,
  "lins": 35243,
  "linux": 34842,
  "lio": 43957,
  "lioma": 36660,
  "lion": 32782,
  "lip": 22668,
  "liqu": 34722,
  "liquid": 39830,
  "lis": 35242,
  "lish": 2257,
  "list": 3626,
  "listed": 30611,
  "listen": 14098,
  "listener": 49844,
  "listening": 36916,
  "lists": 12016,
  "lit": 18389,
  "lite": 20515,
  "liter": 40405,
  "liters": 39281,
  "little": 42837,
  "live": 3226,
  "liver": 32036,
  "living": 39061,
  "ll": 293,
  "lla": 6766,
  "llant": 23759,
  "llants": 46506,
  "llas": 17620,
  "llaust": 28672,
  "llausted": 28832,
  "llc": 33491,
  "lle": 41581,
  "lled": 5208,
  "ller": 6426,
  "llers": 13764,
  "lli": 33065,
  "lline": 45625,
  "lling": 2384,
  "llis": 18063,
  "llium": 22818,
  "llo": 6596,
  "llons": 37249,
  "llow": 816,
  "lloworld": 36868,
  "lls": 4290,
  "llular": 49018,
  "llum": 23438,
  "lly": 9617,
  "llywood": 32880,
  "ln": 14780,
  "lo": 498,
  "load": 1326,
  "loader": 26320,
  "loaf": 22900,
  "loan": 45253,
  "loat": 26244,
  "loc": 5060,
  "local": 16013,
  "locate": 8740,
  "location": 17914,
  "locity": 12913,
  "lock": 3713,
  "locker": 39210,
  "locking": 15925,
  "locks": 13534,
  "lode": 25778,
  "loe": 43282,
  "lofen": 41651,
  "loft": 33518,
  "log": 1622,
  "logged": 25411,
  "logging": 29048,
  "logic": 23940,
  "logical": 7682,
  "logically": 26410,
  "logics": 39169,
  "login": 27304,
  "logist": 6795,
  "logists": 15706,
  "logne": 14435,
  "logy": 7583,
  "loin": 16264,
  "lol": 30697,
  "lon": 18105,
  "long": 20207,
  "lons": 44353,
  "look": 3649,
  "looker": 32454,
  "lookers": 34967,
  "looking": 31257,
  "lookup": 26341,
  "loop": 45997,
  "loos": 35853,
  "loose": 37643,
  "loosen": 37422,
  "loot": 44818,
  "lope": 44426,
  "lopr": 37696,
  "lor": 5041,
  "lord": 5319,
  "lore": 26962,
  "lorette": 40640,
  "lors": 9229,
  "los": 6304,
  "lose": 9196,
  "losed": 10089,
  "loses": 43283,
  "losing": 18720,
  "loss": 14526,
  "losure": 6151,
  "lot": 17938,
  "lots": 36026,
  "loud": 37012,
  "love": 24275,
  "loved": 16554,
  "low": 16286,
  "lower": 8658,
  "lox": 16747,
  "loxacin": 38298,
  "loy": 1405,
  "loyal": 39411,
  "loys": 28165,
  "lp": 14793,
  "lr": 9731,
  "ls": 2021,
  "lsh": 23267,
  "lson": 39424,
  "lt": 2675,
  "ltry": 48662,
  "lu": 17357,
  "lua": 35018,
  "lub": 46476,
  "luc": 43214,
  "luck": 17939,
  "lucky": 29934,
  "lud": 728,
  "lude": 8639,
  "luded": 12497,
  "ludes": 23525,
  "luding": 13519,
  "lum": 43955,
  "lun": 48406,
  "lunch": 44743,
  "lusion": 33626,
  "luster": 39331,
  "lux": 11946,
  "ly": 333,
  "lycer": 18255,
  "lying": 4608,
  "lyn": 28078,
  "lyopia": 46974,
  "lyou": 35681,
  "lyph": 36827,
  "lysis": 44792,
  "lytic": 36828,
  "lÃ©": 43958,
  "m": 81,
  "ma": 3692,
  "mable": 32230,
  "mac": 18615,
  "mach": 22721,
  "machine": 34695,
  "machines": 30338,
  "macro": 34867,
  "mad": 32783,
  "made": 5872,
  "mag": 29144,
  "magh": 42424,
  "magic": 37886,
  "mahogany": 49281,
  "maid": 45390,
  "mail": 6219,
  "main": 18010,
  "maintain": 20803,
  "maintaining": 40669,
  "major": 47661,
  "make": 3005,
  "maker": 20208,
  "makers": 22113,
  "makeup": 37990,
  "making": 13985,
  "mal": 26662,
  "mala": 36811,
  "male": 30146,
  "males": 49280,
  "maline": 43960,
  "mall": 19047,
  "man": 2575,
  "manage": 22993,
  "manager": 44528,
  "mand": 36214,
  "manent": 40809,
  "mania": 44527,
  "mann": 35740,
  "manpro": 39959,
  "mans": 11687,
  "manship": 18004,
  "many": 8665,
  "map": 18251,
  "maps": 42902,
  "mar": 15968,
  "marinate": 47783,
  "mark": 3776,
  "marked": 30004,
  "market": 18405,
  "marketing": 30235,
  "marking": 29223,
  "marks": 12180,
  "marriage": 44745,
  "mart": 11704,
  "mary": 8943,
  "mas": 4818,
  "mash": 30058,
  "mass": 25762,
  "massage": 33764,
  "mast": 37233,
  "master": 16708,
  "masters": 28665,
  "mat": 6261,
  "match": 23018,
  "matched": 49892,
  "matching": 45924,
  "mate": 6351,
  "mates": 5561,
  "math": 9299,
  "mathbf": 20965,
  "mathe": 29305,
  "mathematics": 29529,
  "mathrm": 11740,
  "matic": 20741,
  "matically": 31612,
  "matics": 24992,
  "matis": 28028,
  "matrix": 16015,
  "matys": 49891,
  "max": 27976,
  "may": 16812,
  "maybe": 21577,
  "mb": 5276,
  "mber": 9294,
  "mblance": 34648,
  "mble": 4114,
  "mbling": 16484,
  "mc": 33485,
  "mcg": 46000,
  "md": 25895,
  "me": 1009,
  "meal": 5834,
  "mean": 12274,
  "meaning": 33892,
  "meanwhile": 46335,
  "meas": 30181,
  "measure": 10905,
  "measuring": 43180,
  "meat": 29873,
  "mec": 43681,
  "mechan": 47568,
  "mect": 30145,
  "mectin": 30342,
  "med": 4120,
  "media": 41747,
  "mediate": 15084,
  "medic": 33424,
  "medical": 25246,
  "medication": 49856,
  "medications": 40538,
  "meditate": 38493,
  "meditation": 35144,
  "medium": 28284,
  "meet": 18872,
  "meeting": 47804,
  "meg": 12030,
  "mein": 44080,
  "mel": 7670,
  "mell": 42664,
  "melon": 44594,
  "melt": 19392,
  "mem": 21166,
  "member": 36592,
  "members": 36974,
  "memorize": 40898,
  "memory": 39531,
  "men": 7566,
  "menopausal": 49350,
  "menorrhea": 37144,
  "ment": 480,
  "mental": 18594,
  "mentation": 19972,
  "mented": 49672,
  "mention": 18944,
  "mentioned": 20176,
  "ments": 836,
  "menu": 21067,
  "mer": 1921,
  "mere": 22494,
  "mered": 25915,
  "merge": 10492,
  "meric": 9474,
  "mers": 9217,
  "mes": 7070,
  "mesis": 38033,
  "mess": 42561,
  "message": 38353,
  "met": 4392,
  "metal": 26921,
  "meter": 20088,
  "meters": 37771,
  "meth": 31988,
  "method": 36795,
  "metic": 23892,
  "mets": 17358,
  "mex": 37076,
  "mg": 11144,
  "mgdl": 45466,
  "mgkg": 40313,
  "mgml": 49945,
  "mgmt": 45467,
  "mgr": 43215,
  "mhz": 41902,
  "mi": 4721,
  "mia": 9315,
  "mias": 39737,
  "mic": 7780,
  "mice": 37885,
  "micelli": 44324,
  "microsoft": 18733,
  "microsoftwindows": 30432,
  "microw": 35778,
  "microwave": 39569,
  "mid": 38123,
  "middle": 43216,
  "mide": 45176,
  "mies": 24710,
  "might": 37645,
  "mil": 45175,
  "mild": 42252,
  "mile": 34092,
  "miles": 40956,
  "miling": 47408,
  "military": 43574,
  "milk": 11857,
  "mill": 10063,
  "million": 45857,
  "mills": 27125,
  "min": 2483,
  "mina": 41072,
  "minate": 33128,
  "minated": 43735,
  "minating": 47635,
  "mination": 25138,
  "mind": 24941,
  "minded": 38318,
  "mindfulness": 49457,
  "mine": 14207,
  "minecraft": 31818,
  "mineral": 38948,
  "ming": 2486,
  "mings": 26517,
  "mini": 28986,
  "minim": 30839,
  "minimize": 36792,
  "minor": 49807,
  "mint": 24711,
  "minton": 34530,
  "minute": 38471,
  "minutes": 44522,
  "mir": 38843,
  "miri": 42903,
  "mis": 25949,
  "miss": 2786,
  "missible": 21797,
  "missing": 47647,
  "mission": 3896,
  "missions": 7523,
  "missive": 22085,
  "mist": 41901,
  "mit": 2045,
  "mite": 28060,
  "mith": 19294,
  "mium": 30900,
  "mix": 7879,
  "mixed": 40293,
  "mixing": 46752,
  "mk": 35244,
  "ml": 4555,
  "mle": 47916,
  "mm": 6699,
  "mn": 24533,
  "mo": 1667,
  "mob": 22740,
  "mobile": 28396,
  "mod": 4773,
  "mode": 25036,
  "model": 28711,
  "moder": 34615,
  "modern": 47352,
  "modified": 36146,
  "mography": 31660,
  "moist": 27082,
  "moisturize": 38321,
  "moke": 43708,
  "moking": 46649,
  "mol": 38352,
  "mold": 32152,
  "moll": 33691,
  "molo": 37311,
  "mom": 31987,
  "mon": 1413,
  "monary": 17741,
  "mond": 26902,
  "monday": 45336,
  "monds": 42373,
  "money": 32108,
  "mong": 22307,
  "mongrass": 25269,
  "monitor": 25230,
  "monkey": 36474,
  "mons": 9569,
  "mont": 24137,
  "month": 24739,
  "monthly": 40631,
  "months": 46635,
  "mood": 38844,
  "moon": 17431,
  "mop": 37013,
  "mor": 45174,
  "more": 5345,
  "mores": 37646,
  "mort": 32925,
  "mortgage": 39829,
  "mos": 23198,
  "most": 5186,
  "mot": 21770,
  "mother": 15229,
  "motion": 39533,
  "motional": 49443,
  "motor": 38082,
  "mount": 18106,
  "mountable": 37179,
  "mouse": 43573,
  "mout": 45998,
  "mouth": 18816,
  "mov": 40786,
  "move": 15865,
  "movie": 38204,
  "movies": 44716,
  "moving": 25425,
  "mp": 12380,
  "mpeg": 29638,
  "mpg": 43959,
  "mph": 18201,
  "mploy": 40043,
  "mpt": 24607,
  "mr": 28664,
  "ms": 1059,
  "mt": 21947,
  "mu": 28837,
  "much": 42253,
  "mud": 36412,
  "mudge": 41583,
  "mult": 19672,
  "multip": 24201,
  "multiple": 41182,
  "multiply": 25458,
  "mun": 10849,
  "munk": 30557,
  "mus": 10404,
  "muscle": 29408,
  "mush": 41241,
  "music": 26572,
  "must": 32369,
  "mustard": 47860,
  "mv": 22811,
  "mw": 44355,
  "my": 6048,
  "myadmin": 42444,
  "mys": 33627,
  "mÃ©": 45999,
  "n": 82,
  "na": 3723,
  "nab": 34894,
  "nah": 30347,
  "nail": 29145,
  "nails": 33486,
  "nal": 3166,
  "nam": 3175,
  "name": 6025,
  "named": 25304,
  "names": 15177,
  "namese": 25327,
  "namic": 44143,
  "naming": 38479,
  "namon": 5333,
  "nan": 38354,
  "nant": 41242,
  "nants": 19581,
  "nap": 24208,
  "nar": 33062,
  "narrow": 47409,
  "nas": 17389,
  "nasal": 33318,
  "nat": 48973,
  "nati": 46002,
  "nation": 41584,
  "national": 30791,
  "natur": 10972,
  "natural": 11723,
  "naturally": 29711,
  "nause": 24209,
  "nausea": 29425,
  "nav": 13426,
  "navigate": 14196,
  "nb": 20775,
  "nbc": 49433,
  "nc": 26090,
  "nce": 1816,
  "nces": 2839,
  "nch": 26298,
  "ncies": 46001,
  "ncy": 14983,
  "nd": 283,
  "nda": 10112,
  "ndas": 33635,
  "nday": 7468,
  "nde": 38130,
  "nded": 1676,
  "nder": 622,
  "ndered": 18223,
  "nders": 12188,
  "nding": 1006,
  "ndisplaystyle": 37444,
  "ndo": 24615,
  "ndon": 13830,
  "ndos": 49595,
  "nds": 553,
  "ne": 1107,
  "nea": 15493,
  "near": 37299,
  "nearly": 48077,
  "neas": 49736,
  "neath": 3699,
  "neck": 20907,
  "necks": 31050,
  "nect": 1185,
  "ned": 3768,
  "need": 30826,
  "needle": 48897,
  "neg": 21392,
  "negative": 47315,
  "neighb": 43000,
  "neighbor": 49532,
  "nel": 4692,
  "neled": 47067,
  "nell": 38703,
  "nels": 14316,
  "ner": 1010,
  "nered": 34140,
  "ners": 2626,
  "nery": 48578,
  "nes": 5248,
  "nesday": 15003,
  "nesia": 27483,
  "ness": 1036,
  "nessee": 23281,
  "nesses": 3979,
  "nesss": 24353,
  "nest": 20806,
  "net": 7086,
  "nets": 22068,
  "nett": 42452,
  "network": 29919,
  "neum": 12818,
  "neut": 38184,
  "never": 17563,
  "new": 6785,
  "news": 40566,
  "nexis": 45716,
  "next": 25289,
  "ney": 3610,
  "neys": 9030,
  "nf": 38845,
  "ng": 885,
  "nga": 44466,
  "ngar": 44467,
  "nge": 4273,
  "ngeal": 44158,
  "ngen": 39671,
  "ngitis": 24230,
  "ngth": 1304,
  "ngthe": 4352,
  "ni": 28484,
  "nia": 9672,
  "nic": 7712,
  "nica": 33298,
  "nickel": 48214,
  "nie": 28942,
  "nier": 18918,
  "nies": 12925,
  "niest": 27206,
  "nifer": 29841,
  "night": 3742,
  "nik": 40670,
  "ning": 1117,
  "nings": 17503,
  "nip": 13235,
  "nips": 23559,
  "nis": 7441,
  "niss": 32507,
  "nit": 44356,
  "nitus": 19523,
  "nity": 11288,
  "nn": 20546,
  "no": 6199,
  "nob": 21464,
  "nobody": 42767,
  "nobs": 30749,
  "nog": 26221,
  "nold": 38979,
  "non": 19701,
  "noon": 7090,
  "nor": 27053,
  "norm": 7409,
  "normal": 29308,
  "normally": 48752,
  "north": 37887,
  "nose": 31989,
  "not": 1015,
  "note": 9062,
  "notes": 16518,
  "nothing": 32418,
  "notice": 14971,
  "notify": 47062,
  "nour": 28573,
  "nov": 9825,
  "now": 3117,
  "nox": 19496,
  "np": 32231,
  "nr": 34550,
  "ns": 1617,
  "nsylvan": 19155,
  "nt": 403,
  "nth": 43261,
  "nthe": 36244,
  "nty": 41951,
  "ntz": 43626,
  "nu": 38124,
  "num": 25950,
  "number": 20716,
  "numbered": 37605,
  "numbness": 45603,
  "nur": 46478,
  "nut": 8934,
  "nutrition": 24122,
  "nuts": 7319,
  "nx": 17681,
  "ny": 2586,
  "nys": 21341,
  "nzb": 46922,
  "o": 83,
  "oa": 24712,
  "oaffective": 45530,
  "oak": 39332,
  "oam": 43575,
  "oard": 30901,
  "oat": 26222,
  "oatmeal": 41202,
  "oats": 41585,
  "ob": 3062,
  "oba": 13398,
  "obac": 27158,
  "obacter": 33133,
  "obar": 34800,
  "obarbital": 36405,
  "obe": 25406,
  "obed": 33132,
  "ober": 13647,
  "obesity": 39443,
  "obile": 15368,
  "obiles": 32990,
  "object": 27549,
  "objects": 43898,
  "obr": 46003,
  "obs": 10486,
  "observe": 21374,
  "obtain": 11411,
  "obviously": 34477,
  "oc": 1994,
  "ocaine": 21359,
  "ocal": 32699,
  "ocamp": 49222,
  "ocar": 41367,
  "ocard": 24108,
  "ocation": 38718,
  "occ": 12447,
  "occo": 45752,
  "occup": 16612,
  "occupied": 35415,
  "och": 23811,
  "ochond": 43509,
  "ocial": 33198,
  "ock": 1844,
  "ocking": 7821,
  "ocks": 33119,
  "oclopr": 43029,
  "oclopramide": 43209,
  "oco": 33628,
  "ococcal": 41219,
  "ocol": 10084,
  "ocom": 42392,
  "ocr": 19420,
  "ocular": 15207,
  "oculars": 17634,
  "ocument": 46479,
  "ocus": 15230,
  "ocy": 23634,
  "ocyan": 35733,
  "ocytes": 37598,
  "od": 857,
  "oda": 44070,
  "odd": 46600,
  "ode": 6862,
  "odect": 40471,
  "odectic": 41566,
  "odefic": 34194,
  "odend": 27722,
  "odendron": 34077,
  "odendrons": 40916,
  "oderm": 32543,
  "odes": 9041,
  "odesk": 46312,
  "odiac": 32679,
  "odial": 34596,
  "odiazep": 23170,
  "odic": 44465,
  "odies": 13767,
  "odil": 22353,
  "odils": 29173,
  "odin": 43330,
  "odium": 26175,
  "odo": 34133,
  "odont": 36869,
  "odor": 7347,
  "odox": 49162,
  "ods": 22587,
  "ody": 5621,
  "odymium": 49882,
  "odynamic": 46728,
  "odynia": 49881,
  "oe": 5724,
  "oeconomic": 43087,
  "oes": 19702,
  "oetida": 36027,
  "oeuv": 49885,
  "of": 2265,
  "off": 6749,
  "offensive": 45438,
  "offer": 18582,
  "office": 21119,
  "offs": 21093,
  "offset": 47222,
  "oflav": 30302,
  "oft": 12463,
  "often": 20889,
  "oftentimes": 38280,
  "oftware": 26283,
  "oftwaremicrosoftwindows": 33184,
  "oftwaremicrosoftwindowscurrentversion": 36995,
  "og": 1631,
  "oga": 47103,
  "ogatory": 27704,
  "ogen": 15750,
  "ogene": 31912,
  "ogeneous": 32781,
  "ogenic": 12934,
  "ogenous": 35190,
  "ogens": 18230,
  "ogi": 33996,
  "ogical": 31768,
  "oglo": 17925,
  "oglobin": 19377,
  "oglyph": 41700,
  "ogo": 41357,
  "ogram": 25516,
  "ograms": 42254,
  "ograp": 24422,
  "ograph": 27904,
  "ographer": 45529,
  "ographic": 28148,
  "ography": 12737,
  "ogre": 33257,
  "ogs": 44500,
  "ogue": 19869,
  "ogues": 42028,
  "ogy": 21357,
  "oh": 20516,
  "oi": 37888,
  "oid": 797,
  "oidal": 18515,
  "oids": 6227,
  "oiet": 48974,
  "oil": 29433,
  "oing": 44746,
  "oint": 3017,
  "ointing": 20870,
  "oints": 30844,
  "oir": 9186,
  "ois": 23655,
  "oise": 17603,
  "ok": 10248,
  "okay": 46319,
  "oke": 8357,
  "oked": 13263,
  "okes": 17525,
  "oking": 20776,
  "oks": 43961,
  "ol": 570,
  "ola": 7606,
  "olactone": 44043,
  "olais": 37145,
  "olam": 26393,
  "olamine": 45265,
  "olan": 45263,
  "oland": 47014,
  "olar": 9341,
  "olars": 46109,
  "olas": 30280,
  "olate": 30933,
  "old": 7517,
  "older": 22931,
  "olders": 45445,
  "olds": 21933,
  "ole": 6823,
  "oles": 21993,
  "oleum": 18931,
  "oli": 6027,
  "olia": 26169,
  "olian": 45264,
  "olic": 16474,
  "olid": 39376,
  "olin": 15337,
  "olina": 31743,
  "oline": 9501,
  "olinerg": 39518,
  "oling": 18767,
  "olis": 20852,
  "olitan": 21515,
  "olite": 27305,
  "olith": 44835,
  "olive": 27685,
  "oll": 24885,
  "ollen": 8846,
  "olo": 21817,
  "olog": 2162,
  "ological": 10635,
  "ologically": 25234,
  "ologies": 15690,
  "ologist": 16205,
  "ologists": 20429,
  "ology": 3502,
  "olon": 22901,
  "olone": 23665,
  "olons": 31888,
  "olor": 36072,
  "olot": 38674,
  "olph": 49688,
  "ols": 16929,
  "olves": 32819,
  "oly": 17063,
  "om": 305,
  "oma": 6573,
  "omaceous": 23763,
  "omal": 25350,
  "oman": 14664,
  "omania": 23695,
  "omas": 15449,
  "omat": 34105,
  "omatic": 19619,
  "omato": 48456,
  "omatoes": 44387,
  "omb": 6337,
  "ombat": 42446,
  "ombie": 13631,
  "ombo": 35473,
  "ome": 409,
  "omed": 9164,
  "omedical": 40026,
  "omega": 22823,
  "omen": 14969,
  "omena": 27910,
  "omeone": 35694,
  "omer": 21345,
  "omers": 40694,
  "omes": 13507,
  "omet": 683,
  "ometallic": 49140,
  "ometer": 5339,
  "ometers": 12152,
  "ometh": 36269,
  "omething": 27995,
  "ometimes": 12979,
  "ometra": 39135,
  "ometric": 15702,
  "ometrics": 26171,
  "ometry": 17394,
  "omever": 23351,
  "omi": 36427,
  "omial": 16041,
  "omials": 29155,
  "omic": 8153,
  "omical": 25276,
  "omies": 42931,
  "omile": 9661,
  "omill": 39866,
  "omin": 32932,
  "omine": 48455,
  "oming": 26035,
  "omiting": 23307,
  "omn": 47451,
  "omnia": 12249,
  "omo": 39087,
  "omon": 23762,
  "omore": 39353,
  "omous": 37029,
  "omp": 29545,
  "ompass": 18970,
  "oms": 1414,
  "omy": 6008,
  "omycin": 42766,
  "omyel": 45815,
  "omyelitis": 47902,
  "on": 286,
  "ona": 19378,
  "onacci": 40146,
  "onal": 4919,
  "onance": 33351,
  "onase": 44379,
  "onates": 49011,
  "onazole": 34252,
  "onc": 40689,
  "once": 8769,
  "onces": 38865,
  "ond": 3173,
  "ondo": 25044,
  "onds": 10224,
  "one": 468,
  "oned": 17640,
  "onella": 16427,
  "onement": 40690,
  "onen": 46502,
  "onent": 3860,
  "onents": 4090,
  "oner": 34729,
  "ones": 1811,
  "onet": 39606,
  "onex": 33663,
  "oney": 1183,
  "oneys": 37049,
  "ong": 535,
  "onge": 4261,
  "ongest": 14699,
  "ongh": 21775,
  "ongs": 12599,
  "oni": 11496,
  "onia": 12706,
  "onian": 42924,
  "onic": 3153,
  "onica": 44941,
  "onics": 23657,
  "onide": 41922,
  "onies": 21951,
  "onin": 9102,
  "oning": 11102,
  "onion": 38639,
  "onions": 36033,
  "onite": 24721,
  "onium": 41607,
  "onk": 49599,
  "online": 25900,
  "only": 16828,
  "onn": 23344,
  "onna": 10760,
  "onnaise": 11371,
  "onnect": 5567,
  "onomy": 49012,
  "onosotros": 47442,
  "onous": 28747,
  "ons": 838,
  "onse": 3395,
  "onsequ": 43760,
  "ont": 1035,
  "ontal": 43686,
  "ontent": 39154,
  "ontin": 10298,
  "ontinence": 16281,
  "onto": 30082,
  "onts": 9531,
  "ony": 3201,
  "onym": 8642,
  "onyms": 17837,
  "oo": 343,
  "ood": 452,
  "oodle": 13865,
  "oodles": 17323,
  "oof": 19528,
  "ook": 484,
  "ooked": 13243,
  "ooking": 12313,
  "ool": 749,
  "ooled": 18179,
  "ooler": 45289,
  "ools": 27760,
  "oom": 40127,
  "oon": 2262,
  "oons": 8686,
  "oop": 3622,
  "oopa": 34324,
  "ooper": 31393,
  "ooperative": 36794,
  "ooping": 19434,
  "oor": 42562,
  "oos": 16761,
  "oosa": 42945,
  "oose": 786,
  "oot": 27576,
  "op": 807,
  "opa": 29561,
  "opal": 42988,
  "opard": 12594,
  "opath": 11526,
  "opathic": 17319,
  "opathy": 19656,
  "opausal": 41322,
  "opause": 39917,
  "ope": 23301,
  "oped": 15322,
  "open": 3111,
  "opened": 24348,
  "openia": 49833,
  "opening": 41392,
  "oper": 20869,
  "operative": 42507,
  "opes": 23628,
  "oph": 5946,
  "ophan": 25680,
  "ophane": 17416,
  "ophen": 11215,
  "ophil": 16432,
  "ophile": 39225,
  "ophiles": 48196,
  "ophilia": 30534,
  "ophilic": 39272,
  "ophilus": 20652,
  "ophob": 17410,
  "ophobia": 28137,
  "ophy": 22906,
  "ophyll": 25457,
  "opia": 25966,
  "opian": 22732,
  "opic": 22550,
  "opin": 47545,
  "oping": 20949,
  "opl": 19448,
  "oplasm": 29422,
  "oplasmic": 47807,
  "oplasmosis": 30667,
  "oplast": 48297,
  "oplasty": 39020,
  "ople": 609,
  "opolis": 41031,
  "opp": 26663,
  "opportun": 44295,
  "opr": 33238,
  "opro": 49715,
  "opropyl": 16131,
  "ops": 6286,
  "opsis": 19655,
  "opt": 19170,
  "option": 37014,
  "optional": 31469,
  "options": 46923,
  "opulmonary": 44862,
  "opy": 17116,
  "oqu": 23019,
  "or": 289,
  "ora": 10337,
  "orable": 17504,
  "orah": 37664,
  "orak": 34256,
  "oral": 15645,
  "orange": 24832,
  "oranges": 44766,
  "orap": 34566,
  "oras": 23920,
  "oration": 8308,
  "orative": 21585,
  "orb": 39351,
  "orce": 31500,
  "ord": 748,
  "order": 3202,
  "ordered": 31501,
  "orders": 5583,
  "ordes": 40467,
  "ordinate": 42986,
  "ordinated": 49151,
  "ordo": 47539,
  "ore": 464,
  "orean": 15055,
  "ored": 2013,
  "orer": 29357,
  "orers": 37267,
  "ores": 4166,
  "orescent": 49859,
  "oresis": 46248,
  "orexia": 44028,
  "orf": 36816,
  "org": 39859,
  "organ": 8902,
  "organic": 25441,
  "organization": 35786,
  "organize": 18584,
  "organized": 19166,
  "orge": 10076,
  "ori": 17706,
  "oria": 27518,
  "orial": 15717,
  "oric": 20873,
  "orical": 25083,
  "orice": 13199,
  "orient": 15646,
  "ories": 1645,
  "orig": 29542,
  "original": 33054,
  "orily": 39081,
  "oring": 2694,
  "oris": 48443,
  "orize": 10472,
  "ork": 1250,
  "orld": 26739,
  "orm": 589,
  "ormal": 25027,
  "orms": 31890,
  "orn": 819,
  "orname": 38422,
  "orne": 2039,
  "orns": 14303,
  "oro": 37247,
  "orosis": 17131,
  "orous": 13192,
  "orp": 38367,
  "orph": 20658,
  "orphic": 35027,
  "orphine": 40621,
  "orps": 36035,
  "orr": 8608,
  "orrect": 30061,
  "orrent": 24033,
  "orrh": 10607,
  "orrhe": 40578,
  "orrhea": 19491,
  "orrheic": 41567,
  "orrho": 43103,
  "orrow": 10043,
  "ors": 685,
  "orse": 18352,
  "orses": 27385,
  "orship": 12600,
  "ort": 436,
  "orta": 35887,
  "orted": 47499,
  "orter": 4164,
  "orters": 15204,
  "orth": 2287,
  "orthe": 43634,
  "orthodox": 49804,
  "orthy": 6787,
  "ortic": 17886,
  "ortion": 13391,
  "orts": 2411,
  "ortun": 2225,
  "orum": 37445,
  "orus": 10136,
  "ory": 920,
  "os": 614,
  "osa": 19257,
  "osas": 37935,
  "osate": 32822,
  "osaur": 16459,
  "osb": 48027,
  "oscope": 14770,
  "oscopes": 37936,
  "oscopic": 25362,
  "oscopy": 16713,
  "ose": 689,
  "osed": 1981,
  "osellas": 27603,
  "osellasustedes": 29031,
  "osen": 4057,
  "osene": 28087,
  "oses": 4719,
  "osexual": 19260,
  "osh": 15869,
  "osin": 33815,
  "osing": 12303,
  "osis": 3700,
  "osit": 22277,
  "osition": 6958,
  "ositional": 45271,
  "ositions": 25651,
  "ositories": 24134,
  "ository": 14726,
  "osity": 16680,
  "oske": 21708,
  "oskelet": 26012,
  "oskeletal": 28313,
  "oskeleton": 34872,
  "osote": 49129,
  "osotros": 19506,
  "osp": 3451,
  "ospace": 49839,
  "osph": 9951,
  "ospor": 25413,
  "osporin": 28229,
  "oss": 5350,
  "ossess": 22092,
  "ost": 4011,
  "ostale": 31787,
  "ostatic": 43771,
  "oste": 32719,
  "oster": 7329,
  "osterone": 10922,
  "ostic": 35756,
  "ostomy": 48695,
  "osts": 39977,
  "osure": 35088,
  "osus": 38411,
  "ot": 309,
  "ota": 14847,
  "otal": 15255,
  "otane": 49034,
  "otation": 26595,
  "otaur": 43994,
  "otch": 10132,
  "otches": 33067,
  "ote": 2319,
  "otechn": 31923,
  "otechnology": 35645,
  "oted": 22073,
  "otein": 27773,
  "oter": 37031,
  "oteric": 41617,
  "otes": 11792,
  "otext": 47136,
  "oth": 955,
  "othe": 23922,
  "othelioma": 36976,
  "othem": 36822,
  "other": 830,
  "otherap": 18537,
  "otherapist": 21200,
  "otherapists": 35197,
  "otherapy": 7944,
  "othered": 33643,
  "othermal": 49158,
  "othermic": 45295,
  "others": 47044,
  "otherwise": 32827,
  "othing": 41616,
  "othor": 42661,
  "othorax": 43556,
  "othy": 11188,
  "otic": 7956,
  "otics": 20180,
  "otill": 29546,
  "otillomania": 35441,
  "otine": 10421,
  "oting": 30569,
  "otion": 28153,
  "otivated": 30357,
  "otive": 15039,
  "otle": 25019,
  "oto": 14906,
  "otomy": 29747,
  "otonin": 12388,
  "otope": 36957,
  "otor": 46042,
  "otov": 49624,
  "otr": 45634,
  "otrex": 33794,
  "otrexate": 33927,
  "otri": 43995,
  "otriene": 47893,
  "otrop": 30687,
  "otropic": 48338,
  "otros": 18689,
  "otry": 46043,
  "ots": 1292,
  "ott": 29253,
  "otta": 16551,
  "otti": 38649,
  "otto": 25085,
  "otum": 21699,
  "oty": 9144,
  "otype": 20168,
  "otypes": 37561,
  "otypical": 33733,
  "otÃº": 41265,
  "ou": 265,
  "ouble": 1581,
  "ouch": 1553,
  "ouched": 20584,
  "ouching": 22909,
  "ouchure": 29182,
  "oud": 2612,
  "oufl": 15095,
  "ough": 567,
  "oughly": 2324,
  "oughs": 41300,
  "ought": 4658,
  "oul": 31145,
  "ould": 404,
  "ouli": 30675,
  "oumi": 48996,
  "oun": 1160,
  "ounce": 3817,
  "ounced": 26179,
  "ounces": 5533,
  "ouncing": 36647,
  "ound": 814,
  "ounded": 28867,
  "ounder": 28579,
  "ounding": 34285,
  "ounds": 2176,
  "ounge": 19333,
  "ouns": 22403,
  "ounsaturated": 23014,
  "ount": 606,
  "oup": 24029,
  "oupe": 15594,
  "oupes": 48997,
  "our": 497,
  "oura": 2030,
  "ourable": 35543,
  "ourage": 6865,
  "ource": 31528,
  "ources": 41966,
  "oured": 9345,
  "ouri": 26308,
  "ours": 22679,
  "ourse": 12262,
  "ourt": 32404,
  "ous": 634,
  "ousal": 17949,
  "ouse": 1064,
  "oused": 40202,
  "ouses": 6733,
  "ousing": 26755,
  "ously": 3654,
  "ousy": 35089,
  "out": 354,
  "outdoor": 37038,
  "oute": 48477,
  "outh": 1809,
  "outline": 36833,
  "outlook": 44798,
  "output": 43255,
  "outputstream": 27594,
  "outs": 4863,
  "outside": 48478,
  "ov": 10249,
  "ova": 37234,
  "ove": 719,
  "ovel": 46592,
  "over": 3982,
  "overs": 8986,
  "ovie": 18144,
  "ovies": 27641,
  "ovirus": 26074,
  "ovski": 34673,
  "ow": 320,
  "oward": 44000,
  "owed": 33954,
  "owel": 6588,
  "owels": 41270,
  "ower": 824,
  "owered": 19449,
  "owers": 31867,
  "owing": 14489,
  "owl": 23349,
  "owling": 42286,
  "owls": 40699,
  "own": 517,
  "owner": 37467,
  "owners": 40445,
  "owness": 32529,
  "ownload": 30582,
  "owrim": 39357,
  "ows": 785,
  "owulf": 49631,
  "ox": 3069,
  "oxet": 24860,
  "oxetine": 25135,
  "oxic": 19265,
  "oxicam": 40341,
  "oxicillin": 33602,
  "oxid": 27408,
  "oxide": 5544,
  "oxidil": 29527,
  "oxin": 33271,
  "oxine": 49832,
  "oxone": 42063,
  "oxy": 31073,
  "oxys": 45373,
  "oy": 1372,
  "oyl": 14391,
  "oys": 9243,
  "oz": 12721,
  "p": 84,
  "pa": 5950,
  "pac": 47917,
  "pace": 8186,
  "paces": 42563,
  "pack": 6002,
  "packing": 43963,
  "packs": 42564,
  "pad": 9344,
  "pads": 38267,
  "page": 6665,
  "pages": 20717,
  "paid": 13141,
  "pain": 18838,
  "paint": 17390,
  "painting": 39334,
  "pair": 29738,
  "pak": 40407,
  "pal": 7686,
  "pale": 35855,
  "pals": 41904,
  "pan": 2996,
  "panel": 30733,
  "panic": 28704,
  "pans": 34895,
  "pants": 16898,
  "pap": 38623,
  "paper": 5340,
  "papers": 26450,
  "par": 1752,
  "paragraph": 36889,
  "paragus": 9765,
  "paralle": 47614,
  "parate": 18318,
  "pare": 6001,
  "parent": 6322,
  "parents": 31086,
  "park": 21626,
  "pars": 43218,
  "parsley": 48934,
  "part": 9898,
  "partial": 25744,
  "particip": 34048,
  "participate": 41220,
  "particularly": 45854,
  "partner": 44218,
  "parts": 16957,
  "partum": 17930,
  "party": 47739,
  "pas": 32370,
  "pass": 7467,
  "passport": 45443,
  "password": 28799,
  "past": 27286,
  "paste": 14079,
  "pat": 6863,
  "patch": 48408,
  "path": 20656,
  "pathetic": 14556,
  "patient": 14595,
  "patitis": 13316,
  "patrol": 47703,
  "pattern": 38761,
  "pause": 28485,
  "paw": 40128,
  "pay": 10269,
  "paying": 38052,
  "payment": 27345,
  "pc": 25077,
  "pcs": 46925,
  "pd": 20977,
  "pdf": 47410,
  "pe": 378,
  "peace": 40166,
  "peak": 26979,
  "pean": 28333,
  "peanut": 31979,
  "pear": 34261,
  "pearl": 47350,
  "pears": 49068,
  "peas": 43621,
  "pec": 24724,
  "pecial": 27067,
  "pecially": 1249,
  "pecies": 40713,
  "pecific": 32216,
  "peck": 26237,
  "pect": 933,
  "pected": 7227,
  "pecting": 26688,
  "pection": 9681,
  "pective": 4034,
  "ped": 9493,
  "pedit": 44214,
  "pee": 21081,
  "peed": 32394,
  "peel": 16472,
  "peeled": 32521,
  "pees": 21050,
  "peg": 14480,
  "pegg": 30693,
  "peh": 20246,
  "pek": 46072,
  "pel": 9178,
  "pell": 49067,
  "pella": 43622,
  "pelled": 17321,
  "pelling": 29854,
  "pen": 668,
  "pencil": 29458,
  "pencils": 49139,
  "pend": 3251,
  "pended": 14187,
  "pendicular": 8666,
  "pending": 11122,
  "pene": 33523,
  "pens": 1947,
  "pense": 6753,
  "pent": 16813,
  "pentine": 19990,
  "peon": 48491,
  "people": 11041,
  "pepp": 31161,
  "pepper": 42293,
  "peppermint": 32226,
  "pept": 46540,
  "per": 558,
  "peramide": 46574,
  "perate": 9103,
  "pered": 14119,
  "perf": 44037,
  "perfect": 37275,
  "perform": 17345,
  "performance": 48830,
  "performing": 34365,
  "perhaps": 23209,
  "peri": 16602,
  "perience": 44038,
  "perienced": 17304,
  "periencing": 49414,
  "period": 44436,
  "perishable": 48018,
  "perm": 38406,
  "permanent": 49687,
  "pers": 7902,
  "perse": 18355,
  "persistent": 40573,
  "person": 11987,
  "personal": 21194,
  "persons": 40012,
  "pert": 12294,
  "pes": 5018,
  "pet": 10179,
  "peter": 46004,
  "pets": 41587,
  "pex": 20364,
  "pg": 4554,
  "ph": 1443,
  "pha": 39686,
  "phal": 21962,
  "phan": 47093,
  "phar": 45326,
  "phe": 20655,
  "phed": 34402,
  "phen": 21657,
  "pheniramine": 45521,
  "pher": 13288,
  "pheroids": 40343,
  "phers": 22537,
  "phi": 37968,
  "phin": 15221,
  "phins": 10618,
  "phob": 47590,
  "phone": 2777,
  "phones": 5125,
  "phosph": 38709,
  "phot": 28269,
  "photo": 18726,
  "photos": 33472,
  "php": 40232,
  "phr": 40233,
  "phrase": 26997,
  "phrases": 43553,
  "phrine": 42366,
  "phy": 41047,
  "phys": 20155,
  "physical": 24527,
  "pi": 10091,
  "pia": 43576,
  "pic": 9762,
  "pical": 16897,
  "pically": 24713,
  "pick": 8306,
  "picking": 32372,
  "pict": 29343,
  "picture": 39305,
  "pictures": 41539,
  "picuous": 15173,
  "picuously": 42791,
  "pid": 48407,
  "pie": 6550,
  "piece": 7701,
  "pieces": 15587,
  "pies": 28061,
  "pig": 23339,
  "pik": 44357,
  "pile": 20177,
  "pill": 11293,
  "pin": 11059,
  "pinach": 32466,
  "pinch": 40874,
  "pine": 32508,
  "pineapple": 48903,
  "pinephrine": 30527,
  "ping": 5727,
  "pink": 33063,
  "pins": 17940,
  "pip": 32109,
  "pipe": 17728,
  "pipes": 40928,
  "pir": 13705,
  "pire": 46924,
  "pired": 28574,
  "pis": 40957,
  "pit": 25637,
  "pite": 41243,
  "pix": 35854,
  "pl": 658,
  "place": 3252,
  "placeable": 43060,
  "places": 15720,
  "placing": 36451,
  "plain": 34590,
  "plan": 10061,
  "plane": 10796,
  "planes": 23378,
  "planet": 37368,
  "planning": 43453,
  "plant": 6922,
  "planted": 24965,
  "plants": 14353,
  "plash": 22120,
  "plasia": 19284,
  "plastic": 20816,
  "plasty": 26892,
  "plate": 14157,
  "platin": 43662,
  "play": 1367,
  "player": 24443,
  "players": 43697,
  "playing": 15761,
  "playstyle": 2621,
  "ple": 412,
  "pleader": 46989,
  "please": 28962,
  "pled": 46082,
  "plen": 12050,
  "pler": 23399,
  "plers": 49136,
  "ples": 4974,
  "pless": 12001,
  "plet": 29654,
  "plete": 11028,
  "plets": 18335,
  "plex": 22899,
  "pling": 15244,
  "plings": 19833,
  "plish": 33232,
  "plit": 31894,
  "plorer": 49137,
  "plot": 44844,
  "plug": 17255,
  "plugin": 34442,
  "plugins": 49498,
  "plus": 16385,
  "ply": 1401,
  "pm": 7562,
  "pmatrix": 18571,
  "pn": 10657,
  "po": 1106,
  "pod": 35062,
  "pods": 29146,
  "point": 5409,
  "pointing": 35315,
  "points": 14486,
  "poison": 39930,
  "poke": 35314,
  "poken": 26178,
  "pokÃ©": 22316,
  "pokÃ©mon": 23118,
  "pol": 20241,
  "polar": 46926,
  "pole": 30083,
  "police": 29331,
  "poly": 30943,
  "pond": 48076,
  "ponder": 26538,
  "pone": 34241,
  "pony": 43964,
  "pool": 21099,
  "poon": 2508,
  "poons": 3428,
  "poor": 33100,
  "pop": 20680,
  "popular": 38574,
  "population": 44281,
  "por": 2110,
  "porary": 14718,
  "porate": 29890,
  "porous": 48114,
  "port": 2558,
  "portable": 43741,
  "portation": 46673,
  "porter": 32703,
  "ports": 11226,
  "pos": 23617,
  "pose": 12784,
  "posed": 19793,
  "posing": 24266,
  "position": 14902,
  "positive": 40350,
  "poss": 27536,
  "possible": 42522,
  "post": 15041,
  "posts": 31417,
  "posure": 46382,
  "pot": 8285,
  "potato": 41450,
  "potatoes": 47244,
  "pots": 23020,
  "pour": 8724,
  "pow": 21507,
  "powder": 27356,
  "power": 9371,
  "powers": 40626,
  "pox": 20906,
  "pp": 391,
  "pped": 1827,
  "pper": 1450,
  "ppers": 8757,
  "pperware": 17412,
  "ppie": 35692,
  "ppies": 21704,
  "pping": 1287,
  "ppings": 7877,
  "ppm": 40996,
  "pport": 16675,
  "ppy": 6843,
  "pr": 2426,
  "pract": 9377,
  "practice": 9665,
  "practicing": 43111,
  "pray": 29893,
  "pre": 3624,
  "pread": 16365,
  "preadsheets": 30887,
  "precha": 29585,
  "pred": 45604,
  "prefer": 32304,
  "preferably": 36401,
  "preferences": 42422,
  "pregn": 36134,
  "pregnancy": 45558,
  "preheat": 7151,
  "prem": 45389,
  "prep": 17896,
  "prepare": 7048,
  "prepared": 24132,
  "preparing": 45078,
  "pres": 27513,
  "prescription": 36570,
  "present": 28740,
  "press": 4660,
  "pressed": 37535,
  "pressing": 49867,
  "presso": 10864,
  "pressure": 43410,
  "pret": 22432,
  "pretend": 38001,
  "prevent": 31327,
  "previous": 49279,
  "price": 34794,
  "prim": 39957,
  "prime": 19510,
  "pring": 23995,
  "prings": 43733,
  "print": 9775,
  "printing": 27086,
  "prints": 12506,
  "prior": 24499,
  "prioritize": 35208,
  "prit": 16940,
  "prits": 23836,
  "priv": 34961,
  "private": 30391,
  "privile": 42872,
  "privileged": 43559,
  "pro": 3617,
  "prob": 36133,
  "probably": 49503,
  "problem": 49278,
  "problems": 42077,
  "process": 17316,
  "processed": 20019,
  "produ": 13942,
  "product": 22185,
  "productive": 21414,
  "products": 45092,
  "prof": 8176,
  "profess": 15884,
  "professional": 16789,
  "profile": 28033,
  "program": 18077,
  "programs": 49277,
  "project": 29796,
  "prom": 20187,
  "promazine": 44658,
  "promised": 43867,
  "prompt": 47311,
  "pron": 22991,
  "pronounce": 35205,
  "pronunciation": 36771,
  "proof": 6156,
  "proofing": 29203,
  "prop": 18997,
  "proper": 26192,
  "property": 35039,
  "propion": 38568,
  "propylene": 34691,
  "prot": 13174,
  "protect": 13515,
  "protective": 35406,
  "protein": 37748,
  "prov": 27938,
  "provide": 17125,
  "providing": 46395,
  "proxy": 47660,
  "prune": 42716,
  "ps": 1077,
  "pse": 40406,
  "psi": 32549,
  "psis": 34294,
  "pson": 31906,
  "psons": 40219,
  "psy": 14824,
  "psych": 26472,
  "psychiat": 47838,
  "pt": 518,
  "pter": 38355,
  "ptic": 9063,
  "ptics": 34268,
  "ption": 4875,
  "ptions": 12217,
  "ptious": 49106,
  "ptive": 42628,
  "pto": 15056,
  "ptoms": 37271,
  "ptophan": 25779,
  "ptu": 26043,
  "ptuous": 46565,
  "pu": 31721,
  "pub": 41903,
  "public": 29344,
  "puff": 32371,
  "pul": 43217,
  "pull": 15631,
  "pulling": 47779,
  "pump": 31384,
  "pumpkin": 39036,
  "punch": 43962,
  "pupp": 33776,
  "puppies": 36997,
  "pur": 23752,
  "purch": 8268,
  "purchase": 8396,
  "pure": 39333,
  "purple": 40351,
  "purs": 47918,
  "pus": 41586,
  "push": 24608,
  "put": 2659,
  "putable": 40521,
  "putstream": 20533,
  "putting": 32988,
  "px": 6949,
  "py": 5680,
  "pyr": 47210,
  "q": 85,
  "ql": 14225,
  "qli": 48975,
  "qr": 43965,
  "qrt": 9204,
  "qt": 40671,
  "qu": 410,
  "qual": 14665,
  "qualified": 30885,
  "quality": 47489,
  "quar": 17322,
  "quare": 43628,
  "quart": 40718,
  "quarter": 41955,
  "quarters": 17386,
  "quat": 37044,
  "quats": 37264,
  "que": 6017,
  "queen": 45658,
  "quer": 30470,
  "query": 39370,
  "ques": 23158,
  "quest": 26981,
  "question": 32129,
  "questions": 47843,
  "quet": 9327,
  "quets": 21780,
  "quick": 26751,
  "quil": 39369,
  "quin": 18309,
  "quinone": 27803,
  "quins": 49081,
  "quit": 33514,
  "quite": 41636,
  "quoise": 18621,
  "quote": 49655,
  "r": 86,
  "ra": 471,
  "rab": 9489,
  "rabbit": 47735,
  "rabbits": 43825,
  "rabi": 28910,
  "rable": 37928,
  "rac": 17251,
  "race": 37429,
  "racial": 44264,
  "rack": 19768,
  "ract": 1042,
  "racted": 42666,
  "ractic": 28177,
  "raction": 22984,
  "ractions": 29669,
  "ractive": 18698,
  "ractor": 13021,
  "ractors": 18448,
  "rad": 13215,
  "rade": 30147,
  "rader": 38787,
  "radio": 37812,
  "raditional": 40882,
  "raft": 45247,
  "rag": 8256,
  "ragalus": 36728,
  "rage": 16439,
  "raged": 37693,
  "ragon": 23053,
  "rah": 18512,
  "raid": 3273,
  "rail": 32131,
  "rails": 38402,
  "rain": 13329,
  "raine": 46005,
  "rainian": 41476,
  "rais": 7849,
  "raise": 19476,
  "raised": 21827,
  "raising": 14007,
  "ral": 2453,
  "raline": 47634,
  "rally": 42904,
  "rals": 9839,
  "ram": 4370,
  "rame": 40408,
  "ramine": 33714,
  "rams": 15334,
  "ran": 21658,
  "rance": 5951,
  "rances": 12881,
  "rand": 17759,
  "random": 25397,
  "randomrandom": 31711,
  "randomrandomrandomrandom": 45121,
  "ranean": 47921,
  "range": 17162,
  "rangea": 42184,
  "ranged": 34897,
  "rangle": 42565,
  "ranial": 49441,
  "rans": 15945,
  "ransfer": 49978,
  "ransmit": 19198,
  "rant": 7871,
  "rants": 28666,
  "rap": 1491,
  "rape": 5607,
  "raph": 4320,
  "rapid": 32839,
  "rar": 15112,
  "rare": 43219,
  "ras": 4737,
  "rase": 4797,
  "rasp": 45605,
  "rass": 24534,
  "rast": 5142,
  "rat": 29739,
  "rate": 3670,
  "rated": 5014,
  "rates": 11817,
  "rather": 33343,
  "rating": 6966,
  "ration": 2561,
  "rations": 8454,
  "rative": 34896,
  "rator": 12118,
  "rators": 30256,
  "raught": 45665,
  "raut": 23819,
  "rav": 9235,
  "ravel": 12352,
  "raviolet": 18434,
  "raw": 16882,
  "ray": 5414,
  "rays": 29535,
  "raz": 19281,
  "razolam": 30433,
  "razole": 29935,
  "rc": 32373,
  "rd": 10614,
  "rds": 47919,
  "re": 269,
  "reach": 18591,
  "read": 835,
  "reader": 30483,
  "readers": 49718,
  "reading": 22493,
  "reads": 22492,
  "ready": 1512,
  "real": 13352,
  "realize": 18302,
  "really": 44367,
  "ream": 48998,
  "reason": 48421,
  "reat": 550,
  "reated": 11030,
  "reath": 9145,
  "reating": 19997,
  "reau": 42263,
  "rec": 15062,
  "recall": 42573,
  "rece": 22623,
  "receive": 28395,
  "recent": 36814,
  "reci": 3118,
  "reciated": 32577,
  "recogn": 10804,
  "recognize": 11071,
  "recomme": 42264,
  "record": 24651,
  "recovery": 45614,
  "rect": 1789,
  "rection": 19173,
  "rectomy": 28189,
  "recycle": 44753,
  "red": 625,
  "redd": 29053,
  "redded": 42317,
  "redict": 13874,
  "redit": 18947,
  "redness": 33968,
  "redu": 17440,
  "reduce": 20770,
  "reduced": 45903,
  "reducing": 47300,
  "ree": 623,
  "reek": 8404,
  "reen": 923,
  "rees": 2023,
  "reeze": 11428,
  "ref": 15595,
  "refer": 33782,
  "reflect": 25329,
  "refr": 28065,
  "refrain": 36392,
  "refriger": 41866,
  "refund": 38297,
  "refundable": 40660,
  "refusing": 48276,
  "reg": 5087,
  "regard": 15552,
  "regardless": 32199,
  "region": 46265,
  "regist": 27948,
  "register": 22694,
  "registered": 41864,
  "registration": 41865,
  "regular": 8385,
  "regulated": 41113,
  "rehe": 7509,
  "rel": 4272,
  "related": 12675,
  "relations": 36319,
  "relationship": 45130,
  "relax": 23413,
  "rele": 35461,
  "release": 39831,
  "relieve": 48174,
  "religious": 42431,
  "relin": 44556,
  "rell": 41910,
  "rels": 11289,
  "rem": 4782,
  "remail": 49304,
  "remain": 31208,
  "reme": 2696,
  "remember": 11025,
  "remia": 42756,
  "remind": 28790,
  "remo": 48422,
  "remove": 7252,
  "removing": 34901,
  "rempt": 32723,
  "ren": 1047,
  "rence": 11162,
  "rences": 21959,
  "rench": 3882,
  "renched": 26315,
  "renches": 22635,
  "rend": 34095,
  "rene": 11707,
  "renheit": 5552,
  "renia": 16683,
  "rens": 31414,
  "rent": 1649,
  "renter": 49733,
  "rep": 11602,
  "repair": 31695,
  "repe": 21271,
  "repeat": 22856,
  "replace": 23703,
  "report": 23918,
  "reprene": 16564,
  "represent": 21729,
  "reputable": 45187,
  "requ": 10030,
  "request": 26354,
  "require": 44612,
  "requires": 49368,
  "rer": 11483,
  "rers": 19583,
  "res": 1049,
  "rese": 46016,
  "research": 11172,
  "resent": 17510,
  "reserve": 45711,
  "reserved": 41338,
  "reset": 45185,
  "resh": 1821,
  "resident": 34942,
  "resist": 22244,
  "resp": 16269,
  "respect": 30290,
  "respective": 43343,
  "respir": 49173,
  "respo": 5434,
  "respond": 37137,
  "respons": 16707,
  "ress": 594,
  "ressed": 4810,
  "resses": 17568,
  "ressin": 41976,
  "ressing": 26986,
  "ression": 2198,
  "ressive": 38903,
  "ressure": 18649,
  "rest": 1021,
  "restart": 33095,
  "restaur": 43683,
  "restrial": 36466,
  "result": 37721,
  "ret": 2603,
  "retch": 46210,
  "rete": 4324,
  "reth": 13358,
  "retin": 42060,
  "retino": 21057,
  "retinoin": 21128,
  "retion": 12415,
  "retire": 47146,
  "retirement": 49543,
  "retr": 44132,
  "rets": 8312,
  "rett": 37513,
  "rette": 16185,
  "rettes": 23456,
  "return": 25981,
  "rev": 37655,
  "reverse": 45186,
  "review": 16863,
  "rew": 18641,
  "reward": 42572,
  "rewrite": 49581,
  "rex": 18590,
  "rexone": 43150,
  "rext": 35462,
  "rey": 17360,
  "rh": 17941,
  "rhosis": 26507,
  "ri": 9152,
  "ria": 19090,
  "rial": 10119,
  "riam": 39768,
  "rian": 28062,
  "rib": 2223,
  "ribbon": 43367,
  "ribly": 18880,
  "ribute": 47128,
  "ribution": 40513,
  "ric": 1114,
  "rical": 9441,
  "rically": 30792,
  "rice": 31613,
  "riced": 33248,
  "rices": 30255,
  "rich": 15376,
  "rick": 35245,
  "rics": 6805,
  "rict": 7569,
  "ricted": 34494,
  "ricting": 16388,
  "ricts": 15001,
  "ricular": 10789,
  "rid": 16958,
  "ridden": 47920,
  "ride": 30902,
  "ridge": 24325,
  "rie": 32648,
  "ried": 5368,
  "riel": 40409,
  "rier": 28575,
  "ries": 2084,
  "rig": 37428,
  "right": 3558,
  "rightarrow": 37335,
  "rightfrac": 45387,
  "rika": 12811,
  "rikaans": 30881,
  "ril": 22433,
  "rill": 26664,
  "rils": 38624,
  "rim": 5430,
  "rimazole": 38021,
  "riment": 32926,
  "rin": 11110,
  "rina": 46480,
  "rine": 16306,
  "riness": 47412,
  "ring": 2456,
  "rings": 7223,
  "rink": 30672,
  "rinkexpand": 44229,
  "rins": 37647,
  "rinse": 15831,
  "rint": 13648,
  "rints": 28486,
  "rio": 48409,
  "riosis": 26794,
  "rip": 26665,
  "ripe": 45178,
  "riptyline": 39032,
  "ris": 11294,
  "rise": 18390,
  "rist": 9097,
  "rists": 20409,
  "rit": 2035,
  "rite": 34242,
  "ritic": 24852,
  "rition": 21465,
  "ritis": 7628,
  "ritten": 40795,
  "rium": 34551,
  "rive": 17161,
  "rix": 9456,
  "rl": 45177,
  "rm": 4344,
  "rn": 41905,
  "ro": 334,
  "roach": 18256,
  "roachable": 40065,
  "roaches": 23480,
  "road": 9524,
  "roads": 43448,
  "roast": 39096,
  "roat": 47960,
  "rob": 17034,
  "roban": 49046,
  "robe": 7249,
  "robes": 35481,
  "roc": 30271,
  "rocess": 42944,
  "rock": 12977,
  "rocket": 33070,
  "rocks": 40702,
  "rod": 23923,
  "rodu": 2354,
  "roductive": 22990,
  "rof": 9028,
  "rofen": 9658,
  "rofloxacin": 44606,
  "rofoam": 12422,
  "rog": 7511,
  "rogen": 4766,
  "rogens": 22095,
  "rogram": 46525,
  "roid": 3631,
  "roidism": 12570,
  "roids": 10988,
  "roit": 31869,
  "roitin": 29650,
  "roke": 32660,
  "rol": 12182,
  "role": 48471,
  "rolimus": 45217,
  "roll": 2712,
  "rolled": 14085,
  "roller": 38950,
  "rolling": 11160,
  "rols": 40701,
  "rom": 4716,
  "roman": 29488,
  "romat": 26126,
  "romatic": 26923,
  "romatosis": 43168,
  "rome": 6879,
  "romes": 40831,
  "romet": 47411,
  "romyal": 22413,
  "romyalgia": 22536,
  "romycin": 28789,
  "ron": 5245,
  "ronic": 23964,
  "ronics": 37779,
  "ronil": 41419,
  "rons": 15445,
  "ront": 6900,
  "ronunciation": 45419,
  "ronutr": 28201,
  "ronutrient": 44684,
  "ronutrients": 33328,
  "ronym": 19109,
  "roo": 47468,
  "roof": 25351,
  "room": 1950,
  "rooms": 5188,
  "root": 12260,
  "roots": 25954,
  "rop": 942,
  "rope": 30359,
  "roph": 6657,
  "rophe": 22440,
  "rophes": 33825,
  "rophic": 33016,
  "rophobia": 48063,
  "rophy": 21830,
  "rophys": 40851,
  "ropical": 41678,
  "roportion": 29068,
  "ropr": 1823,
  "ropriate": 1835,
  "rops": 29986,
  "ropyl": 15798,
  "ror": 3006,
  "rored": 26975,
  "rors": 4990,
  "ros": 7138,
  "rosclerosis": 28717,
  "rose": 15141,
  "rosemary": 43140,
  "rosia": 48206,
  "rosis": 20523,
  "rosoft": 17787,
  "ross": 1476,
  "rosse": 26136,
  "rost": 12858,
  "rot": 22191,
  "rotate": 46834,
  "rotic": 40129,
  "rou": 457,
  "rouble": 30807,
  "roud": 6967,
  "rough": 697,
  "rought": 5947,
  "roulette": 39373,
  "round": 608,
  "rounds": 22629,
  "roup": 27461,
  "rous": 10312,
  "rout": 25206,
  "row": 1265,
  "rower": 14084,
  "rowing": 43694,
  "rows": 15830,
  "rox": 14131,
  "roxen": 16579,
  "roxine": 41156,
  "roy": 28752,
  "royal": 49045,
  "rozen": 39097,
  "rp": 38846,
  "rr": 32374,
  "rrh": 28236,
  "rrs": 39335,
  "rs": 6507,
  "rt": 8202,
  "ru": 1093,
  "rual": 35246,
  "rub": 16959,
  "rubber": 30888,
  "rubbing": 36964,
  "ruci": 37080,
  "ruck": 40482,
  "ruct": 28428,
  "ructure": 19006,
  "rue": 16347,
  "ruff": 10562,
  "rug": 15565,
  "ruit": 6166,
  "rule": 26054,
  "ruler": 48410,
  "rules": 38434,
  "ruly": 23987,
  "rum": 8184,
  "rums": 18011,
  "run": 11757,
  "running": 26711,
  "rup": 4150,
  "rupt": 3134,
  "rus": 6653,
  "rush": 42905,
  "rusions": 34490,
  "rust": 13516,
  "ry": 725,
  "rying": 24154,
  "ryl": 19125,
  "rylic": 7230,
  "rypt": 22048,
  "rys": 18467,
  "s": 87,
  "sa": 5331,
  "safe": 42109,
  "safety": 49573,
  "sal": 38356,
  "salt": 39848,
  "san": 48976,
  "sand": 27207,
  "sautÃ©": 37889,
  "save": 20023,
  "say": 16773,
  "sc": 5247,
  "scale": 42439,
  "scan": 28548,
  "scape": 41769,
  "schedule": 22386,
  "school": 30348,
  "schools": 48337,
  "sciss": 40278,
  "scissors": 44332,
  "scoop": 35151,
  "score": 45420,
  "scout": 49316,
  "scr": 23701,
  "scrape": 35457,
  "screen": 14537,
  "scroll": 36705,
  "scrub": 29522,
  "sdisplaystyle": 47413,
  "se": 313,
  "sea": 23968,
  "seal": 35476,
  "search": 7667,
  "season": 26037,
  "seat": 23393,
  "sec": 9814,
  "second": 25210,
  "secondary": 44676,
  "seconds": 39355,
  "secr": 36824,
  "secret": 44217,
  "section": 14722,
  "sections": 28581,
  "secure": 27457,
  "secured": 16097,
  "security": 39495,
  "secut": 8127,
  "secution": 16127,
  "sed": 17785,
  "see": 7491,
  "seed": 11922,
  "seeds": 21631,
  "seeing": 24358,
  "seek": 18939,
  "seen": 20898,
  "sees": 42283,
  "seiz": 35874,
  "seizures": 39316,
  "sel": 1831,
  "select": 6326,
  "selection": 33146,
  "self": 617,
  "selfish": 49130,
  "sell": 18465,
  "seller": 29848,
  "sellers": 31017,
  "selling": 34734,
  "sels": 6812,
  "selves": 2556,
  "sem": 37671,
  "semble": 18368,
  "sement": 15403,
  "semploy": 47458,
  "send": 19277,
  "separate": 21952,
  "sequ": 4335,
  "ser": 37235,
  "serve": 31495,
  "server": 38125,
  "ses": 2591,
  "set": 2123,
  "setc": 42284,
  "sets": 11754,
  "sett": 25601,
  "setta": 46195,
  "sette": 18075,
  "settes": 29383,
  "setting": 29678,
  "settings": 36490,
  "setto": 35125,
  "setup": 29287,
  "seven": 35477,
  "sever": 31507,
  "several": 33478,
  "severe": 26523,
  "sew": 37254,
  "sewing": 42591,
  "sex": 15596,
  "sext": 37255,
  "sexual": 16924,
  "sey": 22037,
  "seye": 31274,
  "sh": 3243,
  "sha": 14814,
  "shade": 43758,
  "shadow": 27628,
  "shaft": 21813,
  "shake": 14857,
  "shakes": 29390,
  "shampoo": 34802,
  "shape": 38738,
  "share": 19160,
  "shared": 28990,
  "sharing": 38229,
  "shave": 22506,
  "she": 4534,
  "sheet": 36930,
  "sheets": 23893,
  "shell": 39987,
  "shi": 13525,
  "shield": 11339,
  "shift": 29480,
  "shire": 30099,
  "shirt": 44542,
  "shoot": 39336,
  "shop": 21924,
  "shore": 23137,
  "short": 28785,
  "shot": 14933,
  "shots": 21112,
  "should": 32302,
  "show": 16874,
  "shower": 31671,
  "shrink": 41735,
  "shrinkexpand": 45379,
  "shuffle": 47160,
  "shut": 31076,
  "si": 46006,
  "side": 1393,
  "sift": 33344,
  "sight": 35247,
  "sign": 14462,
  "sim": 17663,
  "simmer": 45506,
  "simpl": 43482,
  "simple": 42831,
  "simplify": 48935,
  "simply": 25333,
  "sin": 9026,
  "since": 13861,
  "sing": 2298,
  "single": 42048,
  "sinÎ¸": 42470,
  "sis": 5840,
  "sit": 17177,
  "six": 40672,
  "size": 43220,
  "sk": 14165,
  "sketch": 22260,
  "ski": 32091,
  "skill": 46481,
  "skin": 23340,
  "skip": 35803,
  "sky": 44358,
  "sl": 13711,
  "sleep": 27451,
  "slice": 22927,
  "slide": 31460,
  "slip": 46790,
  "slow": 30426,
  "slowly": 42864,
  "sm": 11211,
  "small": 27263,
  "smart": 48793,
  "smile": 27957,
  "smiling": 49947,
  "smith": 20541,
  "smo": 28237,
  "smoke": 47846,
  "smoking": 43524,
  "smooth": 47333,
  "sn": 28576,
  "so": 475,
  "soak": 16846,
  "soap": 48513,
  "soci": 2151,
  "social": 20212,
  "socket": 32815,
  "sod": 32132,
  "sodium": 38822,
  "sody": 43640,
  "soever": 20688,
  "sof": 49101,
  "soff": 42307,
  "soft": 4952,
  "soften": 41768,
  "software": 43777,
  "soil": 18226,
  "sol": 2001,
  "sold": 35285,
  "sole": 31883,
  "solid": 12276,
  "solution": 42393,
  "solve": 25233,
  "solved": 20954,
  "some": 7742,
  "someone": 41446,
  "something": 39062,
  "sometimes": 14065,
  "son": 16584,
  "soon": 38155,
  "sop": 37268,
  "sopen": 36848,
  "sor": 6668,
  "sort": 32110,
  "sos": 36253,
  "sound": 47922,
  "south": 41244,
  "sover": 24479,
  "soy": 38893,
  "sp": 2095,
  "space": 17258,
  "spaper": 42705,
  "spawn": 43036,
  "spay": 46661,
  "spe": 13872,
  "speak": 21096,
  "spec": 38289,
  "special": 47285,
  "specific": 45135,
  "speed": 29008,
  "spend": 19616,
  "spers": 42704,
  "sphe": 30500,
  "spheres": 43035,
  "spheroids": 34084,
  "spice": 22875,
  "spin": 20785,
  "spinal": 44916,
  "spir": 42703,
  "split": 40958,
  "spor": 30600,
  "spot": 22449,
  "spr": 21360,
  "spray": 7561,
  "sprays": 49437,
  "spread": 17999,
  "spring": 19131,
  "sprinkle": 27115,
  "sprint": 48647,
  "spwn": 49797,
  "sqrt": 14429,
  "squ": 8001,
  "square": 18270,
  "squeeze": 30414,
  "ss": 399,
  "sservices": 39631,
  "sses": 29256,
  "ssh": 22312,
  "sshe": 48495,
  "sshort": 46835,
  "sshow": 47980,
  "ssian": 25214,
  "ssl": 29855,
  "ssmall": 33655,
  "sso": 46543,
  "ssocial": 49075,
  "ssome": 31402,
  "sson": 46984,
  "ssoy": 46985,
  "ssp": 40170,
  "sspheroids": 45226,
  "ssuch": 39630,
  "ssystem": 25280,
  "st": 306,
  "sta": 46516,
  "stack": 34731,
  "staff": 29746,
  "stage": 23764,
  "stain": 7270,
  "stairs": 17542,
  "stake": 31272,
  "stakes": 29847,
  "staking": 36039,
  "stal": 21469,
  "stalk": 37030,
  "stalking": 45631,
  "stall": 4959,
  "stamp": 43240,
  "stan": 48457,
  "stand": 1151,
  "standard": 27469,
  "standing": 11230,
  "stap": 39867,
  "stape": 49030,
  "star": 13597,
  "starch": 9044,
  "stars": 39088,
  "start": 4894,
  "starter": 29815,
  "starting": 27332,
  "stat": 31271,
  "state": 9353,
  "statement": 40029,
  "states": 41930,
  "static": 27520,
  "station": 10602,
  "stations": 45211,
  "status": 48458,
  "stay": 12464,
  "staying": 32933,
  "ste": 7238,
  "stead": 41614,
  "steak": 43435,
  "steam": 26932,
  "sted": 41613,
  "steel": 41443,
  "steer": 38766,
  "stein": 21407,
  "steine": 38258,
  "steins": 31950,
  "stem": 33951,
  "sten": 28493,
  "step": 16654,
  "steps": 22036,
  "ster": 2002,
  "stered": 22485,
  "sterilize": 46191,
  "steroidal": 26694,
  "sterol": 6932,
  "sters": 4636,
  "stery": 12239,
  "stext": 46517,
  "sth": 14697,
  "sthat": 38555,
  "sthe": 9326,
  "sthere": 38132,
  "sthese": 40307,
  "sthey": 31225,
  "sthink": 45882,
  "sthis": 25003,
  "sthst": 44638,
  "stic": 9234,
  "stically": 13508,
  "stick": 3707,
  "stickers": 41404,
  "sticks": 11915,
  "stiff": 41263,
  "still": 38372,
  "stim": 36228,
  "stimes": 40979,
  "stir": 16536,
  "stit": 20052,
  "stitch": 18332,
  "stitute": 32756,
  "stitutional": 48847,
  "stmt": 49620,
  "sto": 18789,
  "stock": 8699,
  "stom": 33494,
  "stomach": 38606,
  "stomy": 45212,
  "ston": 13106,
  "stone": 7109,
  "stones": 9589,
  "stood": 23440,
  "stool": 33208,
  "stooth": 49998,
  "stop": 12311,
  "stops": 38133,
  "stor": 27519,
  "storage": 34700,
  "store": 8552,
  "stores": 13973,
  "storm": 7178,
  "story": 35270,
  "stoy": 49619,
  "str": 2870,
  "stra": 14781,
  "straight": 28046,
  "straighten": 42213,
  "strain": 38474,
  "stral": 46040,
  "strans": 46214,
  "strap": 24142,
  "strate": 30953,
  "stration": 19121,
  "straw": 29118,
  "strawberries": 38600,
  "strawberry": 48333,
  "stre": 7484,
  "stream": 9009,
  "street": 31220,
  "strength": 39754,
  "strengthe": 45444,
  "stress": 22864,
  "stret": 20745,
  "stretch": 22533,
  "stretched": 21569,
  "stretching": 48301,
  "strike": 33130,
  "string": 12250,
  "strings": 15170,
  "strip": 25378,
  "stripes": 40090,
  "stripping": 39965,
  "strips": 40258,
  "stro": 14500,
  "stroke": 17405,
  "strokes": 27655,
  "strom": 41085,
  "strong": 28012,
  "strous": 49031,
  "stru": 9340,
  "strual": 8961,
  "struct": 16280,
  "structed": 27272,
  "struction": 26073,
  "structive": 46315,
  "structured": 32750,
  "strum": 25928,
  "strung": 46680,
  "stry": 29957,
  "sts": 7406,
  "stud": 14513,
  "student": 42170,
  "students": 40602,
  "studies": 31359,
  "study": 19910,
  "stuff": 31506,
  "stuffs": 39089,
  "sturn": 38647,
  "stwo": 39614,
  "sty": 10007,
  "style": 2321,
  "stype": 31957,
  "stypecopypaste": 41550,
  "styrene": 32881,
  "su": 25581,
  "sub": 23021,
  "submit": 41521,
  "substitute": 46839,
  "such": 40673,
  "sudo": 48978,
  "sugar": 45107,
  "suggest": 40359,
  "suit": 48977,
  "sum": 32649,
  "sun": 35456,
  "supp": 45606,
  "support": 35659,
  "sur": 18413,
  "sure": 1355,
  "surround": 46814,
  "sus": 46007,
  "sv": 12339,
  "sw": 1695,
  "swe": 10360,
  "sweep": 33448,
  "sweet": 43221,
  "swelling": 45027,
  "swh": 41704,
  "swhat": 34462,
  "swimming": 46180,
  "swing": 25922,
  "swipe": 31427,
  "switch": 26059,
  "sword": 36480,
  "sy": 24942,
  "sych": 40410,
  "sym": 34552,
  "symptoms": 46424,
  "system": 42906,
  "t": 88,
  "ta": 5612,
  "tab": 33629,
  "table": 20209,
  "tag": 39337,
  "tage": 8045,
  "tail": 4121,
  "tails": 10117,
  "tain": 1599,
  "taining": 4655,
  "take": 4543,
  "taking": 14417,
  "tal": 12954,
  "tale": 20242,
  "talk": 9106,
  "talking": 33199,
  "tals": 46928,
  "tan": 27740,
  "tance": 35661,
  "tanga": 45181,
  "tap": 10435,
  "tape": 32111,
  "tapping": 39849,
  "tar": 26223,
  "target": 43891,
  "tas": 14510,
  "tasia": 48816,
  "taste": 34553,
  "tax": 29955,
  "tb": 41906,
  "tc": 1532,
  "tched": 21056,
  "td": 45179,
  "tdisplaystyle": 28321,
  "te": 736,
  "tea": 33971,
  "teach": 21519,
  "teacher": 42651,
  "teaching": 46124,
  "team": 37709,
  "tear": 40466,
  "tease": 48045,
  "tebr": 33236,
  "tec": 28091,
  "tech": 48559,
  "techn": 42329,
  "ted": 1344,
  "tee": 44854,
  "teen": 8247,
  "teens": 45288,
  "teenth": 34127,
  "tek": 44855,
  "tel": 35063,
  "tele": 39663,
  "tell": 13453,
  "telling": 35097,
  "tem": 37648,
  "ten": 741,
  "tenance": 5968,
  "tenant": 32964,
  "tend": 31045,
  "tender": 42328,
  "teness": 40210,
  "tens": 2634,
  "tension": 13878,
  "tensive": 44134,
  "tent": 9710,
  "ter": 381,
  "tera": 29753,
  "terday": 16473,
  "tered": 5433,
  "tering": 5812,
  "terior": 23663,
  "term": 17488,
  "termine": 46541,
  "tern": 1146,
  "ternal": 5764,
  "ters": 1246,
  "tershire": 21213,
  "tery": 8437,
  "tes": 4967,
  "test": 11831,
  "tex": 23825,
  "text": 13292,
  "texture": 47037,
  "th": 461,
  "tha": 40180,
  "thal": 17167,
  "thank": 35500,
  "thar": 35283,
  "thargy": 38339,
  "that": 13542,
  "thaw": 43275,
  "the": 1424,
  "their": 32288,
  "theless": 14869,
  "them": 26323,
  "then": 12192,
  "ther": 442,
  "there": 5176,
  "therefore": 45418,
  "these": 8626,
  "theta": 33836,
  "they": 10556,
  "thi": 44421,
  "thick": 36440,
  "thin": 42305,
  "thing": 1000,
  "things": 22545,
  "think": 7646,
  "thinking": 27070,
  "third": 42962,
  "this": 2796,
  "thon": 48510,
  "thood": 17253,
  "thor": 32130,
  "thorn": 35499,
  "thoroughly": 37413,
  "those": 31881,
  "though": 2168,
  "thought": 31776,
  "thr": 39643,
  "thread": 33517,
  "threat": 39897,
  "threatening": 46889,
  "three": 30070,
  "through": 21051,
  "throw": 21665,
  "ths": 19625,
  "thy": 15797,
  "ti": 8911,
  "tic": 11889,
  "tical": 15187,
  "tically": 26091,
  "tick": 35660,
  "tics": 12369,
  "tie": 16348,
  "tier": 21013,
  "ties": 3467,
  "tight": 6871,
  "tighten": 42449,
  "tim": 27126,
  "time": 3422,
  "times": 11039,
  "tin": 48979,
  "tiness": 41245,
  "ting": 571,
  "tings": 10258,
  "tingu": 12861,
  "tion": 8659,
  "tions": 40130,
  "tip": 30059,
  "tips": 45607,
  "tis": 42907,
  "title": 34554,
  "tle": 782,
  "tled": 21897,
  "tler": 35064,
  "tles": 9052,
  "tless": 24549,
  "tling": 14940,
  "tm": 40959,
  "tml": 45180,
  "to": 1263,
  "toast": 36091,
  "tocin": 21909,
  "tod": 29639,
  "today": 39552,
  "todext": 49748,
  "toe": 26181,
  "toes": 39407,
  "token": 45724,
  "tol": 47923,
  "tom": 21384,
  "ton": 983,
  "tone": 11284,
  "tones": 12442,
  "tons": 17604,
  "too": 36413,
  "tool": 40411,
  "tools": 46930,
  "tooth": 34771,
  "top": 2548,
  "topia": 40520,
  "tor": 10257,
  "torrent": 19464,
  "tors": 20358,
  "toss": 36650,
  "total": 27577,
  "touch": 35856,
  "towel": 30452,
  "tower": 34898,
  "town": 30673,
  "tp": 14404,
  "tps": 27287,
  "tr": 4076,
  "tra": 20024,
  "trace": 30962,
  "track": 16109,
  "tracks": 45795,
  "tract": 40960,
  "trad": 34173,
  "trade": 34174,
  "traditional": 44317,
  "traditionally": 47349,
  "train": 20535,
  "training": 30100,
  "trans": 18987,
  "transfer": 31115,
  "trap": 22669,
  "travel": 23862,
  "tre": 33345,
  "treat": 19582,
  "tree": 35458,
  "tri": 39456,
  "triangle": 45140,
  "trim": 24573,
  "trip": 41746,
  "tro": 43966,
  "trouble": 46482,
  "true": 45794,
  "trusive": 29798,
  "trust": 34809,
  "try": 5953,
  "trying": 40845,
  "ts": 828,
  "tsc": 39391,
  "tt": 18817,
  "ttage": 47924,
  "tte": 6125,
  "ttes": 10159,
  "tto": 25343,
  "ttos": 27506,
  "ttt": 47306,
  "tu": 48411,
  "tube": 48412,
  "tuck": 47414,
  "tum": 46927,
  "tune": 45608,
  "tur": 30558,
  "turn": 8271,
  "turned": 27724,
  "turning": 40576,
  "tuse": 37015,
  "tv": 20547,
  "tvs": 46929,
  "tw": 18046,
  "twe": 15606,
  "twist": 35812,
  "twitter": 41845,
  "two": 19022,
  "ty": 1070,
  "tyline": 38183,
  "type": 11067,
  "typecopypaste": 22925,
  "types": 29372,
  "typically": 28973,
  "tys": 20742,
  "tz": 20300,
  "tzee": 36764,
  "u": 89,
  "ua": 21420,
  "uable": 14984,
  "ual": 892,
  "ually": 772,
  "uals": 3856,
  "uan": 38625,
  "uaries": 31137,
  "uary": 9805,
  "uate": 3036,
  "uated": 22264,
  "uates": 25517,
  "uating": 20144,
  "uation": 5278,
  "uations": 43967,
  "ub": 703,
  "uba": 21350,
  "ubar": 14615,
  "ubarb": 15374,
  "ube": 2416,
  "uber": 34093,
  "ubers": 39384,
  "ubes": 27758,
  "ubin": 27688,
  "ubject": 48040,
  "ubl": 26611,
  "uble": 11009,
  "ublic": 15462,
  "ublished": 31478,
  "ubmit": 32824,
  "ubs": 9141,
  "ubst": 36452,
  "ubuntu": 33970,
  "uc": 2053,
  "uca": 39184,
  "ucalyptus": 44514,
  "ucc": 16487,
  "uccess": 18074,
  "ucch": 10177,
  "uccino": 24255,
  "uccinos": 46355,
  "ucco": 24980,
  "uce": 7377,
  "ucent": 11195,
  "uces": 32784,
  "uch": 15532,
  "uci": 26092,
  "ucil": 38719,
  "uck": 1793,
  "ucked": 37740,
  "ucker": 39694,
  "uckered": 48641,
  "ucking": 11019,
  "uckle": 30494,
  "ucks": 36103,
  "ucky": 21913,
  "ucle": 43222,
  "ucleosis": 48373,
  "ucop": 34555,
  "uct": 1885,
  "uction": 24715,
  "uctor": 42255,
  "ud": 502,
  "uda": 25588,
  "udden": 31884,
  "ude": 2649,
  "uded": 29657,
  "udes": 10289,
  "udge": 7512,
  "udges": 23771,
  "udi": 32528,
  "uding": 14629,
  "udisplaystyle": 32816,
  "udo": 14864,
  "uds": 14066,
  "udsman": 46342,
  "udu": 33223,
  "ue": 583,
  "ued": 4077,
  "uede": 41409,
  "uel": 20359,
  "uent": 22482,
  "ues": 1334,
  "uesday": 13821,
  "uese": 27471,
  "uf": 34899,
  "ufact": 46932,
  "uff": 1898,
  "uffed": 42035,
  "uffin": 37978,
  "uffing": 48637,
  "uffle": 33696,
  "uffs": 21752,
  "ug": 1285,
  "uga": 40226,
  "ugal": 21321,
  "ugar": 29032,
  "uge": 29536,
  "ugg": 2674,
  "ugged": 9242,
  "ugger": 32847,
  "uggest": 36593,
  "ugging": 8088,
  "ugh": 31136,
  "ught": 37858,
  "ugin": 10020,
  "ugreek": 22078,
  "ugs": 5778,
  "ugu": 43695,
  "uguese": 28000,
  "ugula": 24971,
  "uh": 32112,
  "ui": 21898,
  "uin": 35248,
  "uinal": 32927,
  "uine": 5633,
  "uing": 3681,
  "uish": 37236,
  "uit": 1710,
  "uitary": 25295,
  "uite": 28406,
  "uities": 25139,
  "uits": 2802,
  "uity": 10431,
  "uk": 11080,
  "uke": 20937,
  "uki": 26941,
  "uks": 46931,
  "ul": 402,
  "ula": 2669,
  "ulance": 17426,
  "ular": 780,
  "ulary": 7968,
  "ulas": 8855,
  "ulate": 3208,
  "ulated": 4809,
  "ulately": 46545,
  "ulates": 14849,
  "ulating": 9200,
  "ulation": 3757,
  "ulations": 5179,
  "ulative": 14156,
  "ulator": 14725,
  "ulators": 23126,
  "ulatory": 32811,
  "ule": 8706,
  "ulean": 40865,
  "uled": 38847,
  "ulence": 25951,
  "ulent": 10615,
  "uler": 25710,
  "ules": 8692,
  "ulf": 21778,
  "ulfate": 38576,
  "ulge": 23664,
  "ulging": 33512,
  "uli": 44410,
  "ulia": 47983,
  "ulin": 29044,
  "ulina": 24782,
  "uling": 9421,
  "ulite": 23974,
  "ulk": 47982,
  "ull": 712,
  "ully": 1586,
  "ulmonary": 39109,
  "ulner": 41633,
  "ulose": 39632,
  "ulous": 10225,
  "ulously": 21553,
  "uls": 6998,
  "ulsion": 17142,
  "ulsive": 37546,
  "ult": 616,
  "ulting": 5059,
  "ultural": 27381,
  "ulture": 19005,
  "ultures": 33816,
  "ulu": 17686,
  "ulum": 10250,
  "ulums": 36054,
  "ulus": 27459,
  "uly": 38126,
  "um": 419,
  "uma": 35280,
  "umab": 38148,
  "umb": 2172,
  "umba": 19288,
  "umbai": 41715,
  "umbent": 29997,
  "umber": 8513,
  "umble": 6632,
  "umbled": 47702,
  "umbling": 16463,
  "umbness": 42707,
  "umbs": 5926,
  "ume": 1656,
  "umed": 24478,
  "umen": 36618,
  "ument": 3295,
  "umental": 17218,
  "uments": 5110,
  "umer": 38396,
  "umerable": 46084,
  "umes": 4929,
  "umi": 49084,
  "umin": 4430,
  "uming": 20686,
  "uminous": 21258,
  "uminum": 41756,
  "ummer": 37923,
  "ummy": 17090,
  "umn": 10408,
  "ump": 1502,
  "umper": 11035,
  "umping": 25919,
  "umps": 3838,
  "umpy": 19309,
  "ums": 3147,
  "umÃ©": 26886,
  "un": 474,
  "una": 16746,
  "unas": 32671,
  "unate": 14745,
  "unately": 5963,
  "unch": 1825,
  "unched": 25907,
  "uncher": 44422,
  "unches": 14289,
  "unchy": 39695,
  "unci": 9244,
  "unciation": 10370,
  "unciations": 30875,
  "uncle": 43278,
  "uncles": 48001,
  "unct": 15653,
  "unction": 6551,
  "unctions": 21901,
  "unctive": 49100,
  "uncture": 38404,
  "unculus": 32949,
  "und": 5884,
  "under": 4330,
  "understand": 5227,
  "understanding": 36704,
  "unds": 24714,
  "une": 3150,
  "uned": 29358,
  "unes": 3939,
  "unexplained": 41650,
  "unflower": 42963,
  "unfortunately": 37051,
  "ung": 2818,
  "unge": 6323,
  "uning": 47002,
  "uninstall": 37694,
  "union": 15191,
  "unit": 44814,
  "united": 43279,
  "univers": 49099,
  "university": 43280,
  "unk": 2464,
  "unking": 28419,
  "unky": 26847,
  "unless": 21473,
  "unlike": 25650,
  "unlock": 32266,
  "unning": 27375,
  "unny": 38403,
  "uno": 34922,
  "unplug": 27915,
  "uns": 16412,
  "unscrew": 40333,
  "unt": 2153,
  "unter": 46093,
  "until": 34957,
  "untu": 11124,
  "unusual": 40443,
  "unya": 33963,
  "uo": 46008,
  "uous": 5861,
  "uously": 31138,
  "up": 781,
  "upd": 47544,
  "update": 24387,
  "uper": 17113,
  "uperv": 22661,
  "upervised": 23391,
  "upgrade": 42652,
  "uphol": 36083,
  "upid": 10044,
  "upload": 35302,
  "upon": 23984,
  "upp": 11968,
  "upper": 40412,
  "upply": 35403,
  "upport": 18301,
  "upporting": 42836,
  "uprofen": 9727,
  "ups": 7749,
  "upt": 13366,
  "uptake": 25123,
  "uptial": 21986,
  "upulous": 32966,
  "ur": 385,
  "ura": 13019,
  "urable": 13658,
  "urai": 31732,
  "ural": 4665,
  "urally": 22237,
  "urals": 44011,
  "uran": 21015,
  "urance": 2353,
  "urances": 40995,
  "uras": 33508,
  "urate": 41947,
  "uration": 25213,
  "urb": 5760,
  "urbed": 18858,
  "urch": 4383,
  "urd": 23971,
  "ure": 425,
  "urea": 47493,
  "ureate": 43630,
  "ured": 3095,
  "urer": 3693,
  "urers": 33863,
  "ures": 1486,
  "uresis": 43356,
  "uress": 29857,
  "ureth": 15290,
  "urf": 39627,
  "urface": 40715,
  "urg": 17362,
  "urgery": 31874,
  "urgical": 36969,
  "uri": 31400,
  "uria": 36241,
  "uric": 31873,
  "urice": 48492,
  "uries": 5210,
  "urin": 33957,
  "uring": 919,
  "urinol": 47866,
  "urious": 18553,
  "urist": 40714,
  "uristic": 32004,
  "urities": 11379,
  "urity": 2714,
  "urium": 39628,
  "urize": 27373,
  "urized": 16866,
  "url": 24146,
  "urn": 681,
  "urnal": 19974,
  "uro": 5686,
  "urop": 16139,
  "uropath": 22378,
  "urous": 14093,
  "urpose": 33654,
  "urpr": 41948,
  "urry": 41628,
  "urs": 7946,
  "ursday": 15263,
  "ursor": 35488,
  "urt": 2108,
  "urtles": 11684,
  "urts": 23030,
  "uru": 41277,
  "urus": 47480,
  "urved": 31027,
  "ury": 2496,
  "uryl": 29785,
  "urys": 28418,
  "us": 422,
  "usa": 29554,
  "usable": 13541,
  "usal": 19402,
  "usalem": 33806,
  "usb": 33076,
  "usc": 27220,
  "uscular": 26822,
  "usd": 40178,
  "use": 1689,
  "used": 4001,
  "user": 7417,
  "usern": 24621,
  "username": 29524,
  "users": 13622,
  "uses": 4288,
  "uset": 20693,
  "ush": 870,
  "ushed": 4820,
  "usher": 23483,
  "ushes": 5077,
  "ushing": 3110,
  "ushiol": 46139,
  "usic": 39893,
  "using": 4646,
  "usion": 3959,
  "usional": 31282,
  "usions": 8802,
  "usive": 5536,
  "usively": 39636,
  "usk": 17643,
  "usp": 34576,
  "usr": 39112,
  "uss": 1800,
  "ussian": 47617,
  "ussis": 36482,
  "ust": 459,
  "ustainable": 48508,
  "ustedes": 28757,
  "uster": 24219,
  "ustered": 25844,
  "usual": 39635,
  "usually": 20590,
  "ut": 348,
  "utable": 32000,
  "utan": 36043,
  "utane": 29444,
  "ute": 1573,
  "uted": 5564,
  "uten": 35483,
  "uter": 18442,
  "utered": 15117,
  "uterine": 32343,
  "utes": 5432,
  "uth": 4624,
  "utic": 13864,
  "util": 40433,
  "utilities": 46061,
  "utility": 42601,
  "utilize": 38139,
  "uting": 6983,
  "ution": 1530,
  "utional": 17202,
  "utions": 3933,
  "uto": 21866,
  "utory": 22392,
  "utos": 46975,
  "utr": 25279,
  "uts": 5000,
  "utsu": 38970,
  "utter": 14999,
  "uttered": 29849,
  "uttering": 19073,
  "utters": 31022,
  "utto": 38138,
  "utum": 34425,
  "utz": 45219,
  "uv": 19944,
  "ux": 4546,
  "uxe": 34812,
  "uz": 41907,
  "uzz": 40961,
  "v": 90,
  "va": 8255,
  "vab": 36028,
  "vable": 7021,
  "vac": 16307,
  "vacc": 33459,
  "vacu": 27035,
  "vacuum": 28656,
  "vag": 17273,
  "vage": 35459,
  "vaginal": 39790,
  "vah": 23149,
  "val": 2948,
  "vale": 37430,
  "valid": 46216,
  "vals": 31848,
  "valuate": 14554,
  "value": 22877,
  "valued": 30307,
  "values": 33706,
  "van": 11298,
  "vana": 27977,
  "vanilla": 45471,
  "vant": 3489,
  "var": 18350,
  "vard": 20178,
  "vari": 27578,
  "variable": 42857,
  "variance": 39813,
  "various": 44651,
  "vary": 46484,
  "vas": 5101,
  "vascular": 9440,
  "vasive": 31080,
  "vastatin": 39063,
  "vat": 49575,
  "vate": 42256,
  "vation": 24138,
  "vc": 25832,
  "vd": 14475,
  "ve": 312,
  "ved": 1051,
  "vegan": 44392,
  "veget": 21738,
  "vegetable": 36767,
  "vegetables": 28476,
  "veh": 34416,
  "vehicle": 43535,
  "veil": 43246,
  "vek": 37454,
  "vel": 1073,
  "veled": 17621,
  "velo": 1388,
  "veloped": 43699,
  "velt": 34452,
  "ven": 1380,
  "vency": 40413,
  "vens": 24423,
  "vent": 6365,
  "ventional": 23897,
  "vents": 18330,
  "ver": 353,
  "vera": 47473,
  "verage": 3231,
  "verages": 6458,
  "veratrol": 42605,
  "verb": 15877,
  "verbal": 16674,
  "verbally": 46352,
  "verbs": 18900,
  "vere": 3126,
  "vered": 2805,
  "verify": 20749,
  "verizon": 49053,
  "verly": 42947,
  "vern": 22039,
  "verns": 36235,
  "vers": 852,
  "verse": 3885,
  "version": 13867,
  "versions": 33384,
  "vert": 2403,
  "verted": 10275,
  "verter": 40990,
  "vertical": 47633,
  "vertine": 30950,
  "verts": 14464,
  "verty": 16453,
  "very": 537,
  "ves": 940,
  "vest": 4954,
  "vests": 39338,
  "vet": 10637,
  "veter": 41266,
  "vets": 44782,
  "vey": 4823,
  "veys": 10881,
  "vf": 40962,
  "vi": 21627,
  "via": 17013,
  "vic": 10462,
  "vice": 1103,
  "vices": 1727,
  "vid": 17729,
  "vide": 12627,
  "video": 21233,
  "videos": 41821,
  "vidia": 24368,
  "vie": 28577,
  "view": 1493,
  "viewer": 27318,
  "views": 31657,
  "vil": 19327,
  "vill": 45609,
  "ville": 14619,
  "villea": 43137,
  "vils": 30903,
  "vin": 16840,
  "vine": 17942,
  "vinegar": 35196,
  "vines": 37890,
  "ving": 739,
  "vings": 6233,
  "vins": 48981,
  "vinyl": 37891,
  "vio": 32113,
  "violent": 38331,
  "vious": 3474,
  "viously": 32581,
  "vir": 17391,
  "viral": 46808,
  "virt": 43224,
  "virus": 42827,
  "vis": 4415,
  "vision": 4685,
  "visit": 8317,
  "visiting": 44557,
  "vista": 46933,
  "visual": 25490,
  "visualize": 37198,
  "vitamin": 28063,
  "vity": 17756,
  "vl": 48980,
  "vm": 40963,
  "vmatrix": 34403,
  "vn": 32375,
  "vo": 14476,
  "voc": 17338,
  "voice": 40050,
  "voiced": 45492,
  "vol": 15946,
  "volent": 37581,
  "volume": 30986,
  "volunt": 25627,
  "volunteer": 29946,
  "volved": 44254,
  "vomiting": 26808,
  "vor": 32785,
  "vosotros": 31258,
  "vous": 40674,
  "voy": 43968,
  "vpn": 35249,
  "vr": 43223,
  "vre": 49574,
  "vs": 19200,
  "vu": 30257,
  "vuls": 29434,
  "vy": 6339,
  "vz": 46483,
  "w": 91,
  "wa": 19246,
  "wag": 48982,
  "wagon": 39064,
  "wait": 14800,
  "wak": 39594,
  "wake": 23199,
  "wal": 23560,
  "wali": 40080,
  "walk": 9219,
  "walker": 40028,
  "walking": 22812,
  "wall": 7382,
  "wallet": 40349,
  "wan": 19524,
  "want": 36029,
  "wanz": 39284,
  "war": 11791,
  "ward": 812,
  "wards": 1572,
  "ware": 1284,
  "warm": 15743,
  "warming": 35413,
  "wart": 31385,
  "warts": 27905,
  "was": 6161,
  "wash": 5654,
  "washes": 26733,
  "washing": 21931,
  "wat": 44359,
  "watch": 9322,
  "watching": 29925,
  "water": 5452,
  "watering": 46726,
  "wave": 23702,
  "waves": 43579,
  "wax": 11268,
  "way": 639,
  "ways": 1003,
  "wb": 41588,
  "wd": 21948,
  "wdisplaystyle": 43578,
  "we": 711,
  "weak": 28765,
  "weakness": 35046,
  "wealth": 35094,
  "weapons": 47535,
  "wear": 4740,
  "wearing": 29460,
  "weat": 49145,
  "weather": 38686,
  "weating": 37479,
  "weave": 48041,
  "weaver": 31044,
  "web": 19710,
  "webs": 19835,
  "website": 37591,
  "wed": 29740,
  "weds": 46485,
  "wee": 20527,
  "weed": 11600,
  "week": 19711,
  "weekly": 29936,
  "ween": 991,
  "weep": 37285,
  "wees": 34757,
  "weet": 9927,
  "weetened": 14496,
  "weets": 35093,
  "wegian": 23447,
  "wei": 46591,
  "weigh": 16251,
  "weight": 5252,
  "weled": 35902,
  "well": 8508,
  "welling": 12212,
  "wells": 30815,
  "went": 43225,
  "were": 31043,
  "wered": 26047,
  "west": 13943,
  "western": 27288,
  "wet": 13178,
  "wh": 2528,
  "what": 3602,
  "whatever": 24748,
  "whe": 1509,
  "wheat": 19432,
  "wheel": 15065,
  "wheels": 27543,
  "wheezing": 45328,
  "whel": 4831,
  "when": 4431,
  "whenever": 26851,
  "where": 2074,
  "whether": 11155,
  "which": 17744,
  "while": 5035,
  "whip": 34556,
  "whisk": 24566,
  "whist": 47638,
  "white": 15066,
  "who": 15782,
  "whole": 23303,
  "why": 17088,
  "wi": 43577,
  "wich": 38849,
  "wick": 44360,
  "wid": 17100,
  "wide": 12757,
  "width": 17602,
  "wife": 39595,
  "wig": 40675,
  "wik": 37892,
  "wiki": 24774,
  "wikihow": 41858,
  "wild": 28943,
  "will": 10212,
  "wimming": 41589,
  "win": 18485,
  "wind": 8978,
  "window": 21572,
  "windows": 14577,
  "windowssystem": 28475,
  "wine": 34404,
  "wing": 22192,
  "winter": 31139,
  "wipe": 19945,
  "wire": 14649,
  "wired": 39850,
  "wires": 39339,
  "wis": 25896,
  "wise": 2066,
  "wist": 26224,
  "wit": 30349,
  "witch": 31849,
  "with": 10436,
  "within": 42476,
  "without": 28632,
  "wn": 752,
  "wns": 20062,
  "wny": 41020,
  "wo": 11724,
  "wolf": 22470,
  "wollen": 39851,
  "wolves": 34243,
  "woman": 27819,
  "women": 27208,
  "woo": 26732,
  "wood": 4789,
  "wooden": 38244,
  "wool": 32376,
  "wor": 5914,
  "word": 2127,
  "words": 16028,
  "work": 1565,
  "workbook": 42026,
  "working": 6340,
  "works": 13599,
  "world": 19440,
  "worm": 5990,
  "worms": 9594,
  "wort": 38848,
  "worth": 23302,
  "worthiness": 25134,
  "worthy": 9161,
  "would": 25078,
  "woven": 47273,
  "wow": 49576,
  "wr": 4973,
  "wra": 43969,
  "wrap": 16989,
  "wre": 42566,
  "wright": 35662,
  "writ": 9287,
  "write": 6567,
  "writer": 14281,
  "writers": 21196,
  "writes": 43415,
  "writing": 9000,
  "written": 15081,
  "ws": 9466,
  "wur": 27579,
  "ww": 26093,
  "www": 46852,
  "x": 92,
  "xa": 39852,
  "xample": 30350,
  "xb": 42257,
  "xbox": 42908,
  "xc": 20583,
  "xcdisplaystyle": 42846,
  "xcos": 40414,
  "xd": 44361,
  "xdisplaystyle": 13367,
  "xdx": 32233,
  "xdxdisplaystyle": 44362,
  "xe": 31496,
  "xex": 43581,
  "xf": 47415,
  "xfrac": 43970,
  "xi": 46009,
  "xia": 14892,
  "xic": 4156,
  "xid": 6049,
  "xide": 22932,
  "xidine": 27486,
  "xin": 30453,
  "xis": 33777,
  "xl": 33487,
  "xln": 43582,
  "xmathrm": 35065,
  "xof": 43580,
  "xofenadine": 43948,
  "xor": 32232,
  "xp": 16423,
  "xpand": 25562,
  "xs": 21549,
  "xsie": 48303,
  "xsystems": 36766,
  "xt": 674,
  "xtap": 38685,
  "xthe": 48036,
  "xton": 40462,
  "xtra": 47532,
  "xture": 1294,
  "xual": 9992,
  "xuals": 36215,
  "xx": 7292,
  "xxx": 32726,
  "xxxx": 22757,
  "xy": 3947,
  "y": 93,
  "ya": 14234,
  "yah": 35250,
  "yahoo": 42873,
  "yal": 6108,
  "yan": 18967,
  "yani": 42502,
  "yard": 8425,
  "yards": 24535,
  "yas": 40676,
  "ycardia": 29640,
  "ych": 3448,
  "ycin": 24716,
  "yclo": 17274,
  "ydisplaystyle": 29842,
  "ye": 8990,
  "year": 31344,
  "years": 47255,
  "yeast": 48770,
  "yellow": 24413,
  "yer": 21583,
  "yere": 43822,
  "yers": 39596,
  "yes": 18508,
  "yin": 41246,
  "ying": 2027,
  "yk": 37649,
  "yl": 5407,
  "yle": 1213,
  "ylene": 15658,
  "yless": 42357,
  "ylie": 47691,
  "yll": 42909,
  "ylo": 32509,
  "ylum": 19191,
  "ylvan": 19059,
  "ym": 2790,
  "ymathrm": 48135,
  "ymen": 48665,
  "ymia": 42724,
  "ymilk": 41386,
  "ympathetic": 40523,
  "ymph": 10746,
  "yn": 12882,
  "ync": 17598,
  "ynt": 28407,
  "yo": 37650,
  "yog": 22231,
  "yoga": 38310,
  "yogurt": 32761,
  "you": 1990,
  "young": 34623,
  "your": 4242,
  "yourdomain": 49289,
  "youre": 47624,
  "yout": 35663,
  "youtube": 42875,
  "yp": 47925,
  "ype": 19738,
  "ypecopypaste": 37385,
  "yr": 21305,
  "yrin": 28838,
  "ys": 823,
  "ysis": 5906,
  "yss": 31259,
  "yst": 10779,
  "ystem": 12663,
  "ystems": 24697,
  "yt": 39340,
  "yte": 28667,
  "yu": 33630,
  "yx": 21949,
  "yy": 20871,
  "yyy": 39288,
  "z": 94,
  "za": 13351,
  "zac": 26094,
  "zah": 43583,
  "zan": 28408,
  "zant": 48984,
  "zar": 39597,
  "zas": 32114,
  "zb": 30904,
  "zbek": 45119,
  "zdisplaystyle": 39065,
  "ze": 2114,
  "zech": 34472,
  "zed": 10305,
  "zel": 25461,
  "zema": 11705,
  "zen": 3917,
  "zens": 14336,
  "zer": 7798,
  "zero": 42910,
  "zers": 9270,
  "zes": 17290,
  "zeta": 46935,
  "zheim": 17000,
  "zheimers": 17062,
  "zi": 23341,
  "zia": 42567,
  "zie": 46010,
  "zier": 27209,
  "zig": 46487,
  "zilla": 15446,
  "zine": 46934,
  "zing": 5501,
  "zip": 13208,
  "zo": 17231,
  "zone": 18640,
  "zones": 43971,
  "zoom": 40063,
  "zou": 48983,
  "zs": 46486,
  "ztr": 44747,
  "ztraminer": 46453,
  "zu": 14511,
  "zuki": 43584,
  "zy": 4995,
  "zyg": 42100,
  "zygous": 43554,
  "zym": 11544,
  "zyme": 12844,
  "zz": 3477,
  "zzarella": 14249,
  "zzle": 5154,
  "zzled": 47171,
  "zzles": 10719,
  "zzling": 35140,
  "zzo": 40529,
  "zzy": 49271,
  "{": 95,
  "|": 96,
  "}": 97,
  "~": 98,
  "¡": 99,
  "¢": 100,
  "£": 101,
  "¤": 102,
  "¥": 103,
  "¥½": 46936,
  "¦": 104,
  "§": 105,
  "¨": 106,
  "©": 107,
  "ª": 108,
  "«": 109,
  "¬": 110,
  "®": 111,
  "¯": 112,
  "°": 113,
  "±": 114,
  "²": 115,
  "³": 116,
  "´": 117,
  "µ": 118,
  "¶": 119,
  "·": 120,
  "¸": 121,
  "¹": 122,
  "º": 123,
  "»": 124,
  "¼": 125,
  "½": 126,
  "½ł": 41590,
  "¾": 127,
  "¿": 128,
  "À": 129,
  "Á": 130,
  "Â": 131,
  "Â²": 32234,
  "Âº": 5107,
  "Âºc": 8296,
  "Âºf": 8166,
  "Â¼": 20938,
  "Â½": 11814,
  "Â¾": 36216,
  "Âł": 1879,
  "Ã": 132,
  "Ã¡": 15202,
  "Ã¡n": 38295,
  "Ã¡s": 37173,
  "Ã¢": 37016,
  "Ã¢t": 47871,
  "Ã£": 41591,
  "Ã£o": 45575,
  "Ã¤": 22434,
  "Ã¥": 42258,
  "Ã§": 24374,
  "Ã§a": 39295,
  "Ã§ade": 40085,
  "Ã¨": 15544,
  "Ã¨me": 20237,
  "Ã¨re": 38070,
  "Ã©": 2672,
  "Ã©e": 16416,
  "Ã©le": 28192,
  "Ã©lellausted": 29338,
  "Ã©s": 20342,
  "Ãª": 28409,
  "Ã«": 25952,
  "Ã¬": 39853,
  "Ã®": 31260,
  "Ã±": 15888,
  "Ã³": 20548,
  "Ã³n": 35624,
  "Ã´": 35664,
  "Ã¶": 26225,
  "Ã¹": 40677,
  "Ãº": 20382,
  "Ã»": 44363,
  "Ã¼": 22435,
  "Ã¼r": 39024,
  "ÃŁ": 43226,
  "Ãł": 23120,
  "Ãło": 46381,
  "ÃŃ": 14985,
  "ÃŃa": 31105,
  "ÃŃamos": 49397,
  "ÃŃan": 43139,
  "ÃŃas": 44641,
  "Ä": 133,
  "Ä«": 36217,
  "Äģ": 20617,
  "Äĥ": 36218,
  "Äĩ": 48413,
  "ÄĻ": 47416,
  "Å": 134,
  "Å¡": 46937,
  "Å«": 48414,
  "ÅĤ": 38850,
  "Åį": 31850,
  "ÅŁ": 32786,
  "Æ": 135,
  "Ç": 136,
  "Çİ": 37893,
  "Çİo": 45966,
  "ÇĲ": 37431,
  "ÇĴ": 48985,
  "È": 137,
  "É": 138,
  "Éĳ": 36219,
  "ÉĶ": 30905,
  "ÉĻ": 42568,
  "ÉĽ": 32787,
  "Ê": 139,
  "ÊĮ": 45610,
  "ÊĴ": 46938,
  "Ë": 140,
  "ËĪ": 26299,
  "Ì": 141,
  "Í": 142,
  "Î": 143,
  "Î±": 21550,
  "Î²": 17637,
  "Î³": 18897,
  "Î´": 21342,
  "Î´x": 39800,
  "Îµ": 33933,
  "Î¶": 38851,
  "Î·": 48986,
  "Î¸": 15489,
  "Î¸displaystyle": 48272,
  "Î¹": 42911,
  "Î»": 27367,
  "Î¼": 26024,
  "Î½": 40415,
  "Î¿": 40678,
  "Ï": 144,
  "Ïµ": 18550,
  "ÏĢ": 9111,
  "ÏĢdisplaystyle": 38266,
  "ÏĢr": 26430,
  "Ïģ": 31140,
  "Ïĥ": 34244,
  "ÏĦ": 34557,
  "ÏĪ": 36414,
  "Ïī": 14373,
  "Ïķ": 29956,
  "Ð": 145,
  "Ð°": 16214,
  "Ð°Ñģ": 44258,
  "Ð±": 38626,
  "Ð²": 32788,
  "Ð³": 40679,
  "Ð´": 38357,
  "Ðµ": 15335,
  "Ð¸": 20743,
  "Ð¹": 33934,
  "Ðº": 31141,
  "Ð»": 32650,
  "Ð¼": 46011,
  "Ð½": 27127,
  "Ð¾": 15632,
  "Ð¾Ð": 25190,
  "Ð¾Ð²": 45532,
  "Ñ": 146,
  "ÑĢ": 24775,
  "ÑĢÐ¸": 46386,
  "Ñģ": 23515,
  "ÑģÐº": 46842,
  "ÑģÑĤ": 48311,
  "ÑĤ": 23070,
  "ÑĤÐµ": 43506,
  "Ñĥ": 29033,
  "Ñĩ": 42912,
  "Ñĭ": 37017,
  "ÑĮ": 40416,
  "Ñİ": 42259,
  "Ñı": 33935,
  "Ñķ": 35251,
  "Ñĸ": 33346,
  "Ò": 147,
  "Ó": 148,
  "Ô": 149,
  "Õ": 150,
  "Ö": 151,
  "×": 152,
  "×¨": 40417,
  "×©": 46939,
  "×ª": 48415,
  "×Ĳ": 45611,
  "×ĳ": 46012,
  "×Ķ": 39341,
  "×ķ": 25344,
  "×ķ×": 28928,
  "×Ļ": 26518,
  "×Ļ×": 32361,
  "×ľ": 38627,
  "×ł": 45182,
  "Ø": 153,
  "Ø§": 24609,
  "Ø¨": 36812,
  "Øª": 38628,
  "Ø¯": 36813,
  "Ø±": 29641,
  "Ø³": 43972,
  "ØŃ": 46940,
  "Ù": 154,
  "Ùĥ": 42260,
  "ÙĦ": 23342,
  "ÙĦØ§": 45098,
  "Ùħ": 24610,
  "ÙĨ": 30148,
  "Ùĩ": 32510,
  "ÙĪ": 32789,
  "ÙĬ": 33347,
  "Ú": 155,
  "Û": 156,
  "ÛĮ": 35665,
  "Ü": 157,
  "Ý": 158,
  "Þ": 159,
  "ß": 160,
  "à": 161,
  "à¤": 13038,
  "à¤®": 45040,
  "à¤°": 44633,
  "à¤¹": 45481,
  "à¦": 19915,
  "à®": 16774,
  "à®ķ": 48827,
  "à¸": 32790,
  "á": 162,
  "á¸": 42913,
  "á¹": 36415,
  "áº": 44364,
  "á»": 46488,
  "áŀ": 32377,
  "â": 163,
  "âĦ": 43973,
  "âĦı": 45583,
  "âħ": 10883,
  "âħĵ": 48788,
  "ã": 164,
  "ãģ": 13613,
  "ãģĦ": 43468,
  "ãģĻ": 46789,
  "ãĤ": 22976,
  "ãĥ": 30906,
  "ä": 165,
  "ä¸": 43974,
  "å": 166,
  "æ": 167,
  "ç": 168,
  "è": 169,
  "é": 170,
  "ê": 171,
  "ë": 172,
  "ëĭ": 41908,
  "ì": 173,
  "ìļĶ": 48987,
  "í": 174,
  "î": 175,
  "ï": 176,
  "ð": 177,
  "ðĿ": 32235,
  "ðĿĳ": 33615,
  "ñ": 178,
  "ò": 179,
  "ó": 180,
  "ô": 181,
  "õ": 182,
  "ö": 183,
  "÷": 184,
  "ø": 185,
  "ù": 186,
  "ú": 187,
  "û": 188,
  "ü": 189,
  "ý": 190,
  "þ": 191,
  "ÿ": 192,
  "Ā": 193,
  "ā": 194,
  "Ă": 195,
  "ă": 196,
  "Ą": 197,
  "ą": 198,
  "Ć": 199,
  "ć": 200,
  "Ĉ": 201,
  "ĉ": 202,
  "Ċ": 203,
  "ċ": 204,
  "Č": 205,
  "č": 206,
  "Ď": 207,
  "ď": 208,
  "Đ": 209,
  "đ": 210,
  "Ē": 211,
  "ē": 212,
  "Ĕ": 213,
  "ĕ": 214,
  "Ė": 215,
  "ė": 216,
  "Ę": 217,
  "ę": 218,
  "Ě": 219,
  "ě": 220,
  "Ĝ": 221,
  "ĝ": 222,
  "Ğ": 223,
  "ğ": 224,
  "Ġ": 225,
  "Ġ,": 276,
  "Ġ-": 359,
  "Ġ.": 266,
  "Ġ0": 1822,
  "Ġ00": 5701,
  "Ġ000": 2485,
  "Ġ0000": 19692,
  "Ġ000000": 30969,
  "Ġ00000000": 43528,
  "Ġ0001": 27404,
  "Ġ00010": 44130,
  "Ġ0002": 45759,
  "Ġ001": 21976,
  "Ġ0011": 44573,
  "Ġ002": 39740,
  "Ġ003": 49884,
  "Ġ004": 34984,
  "Ġ005": 31791,
  "Ġ007": 34653,
  "Ġ008": 45428,
  "Ġ009": 47694,
  "Ġ01": 16146,
  "Ġ010": 29187,
  "Ġ0100": 49215,
  "Ġ011": 19838,
  "Ġ012": 42693,
  "Ġ013": 46657,
  "Ġ014": 46656,
  "Ġ015": 37094,
  "Ġ016": 37504,
  "Ġ02": 18599,
  "Ġ020": 31917,
  "Ġ024": 46658,
  "Ġ025": 31060,
  "Ġ029": 36107,
  "Ġ03": 21399,
  "Ġ030": 49214,
  "Ġ035": 47620,
  "Ġ04": 20095,
  "Ġ05": 15751,
  "Ġ050": 36483,
  "Ġ06": 18451,
  "Ġ07": 22321,
  "Ġ08": 11540,
  "Ġ080": 43023,
  "Ġ0800": 38057,
  "Ġ09": 20498,
  "Ġ090": 38936,
  "Ġ1": 493,
  "Ġ10": 1157,
  "Ġ100": 2628,
  "Ġ1000": 8492,
  "Ġ10000": 38472,
  "Ġ1001": 38949,
  "Ġ101": 13694,
  "Ġ1010": 34945,
  "Ġ1012": 36881,
  "Ġ1013": 48586,
  "Ġ1015": 24342,
  "Ġ102": 17396,
  "Ġ1020": 33249,
  "Ġ1023": 33679,
  "Ġ1024": 32026,
  "Ġ103": 20635,
  "Ġ1030": 32685,
  "Ġ1031": 47576,
  "Ġ104": 17119,
  "Ġ1040": 14095,
  "Ġ1041": 36757,
  "Ġ105": 18070,
  "Ġ106": 28178,
  "Ġ107": 26253,
  "Ġ108": 23882,
  "Ġ1080": 22985,
  "Ġ109": 29178,
  "Ġ1099": 20597,
  "Ġ11": 3224,
  "Ġ110": 11314,
  "Ġ1100": 22955,
  "Ġ11000": 49263,
  "Ġ111": 24401,
  "Ġ1110": 42067,
  "Ġ1111": 37329,
  "Ġ112": 19978,
  "Ġ1120": 40262,
  "Ġ113": 19034,
  "Ġ1130": 38957,
  "Ġ114": 30198,
  "Ġ115": 17226,
  "Ġ116": 17576,
  "Ġ117": 31321,
  "Ġ118": 16629,
  "Ġ119": 32448,
  "Ġ12": 1484,
  "Ġ120": 7127,
  "Ġ1200": 15674,
  "Ġ121": 21714,
  "Ġ1212": 37309,
  "Ġ1213": 33110,
  "Ġ1215": 47095,
  "Ġ122": 24798,
  "Ġ1220": 42369,
  "Ġ1222": 37970,
  "Ġ123": 19714,
  "Ġ1230": 35537,
  "Ġ1234": 24560,
  "Ġ12345": 36977,
  "Ġ124": 30382,
  "Ġ125": 10906,
  "Ġ1250": 37086,
  "Ġ126": 32554,
  "Ġ127": 21524,
  "Ġ128": 20282,
  "Ġ1280": 43012,
  "Ġ129": 26770,
  "Ġ13": 3447,
  "Ġ130": 13537,
  "Ġ1300": 34165,
  "Ġ131": 36689,
  "Ġ132": 27780,
  "Ġ133": 36690,
  "Ġ1337": 49268,
  "Ġ134": 41399,
  "Ġ135": 18137,
  "Ġ1350": 49838,
  "Ġ136": 46231,
  "Ġ137": 32451,
  "Ġ138": 42070,
  "Ġ139": 31437,
  "Ġ14": 2673,
  "Ġ140": 12372,
  "Ġ1400": 32047,
  "Ġ141": 36677,
  "Ġ14159": 49820,
  "Ġ142": 32574,
  "Ġ143": 41728,
  "Ġ144": 24855,
  "Ġ1440": 45364,
  "Ġ145": 20641,
  "Ġ1450": 47149,
  "Ġ146": 34006,
  "Ġ147": 37750,
  "Ġ148": 32846,
  "Ġ149": 25376,
  "Ġ15": 1675,
  "Ġ150": 6418,
  "Ġ1500": 17531,
  "Ġ151": 33114,
  "Ġ152": 26185,
  "Ġ1520": 32290,
  "Ġ153": 40787,
  "Ġ1530": 35923,
  "Ġ154": 43357,
  "Ġ155": 24295,
  "Ġ156": 34778,
  "Ġ157": 37090,
  "Ġ158": 40498,
  "Ġ159": 48101,
  "Ġ16": 3425,
  "Ġ160": 11357,
  "Ġ1600": 25674,
  "Ġ161": 39721,
  "Ġ162": 30199,
  "Ġ163": 27410,
  "Ġ164": 38233,
  "Ġ165": 18659,
  "Ġ166": 45776,
  "Ġ167": 39449,
  "Ġ168": 17039,
  "Ġ169": 33554,
  "Ġ17": 4605,
  "Ġ170": 16342,
  "Ġ1700": 36510,
  "Ġ171": 48703,
  "Ġ172": 34333,
  "Ġ173": 37123,
  "Ġ174": 45798,
  "Ġ175": 13934,
  "Ġ176": 20229,
  "Ġ177": 13239,
  "Ġ178": 37534,
  "Ġ18": 2854,
  "Ġ180": 7075,
  "Ġ1800": 22954,
  "Ġ182": 31069,
  "Ġ183": 36679,
  "Ġ1830": 39964,
  "Ġ184": 46213,
  "Ġ185": 24504,
  "Ġ186": 49254,
  "Ġ187": 45765,
  "Ġ188": 45367,
  "Ġ189": 35553,
  "Ġ19": 3573,
  "Ġ190": 12610,
  "Ġ1900": 31934,
  "Ġ1904": 38548,
  "Ġ191": 25675,
  "Ġ192": 17260,
  "Ġ1920": 25242,
  "Ġ1930": 34323,
  "Ġ1940": 26780,
  "Ġ195": 20828,
  "Ġ1950": 22212,
  "Ġ1955": 47659,
  "Ġ196": 46235,
  "Ġ1960": 24508,
  "Ġ1964": 39969,
  "Ġ1965": 39208,
  "Ġ1967": 45782,
  "Ġ1968": 43392,
  "Ġ1969": 44949,
  "Ġ197": 19599,
  "Ġ1970": 21566,
  "Ġ1973": 45912,
  "Ġ1976": 44277,
  "Ġ1978": 34868,
  "Ġ198": 16591,
  "Ġ1980": 21885,
  "Ġ1981": 49413,
  "Ġ1982": 37586,
  "Ġ1983": 42182,
  "Ġ1984": 45896,
  "Ġ1985": 41167,
  "Ġ1986": 39724,
  "Ġ1987": 42183,
  "Ġ1988": 47789,
  "Ġ1989": 41494,
  "Ġ199": 14310,
  "Ġ1990": 23727,
  "Ġ1991": 45490,
  "Ġ1992": 41157,
  "Ġ1993": 39008,
  "Ġ1994": 42814,
  "Ġ1995": 32197,
  "Ġ1996": 35986,
  "Ġ1997": 38066,
  "Ġ1998": 32610,
  "Ġ1999": 29483,
  "Ġ1Â¼": 36255,
  "Ġ1Â½": 19651,
  "Ġ2": 591,
  "Ġ20": 1616,
  "Ġ200": 3771,
  "Ġ2000": 11715,
  "Ġ2001": 26487,
  "Ġ2002": 26625,
  "Ġ2003": 17453,
  "Ġ2004": 28019,
  "Ġ2005": 22691,
  "Ġ2006": 24055,
  "Ġ2007": 15015,
  "Ġ2008": 20098,
  "Ġ2009": 19757,
  "Ġ201": 39941,
  "Ġ2010": 13608,
  "Ġ2011": 18800,
  "Ġ2012": 14490,
  "Ġ2013": 14125,
  "Ġ2014": 15323,
  "Ġ2015": 13438,
  "Ġ2016": 14136,
  "Ġ2017": 21594,
  "Ġ2018": 40785,
  "Ġ202": 28431,
  "Ġ2020": 31185,
  "Ġ2022": 46645,
  "Ġ2025": 47604,
  "Ġ203": 32430,
  "Ġ2030": 33842,
  "Ġ204": 18703,
  "Ġ2040": 45332,
  "Ġ2048": 49776,
  "Ġ205": 22592,
  "Ġ206": 45331,
  "Ġ207": 45739,
  "Ġ208": 31911,
  "Ġ209": 47603,
  "Ġ21": 5523,
  "Ġ210": 22077,
  "Ġ2100": 41115,
  "Ġ211": 34753,
  "Ġ212": 20214,
  "Ġ213": 36150,
  "Ġ214": 32320,
  "Ġ215": 31217,
  "Ġ216": 42760,
  "Ġ217": 37538,
  "Ġ218": 28903,
  "Ġ219": 43420,
  "Ġ22": 4955,
  "Ġ220": 14036,
  "Ġ2200": 48183,
  "Ġ221": 44171,
  "Ġ222": 26783,
  "Ġ223": 34978,
  "Ġ224": 31681,
  "Ġ225": 16274,
  "Ġ226": 28897,
  "Ġ227": 26925,
  "Ġ228": 44975,
  "Ġ23": 5181,
  "Ġ230": 18930,
  "Ġ2300": 48711,
  "Ġ232": 24514,
  "Ġ234": 40552,
  "Ġ235": 27416,
  "Ġ236": 24685,
  "Ġ237": 20645,
  "Ġ238": 38017,
  "Ġ24": 3028,
  "Ġ240": 11238,
  "Ġ2400": 35746,
  "Ġ242": 45372,
  "Ġ243": 41088,
  "Ġ245": 34964,
  "Ġ246": 43059,
  "Ġ247": 17259,
  "Ġ248": 41732,
  "Ġ249": 44536,
  "Ġ25": 2641,
  "Ġ250": 7541,
  "Ġ2500": 28104,
  "Ġ252": 33546,
  "Ġ253": 43742,
  "Ġ254": 31317,
  "Ġ255": 17592,
  "Ġ256": 22953,
  "Ġ258": 47147,
  "Ġ26": 8121,
  "Ġ260": 24006,
  "Ġ264": 39488,
  "Ġ265": 40014,
  "Ġ27": 6179,
  "Ġ270": 28996,
  "Ġ272": 46732,
  "Ġ273": 21403,
  "Ġ274": 45819,
  "Ġ275": 24758,
  "Ġ276": 48733,
  "Ġ28": 7016,
  "Ġ280": 25806,
  "Ġ285": 49900,
  "Ġ288": 46295,
  "Ġ2880": 38257,
  "Ġ29": 8687,
  "Ġ290": 35390,
  "Ġ294": 45842,
  "Ġ295": 47249,
  "Ġ299": 31691,
  "Ġ2Â½": 31532,
  "Ġ3": 707,
  "Ġ30": 1694,
  "Ġ300": 5246,
  "Ġ3000": 20116,
  "Ġ301": 38715,
  "Ġ302": 48102,
  "Ġ304": 34779,
  "Ġ305": 32291,
  "Ġ3060": 40501,
  "Ġ31": 10297,
  "Ġ310": 25962,
  "Ġ311": 42981,
  "Ġ312": 31750,
  "Ġ313": 37477,
  "Ġ314": 36082,
  "Ġ315": 31897,
  "Ġ316": 25364,
  "Ġ317": 49144,
  "Ġ32": 5371,
  "Ġ320": 22695,
  "Ġ321": 45810,
  "Ġ322": 33717,
  "Ġ323": 42440,
  "Ġ325": 14808,
  "Ġ328": 40836,
  "Ġ33": 8957,
  "Ġ330": 26684,
  "Ġ331": 48768,
  "Ġ332": 40205,
  "Ġ333": 37149,
  "Ġ334": 48769,
  "Ġ335": 40303,
  "Ġ34": 5620,
  "Ġ340": 26707,
  "Ġ341": 33430,
  "Ġ345": 40840,
  "Ġ347": 48195,
  "Ġ35": 5310,
  "Ġ350": 6553,
  "Ġ3500": 39471,
  "Ġ354": 48189,
  "Ġ355": 31215,
  "Ġ356": 43418,
  "Ġ357": 42107,
  "Ġ36": 5162,
  "Ġ360": 8566,
  "Ġ365": 20502,
  "Ġ366": 48186,
  "Ġ37": 7514,
  "Ġ370": 45005,
  "Ġ3742": 49907,
  "Ġ375": 11633,
  "Ġ38": 8037,
  "Ġ380": 37478,
  "Ġ39": 11513,
  "Ġ390": 42982,
  "Ġ397": 39775,
  "Ġ3Â½": 40206,
  "Ġ4": 917,
  "Ġ40": 3443,
  "Ġ400": 6371,
  "Ġ4000": 25420,
  "Ġ401": 14961,
  "Ġ403": 45777,
  "Ġ404": 44544,
  "Ġ405": 45778,
  "Ġ409": 47170,
  "Ġ41": 14651,
  "Ġ410": 31543,
  "Ġ411": 35102,
  "Ġ412": 38426,
  "Ġ413": 44875,
  "Ġ414": 37951,
  "Ġ415": 35309,
  "Ġ416": 47558,
  "Ġ417": 48572,
  "Ġ42": 11827,
  "Ġ420": 29667,
  "Ġ422": 38178,
  "Ġ424": 47559,
  "Ġ425": 18557,
  "Ġ426": 48798,
  "Ġ428": 48059,
  "Ġ43": 11727,
  "Ġ430": 29871,
  "Ġ432": 37952,
  "Ġ433": 42658,
  "Ġ435": 41815,
  "Ġ44": 9697,
  "Ġ440": 35522,
  "Ġ45": 3803,
  "Ġ450": 12653,
  "Ġ4500": 45393,
  "Ġ4506": 44239,
  "Ġ453": 34169,
  "Ġ454": 28992,
  "Ġ455": 42080,
  "Ġ456": 40819,
  "Ġ457": 47179,
  "Ġ459": 48166,
  "Ġ46": 11637,
  "Ġ460": 49726,
  "Ġ463": 49953,
  "Ġ465": 47754,
  "Ġ47": 11550,
  "Ġ470": 31902,
  "Ġ473": 23797,
  "Ġ475": 28723,
  "Ġ48": 6294,
  "Ġ480": 20921,
  "Ġ485": 36329,
  "Ġ487": 46737,
  "Ġ49": 13746,
  "Ġ499": 49727,
  "Ġ4Â½": 49728,
  "Ġ5": 829,
  "Ġ50": 2817,
  "Ġ500": 4427,
  "Ġ5000": 20853,
  "Ġ501": 26485,
  "Ġ502": 48136,
  "Ġ504": 45366,
  "Ġ5050": 22640,
  "Ġ51": 15507,
  "Ġ510": 21559,
  "Ġ511": 42654,
  "Ġ512": 24968,
  "Ġ514": 46597,
  "Ġ515": 36084,
  "Ġ516": 28424,
  "Ġ518": 49157,
  "Ġ52": 10938,
  "Ġ520": 34759,
  "Ġ522": 48049,
  "Ġ523": 44464,
  "Ġ525": 32020,
  "Ġ5283": 41326,
  "Ġ529": 39771,
  "Ġ53": 13875,
  "Ġ530": 32541,
  "Ġ532": 39392,
  "Ġ535": 46598,
  "Ġ539": 37816,
  "Ġ54": 7881,
  "Ġ540": 27692,
  "Ġ545": 46302,
  "Ġ549": 49914,
  "Ġ55": 7951,
  "Ġ550": 10166,
  "Ġ555": 26863,
  "Ġ5555": 34343,
  "Ġ56": 11281,
  "Ġ560": 36458,
  "Ġ567": 49375,
  "Ġ57": 13090,
  "Ġ570": 46128,
  "Ġ58": 12254,
  "Ġ580": 43328,
  "Ġ585": 49378,
  "Ġ587": 48802,
  "Ġ59": 11879,
  "Ġ590": 44068,
  "Ġ6": 1164,
  "Ġ60": 3400,
  "Ġ600": 9088,
  "Ġ6000": 27611,
  "Ġ609": 41737,
  "Ġ61": 13420,
  "Ġ610": 27998,
  "Ġ611": 46149,
  "Ġ612": 35106,
  "Ġ615": 48587,
  "Ġ616": 45718,
  "Ġ6180": 41826,
  "Ġ62": 12051,
  "Ġ620": 37494,
  "Ġ623": 49740,
  "Ġ625": 28515,
  "Ġ63": 14679,
  "Ġ630": 31051,
  "Ġ635": 33832,
  "Ġ64": 7941,
  "Ġ640": 30715,
  "Ġ644": 49915,
  "Ġ65": 8069,
  "Ġ650": 23712,
  "Ġ655": 48759,
  "Ġ66": 13551,
  "Ġ660": 47577,
  "Ġ666": 42354,
  "Ġ67": 13947,
  "Ġ675": 44244,
  "Ġ68": 12805,
  "Ġ680": 29771,
  "Ġ69": 17512,
  "Ġ7": 1426,
  "Ġ70": 5659,
  "Ġ700": 13071,
  "Ġ7000": 40491,
  "Ġ703": 45427,
  "Ġ71": 17778,
  "Ġ710": 33398,
  "Ġ715": 43351,
  "Ġ716": 44099,
  "Ġ718": 44493,
  "Ġ72": 9534,
  "Ġ720": 22009,
  "Ġ7233": 40308,
  "Ġ725": 43352,
  "Ġ728": 49192,
  "Ġ73": 18539,
  "Ġ730": 32031,
  "Ġ732": 45322,
  "Ġ74": 14956,
  "Ġ740": 41046,
  "Ġ75": 5554,
  "Ġ750": 16043,
  "Ġ76": 13736,
  "Ġ760": 40777,
  "Ġ766": 44494,
  "Ġ768": 45044,
  "Ġ77": 15220,
  "Ġ772": 33747,
  "Ġ775": 47775,
  "Ġ777": 33107,
  "Ġ78": 12066,
  "Ġ780": 47091,
  "Ġ787": 42155,
  "Ġ79": 15582,
  "Ġ797": 48822,
  "Ġ799": 33254,
  "Ġ8": 1317,
  "Ġ80": 5290,
  "Ġ800": 6274,
  "Ġ8000": 37497,
  "Ġ802": 35580,
  "Ġ8020": 49879,
  "Ġ808": 49878,
  "Ġ81": 16493,
  "Ġ810": 32028,
  "Ġ811": 36470,
  "Ġ812": 37963,
  "Ġ815": 43005,
  "Ġ816": 48605,
  "Ġ819": 46161,
  "Ġ82": 16161,
  "Ġ820": 47080,
  "Ġ8228": 43006,
  "Ġ8255": 28692,
  "Ġ827": 48606,
  "Ġ8283": 49751,
  "Ġ829": 34298,
  "Ġ83": 21251,
  "Ġ830": 29467,
  "Ġ833": 47585,
  "Ġ84": 16993,
  "Ġ840": 48088,
  "Ġ85": 10036,
  "Ġ850": 25478,
  "Ġ855": 41463,
  "Ġ86": 14760,
  "Ġ860": 45728,
  "Ġ864": 45319,
  "Ġ866": 23990,
  "Ġ87": 18558,
  "Ġ870": 41346,
  "Ġ875": 49750,
  "Ġ877": 21214,
  "Ġ88": 12255,
  "Ġ880": 39159,
  "Ġ888": 20574,
  "Ġ89": 16026,
  "Ġ9": 1651,
  "Ġ90": 4012,
  "Ġ900": 13707,
  "Ġ907": 40535,
  "Ġ91": 12935,
  "Ġ910": 41701,
  "Ġ911": 12483,
  "Ġ912": 47105,
  "Ġ914": 33401,
  "Ġ916": 38455,
  "Ġ92": 19008,
  "Ġ920": 48100,
  "Ġ922": 45740,
  "Ġ925": 46176,
  "Ġ93": 18134,
  "Ġ930": 33843,
  "Ġ94": 15036,
  "Ġ945": 48629,
  "Ġ946": 33895,
  "Ġ95": 9811,
  "Ġ950": 24445,
  "Ġ96": 14871,
  "Ġ960": 42029,
  "Ġ97": 17104,
  "Ġ975": 44900,
  "Ġ98": 13877,
  "Ġ99": 7434,
  "Ġ990": 35587,
  "Ġ995": 42779,
  "Ġ999": 22963,
  "Ġ9999": 37793,
  "Ġ_": 7852,
  "Ġ__": 26878,
  "Ġ___": 20145,
  "Ġ____": 9949,
  "Ġ_____": 19576,
  "Ġ______": 25444,
  "Ġ_______": 29705,
  "Ġ________": 24009,
  "Ġ_________": 41193,
  "Ġ__________": 48317,
  "Ġ____________": 28555,
  "Ġ________________": 38324,
  "Ġa": 262,
  "Ġaa": 14903,
  "Ġaaa": 19739,
  "Ġaac": 22813,
  "Ġaaf": 37019,
  "Ġaafco": 41884,
  "Ġaap": 31006,
  "Ġaar": 35860,
  "Ġaaron": 45556,
  "Ġaarp": 44750,
  "Ġab": 434,
  "Ġaba": 24148,
  "Ġabab": 47498,
  "Ġaback": 46088,
  "Ġabalone": 43633,
  "Ġabandon": 9277,
  "Ġabandoned": 13504,
  "Ġabandoning": 31693,
  "Ġabandonment": 24362,
  "Ġabate": 31404,
  "Ġabatement": 37212,
  "Ġabba": 45240,
  "Ġabbey": 40179,
  "Ġabbrev": 10385,
  "Ġabbreviate": 30977,
  "Ġabbreviated": 20705,
  "Ġabbreviation": 18711,
  "Ġabbreviations": 16997,
  "Ġabc": 16143,
  "Ġabcs": 37926,
  "Ġabd": 46555,
  "Ġabdom": 4895,
  "Ġabdomen": 7428,
  "Ġabdomens": 46261,
  "Ġabdominal": 7429,
  "Ġabdominals": 27090,
  "Ġabdu": 22628,
  "Ġabducted": 40904,
  "Ġabduction": 36379,
  "Ġabductor": 44285,
  "Ġabe": 45239,
  "Ġaber": 25467,
  "Ġabercr": 29025,
  "Ġabercrombie": 29429,
  "Ġabide": 17687,
  "Ġabiding": 38890,
  "Ġabilities": 6064,
  "Ġability": 2725,
  "Ġabl": 27830,
  "Ġablation": 40097,
  "Ġablative": 43174,
  "Ġable": 931,
  "Ġableton": 39398,
  "Ġabnorm": 7771,
  "Ġabnormal": 8386,
  "Ġabnormalities": 15755,
  "Ġabnormality": 34831,
  "Ġabnormally": 21608,
  "Ġaboard": 34921,
  "Ġabol": 41003,
  "Ġabort": 25956,
  "Ġabortion": 16505,
  "Ġabortions": 38590,
  "Ġabound": 36058,
  "Ġabout": 489,
  "Ġaboutconfig": 48518,
  "Ġaboutwhat": 49674,
  "Ġabove": 1701,
  "Ġabr": 43632,
  "Ġabra": 30925,
  "Ġabrade": 44416,
  "Ġabraham": 33477,
  "Ġabras": 8188,
  "Ġabrasion": 26275,
  "Ġabrasions": 25617,
  "Ġabrasive": 9504,
  "Ġabrasives": 36157,
  "Ġabre": 26676,
  "Ġabreast": 27362,
  "Ġabroad": 10998,
  "Ġabrupt": 14549,
  "Ġabruptly": 18963,
  "Ġabs": 2638,
  "Ġabscess": 14544,
  "Ġabscesses": 24462,
  "Ġabsence": 12426,
  "Ġabsences": 26913,
  "Ġabsent": 13356,
  "Ġabsentee": 23111,
  "Ġabsenteeism": 45925,
  "Ġabsinthe": 26258,
  "Ġabsol": 4492,
  "Ġabsolute": 4551,
  "Ġabsolutely": 5413,
  "Ġabsolutes": 47191,
  "Ġabsor": 3211,
  "Ġabsorb": 3809,
  "Ġabsorbance": 49282,
  "Ġabsorbed": 8458,
  "Ġabsorbency": 27251,
  "Ġabsorbent": 12434,
  "Ġabsorber": 42066,
  "Ġabsorbers": 37758,
  "Ġabsorbing": 13960,
  "Ġabsorbs": 14412,
  "Ġabsorption": 12416,
  "Ġabst": 8956,
  "Ġabstain": 21635,
  "Ġabstaining": 34499,
  "Ġabstinence": 24070,
  "Ġabstinent": 41798,
  "Ġabstract": 10241,
  "Ġabstracts": 37566,
  "Ġabsurd": 24567,
  "Ġabund": 14466,
  "Ġabundance": 19323,
  "Ġabundant": 22187,
  "Ġabundantly": 46345,
  "Ġabuse": 4331,
  "Ġabused": 12105,
  "Ġabuser": 11548,
  "Ġabusers": 21134,
  "Ġabuses": 33079,
  "Ġabusing": 18718,
  "Ġabusive": 8614,
  "Ġabut": 37690,
  "Ġabv": 45663,
  "Ġabyss": 32263,
  "Ġac": 530,
  "Ġaca": 35506,
  "Ġacacia": 35290,
  "Ġacadem": 5315,
  "Ġacademia": 35366,
  "Ġacademic": 6584,
  "Ġacademically": 26264,
  "Ġacademics": 21929,
  "Ġacademies": 44981,
  "Ġacademy": 13273,
  "Ġacai": 27377,
  "Ġacc": 742,
  "Ġacceler": 8217,
  "Ġaccelerate": 14789,
  "Ġaccelerated": 27492,
  "Ġaccelerates": 35781,
  "Ġaccelerating": 25742,
  "Ġacceleration": 14778,
  "Ġaccelerator": 22334,
  "Ġaccent": 6236,
  "Ġaccented": 31084,
  "Ġaccenting": 49890,
  "Ġaccents": 13267,
  "Ġaccentuate": 12865,
  "Ġaccentuates": 31085,
  "Ġaccentuating": 34189,
  "Ġaccept": 1845,
  "Ġacceptable": 5470,
  "Ġacceptance": 8974,
  "Ġaccepted": 6635,
  "Ġaccepting": 7179,
  "Ġaccepts": 12588,
  "Ġaccess": 1456,
  "Ġaccessed": 10932,
  "Ġaccesses": 43353,
  "Ġaccessibility": 15366,
  "Ġaccessible": 7001,
  "Ġaccessing": 13098,
  "Ġaccessor": 26478,
  "Ġaccessories": 4564,
  "Ġaccessorize": 13977,
  "Ġaccessorizing": 31977,
  "Ġaccessory": 11249,
  "Ġaccident": 3925,
  "Ġaccidental": 14535,
  "Ġaccidentally": 5794,
  "Ġaccidently": 48560,
  "Ġaccidents": 9542,
  "Ġacclaim": 39664,
  "Ġacclaimed": 44330,
  "Ġacclim": 19230,
  "Ġacclimate": 18374,
  "Ġacclimated": 27439,
  "Ġacclimating": 44655,
  "Ġacclimation": 40895,
  "Ġacclimatize": 47805,
  "Ġaccol": 47038,
  "Ġaccolades": 48388,
  "Ġaccom": 2525,
  "Ġaccommod": 5222,
  "Ġaccommodate": 7503,
  "Ġaccommodated": 38019,
  "Ġaccommodates": 37344,
  "Ġaccommodating": 23847,
  "Ġaccommodation": 15458,
  "Ġaccommodations": 10871,
  "Ġaccompan": 6014,
  "Ġaccompanied": 10165,
  "Ġaccompanies": 24641,
  "Ġaccompaniment": 25251,
  "Ġaccompaniments": 41431,
  "Ġaccompany": 11565,
  "Ġaccompanying": 15151,
  "Ġaccompl": 3941,
  "Ġaccomplish": 4736,
  "Ġaccomplished": 9865,
  "Ġaccomplishes": 38488,
  "Ġaccomplishing": 18079,
  "Ġaccomplishment": 14507,
  "Ġaccomplishments": 9581,
  "Ġaccord": 2726,
  "Ġaccordance": 18206,
  "Ġaccording": 2827,
  "Ġaccordingly": 5646,
  "Ġaccordion": 20225,
  "Ġaccount": 1123,
  "Ġaccountability": 17465,
  "Ġaccountable": 11532,
  "Ġaccountant": 11499,
  "Ġaccountants": 20854,
  "Ġaccounted": 25290,
  "Ġaccounting": 8488,
  "Ġaccounts": 3618,
  "Ġaccred": 8970,
  "Ġaccreditation": 18003,
  "Ġaccredited": 10828,
  "Ġaccrediting": 40024,
  "Ġaccru": 18514,
  "Ġaccrual": 35301,
  "Ġaccrue": 22945,
  "Ġaccrued": 22029,
  "Ġaccrues": 49424,
  "Ġaccruing": 38566,
  "Ġaccum": 7163,
  "Ġaccumulate": 12490,
  "Ġaccumulated": 14232,
  "Ġaccumulates": 23005,
  "Ġaccumulating": 21406,
  "Ġaccumulation": 18120,
  "Ġaccur": 3359,
  "Ġaccuracy": 8821,
  "Ġaccurate": 4599,
  "Ġaccurately": 8105,
  "Ġaccus": 12769,
  "Ġaccusation": 27728,
  "Ġaccusations": 18785,
  "Ġaccusatory": 21376,
  "Ġaccuse": 20528,
  "Ġaccused": 18400,
  "Ġaccuser": 34940,
  "Ġaccuses": 44059,
  "Ġaccusing": 23264,
  "Ġaccust": 11306,
  "Ġaccustom": 45035,
  "Ġaccustomed": 11593,
  "Ġaccutane": 30076,
  "Ġace": 11850,
  "Ġacer": 48011,
  "Ġaces": 23258,
  "Ġacet": 6860,
  "Ġacetaldehyde": 36153,
  "Ġacetaminophen": 11370,
  "Ġacetate": 19960,
  "Ġacetic": 29049,
  "Ġacetone": 10876,
  "Ġacetyl": 38896,
  "Ġacetylene": 47224,
  "Ġach": 2610,
  "Ġache": 18823,
  "Ġaches": 13136,
  "Ġachievable": 16823,
  "Ġachieve": 3272,
  "Ġachieved": 9168,
  "Ġachievement": 13260,
  "Ġachievements": 10709,
  "Ġachiever": 44133,
  "Ġachieves": 23457,
  "Ġachieving": 10038,
  "Ġachilles": 23499,
  "Ġaching": 23784,
  "Ġachy": 28275,
  "Ġacid": 2885,
  "Ġacidic": 8532,
  "Ġacidity": 15709,
  "Ġacidophilus": 21968,
  "Ġacidosis": 39718,
  "Ġacids": 5987,
  "Ġack": 4587,
  "Ġacknow": 4594,
  "Ġacknowled": 9687,
  "Ġacknowledge": 5488,
  "Ġacknowledged": 21002,
  "Ġacknowledgement": 21064,
  "Ġacknowledges": 27102,
  "Ġacknowledging": 12906,
  "Ġacknowledgment": 27103,
  "Ġacl": 26604,
  "Ġaclu": 35289,
  "Ġacme": 36628,
  "Ġacne": 4397,
  "Ġacorn": 22043,
  "Ġacorns": 23772,
  "Ġacou": 15309,
  "Ġacoust": 32747,
  "Ġacoustic": 17147,
  "Ġacoustics": 36204,
  "Ġacp": 45259,
  "Ġacqu": 4723,
  "Ġacquaint": 9514,
  "Ġacquaintance": 15921,
  "Ġacquaintances": 12558,
  "Ġacquainted": 19341,
  "Ġacquire": 9027,
  "Ġacquired": 12077,
  "Ġacquirer": 45847,
  "Ġacquiring": 17696,
  "Ġacquis": 20436,
  "Ġacquisition": 23387,
  "Ġacquisitions": 37187,
  "Ġacr": 22348,
  "Ġacre": 24382,
  "Ġacreage": 44288,
  "Ġacres": 27224,
  "Ġacro": 18490,
  "Ġacrobat": 19883,
  "Ġacrobatics": 45915,
  "Ġacronym": 19531,
  "Ġacronyms": 24203,
  "Ġacross": 2261,
  "Ġacrylic": 7399,
  "Ġacrylics": 28029,
  "Ġact": 664,
  "Ġacted": 16906,
  "Ġactin": 41978,
  "Ġacting": 4781,
  "Ġaction": 2602,
  "Ġactionable": 26912,
  "Ġactions": 3439,
  "Ġactionscript": 41397,
  "Ġactiv": 1300,
  "Ġactivate": 6691,
  "Ġactivated": 9892,
  "Ġactivates": 21144,
  "Ġactivating": 20314,
  "Ġactivation": 14973,
  "Ġactivator": 43349,
  "Ġactive": 2493,
  "Ġactively": 6818,
  "Ġactives": 46159,
  "Ġactivex": 43376,
  "Ġactivism": 31180,
  "Ġactivist": 29278,
  "Ġactivists": 33534,
  "Ġactivities": 2149,
  "Ġactivity": 2362,
  "Ġacto": 24433,
  "Ġactor": 13304,
  "Ġactors": 8930,
  "Ġactress": 28507,
  "Ġactresses": 33233,
  "Ġacts": 5959,
  "Ġactu": 34126,
  "Ġactual": 3791,
  "Ġactuality": 39451,
  "Ġactually": 1933,
  "Ġactuarial": 46875,
  "Ġactuator": 46421,
  "Ġacuity": 36064,
  "Ġacup": 8691,
  "Ġacupressure": 19220,
  "Ġacupun": 9843,
  "Ġacupunctur": 20104,
  "Ġacupuncture": 11219,
  "Ġacupuncturist": 23246,
  "Ġacupuncturists": 35025,
  "Ġacute": 11108,
  "Ġacv": 28965,
  "Ġacyclo": 38158,
  "Ġacyclovir": 38346,
  "Ġad": 428,
  "Ġada": 19970,
  "Ġadage": 24784,
  "Ġadam": 21173,
  "Ġadamant": 30125,
  "Ġadams": 25587,
  "Ġadap": 11599,
  "Ġadapt": 7804,
  "Ġadaptability": 42458,
  "Ġadaptable": 24760,
  "Ġadaptation": 34996,
  "Ġadaptations": 38987,
  "Ġadapted": 19195,
  "Ġadapter": 8321,
  "Ġadapters": 18347,
  "Ġadapting": 25941,
  "Ġadaptive": 29600,
  "Ġadaptor": 28997,
  "Ġadapts": 41147,
  "Ġadb": 34746,
  "Ġadblock": 20150,
  "Ġadc": 47494,
  "Ġadd": 520,
  "Ġadded": 2689,
  "Ġaddend": 19747,
  "Ġaddendum": 20740,
  "Ġadder": 29659,
  "Ġadderall": 32221,
  "Ġaddict": 14082,
  "Ġaddicted": 16456,
  "Ġaddicting": 41009,
  "Ġaddiction": 7192,
  "Ġaddictions": 21176,
  "Ġaddictive": 16987,
  "Ġaddicts": 25218,
  "Ġadding": 2150,
  "Ġaddisons": 36258,
  "Ġaddition": 1348,
  "Ġadditional": 2213,
  "Ġadditionally": 5788,
  "Ġadditions": 12569,
  "Ġadditive": 21349,
  "Ġadditives": 11434,
  "Ġaddon": 48007,
  "Ġaddons": 39650,
  "Ġaddremove": 30072,
  "Ġaddres": 26603,
  "Ġaddress": 1516,
  "Ġaddressed": 9643,
  "Ġaddressee": 47839,
  "Ġaddresses": 6899,
  "Ġaddressing": 10284,
  "Ġaddressthe": 35438,
  "Ġaddressyour": 37733,
  "Ġadds": 7019,
  "Ġaden": 29858,
  "Ġadenos": 46996,
  "Ġadept": 22544,
  "Ġadequ": 4971,
  "Ġadequate": 5824,
  "Ġadequately": 10754,
  "Ġadhd": 8476,
  "Ġadhere": 9360,
  "Ġadhered": 30275,
  "Ġadherence": 37464,
  "Ġadherent": 49090,
  "Ġadheres": 25216,
  "Ġadhering": 21243,
  "Ġadhes": 5141,
  "Ġadhesion": 27555,
  "Ġadhesive": 5459,
  "Ġadhesives": 22252,
  "Ġadidas": 40724,
  "Ġadisplaystyle": 20591,
  "Ġadj": 10000,
  "Ġadjacent": 12104,
  "Ġadject": 11498,
  "Ġadjective": 17582,
  "Ġadjectives": 14966,
  "Ġadjoining": 29045,
  "Ġadjud": 36344,
  "Ġadjunct": 39496,
  "Ġadjust": 1959,
  "Ġadjustable": 11851,
  "Ġadjusted": 9245,
  "Ġadjuster": 18627,
  "Ġadjusters": 36486,
  "Ġadjusting": 8517,
  "Ġadjustment": 9663,
  "Ġadjustments": 7121,
  "Ġadjustor": 45344,
  "Ġadjusts": 21030,
  "Ġadm": 7186,
[...]
