#version: 0.2
Ġ t
Ġ a
h e
i n
e r
Ġt he
o n
Ġ s
r e
Ġ w
Ġ c
o r
Ġ b
e n
h a
i t
Ġ f
e d
e s
Ġ o
i s
Ġ p
a n
Ġt o
in g
Ġ in
a r
Ġ m
o u
n d
a l
Ġo f
a t
Ġ d
i c
l e
Ġa nd
r o
a s
i l
i on
i d
Ġ ha
Ġb e
Ġ n
o m
v e
Ġ g
en t
Ġ re
s t
Ġ l
u t
Ġ e
Ġ T
a y
Ġ M
Ġ "
Ġ on
e t
Ġf or
l d
c t
Ġ B
l y
Ġ h
o t
Ġt ha
Ġ S
i r
Ġ is
o w
a m
' s
v er
i g
i m
u s
c e
Ġ A
Ġ it
Ġ I
Ġtha t
u r
Ġs a
l l
a d
il l
Ġ C
er s
Ġ he
Ġsa id
Ġs t
c h
Ġt h
t er
it h
Ġw as
at ion
ĠT he
Ġw h
Ġw ith
Ġa n
Ġ r
es t
Ġa s
u n
Ġa t
Ġ H
o p
o l
s e
Ġp ro
Ġc om
Ġc on
Ġd e
k e
0 0
Ġ L
ou ld
Ġ y
Ġha s
Ġ D
a c
Ġs e
Ġha ve
Ġm o
Ġa re
an d
a in
m ent
Ġ P
Ġw e
p e
Ġw ill
Ġb y
e w
or t
Ġ E
u l
u p
Ġ F
r i
Ġ R
Ġ W
a g
Ġ G
he r
Ġ 2
Ġa l
Ġ 1
e ar
ou r
t h
Ġp l
Ġ U
re s
Ġn ot
ro m
at e
u m
Ġe x
i f
a b
is t
Ġg o
ar t
Ġ v
o s
Ġf rom
ig h
T he
es s
as t
i es
i ve
Ġ J
ar d
Ġ N
en d
e l
e m
r a
Ġ -
, "
u st
Ġ O
an t
o d
Ġ le
. "
Ġs h
ac k
i e
u d
Ġcom p
s o
Ġh is
i v
q u
Ġy ear
ic h
ĠM r
Ġc ha
p p
n t
al l
Ġw or
it y
Ġs u
Ġb ut
a k
Ġw ould
Ġa b
ou t
igh t
om e
Ġwh ich
Ġha d
b er
Ġ j
Ġthe y
or d
p ort
Ġbe en
g h
er e
Ġ us
ct ion
r y
o c
Ġa g
o k
Ġthe ir
o re
Ġ up
Ġf ir
r ou
Ġwh o
a p
Ġ2 00
Ġa d
Ġth is
ic e
Ġ (
on e
Ġmo re
Ġw ere
Ġo ut
Ġit s
g e
on g
i al
Ġp e
id e
a ke
a re
u re
o st
Ġal so
in e
Ġ or
Ġc l
Ġn e
am e
o g
Ġt e
op le
c on
r it
Ġpl ay
an s
t her
Ġn ew
f f
Ġw he
Ġof f
Ġs p
c c
Ġ K
Ġcon t
Ġa ll
Ġpe ople
Ġc an
i a
Ġ un
ro w
im e
Ġd o
Ġo ver
i le
Ġs o
u b
ig n
Ġin c
u nd
ar k
f ter
i re
Ġab out
n g
u e
ar y
an y
Ġin t
Ġ im
ion s
is h
Ġtha n
Ġp art
Ġm e
p l
ver y
al ly
Ġre c
Ġa fter
ou s
ay s
ag e
ha t
ow n
Ġt r
re e
a il
Ġy ou
ĠU S
w o
Ġon e
Ġc ould
an ce
p t
en ce
ĠS t
i ke
ou nt
l and
ĠI t
it e
d u
er v
o b
f t
m er
ation s
ĠB ut
at ed
en s
Â £
ĠH e
Ġ qu
k s
n e
p er
ad e
Ġbe c
a ce
i p
Ġin ter
Ġf in
Ġthe re
Ġre s
ul t
b le
u ro
Ġp re
Ġs c
Ġd is
or m
Ġfir st
Ġc h
o ok
ĠI n
o ld
e ct
o se
ver n
ou gh
Ġa cc
Ġl ast
Ġ k
Ġf il
' t
ic k
w ard
d ay
res s
ct or
i an
Ġm in
ab le
m an
Ġag ain
Ġw in
v en
Ġgo vern
pe ct
Ġ en
Ġt wo
in t
a ir
n ing
a ch
Ġthe m
Ġo ther
r u
ic t
Ġwor k
Ġg et
Ġwhe n
Ġad d
m s
e p
ĠU K
Ġgovern ment
a v
Ġt ime
Ġl ike
Ġint o
Ġ 3
or y
Ġin d
f orm
Ġb ack
Ġ1 9
" .
o ll
Ġp r
ic es
ĠB l
x t
is e
ve l
re at
l i
on s
ĠB rit
Ġ V
us e
Ġ $
Ġs ome
Ġm on
Ġl a
Ġn ow
Ġ Y
Ġm ark
con om
Ġ if
or s
ur n
Ġsh ow
Ġan y
e ll
Ġde c
us ic
he d
Ġp er
o y
Ġa r
an c
in k
it t
y st
Ġyear s
g et
e k
Ġj ust
on d
it ion
Ġe le
l f
ĠE uro
Ġs et
Ġwor ld
ĠC h
Ġat t
Ġw hat
Ġbe t
Ġ Â£
I t
b n
Ġcon s
Ġin v
as s
Ġw ant
an k
Ġe conom
l ud
Ġp ol
Ġagain st
Ġ ro
e c
v i
ou nd
ub l
Ġb est
Ġm ake
ĠEuro pe
as e
Ġd own
Ġa m
Ġm an
a use
Ġs ha
am p
Ġto ld
Ġn o
Ġm usic
al s
ver s
Ġs ay
Ġbe ing
Ġmon th
W e
s on
al es
Ġon ly
Ġn um
ĠT h
Ġmark et
is s
Ġs he
00 0
Ġs erv
ou n
oc k
und er
Ġcha n
ak ing
r am
c ed
Ġle ad
a ct
f ore
Ġinc lud
Ġc ount
ch n
B C
Ġm ade
Ġsh ould
Ġs pe
Ġn et
Ġ 4
ol og
as ed
Ġp h
f er
Ġ ke
Ġre port
Ġg ame
am es
Ġsu ch
os s
Ġt ake
Ġd es
a x
ation al
Ġcom m
l es
w n
il d
Ġpro du
ab our
Ġ under
Ġfil m
g est
v ed
Ġs up
ic s
Ġp o
t s
rou gh
Ġne ed
Ġbec ause
Ġ very
Ġhe r
Ġte chn
is ed
Ġe ar
ic al
i b
in d
u ch
u es
re d
Ġth ree
i x
Ġp ubl
Ġk n
m p
t ing
ĠN ew
ĠD e
ĠA nd
Ġde f
u res
Ġbe fore
Ġh im
n ed
Ġex pect
w e
Ġc o
at es
ĠB BC
it s
id ent
Ġwe ek
Ġne xt
Ġim p
Ġb l
ing s
ill ion
Ġl ook
Ġb u
ha n
con d
Ġnum ber
Ġre m
Ġd ire
Ġwe ll
Ġ 6
Ġadd ed
Ġ 5
l ie
Ġw ay
Ġb ig
Ġg row
en er
is ter
ar ch
Ġh ow
ĠA s
ĠF r
Ġm any
ĠL abour
in ce
Ġse cond
Ġd id
ment s
Ġhe l
Ġmo st
is ion
Ġre t
Ġgo od
ĠH ow
t e
Ġc all
e ver
rou nd
Ġs ays
Ġele ction
Ġpro g
Ġm at
re n
ĠE ng
b s
Ġa ct
Ġhel p
ur ing
Ġwh ile
en c
a im
Ġo wn
Ġb o
Ġtechn olog
ĠS c
ha r
it al
Ġf e
Ġcomp any
rou p
l ine
ĠU n
u g
Ġ end
Ġs ur
Ġan n
) ,
i o
re nt
Ġm y
Ġth ink
Ġst art
t ain
Ġb ro
w are
Ġc ur
ot h
Ġus e
t y
ad y
Ġse c
Ġse e
on y
ar s
Ġr ight
Ġa pp
Ġ200 4
Ġla w
it ed
Ġo ur
v ent
Ġgo ing
f ul
Ġh igh
at ing
Ġa p
Ġre g
Ġf our
Ġst ill
p en
Ġfir m
h ip
Ġrec ord
ĠC om
Ġcl aim
Ġm uch
it ies
Ġcha r
v ing
Ġt ri
Ġt ax
Ġ '
Ġpubl ic
i ed
Ġst r
Ġr un
v es
c er
Ġthe n
Ġw on
c k
m e
Ġprog ram
g ed
Ġinc re
Ġmo b
Ġinv est
row n
Ġm ay
ĠBl air
Ġ1 0
we en
Ġs l
Ġp ut
Ġth rough
ul ar
yst em
Ġw ar
Ġbe lie
iv es
u al
l ed
Ġd if
ĠEng land
Ġto p
ĠA r
g an
ow er
on es
Ġcon f
u ll
Ġha nd
ĠM ic
Ġh ome
Ġth ose
n er
or k
Ġe very
Ġg ames
m ber
o ol
i ble
Ġs ince
Ġst ate
Ġl at
vel op
Ġb r
ward s
Ġis s
Ġinter n
Ġl ong
Ġbet ween
Ġs er
Ġh op
Ġv ot
h ing
us s
oll ow
Ġtechnolog y
Ġle g
g er
Ġoff er
in es
Ġs ystem
al e
Ġc ost
Ġg ener
Ġa c
Ġm illion
c om
p h
Ġg roup
o ve
j ect
a z
in ess
ĠT V
ers on
Ġb us
ĠL e
Ġcont ro
ĠI nd
in a
Ġwhe re
b ers
Ġplay ers
ĠBrit ish
end ing
r on
Ġf ollow
one y
Ġd on
ĠA l
he n
Ġp res
Ġcount ry
il ity
Ġus ed
ĠEurope an
Ġt er
c ial
Ġin s
ra ct
Ġcur rent
l o
as on
ur y
Ġe ff
Ġde al
Ġexpect ed
ĠJ o
ie f
Ġ ent
Ġcom e
Ġc amp
Ġha r
i ous
Ġcont in
if e
Ġsp ok
ro s
Ġind ust
Ġ 7
c ast
Ġde b
Ġde velop
Ġc ap
ond on
re ady
Ġap pe
Ġs ign
Ġpl ans
Ġe ven
Ġc ut
ot her
ag es
h n
Ġbus iness
ha m
at ive
ĠS p
ir d
ist s
Ġpro ble
Ġpo int
ĠL ondon
Ġmonth s
ĠSc ot
e f
Ġf ore
Ġp ay
ou se
Ġdire ctor
Ġc r
Ġc our
ent s
ter n
Ġinter est
Ġkn ow
s c
ĠB rown
a ign
y ear
Ġs ales
Ġf ive
Ġal ready
Ġcomp et
Ġmob ile
re t
Ġcomp ut
Ġpart y
Ġspok es
w ay
Ġchan ce
ough t
Ġm ed
Ġg reat
Ġp ri
Ġsup port
ĠCom m
Ġm em
Ġre le
Ġc le
om in
ri es
Ġrec ent
Ġgrow th
Ġt al
Ġnew s
Ġd et
Ġte am
Ġall ow
Ġs ing
Ġe m
Ġt ry
Ġeconom y
Ġpl an
Ġj ob
Ġpol it
Ġbro ad
Ġdis c
Ġc ar
Ġo per
as h
Ġmo ve
Ġde m
pp ed
are d
Ġme et
an ies
ri b
Ġ200 5
he s
Ġo pp
at h
I n
r al
Ġm oney
el s
Ġ( Â£
Ġcamp aign
Ġto o
e e
ord ing
ros s
o od
an g
ĠA n
Ġpro v
a j
us ed
H e
i er
ĠBrit ain
r ic
Ġs m
Ġper form
Ġf ig
Ġf ound
at her
Ġre f
ut ion
Ġch ief
Ġ19 9
Ġann oun
Ġpro m
ĠD av
vi ous
Ġex t
cc ess
Ġthe se
Ġs im
ut e
or ld
Ġo pen
ig ital
Ġv i
Ġmin ister
p os
Ġb oth
Ġpro f
t on
Ġcomp anies
al yst
id er
B ut
st er
Ġpl ace
mer ic
Ġinclud ing
Ġhar d
Ġd uring
z e
is ing
Ġha pp
ĠC l
Ġf l
at t
Ġcl ub
Ġb re
Ġhe ad
Ġserv ices
Ġth ird
Ġcon cer
ĠR e
b y
Ġrem ain
Ġre al
ĠL i
Ġnet w
Ġ200 3
ec ut
Ġa round
Ġ2 0
aj or
o ot
Ġin f
Ġl ist
Ġoff ic
Ġserv ice
le y
Ġp erson
ĠM P
ĠD em
Ġre l
or ies
Ġfir ms
o v
ĠS e
Ġg iv
ft ware
Ġres ult
Ġindust ry
im es
ĠA meric
ĠG er
Ġf ut
ie ld
Ġsu ccess
Ġres p
ĠJo hn
Ġf ar
Ġus ers
c ess
Ġfor m
Ġfor mer
Ġph one
Ġ 8
) .
Ġp op
Ġin form
Ġre ally
Ġr ul
Ġm ajor
le ct
ĠM c
ce pt
Ġg ot
Ġdo es
p r
le t
am ent
' m
. .
l ing
Ġl ar
ad io
Ġg u
ĠW orld
a ve
y s
Ġa ut
Ġa ction
he ad
Ġatt ack
Ġc ame
ou th
ide o
Ġfut ure
Ġs ame
at a
Ġm ain
se lf
Ġto ok
Ġst and
Ġim port
o x
Ġc are
Ġl ot
Ġc ent
Ġdif fer
l ess
Ġc rit
Ġwe bs
r ist
an u
Ġte le
Ġla un
Ġeconom ic
T h
Ġt ak
Ġs ix
Ġcons um
Ġin j
il y
iss ion
Ġspokes man
le g
Ġst ar
Ġso ftware
ĠThe y
iv al
Ġfin al
Ġsha re
Ġex ecut
Ġch ild
Ġstr ong
Ġa v
ĠP ar
u c
Ġ ed
re en
ĠW ales
Ġbet ter
ĠTh is
Ġh it
Ġh old
Ġr a
ru g
ĠHow ard
at ch
Ġf ail
u ed
in ed
ur ity
Ġst ud
if ic
Ġad v
Ġfin d
Ġsu g
o ver
it es
Ġman ag
Ġc re
Ġha lf
ĠS he
Ġdec ision
Ġin st
om et
Ġas s
Ġret urn
re land
Ġb ank
ĠA t
pl oy
Ġsug gest
Ġs ide
ard s
p ite
Ġt urn
am s
o ber
Ġt it
ĠW e
Ġp os
Ġg l
Ġv ideo
Ġinform ation
is m
Ġf am
Ġd ay
Ġlike ly
Ġbu y
Ġf all
Ġg ive
ĠL ord
r ing
Ġa ff
Ġex p
i ence
t i
c es
ĠW ill
Ġv ict
in al
Ġd ri
Ġex per
r ation
Ġse en
en al
Ġsay ing
o int
Ġd igital
ĠUn ited
Ġcle ar
' ve
Ġp ower
Ġtr ans
g es
Ġan other
Ġ1 2
ĠFr ance
Ġde v
in s
Ġp oss
Ġwith out
c i
Ġre ce
Ġab le
ap an
l se
Ġc er
Ġus ing
lo ad
Ġl ess
Ġfig ures
Ġb an
ar ter
Ġcomput er
n es
Ġt aking
us h
Ġan alyst
Ġcount ries
Ġvi ew
anu ary
Ġf ew
ĠC ons
ĠP C
Ġa way
Ġd ou
et s
b and
Ġp ress
Ġre p
ĠI reland
Ġim m
Ġcall ed
Ġcontro l
id ence
ĠJ anuary
u ge
ĠM on
Ġbec ome
Ġon line
ce mber
ĠC ha
enc y
Ġd ata
Ġr ise
Ġacc ording
t en
th ough
ĠHow ever
Ġe vent
Ġv is
Ġle vel
Ġke ep
Ġ ord
Ġsu b
ĠM ar
Ġmo d
Ġacc ess
c hed
t o
u ally
ĠDe cember
ret ary
Ġf und
at or
Ġl ost
Ġe v
Ġy our
Ġle ft
Ġpol ic
t ed
Ġs ong
oc al
s ide
Ġa ir
ha el
Ġm aking
ort h
Ġplay er
Ġw rit
Ġp ass
M r
Ġt ar
od y
Ġcha ng
Ġad m
li er
Ġke y
Ġbig gest
Ġgener al
Ġt est
Ġl ine
ch ool
Ġas k
Ġacc ount
i z
Ġ 9
Ġf ac
Ġp ast
at ur
Ġpro pos
The re
ud get
Ġoffic ial
r id
w ays
ent ial
Ġmat ch
e b
Ġc ase
ĠR ob
end ed
Ġleg al
e le
Ġc ol
as ter
and s
Ġpr ices
Ġgiv en
r at
Ġw om
Ġb ook
Ġp ost
ur s
ĠR uss
a f
ro so
itt le
Ġapp ro
I f
Ġs omet
al th
ĠA ust
ĠC up
ate g
Ġar t
Ġro le
Ġsec urity
Ġimport ant
Ġa ward
Ġl ow
Ġr is
ĠJ apan
Ġqu est
ĠCh ina
Ġse ason
ra w
Ġwhe ther
Ġre se
Ġsh ort
vi ew
Ġlead er
r is
Ġs us
Ġo il
Ġd ue
Ġd ays
Ġre st
Ġl ife
Ġplay ed
Ġfin anc
o ice
r or
Ġm ak
ĠS und
ur ther
ĠC on
th ing
ĠCh rist
oun c
roso ft
Ġm ess
ll ing
ĠC har
Ġex pl
ĠO n
Ġpre vious
Ġimp ro
Ġexecut ive
Ġb id
Ġsp ending
ic ally
Ġde p
Ġlat er
h old
re w
Ġear ly
Ġt ra
Ġc op
Ġre pl
ll or
5 0
Ġw ent
Ġc or
Ġf ree
ĠThe re
Ġplay ing
Ġqu arter
Ġincre ase
Ġbelie ve
a w
ĠE U
h ile
mp ions
a pp
Ġs ent
Ġe uro
ĠWill i
Ġg am
Ġe as
Ġtar get
Ġne ver
ĠMic hael
er g
is hed
Ġm iss
u k
Ġ Z
id ed
un ity
Ġar g
Th is
i vers
re ed
Ġf urther
ĠM in
ĠC ar
Ġf ace
Ġpart ic
Ġmed ia
Ġdiffer ent
Ġ vers
Ġperson al
b e
c y
h or
m ost
u gh
ir m
our s
Ġh ig
Ġth ought
ag ue
Ġchan ge
Ġiss ue
Ġa head
Ġc he
se l
ction s
Ġbe at
ĠB e
Ġ1 1
ap er
Ġfore ign
" ,
h o
i k
Ġdown load
Ġprodu ct
ounc il
e x
ro du
Ġhe ld
Ġpro t
Ġex c
em pt
Ġun t
Ġwork ing
Ġchild ren
ĠAust ral
p le
ĠG l
Ġor gan
Ġcons ider
Ġinv ol
Ġbre ak
i um
ĠSund ay
m ail
en n
ĠA f
Ġannoun ced
ers hip
ne y
ĠNew s
Ġd en
Ġlat est
Ġsm all
Ġsomet hing
n ot
Ġb ill
it ing
Ġm ust
Ġl ocal
ir us
Ġan ti
Ġle t
itt ed
Ġfollow ing
ut es
Ġe ach
ll en
em ber
Ġcour t
c o
Ġf ull
Ġh uge
ĠE x
ust om
Ġso ld
wo od
Ġintern ational
Ġeff ect
Ġto t
Ġl ittle
Ġh ouse
ain ed
ac y
Ġfil ms
av our
Ġunt il
Ġb and
ĠC he
ate ly
Ġpr ime
' re
Ġm en
ĠS outh
Ġr ate
Ġal ways
Ġ1 8
Ġser ies
Ġwebs ite
i ant
Ġ est
Ġd ist
ĠF or
iv ed
Ġcl ose
Ġyou ng
Ġlook ing
r an
Ġm ight
id ay
Ġmo v
Ġtr ad
Ġmeet ing
a ul
h ind
Ġa ud
Ġs um
Ġintern et
Ġent er
a id
d ict
ed er
ure d
Ġme an
Ġinclud e
Ġproble m
ĠDav id
or n
Ġn omin
i et
n ess
Ġs chool
it ive
ĠT ory
Ġ1 5
Ġag o
Ġ3 0
Ġco ach
Ġa im
Ġcont ent
Ġph ones
ĠScot land
Ġb en
Ġha ving
Ġpro cess
Ġstate ment
Ġhop e
Ġmem bers
Ġdem and
V D
b ased
Ġf ell
Ġbe hind
ĠS ec
port s
Ġprogram me
ĠMic rosoft
Ġd ro
ĠT ories
ir man
Ġv al
Ġen ough
Ġclaim s
Ġinj ury
ĠM arch
ĠW ed
Ġproble ms
ĠCons erv
b um
Ġ Q
Ġse arch
p ly
ĠB ank
ly mp
ĠP res
Ġbroad band
Ġperform ance
Ġtak en
Ġ ide
Ġa ctor
re m
Ġw atch
Ġo pt
um p
ra ph
Ġcurrent ly
Ġc ustom
Ġf avour
Ġg r
Ġy et
Ġwe b
Ġj o
Ġdo ll
li ament
Ġam ong
Ġdes ign
Ġbu ild
ĠAf ric
Ġd one
Ġl im
Ġpro ject
ĠG o
ru ary
Ġac ross
eb ruary
Ġe ver
ĠIt al
Ġqu al
e g
ĠM s
Ġal bum
Ġme ans
Ġbo ost
er a
er n
as es
ail able
Ġf oot
ĠB ar
am ed
ĠF ebruary
ĠO lymp
Ġdes pite
ĠAmeric an
Ġrese arch
i ans
Ġt imes
or ks
st it
Ġst op
um an
Ġmin utes
ues day
nes day
Ġfinanc ial
Ġpartic ular
Ġth reat
Ġreport ed
Ġem ploy
Ġnetw ork
Ġp at
ĠT uesday
ad get
Ġth ings
ĠO ne
so ci
pp le
Ġpolit ical
ĠWed nesday
i or
m es
it or
ĠIn tern
Ġsha res
Ġcontin ue
Ġrele ased
Ġpop ular
k y
Ġo b
Ġm et
Ġh ost
Ġr ather
ul ation
ra q
Ġ19 8
Ġear lier
Ġdire ct
Ġtit le
f ic
ĠP ro
Ġpres ent
Ġwom en
Ġget ting
ove mber
Ġhapp en
Ġ X
Ġc red
ĠT hat
ĠB o
Ġwe e
Ġ2 5
Ġal most
Ġ1 00
The y
Ġcha llen
ug by
Ġgl ob
Ġr an
Ġle ast
Ġneed ed
Ġcost s
Ġmanag er
e ad
t he
ĠS w
el t
ĠO sc
Ġdo ing
ire d
Ġwee ks
b all
Ġde li
ĠG r
are nt
Ġfe el
Ġwar ned
Ġav ailable
Ġposs ible
c l
Ġs ale
Ġw ide
Ġc a
Ġst re
ĠN ovember
Ġfe at
Ġright s
Ġchance llor
Ġinf l
lse a
Ġ ens
ist ers
ect ed
Ġpr ice
Ġ5 0
ĠMon day
Ġa wards
Ġs w
is ation
ĠI f
ĠI s
Ġj ud
Ġspe c
ren ch
n ers
Ġs en
Ġb all
Ġn ear
ĠS ha
art y
Ġag ree
Ġcl os
Ġpre dict
enc es
g in
l er
p s
p or
r ong
Ġm ach
st and
ab ly
iv id
fic ult
ro y
Ġhe re
oc rat
Ġconcer n
ĠWilli ams
er ed
as ing
ĠI raq
if f
Ġtal k
Ġvict ory
atur day
in son
Ġl o
am i
un k
Ġcom ing
Ġpol ice
r up
he re
Ġto ur
ĠD VD
Ġor ig
pl ay
Ġlaw s
Ġjob s
uk os
Ġd rug
ĠM ay
ĠS aturday
ri end
Ġtr ade
ĠFr iday
Ġdif ficult
Ġiss ues
g ing
i ent
Ġs qu
ĠK en
Ġen g
Ġatt empt
Ġf a
Ġp ot
at ives
Ġd am
Ġg adget
Ġst ri
Ġse ver
Ġsu ff
Ġre du
ĠA ll
ĠE d
ron t
Ġpres ident
c ing
f ield
Ġth ing
Ġdou b
Ġs ite
Ġo ld
ain ing
fer ence
Ġbo x
Ġcrit ic
e v
Ġf ans
ĠH ar
Ġhand s
Ġlar ge
Ġaut hor
1 0
p ool
v ision
Ġf ight
Ġp ort
ion al
Ġe qu
Ġth ough
ĠH ol
Ġwin ning
Ġinvest ment
Ġpri v
A s
al d
Ġwith in
Ġgo al
ĠScot t
Ġopp ort
Ġanalyst s
Ġquest ion
Ġf ear
Ġf oc
ĠN ations
Ġbr ing
sel ves
l ight
it ions
Ġf act
ar ing
Ġd r
Ġ200 1
ĠLi ber
% .
c hes
Ġm id
Ġn ational
ĠS im
ch ie
ĠL ib
Ġal though
Ġcha irman
ep end
t ime
Ġre qu
Ġr ates
Ġwant ed
Ġbl og
ĠMP s
f or
it her
at ors
ĠM or
Ġhe alth
ĠO ff
Ġsur ve
Ġtry ing
m as
Ġb att
se c
ĠF rench
ĠR adio
Ġoff ice
anc es
Ġele ct
Ġeff ort
Ġtot al
it ors
et t
Ġfor ward
Ġcom es
Ġcon ne
ĠP aul
ant s
itt ee
Ġb udget
il ar
ĠA d
ĠA g
Ġsa w
un e
Ġsing le
Ġvers ion
T V
Ġc ash
Ġm om
Ġint rodu
Ġspe cial
Ġben ef
Ġdoll ar
Ġpot ential
c ha
Ġb ased
Ġpro per
Ġv irus
Ġag reed
Ġcompet ition
Ġ 0
ĠA m
Ġvot e
Ġresp ons
Ġcare er
Ġlaun ch
ĠChe lsea
a ff
r ay
Ġs oc
le x
Ġe ight
Ġse em
ĠP r
ĠY ork
Ġrul es
Ġev idence
Ġpolic y
e an
Ġshow ed
Ġprodu ction
Ġrun ning
Ġcer tain
Ġrep res
id es
Ġwant s
ĠInd ia
Ġrecent ly
Ġsus p
m ith
Ġm ar
Ġre ve
Ġter ror
ĠCha mpions
Ġ ur
Ġb oss
ĠM ac
Ġ1 6
Ġsu re
ens ion
Ġsl ow
.. .
Ġask ed
Ġglob al
er ing
Ġg iant
ĠW est
ist ed
anc he
Ġdet ail
Ġnetw orks
Ġ i
il es
ĠY ukos
Ġopp os
rup t
Ġs it
Ġc am
ĠT r
ĠT ony
Ġ1 7
ab ility
ĠTh urs
S t
n y
Ġre ad
ĠS ix
ĠA pple
ĠO pen
pt ember
Ġreport s
mp ion
ĠDem ocrat
Ġfail ed
p ut
Ġ Ċ
es e
il k
ĠS ony
ĠD r
ib ility
Ġfour th
Ġcustom ers
ĠThurs day
t op
re st
Ġr ace
Ġ1 4
ore d
Ġsc reen
Ġac cept
Ġpoint s
m in
Ġs ol
ot s
ac hed
Ġtr ack
Ġshow s
Ġann ual
Ġsever al
Ġs ites
Ġal ong
ĠSe ptember
Ġhig her
y ing
ed y
le te
ent ion
Ġl ed
Ġst e
Ġcall s
Ġtri al
Ġf ront
Ġp ick
ct ober
Ġh ist
ow s
iv ing
Ġcha mpion
Ġcan not
Ġpart ies
ress ed
Ġdid n
Ġappe ar
Ġin it
Ġn ame
Ġl ate
Ġr adio
ĠP et
ĠO ctober
Ġro se
Ġsec retary
ĠComm ission
Ġrece ived
b ack
Ġw a
Ġd om
ir on
ver age
ĠP h
Ġa chie
ver pool
oc u
Ġinvest ig
Ġext ra
Ġcent re
ĠChrist mas
g o
Ġh uman
ĠS ir
ĠI r
ain s
ra ud
ĠSt e
Ġsc he
Ġam ount
d en
Ġp ict
ot t
od e
ru ct
ĠY ou
Ġdeb t
Ġnews p
e ch
at er
ĠM ark
ĠJ ones
od d
Ġsu bs
Ġen c
Ġthem selves
Ġprof its
Ġed uc
Ġdev ices
Ġsurve y
l ay
s enal
he st
Ġb it
at s
Ġon ce
im ate
Ġr u
ĠR ober
ĠW h
ist ic
Ġconsum er
Ġpos ition
Ġinvol ved
iet y
ĠIntern ational
f ord
r ight
re et
al ed
om ing
ut y
Ġh on
Ġ4 0
Ġsim ilar
Ġconsum ers
ĠChar les
Ġden ied
d ow
l ike
Ġh un
Ġse ll
Ġ200 2
Ġind ivid
Ġmov ie
i od
u f
Ġc reat
Ġp oll
Ġto get
Ġl ive
ig ration
Ġse ctor
ĠG u
Ġ1 3
Ġnot hing
Ġother s
Ġconf irm
Ġrele ase
Ġattack s
ĠMin ister
Ġtoget her
Ġt y
Ġme as
Ġgrow ing
Ġact ress
Ġpri ze
Ġfam ily
ĠRuss ian
ĠOff ice
I P
Ġre ach
ĠM art
ĠP arty
Ġag e
Ġper iod
Ġweek end
han ge
Ġsur pr
Ġbroad cast
Ġdisc uss
Ġchang es
Ġproduct s
c her
Ġw rong
Ġre v
ĠH is
all ed
Ġdevelop ment
ivers ity
ĠAfric a
ĠLiber al
epend ent
U S
u ation
Ġs k
en e
al k
il leg
Ġl oss
Ġst ock
ĠG e
ĠJ ack
Ġkn own
Ġlaun ched
Ġpress ure
Ġeuro s
Ġgam ing
Ġb ad
Ġre form
ĠM an
ĠM ad
ord on
Ġpo or
Ġneed s
ĠAs soci
Ġtele vision
Ġmom ent
d s
l in
Ġ illeg
Ġp enal
Ġp aid
Ġm ass
if ied
ĠO ther
Ġacc used
ĠBl ack
Ġord er
Ġide a
ĠItal y
l ish
Ġb as
om es
Ġst ep
ri ed
our n
Ġwho le
Ġsum mer
Ġdeli ver
anche ster
m any
Ġc ards
Ġm ult
ĠF eder
Ġbelie ves
Ġannoun ce
Ġcre ate
Ġens ure
Ġrepres ent
u el
Ġd ocu
id ing
ĠS ome
Ġwh y
Ġqu ick
Ġact iv
Ġmak es
Ġfoot ball
d own
p ar
w hile
ed s
Ġm ag
il ed
Ġre ven
ĠS h
ĠC ent
est ival
Ġse ek
ĠG M
Ġ( $
Ġcont ract
ĠOlymp ic
o ff
Ġ ve
Ġc ouncil
Ġcom b
ĠR es
ĠN ational
Ġdef e
Ġstart ed
Ġf raud
Ġn ight
Ġl if
ĠA ng
ive ly
og n
Ġch oice
ĠTh om
Ġclaim ed
ĠLi verpool
Ġresult s
ĠPres ident
o or
Ġf riend
Ġst age
Ġr ound
ĠF ox
ĠW ith
ra ft
Ġdes c
Ġprov ide
Ġopen ing
Ġimpro ve
Ġfoc us
ĠIr ish
Ġa id
Ġf ast
ĠE ast
Ġte xt
Ġmin isters
ful ly
Ġcontro vers
ĠPar liament
uf act
s h
in ks
Ġc ateg
ly wood
Ġr ugby
Ġman ufact
Ġlead ing
Ġhow ever
Ġhelp ed
Ġincre asing
Ġtal ks
Ġval ue
a h
Ġb ar
is es
Ġd ate
ĠC o
Ġcon ference
Ġcomp l
Ġcl ass
Ġconf ident
Ġsim ply
H ow
W hat
c ent
l ines
er y
ic ations
ĠS l
ll ed
Ġst ay
Ġse ven
ag ing
ĠO r
iv il
Ġany thing
Ġser ious
Ġvot ers
ĠAustral ian
% ,
b r
Ġl and
ĠS o
ĠA ir
Ġ2 4
Ġqu ite
Ġk ick
Ġchar t
Ġhop es
Ġsen ior
s w
s un
u ing
Ġt ack
Ġf un
Ġg ave
Ġst ars
Ġcomm un
Ġ6 0
Ġdeb ut
Ġfore cast
Ġsqu ad
ĠMart in
' ll
Y ou
u ff
v iron
Ġp ur
ĠM il
ak er
Ġ200 0
Ġso on
Ġrec ogn
ned y
ĠUn ion
Ġtax es
d er
Ġt re
ha lf
ver t
ĠF in
Ġinclud ed
ĠAr senal
Ġprof it
Ġdri ve
Ġpropos als
ĠOsc ar
ĠScott ish
a i
n el
Ġfor ced
ĠB r
Ġh ours
Ġit self
ĠC or
os p
Ġdef ic
Ġimp act
Ġbo ard
tain ment
ĠLe ague
Ġappe al
F or
e al
m b
y l
ĠH en
ac ed
Ġ200 6
ip s
Ġcr im
ĠGer many
Ġadm itted
O n
o f
Ġw orth
en ing
is on
Ġd ram
Ġd omin
ĠB ush
ag ed
ĠG old
art ment
ĠJ am
ĠK il
Ġwork ed
Ġsing er
ĠGr and
T hat
g ent
Ġa verage
Ġc ou
Ġe ither
ĠB ro
ĠB ill
Ġare as
age ment
Ġnum bers
Ġchar ge
Ġstr ateg
ific ant
Ġrepl ace
app oint
ĠSec retary
S E
re ad
Ġe mer
ĠM anchester
Ġsp am
Ġunder stand
rough t
har d
Ġorig inal
ĠAssoci ation
A nd
b an
k en
l or
m y
Ġp ar
Ġl ink
ĠS pe
Ġcom ment
ac es
ĠP ark
ĠE l
ĠW ind
Ġcomp ared
Ġav o
Ġimm igration
sun ami
om an
Ġre ject
ĠG ordon
her n
Ġv ia
em y
Ġne g
Ġsp ent
ĠSt reet
Ġbec ame
Ġspe ech
Ġsup er
Ġchar ges
Ġgroup s
Ġter m
Ġbatt le
Ġeduc ation
Ġdesc rib
viron ment
3 0
Ġb ought
Ġp arent
il m
Ġbe gin
Ġl ower
ĠP e
our t
Ġab s
Ġun ve
Ġcour se
Ġlar gest
Ġtak es
ĠKen nedy
ĠRober t
2 0
Ġb rought
ed ia
Ġin n
ĠC amp
Ġst aff
ol es
ĠR ic
Ġdec ided
amp le
hen s
Ġcut s
rib ut
Ġran ge
Ġdrug s
Ġnewsp aper
Ġ es
Ġc ivil
it ch
ĠT ur
Ġcom ments
el ly
Ġout side
og le
Ġen j
itt ing
Ġhim self
ĠAmeric a
rug g
Ġcol le
ĠRuss ia
u ck
Ġs ound
Ġp le
Ġn amed
Ġg round
Ġpro b
ĠD ep
ĠR o
ĠJ une
cc ording
Ġremain s
Ġturn ed
Ġopport unity
Ġsit uation
Ġenj oy
Ġo p
Ġto day
Ġd i
Ġd iv
Ġre view
Ġsh own
Ġwho se
Ġind ependent
Ġ19 7
Ġar rest
ĠGer man
Ġparticular ly
b ell
Ġf air
Ġm er
om b
Ġl ab
ĠB T
Ġst rugg
Ġpro te
ud e
Ġsp end
Ġdis appoint
Ġmajor ity
Ġshare hold
Ġcer em
Ġofficial s
ĠConserv ative
Ġauthor ities
C h
e es
Ġs our
ĠB a
ot e
ĠD es
Ġ2 2
Ġwork ers
ĠComm ons
Ġexper ience
Ġwide ly
Ġpriv ate
odd ick
en ed
Ġp ir
Ġl ight
ĠA pr
ĠH ouse
Ġcom edy
Ġpl ed
ess ion
Ġsh ot
Ġwin ner
Ġset t
Ġear ning
Ġreg ul
Ġlong er
Ġcap tain
Ġconcer ned
Ġcre ated
Ġinst ead
Ġbank rupt
ĠRob inson
Ġmess age
Ġaud ience
Ġreve aled
Ġconfirm ed
ĠWind ows
ĠApr il
l im
Ġc ard
Ġfor ce
ill ions
Ġat h
Ġcon stit
ĠL ast
ab y
ist ing
ens ive
Ġoffer ed
Ġest im
Ġconcern s
u ly
Ġb ody
Ġm ot
ĠS up
ĠS mith
op p
pp ing
Ġtr aining
pect s
Ġret ail
ĠDav is
Ġra ise
Ġeas y
Ġfa ctor
s et
Ġs ort
Ġw ays
Ġto ugh
ou l
Ġre d
Ġre ason
Ġl ives
ĠT e
Ġr ival
Ġpre p
Ġadd ress
Ġmarket s
Ġsystem s
Ġins isted
Ġmem ber
Ġhapp y
Ġpos itive
Ġris k
o on
on se
Ġto ol
Ġg en
Ġst ory
Ġare a
Ġtr ust
ne ft
Ġter ms
ĠGo ogle
Ġenc our
ĠKil roy
C on
w ide
Ġs end
is ions
Ġre ached
ĠM ur
Ġex ample
Ġcomp lete
ial ly
ĠUK IP
ition al
Ġcomm unity
Ġlook ed
Ġsign ed
Ġresp onse
Ġwebs ites
Ġmess ages
ĠAustral ia
sec ut
A A
b urn
w in
Ġc oll
an n
Ġan sw
Ġcon d
Ġgo ld
Ġle ave
Ġsp ot
mer cial
Ġen vironment
Ġcomm ittee
ĠAl an
sc he
Ġdev ice
Ġchallen ge
Ġhist ory
i qu
v al
y er
Ġt sunami
in et
Ġf it
Ġof ten
Ġd raw
Ġn on
Ġl ack
ut sche
op s
Ġde ath
ĠP rem
ĠO f
Ġevery one
Ġevery thing
ef in
Ġdou ble
Ġstri k
b ur
ed i
Ġbe l
ĠC ity
Ġj ump
og raph
ire less
Ġdeb ate
ang u
Ġschool s
Ġf ile
an e
ol ution
ĠJ ames
Ġle ar
Ġbec oming
Ġpre m
Ġk ill
Ġimp ress
Ġgener ation
ĠInd ian
Ġfollow ed
ĠSp an
Ġdet er
Ġlevel s
Ġarg ued
y n
Ġ &
Ġt rou
Ġf ield
Ġp ack
Ġg one
Ġe p
ĠM ike
ĠA vi
ĠA wards
ur t
Ġsa f
ĠW ar
if y
Ġinter view
ĠAnd y
Ġlook s
Ġallow ed
Ġem b
Ġtit les
ourn al
Ġdefic it
1 1
p ro
t ies
u x
Ġ row
Ġbe gan
un g
ri an
um b
Ġim ages
Ġam b
Ġprogram s
Ġincre ased
Ġconf idence
Ġsuggest ed
ĠPC s
Ġfavour ite
ĠMad rid
Ġcerem ony
c ome
n ow
o very
it er
ar a
le ment
id s
ir c
ĠC an
ĠE n
Ġcha ract
ight s
ish ing
Ġfil es
ru ction
Ġdec l
Ġmat ter
Ġfig ure
Ġfam il
Ġcred it
A n
S ilk
b ox
Ġc ross
Ġf r
Ġf elt
ĠC ouncil
ĠH al
op h
Ġcon v
ke y
Ġse par
Ġmo ved
ab inet
ens ions
oun ter
ock ed
Ġke en
Ġtechnolog ies
ĠJohn son
Ġprot ect
ĠConserv atives
Ġqual ity
Ġstre ng
Ġjud ge
unk ett
m ark
s p
Ġs port
re am
en g
Ġp ers
Ġp air
le ar
il t
ce ed
ĠA b
Ġst at
est ic
ĠP ol
ĠEng lish
Ġinvest ors
Ġprevious ly
Ġsche me
b ody
in em
Ġp an
ic ation
ĠM ot
ĠH er
ĠH ome
ĠL a
ĠF ilm
Ġte ll
Ġres pect
Ġapp l
Ġbelie ved
Ġsign ificant
Ġcomput ers
ĠZ eal
Ġdesign ed
ĠGe or
Ġprob ably
Ġbankrupt cy
ĠZeal and
E C
b o
in ary
re g
Ġc ases
Ġn ine
Ġre b
ĠT re
os ing
ous ands
Ġro ck
Ġcomm ission
Ġmob iles
Ġrel ations
ĠLord s
Ġsong s
Ġappro ach
Ġmiss ed
Ġnomin ations
Ġdoub t
Ġindivid ual
' d
P od
i ership
in c
Ġo cc
Ġl ove
ĠT om
ĠM ill
ĠS erv
im um
ĠC ourt
Ġun it
Ġpre vent
Ġk ind
Ġco ver
Ġwar ning
Ġpolit ics
ĠDem s
Ġdro pped
Ġjo in
Ġagree ment
ĠPet er
Ġdom estic
v is
re ens
Ġp ension
ow ers
pe cial
ob ile
ĠBl unkett
ubl ic
Ġdef end
Ġprogram mes
Ġins ur
cast le
Ġimm edi
Ġorgan is
ean while
ĠChampions hip
Ġdetail s
ĠWh ite
Ġilleg al
N ew
S P
Ġ [
er r
er ial
at ic
ĠS port
Ġcom mercial
Ġse ed
ĠG roup
ĠG reen
ĠJ on
ans k
ff ic
Ġinc ome
Ġwin s
Ġen erg
Ġact ually
az ine
ĠAt hens
Ġban ks
Ġmach ine
Ġoppos ition
Ġmeas ures
Ġdefe at
Ġcateg ory
ĠCamp bell
1 2
i pped
m ing
Ġ ident
in ho
re me
Ġc row
Ġc ele
Ġto wards
Ġd est
il ities
ĠB en
ĠS y
Ġpro s
Ġcon st
ra ight
Ġab ility
ĠK ing
air s
Ġmusic al
Ġph ot
ĠDe utsche
Ġdef ence
ug ansk
Ġrul ed
Ġmach ines
W hen
is c
Ġm or
nd er
Ġn ations
ĠE ar
ĠR oddick
Ġmat erial
Ġgiv ing
Ġvict im
Ġeng ine
Ġru le
yl um
ĠAvi ator
Ġenerg y
d le
y le
Ġt w
Ġs ens
Ġc ult
en a
ar ke
at re
ent ly
st on
ct ed
ĠI D
ur ning
Ġr ap
ĠH igh
os h
ĠK ore
Ġcons ult
Ġcomm it
Ġbusiness es
ĠSp ain
Ġref lect
Ġart ists
Ġtrad ing
Ġi Pod
ĠDemocrat s
Ġcou ple
U K
u it
Ġm illions
Ġst raight
Ġas ylum
un t
ear ch
Ġv ar
end o
ra z
ant age
Ġcont est
Ġbl ack
Ġpolit ic
Ġaccount s
Ġinfl u
ĠHol lywood
i ze
n a
er ve
Ġf estival
im b
ur al
Ġhe art
qu ir
Ġbr and
Ġoper ating
Ġsuccess ful
Ġaff ected
Ġrece ive
Ġenter tainment
ĠPh il
ĠRic hard
pecial ly
b our
l ation
er ry
on ald
Ġw ireless
Ġf ly
ĠA c
Ġst ake
Ġwe ak
Ġ2 7
Ġal le
Ġex ports
Ġme ant
Ġlead ers
Ġke pt
Ġprog ress
Ġoffer ing
ines e
Ġplan ning
Ġsuggest s
Ġsub ject
Ġpredict ed
Ġdocu ment
Ġprote ction
? "
r ast
Ġb illion
Ġp us
Ġre ady
ĠM id
ĠS ch
ĠA lex
ter m
Ġgo es
Ġv oice
ĠN e
od ay
ĠY ugansk
Ġcomm on
els h
Ġcor por
Ġnear ly
Ġgadget s
Ġdescrib ed
ĠPrem iership
a ut
in ation
Ġc irc
it z
Ġp ract
ic ated
il ty
Ġe y
Ġe lse
ĠM e
ĠB ell
ĠA ug
ĠC han
ĠU s
ĠN o
Ġj ournal
Ġag ency
Ġch o
Ġany one
Ġatt ract
ĠAr gent
Ġvi ol
alyst s
ĠCl arke
Ġra ised
Ġchang ed
erg us
ĠSim on
he l
Ġp ull
Ġm is
Ġd ied
Ġn ation
Ġl angu
ay lor
ĠM any
ot i
ĠC ol
ri al
if t
Ġv ol
ĠN or
em ploy
Ġoff ers
Ġrec overy
ail y
land s
ĠIt s
Ġpre t
Ġdis aster
Ġro b
ĠAs ia
ron ic
Ġtal ent
Ġcar ry
Ġair line
Ġwrit ten
Ġhig hest
Ġnomin ated
Ġob vious
Ġcritic ised
Ġachie ve
Ġpenal ty
Ġansw er
ĠAug ust
C om
W ith
k n
Ġb row
Ġo bs
ĠM o
ĠW ood
ĠN orth
ra el
Ġwor ks
Ġab ove
ĠK e
int endo
ĠAnd rew
Ġbl ock
Ġbu ilt
rib ution
Ġrul ing
Ġgu ilty
Ġpolic ies
Ġcop y
Ġdro p
Ġcertain ly
ĠThom as
Ġreject ed
Ġparent s
ergus on
u ction
y ond
Ġt ie
Ġt reat
in als
Ġc inem
ar ies
ĠM ore
ĠB y
ol ute
ĠW elsh
Ġ2 1
Ġref ere
Ġdoes n
ĠPar is
Ġfac es
Ġfac ing
Ġbuild ing
Ġsoc ial
Ġes pecially
ĠDep artment
e ing
i os
i ber
l on
ent er
Ġre lie
ĠT imes
Ġwith d
Ġan im
ĠD i
ĠD an
ĠP ort
Ġwe l
Ġal leg
Ġcha mpions
ap t
Ġun like
Ġres ign
Ġwin ners
av ing
Ġsome one
Ġspe ed
Ġpubl ished
Ġsecond s
Ġstart ing
Ġap olog
Ġcontin ued
Ġplan ned
Ġprom ot
rid ge
Ġconsider ed
Ġaim ed
Ġhappen ed
Ġcrim inal
A l
S o
g y
h od
Ġt ick
he ld
Ġf uel
Ġp owers
il s
ad ium
ĠC ard
Ġcon du
ĠD o
ĠJ uly
ĠN et
Ġsc r
ices ter
oy al
Ġprodu ced
ph one
Ġcompet e
enn is
Ġjo ined
Ġinfl ation
Ġpict ure
Ġannounce ment
Ġmag azine
Ġath let
1 3
1 5
Ġc ru
or row
ĠT aylor
ĠM ag
am b
ĠA ccording
and id
ĠCh inese
Ġtake over
Ġhop ing
Ġvot ed
Ġcr ime
ĠJapan ese
Ġtalk ing
Ġcontrovers ial
Ġdram a
ĠGeor ge
Ġalle ged
1 9
2 5
2 00
6 0
a pe
d efin
f ort
g r
y c
Ċ Ċ
Ġa ware
Ġto uch
Ġin quir
ro p
ĠM att
ĠM eanwhile
Ġh ous
ĠA ct
ad emy
ill s
ĠD ay
ac ing
Ġse lling
ĠR ed
ĠG ra
ĠSt ep
Ġman agement
Ġreg ular
Ġ7 0
Ġdevelop ing
Ġcap ital
Ġbuy ing
ran ge
Ġclos ed
ruct ure
Ġtack le
Ġneg oti
ĠSpan ish
Ġsepar ate
A r
c ri
m a
p rom
z z
er as
re l
Ġc andid
it iz
ĠM y
ĠB er
ĠP at
ĠR ay
Ġad vert
Ġadd ing
Ġback ed
Ġtri ed
Ġexper ts
Ġspec ific
Ġintrodu ced
Ġcam era
Ġcompl ain
Ġtre nd
Ġinn ov
5 00
A t
i at
en se
en ger
Ġto urn
ing ham
ic ious
Ġh omes
ast ic
pt ion
Ġfin ance
Ġdis play
Ġmin ute
Ġpr int
Ġmat ches
ron ics
Ġoper ators
Ġresp ond
Ġcent ral
Ġtele com
Ġmov ies
Ġspec ulation
Ġquick ly
Ġavo id
bur gh
defin ition
1 7
4 0
i en
o res
Ġa uction
Ġb al
Ġm al
ĠT ele
ĠB el
Ġth ousands
Ġr ising
un es
ac ity
her s
all ag
Ġun employ
Ġelection s
Ġhigh light
Ġsing les
Ġprom ised
ĠMc C
Ġmain tain
Ġstud y
Ġlim it
Ġunve iled
Ġearning s
P e
S he
b re
m ers
Ġc ode
Ġbe yond
Ġl ose
ut ch
ĠT ra
ĠM us
Ġh its
op er
ĠP al
ĠF erguson
Ġ2 8
ĠN intendo
iv an
Ġsp read
ĠSt raw
Ġshow ing
Ġdec ide
Ġinclud es
ull ivan
Ġdevelop ed
Ġappe ared
Ġ8 0
Ġadm in
Ġcop ies
Ġmiss ing
Ġorgan isation
Ġmass ive
Ġpar liament
Ġsharehold ers
ĠDes pite
B M
B l
d e
l an
r ict
y ware
Ġw alk
Ġc al
ing er
Ġg ives
Ġl ap
ĠM usic
Ġon to
ĠA fter
ĠH D
ist ration
ĠJ ust
ap ers
Ġmarket ing
Ġprodu cer
ĠAs ian
Ġser ve
az prom
Ġref used
ĠRe al
Ġquest ions
Ġtra ffic
ĠX box
ĠIs rael
Ġport able
Ġfear s
Ġsusp ended
Ġpick ed
ĠJack son
ĠAc ademy
1 00
3 5
C I
h ic
m iss
p ed
w oman
in burgh
Ġbe ha
Ġg ig
ĠT im
ĠS ky
ĠW hat
ĠW hen
Ġsl ight
az er
Ġinterest ed
Ġstar ring
Ġstud ents
Ġadv antage
ĠRob b
Ġexc hange
Ġfeat ure
Ġsuff ered
Ġeffort s
ĠSte ve
Ġcorpor ate
Ġrelie f
d ing
i j
i ance
m it
t ers
v a
w here
Ġre fer
ad es
ĠL ew
ĠN ow
Ġover se
Ġsc reens
Ġar ri
Ġdef in
ener al
Ġend ed
Ġleg is
Ġ199 7
Ġlist en
Ġstand ards
Ġcrit ics
Ġpropos ed
Ġcam eras
Ġinit i
Ġve hic
Ġbel ow
Ġcharact er
Ġfamil ies
Ġpan el
Ġrelations hip
Ġunlike ly
Ġinquir y
B rit
F r
c ers
d og
e per
p ir
p son
r ard
w en
as k
il le
Ġl osing
ĠS an
us ing
ĠH ew
op e
ĠL ions
ĠE lect
Ġex isting
Ġout put
ĠK elly
Ġqu ot
Ġget s
Ġind ex
Ġmon itor
Ġdec isions
Ġatt end
Ġchan ces
Ġph ys
Ġret ire
ĠUn iversity
Ġsupport ers
Ġoper ations
ĠGer rard
Ġadv ice
Ġdam age
Ġdr ink
Ġproper ty
Ġseem s
Ġpolitic ians
Ġbrow s
Ġtourn ament
b ed
Ġsa ve
ers e
Ġpro ved
Ġcon so
ĠG ree
ra wn
ak ers
Ġtr ue
Ġent ire
atur al
Ġgam ers
ĠOsc ars
Ġbenef it
ĠPr ime
Ġalong side
Ġsubs id
ĠSl am
Ġconso le
8 0
D P
M ic
i ents
s pe
Ġs il
Ġb ur
Ġf ul
Ġf aster
ro ad
Ġl iving
ĠP lay
ĠG azprom
Ġsc ored
Ġworld wide
Ġsup pl
ix ed
ĠNew castle
Ġhelp ing
Ġprom pt
Ġevent s
Ġtarget s
Ġprot est
Ġredu ce
Ġwa iting
Ġbegin ning
raz il
Ġpret ty
M F
a ugh
c alled
m on
p ond
er o
er t
ut ers
ĠT oday
Ġhe av
Ġst ore
ĠL aw
ĠD igital
ort hern
Ġ2 3
um e
iv als
Ġus es
Ġch ip
Ġmin d
Ġmin imum
Ġapp oint
Ġtri b
Ġput ting
Ġgreat er
Ġtrans fer
Ġview ers
Ġmak er
Ġopt im
Ġrespons ible
ĠAng el
How ever
Ġunemploy ment
o ke
in y
Ġc ounter
ha ps
at ter
ĠB udget
ver ty
ad ed
ĠD own
ĠF ore
os en
Ġj ail
ap s
Ġsp r
Ġrec over
ctor s
ond er
Ġpo verty
Ġhop ed
ĠAn alysts
Ġstand ard
Ġed itor
Ġtra vel
Ġfell ow
Ġur ged
Ġmanufact uring
Ġestim ated
Ġlegis lation
A ll
c hange
r ated
Ġt end
Ġs ides
Ġf ant
Ġp ace
Ġm ur
at ory
Ġl ik
ĠT o
ĠM a
ĠB oth
ĠS oc
ĠL SE
Ġ2 6
if th
ult s
oy s
Ġbro ken
Ġspokes woman
ov a
irm ingham
ĠGl azer
Ġlim ited
Ġbenef its
Ġvirus es
Ġrespons ibility
Ġreven ue
ĠJam ie
Ġop in
Ġsour ce
Ġrefere e
S A
n ight
t r
Ġt ro
Ġc itiz
Ġn ames
Ġg as
Ġh osp
ĠC abinet
ĠG ame
Ġal one
our inho
ĠJ ose
ud d
Ġcont act
ne ll
Ġfin ished
Ġpr ison
Ġ4 5
Ġsec ure
Ġiss ued
Ġac qu
Ġcle an
Ġfall ing
Ġvis itors
Ġord ers
ĠQ u
Ġfeat ures
Ġinvestig ation
Ġactiv ity
ĠGM T
Ġpur cha
Ġstrateg y
Ġabs olute
Ġcond itions
Ġcrow d
Ġhous ing
Ġlap top
O ur
O ne
l ig
Ġ ill
Ġ ign
Ġp ra
Ġm ist
il it
Ġn orm
ĠB irmingham
Ġh ot
ĠS er
ce ll
Ġsa v
ĠC al
Ġth r
ĠL os
ĠF ar
ĠR ugby
Ġgo als
ĠN ot
iv en
Ġover all
Ġsc ore
Ġeconom ist
Ġprodu ce
Ġkn ew
Ġbig ger
ĠAl though
Ġcontin uing
ĠComm ittee
lect ed
Ġpower ful
Ġmod els
Ġwom an
Ġhouse hold
Ġest ab
Ġpict ures
Ġsubs cri
Ġty p
Ġtw ice
7 5
L abour
Ġ ir
Ġs ust
an ger
at he
Ġha m
ĠB razil
Ġh our
ĠA nt
ĠL ife
ĠE ver
Ġpl aces
Ġv ice
Ġv ital
od g
Ġad op
Ġmin or
ĠY ear
Ġdec ade
Ġro om
Ġro ad
Ġsha r
Ġtechn ical
ph y
Ġcontin ues
Ġsim ple
Ġdri ven
Ġwatch dog
Ġproject s
stit ute
ĠHar ry
for ce
ĠMor gan
Ġsoc iety
ĠRes earch
Ġstrik er
ĠTre as
Ġcele br
Pe ople
I nd
e ed
i ences
l ook
u ild
v est
Ġc ity
Ġg raph
Ġl ic
ĠM al
Ġis n
ad ing
Ġst ation
Ġr out
ĠF A
if est
ra p
ub s
Ġper f
Ġlead ership
Ġcur ren
Ġclaim ing
Ġvot ing
Ġaut om
Ġdiffer ence
Ġfac ed
Ġopport un
Ġfriend s
Ġtrou ble
ĠKore a
Ġlangu age
ĠStep hen
E ng
Ġw age
Ġc ast
ou red
as ons
as hed
Ġfor t
Ġr ivals
Ġpro secut
Ġde ad
ĠW hile
pp er
oc ks
Ġpe er
ous ly
Ġmin i
ĠFr ank
enc ies
Ġexecut ives
Ġass ess
Ġsub st
Ġmod ern
Ġfund ing
ĠBo erse
Ġca used
Ġhun ting
cher s
ĠMil burn
Ġinsur ance
Ġperf ect
f i
h op
l us
m ed
Ġt ight
on st
al ity
at is
Ġbe g
om m
ĠM el
ĠB rian
Ġas soci
ol a
se y
se mb
Ġmo ving
ĠG eneral
ab or
ant ed
Ġle ts
Ġwor ry
pt on
ĠSt one
Ġinter act
ict ion
anc y
Ġsha dow
Ġrecord s
Ġhand held
ĠLe e
Ġcap acity
Ġ199 9
Ġpop ulation
Ġmod el
Ġfund s
Ġwrit ing
Ġeas ier
ĠOlymp ics
Ġpresent ed
Ġbas is
bo ard
Ġcru cial
2 7
a un
c raft
r im
Ġs n
Ġc ause
Ġp aper
at han
ic ient
om ine
Ġre pe
Ġl og
ad al
Ġhe ard
Ġst or
Ġse x
ort g
ĠR os
ĠU nder
um er
ist an
Ġsh oot
Ġj oint
Ġus er
Ġun f
Ġun ion
und red
Ġint eg
Ġdis miss
Ġfil ed
Ġ3 1
oll ar
Ġexpect ations
Ġlaw yer
vent ion
Ġreg ister
ĠLe icester
Ġinterest s
ang ers
Ġext reme
Ġass ist
Ġass ets
Ġvis it
Ġbook s
ĠGl ob
mail s
ĠEx change
eg as
Ġsen se
Ġquestion ed
Ġblog s
Ġconne ction
Ġhon our
Ġincreasing ly
Ġdomin ated
Ġcomplete ly
Ġvictim s
ĠHew itt
L e
S ome
g l
i res
i pl
n et
u et
Ġs ports
Ġf ire
Ġf ifth
le ction
Ġg ain
Ġl iber
ĠB ow
Ġh ip
ir t
ir st
Ġwas n
ĠD on
ac hes
Ġse lf
ĠP ri
ĠE b
ĠE conom
res h
ĠO ut
ĠO wen
Ġqu it
Ġrem ark
Ġsee ing
Ġpri or
ĠRe uters
ĠWilli am
Ġsmall er
ĠAfric an
Ġlink ed
Ġstreng th
ĠServ ice
ĠMus lim
Ġopportun ities
a ult
n s
at ure
il i
Ġn omine
us es
Ġcon c
ĠF iat
ĠW as
if orn
ord s
Ġne cess
con t
Ġplay s
ĠSt ates
ĠV er
ĠCh ris
Ġcomm itted
Ġrem ember
Ġoffic er
ris on
Ġarg u
Ġtrad itional
ĠItal ian
Ġ198 0
Ġhands ets
Ġaccept ed
Ġpir acy
ĠMur ray
Ġimmedi ately
ĠChampionship s
Ġmor ning
kn own
enter is
ĠAngel es
Ġstor age
a ud
g ow
g round
o le
w ell
Ġ z
Ġ ult
Ġp ain
Ġp ensions
at ically
Ġd uty
ro te
as gow
Ġre n
ĠT han
Ġh or
im edia
ce llor
Ġst adium
Ġde ep
Ġse m
ĠF ive
ĠR ep
ag er
Ġle ague
Ġwor d
ite ly
vi our
Ġman ifest
Ġmonth ly
Ġbro ke
Ġthrough out
Ġins ide
Ġpay ing
Ġteam s
Ġcrit ical
Ġaff ord
Ġaff ect
Ġclear ly
Ġorig in
Ġrequ ire
Ġreven ues
AA F
iqu e
Ġorganis ations
Ġmal icious
N o
S c
w ick
y ers
Ġs ize
ha il
Ġf lo
ar ant
ro l
Ġg rew
ent ions
Ġl inks
ĠB ern
ĠI nt
op ing
Ġse es
and er
ĠR og
ĠN i
Ġwor st
Ġun s
Ġpart ner
ĠSt and
ict ed
Ġset ting
Ġam id
Ġno vel
Ġspe aking
Ġprodu cers
Ġcar ried
Ġdem onst
Ġreturn ed
Ġview s
Ġris es
stand ing
Ġstri ke
Ġsurpr ise
Ġimpress ive
pro f
Ġbeha viour
ĠCal iforn
Eng land
c he
m aker
Ġ .
Ġ und
Ġt ipped
in i
in ter
Ġf ine
ĠB aby
ĠS id
ĠI an
ĠI BM
ur ities
ill a
ĠC ap
ĠThe se
ĠH ou
ĠD S
ĠD a
Ġex act
art ers
Ġun less
ue en
erv es
Ġch osen
Ġdec line
Ġmy self
Ġhand ed
Ġcut ting
Ġknow s
Ġsupport ing
Ġremain ed
Ġform at
Ġexp ensive
Ġpass ed
Ġtest s
Ġ9 0
Ġdep art
Ġeas ily
Ġvers ions
ho o
ĠDVD s
Ġreform s
ĠCard iff
ĠEb bers
b on
m akers
re y
or ing
Ġb i
Ġb orrow
Ġd anger
ĠM ourinho
ill er
Ġr ank
ĠH am
ĠE du
ri o
ĠW all
ab s
end s
all s
Ġwor ds
Ġsp l
ĠSt ate
Ġfin ally
ell ig
anc is
Ġexpect s
Ġfollow s
Ġdisc ipl
Ġ8 00
Ġtele phone
Ġstud io
Ġmanag ed
Ġfall en
Ġimpro ving
Ġseek ing
ĠGold en
ĠTur key
Ġconstit ution
Ġdeter m
ĠCan ad
Ġful ly
Ġcitiz ens
ĠTreas ury
B S
a ction
a hoo
d ney
h ib
in o
Ġf reed
Ġp ush
Ġm ail
Ġm ortg
ic on
ro g
as ion
ĠA ut
ĠC ur
Ġhe ar
un ning
Ġse qu
ĠE r
ĠG ames
ist ry
ĠJ im
ĠJ ul
Ġsu c
Ġsp ace
ĠK enteris
Ġim age
pect ed
ĠAs k
Ġgood s
Ġreg ion
Ġtri es
Ġincre ases
com ing
Ġindust rial
ham pton
Ġallow ing
Ġ199 8
Ġhold ing
Ġche ap
Ġeffect ively
ĠHol mes
Ġbring ing
ĠHen ry
Ġpled ged
ĠSup er
Ġprep ared
Ġcinem a
Ġalleg ations
Ġtelecom s
Ġslight ly
Ġcurren cy
M an
U n
e y
e ction
i ar
i ers
r ain
Ġw rote
it ar
Ġf ood
Ġf eder
Ġf resh
Ġd rawn
Ġn atural
ig g
Ġr ac
ĠD ou
ĠE ven
ĠR ec
ist ics
Ġcomp let
Ġsu it
Ġsp yware
ĠSt ock
Ġfin ish
Ġdis p
ĠV al
Ġfe es
Ġsur f
Ġsur v
Ġthink ing
Ġhigh ly
Ġcour ts
Ġdisc over
ee ves
Ġprov iding
Ġclub s
Ġfail ing
Ġaff airs
Ġpropos al
Ġmak ers
Ġwatch ing
iff e
Ġlaws uit
ĠEd inburgh
Ġcreat ing
Ġbas ic
Ġmur der
1 6
4 8
S ha
b l
l am
v irus
Ġs ending
Ġw i
Ġb ri
an z
ĠB al
Ġde lay
Ġy en
ĠP er
ĠW il
Ġex am
ĠJ ason
ĠO per
ant ic
ord ers
Ġup d
Ġte en
Ġinc ident
Ġint ellig
ip le
Ġpre fer
vern ment
anc ial
ĠAnd re
Ġsur round
ars h
Ġchar ged
Ġprov ided
Ġprof ess
Ġremain ing
Ġimpro ved
Ġcritic ism
Ġmid field
Ġconne ctions
Ġwa it
Ġachie ved
Ġsurpr ised
Ġep is
Ġinflu ence
Ġtreat ment
Ġsav ings
atis f
ĠRos neft
Ġmanifest o
Ġsuc ceed
G ara
M obile
T ony
b ury
m un
o hn
s har
u ine
y an
Ġf em
ĠM er
ĠM edia
et y
ĠB et
ot ter
ĠS har
am y
ĠI AAF
ĠC E
ĠL ove
res pond
Ġle aving
Ġcomp ens
ĠSt ar
ĠV i
Ġcons oles
Ġ4 00
Ġchar ity
Ġchar ts
Ġrun s
ative ly
Ġhapp ens
Ġstrong er
Ġtrans port
elt ic
Ġfight ing
Ġrequ est
Ġloss es
ĠSy dney
ĠRobb ie
Ġoverse as
ĠDown ing
Ġfant astic
odg son
B y
b it
o e
Ġt ennis
in n
ha s
al ys
as er
Ġha l
om en
Ġre asons
ut ions
ĠM illion
ĠB ol
Ġh ur
Ġh ol
ur ers
ill ing
ĠC y
ĠC ell
Ġth inks
Ġan g
Ġpro p
ĠL et
ĠD utch
Ġwill ing
ĠF er
our ces
em s
ie ce
Ġpe ace
og g
Ġover t
Ġsc and
ĠIn stitute
av es
Ġback ing
Ġatt ention
Ġspe eds
Ġsup ply
ib ly
ĠDe f
ĠAs h
Ġuse ful
Ġdevelop ers
Ġreal ity
Ġadv is
Ġfind ing
Ġexp and
Ġsus pects
Ġopt ion
Ġpat ent
ĠIntern et
ĠSw ed
ev in
Ġappear ance
ĠSte ven
Ġmult imedia
ĠFox x
Ġforecast s
ĠBro ad
Ġarrest ed
ĠBa ft
Con nell
ĠMot or
ĠEar lier
Ġpus hed
itz er
ĠFore ign
semb ly
Ġextreme ly
Ġsem i
ĠRog er
ĠCaliforn ia
1 4
d les
j ust
k o
m en
p et
y th
Ġt urning
ic ks
Ġha ven
st ar
ĠT wo
Ġh y
ĠS un
am ing
ur ies
Ġst ates
Ġcon cent
ĠL ank
ĠD ire
ĠD ollar
Ġse ats
ĠR oyal
ab led
ĠN orthern
end a
Ġwor ried
Ġwould n
Ġsp ark
Ġme g
ĠIn ter
Ġ19 6
Ġspe ak
Ġreg ard
ĠInd ones
ath on
Ġfail ure
Ġwrit e
Ġart ist
Ġexpl ained
Ġconsider ing
ĠQ ueen
Ġold er
Ġintrodu ce
ĠMil an
Ġstrugg ling
Ġdisappoint ing
Ġconstit u
Ġemb ar
Ġcult ure
Ġcho ose
Ġchampions hip
Ġretire ment
Ġopin ion
Ġabsolute ly
Ġfem ale
1 8
M ore
c ul
f ast
k i
w an
Ġthe atre
re ll
Ġc ars
or ney
Ġp et
Ġp un
ic o
Ġbe ating
st ead
Ġe th
ĠM ir
ot ten
ce lon
ĠC oll
Ġhe aring
Ġde light
ĠL ive
ĠD is
ri er
ĠR ock
ag s
ĠG reat
ĠG ood
Ġ2 9
Ġpart s
Ġrec omm
ĠY ahoo
anc ed
Ġcr is
Ġcompet itive
Ġperform ed
Ġ199 0
Ġopen ed
Ġrese ar
Ġexpl o
Ġcor respond
be at
Ġinit ially
go ing
Ġsk ills
ĠFeder er
ĠFin ancial
Ġreplace ment
ĠPe ople
Ġdocument ary
ĠArgent ina
Ġcopy right
Ġadmin istration
ĠGree k
celon a
2 3
E very
a ver
r ate
Ġt en
Ġt act
Ġt ask
in ing
on ed
Ġs we
Ġf ather
Ġm ilit
al se
ic i
id ers
id el
ut h
ĠB ond
ĠB ec
ly ing
ill ed
Ġr at
se qu
ĠE v
ĠE ll
Ġal tern
um n
um ph
if ying
os ed
ra ve
ra ke
ĠO s
Ġup gr
og s
Ġte ac
Ġcont ribut
Ġcont rast
Ġun c
pl es
Ġtr illion
Ġ3 4
Ġ3 00
Ġown ers
Ġtri p
Ġent ry
Ġpay ments
Ġcompet ing
Ġmem ory
Ġ199 4
cept ion
uc lear
ele ction
Ġappro val
ris c
ĠCar l
Ġinvol ve
Ġaim s
ĠSec urities
ĠPro f
cl iffe
Ġdocu ments
ĠJon athan
bour ne
Ġwithd raw
Ġinnov ation
bre ak
Ġgraph ics
undred s
ĠThan ou
4 5
D risc
T o
b a
l ict
m ore
m ission
p erson
t ic
u als
Ġt em
Ġw ild
Ġw onder
Ġc at
or rent
ent al
ĠB ay
ĠS ri
ĠS ant
ver se
ĠA ward
ĠI P
ĠC ount
Ġwas te
ĠH ill
ĠH odgson
Ġpro ve
Ġde als
ĠL in
ĠL at
ĠP SP
ul ner
ĠF oot
ĠR ad
ĠW al
Ġv ulner
ber g
ĠK evin
Ġdo or
Ġunder st
ind ing
Ġrecord ed
com ed
Ġappe ars
Ġpoint ed
Ġdirector s
Ġperform ances
pos ed
Ġlar ger
Ġcent res
Ġsix th
Ġstud ios
ĠShe ff
ĠCons umer
Ġcontrol s
Ġris ks
Ġemer ged
Ġdiv ision
Ġtool s
Ġencour age
Ġkill ed
isc al
Ġathlet es
Ġoptim istic
Ġspr int
ĠStand ard
Ġmortg age
Drisc oll
E uro
H is
T A
w ork
Ġs y
Ġc ore
Ġb omb
ar ily
ro ll
Ġg ap
ĠM TV
ĠM CI
ĠB ur
ĠS am
ir gin
ĠC eltic
ĠD un
and a
ĠP re
ĠE m
ĠF estival
ri ers
ri ate
ĠR oss
ag ues
ate ll
Ġex port
Ġv ast
end ers
Ġsh ut
Ġsh opp
Ġag enda
Ġad apt
ĠSt ud
Ġ3 6
Ġset s
Ġcall ing
Ġbr ands
Ġmed al
ĠAn other
Ġgu arant
Ġdri ving
Ġban ned
Ġask ing
Ġrest rict
Ġche aper
Ġeffect s
Ġdist ribut
Ġaud io
Ġdirect ly
Ġdetail ed
St ation
Ġhist or
ĠYou ng
Ġcommun ities
Ġmot iv
Ġpack age
ĠChan cellor
ĠWood ward
Ġwel comed
ĠRep ublic
Ġbri ef
C ons
c ott
h ire
k a
k top
n o
p re
p ay
r acy
s en
w rit
Ġ ess
Ġa w
it imate
Ġf an
es tern
at form
Ġd ed
ro om
st ers
st ream
ĠB ig
ĠA id
ĠI MF
Ġr um
ol ic
Ġde l
ĠD en
ĠD el
ul ed
ul ate
ĠW imb
ĠG ates
Ġv irt
ĠJ er
end er
Ġwor se
Ġag ed
ans ion
Ġun iversity
Ġint ended
ens on
Ġres ol
li ver
Ġar m
Ġsha red
olog y
led on
led ge
Ġdet ain
Ġdem ands
Ġinf ected
Ġfam ous
Ġcol our
Ġpost er
Ġemploy ment
Ġemploy ees
Ġdam ages
Ġmid dle
Ġdeliver ed
Ġmult i
ĠTur k
Ġobvious ly
ĠLew is
Ġphys ical
mon th
ĠInt el
Ġcorrespond ent
ĠSheff ield
ĠWimb ledon
A fter
C ap
P h
W hile
a it
o o
p an
s ky
w est
on ents
Ġo d
Ġin k
ĠS out
ir l
ir th
ol as
ĠD aily
ĠD rake
ew ays
ri e
ĠR ights
ĠR angers
Ġpl atform
od af
all ing
Ġus ually
Ġcan ce
Ġun ions
li o
Ġper haps
Ġcons ist
ubl in
Ġdire ction
Ġact ing
ĠAl so
Ġsign s
Ġcr ude
Ġallow s
Ġoper ation
Ġcampaign ing
ĠCl ive
Ġconcer t
Ġaction s
Ġinj ured
Ġmanag ing
Ġbank ing
Ġexp ressed
Ġris en
Ġtra ve
Ġbeat en
Ġdownload ed
Ġhuge ly
Ġide as
Ġgr and
ĠBar celona
Ġdirect ed
Ġsw itch
ĠTr ade
Ġsett lement
Ġgen uine
Ġsaf e
Ġfr ust
Ġpers u
ĠPol ice
Ġey e
Ġvehic les
Ġbrows er
ĠPlay Station
uet o
Ġcompens ation
atell ite
odaf one
D A
T unes
f inals
Ġs atisf
Ġw ider
Ġd u
Ġd raft
Ġg un
Ġon es
ĠS af
ur ch
Ġst ability
Ġr are
Ġcon vers
ul s
ĠW enger
Ġv ent
ĠJ ew
ĠN adal
ĠO ld
Ġag g
Ġ200 7
ite z
Ġsc ience
Ġ3 5
ĠV irgin
Ġchan nel
Ġdef ended
Ġbl amed
Ġlaw yers
ĠCom p
Ġvot es
ĠInd ust
Ġcap able
Ġsign ing
Ġaccount ing
Ġsent ence
Ġeffect ive
Ġopt ions
Ġchallen ges
ĠSw iss
Ġredu ced
Ġelect ronics
Ġterror ism
Ġty pe
Ġpenal ties
Ġrecogn ise
ĠBro ther
Ġnegoti ations
Ġadvert ising
allag lio
Ġdefin itely
Mic rosoft
Ġdismiss ed
Ġexact ly
Ġfeder al
Ġcris is
9 9
I V
M y
M art
c le
r ig
r ating
Ġt able
Ġa ck
Ġs al
Ġw at
Ġw ife
ha nd
it led
Ġm other
Ġl ines
Ġl ists
ĠM ost
ĠS EC
ow ell
im ately
ĠC am
ĠC ong
Ġst ressed
ĠThe atre
ĠD ublin
Ġwe ap
ĠF al
ĠF our
ĠW ell
ĠG all
th let
Ġcomp lex
ap pe
pl ace
Ġsc hed
Ġsc ene
ĠIn c
ctor al
Ġind oor
Ġper cent
ank er
ĠTh ree
ĠTh ose
Ġdes ktop
Ġact s
Ġown er
ck ed
Ġgreat est
rib ute
ific ation
Ġcol lect
ĠCon te
Ġrepl aced
Ġtarget ed
ĠGl asgow
Ġben ch
Ġelect ed
Ġur ban
ĠFeder al
ĠHen man
ĠRo ad
win ning
ĠEn ter
Ġreb uild
Ġrap id
Ġtick et
Ġfreed om
Ġsequ el
Ġcomplet ed
shar ing
ĠColl ins
Ġmilit ary
ĠFoot ball
Ġack now
G l
I D
T orrent
a is
d y
e xt
k es
k ick
n ic
p art
p ass
s y
u an
Ġ er
Ġ ver
Ġs on
Ġs om
Ġp urs
ic ate
il ing
ĠT est
ĠB ob
Ġh um
ĠI TV
ĠH ay
ĠH ug
ĠD allaglio
ĠE A
ĠE nd
ĠR et
th rough
Ġv an
ĠN ever
ĠO liver
Ġab road
ord in
Ġag encies
Ġad ults
Ġte lling
own ed
old s
ress ion
ven port
ĠV odafone
ors ese
Ġdes ire
Ġprodu cing
han s
Ġ6 5
Ġown s
Ġapp arent
ĠInd oor
Ġcap t
Ġcr ack
Ġoper ator
Ġfound er
Ġprom ise
ĠDav ies
ĠPar ry
Ġra ising
Ġevent ually
Ġchang ing
af a
Ġdep uty
Ġcor ner
Ġexc iting
Ġdist ribution
Ġstop ped
ĠIs lam
Ġattempt s
Ġequ al
Ġfoc used
Ġslow down
Ġi Tunes
ĠSh ow
ĠThom pson
ĠOr gan
Ġenjoy ed
Ġamb itions
Ġcommit ment
Ġheav y
Ġsubst ant
Ġnomine es
ĠWil son
ĠOper a
Ġscand al
ĠLank a
G B
g a
v an
w ich
z a
z es
Ġs ession
Ġs atellite
Ġw ing
Ġb ott
al y
Ġd aily
Ġn ice
Ġn uclear
ĠM E
et er
ĠB u
ir a
ĠI ran
ill ips
ĠC D
ĠC ub
Ġst ations
Ġst ores
ĠH uman
ĠL uc
Ġse at
ĠF ire
ĠF red
ab les
Ġv ision
Ġsh ock
ok ia
Ġ200 8
og ue
Ġun able
ĠSt an
ult ure
ĠIn stead
Ġk ne
Ġwin ter
Ġpr inc
ĠBrit ons
oy a
Ġreport ers
Ġear ned
ĠDe velop
ĠSc orsese
Ġfe els
Ġdon ations
Ġinterest ing
Ġrel atively
ov sky
Ġinj uries
Ġair lines
ĠChrist ian
Ġdownload s
Ġclose ly
ĠPres cott
Ġpopular ity
Ġcred itors
ĠBo eing
Ġlo ans
Ġeng ines
Ġsuff ering
ĠPr ince
Ġsol ution
Ġrev olution
Ġcouncil s
Ġfast est
Ġbar rel
Ġcolle agues
Ġlab el
Ġlear n
Ġconv in
Ġappl ication
Ġjournal ists
Ġcal cul
Ġiniti ative
Ġconc lud
Ġorigin ally
Ġdeterm ined
ĠBaft a
Ġaltern ative
Ġess ential
2 8
S ullivan
W ales
b us
d in
h ol
i el
m al
s ing
Ġb atter
Ġb irth
Ġf re
Ġf ake
Ġp itch
Ġm ount
Ġm ention
Ġd ance
ic a
ent y
Ġe mp
ĠA T
ur one
Ġhe ro
Ġst ories
ĠThe ir
Ġr id
ĠH ot
ĠH IV
se ll
ĠF und
ĠF ors
ĠR ome
ĠN ic
ak ed
ak es
Ġup on
are n
Ġcl ash
Ġinc red
Ġim ag
Ġthan ks
ĠIn vest
Ġ3 2
ĠV era
Ġco ol
Ġtri als
cer tain
Ġconf lict
ash ion
Ġsm art
Ġattack ed
Ġexp ansion
Ġposs ibility
Ġrep ut
Ġart ic
ĠFor mer
Ġdoll ars
ĠGo vernment
Ġob lig
ĠSw ank
Ġjud ges
Ġball ot
Ġrequ ired
ĠWest min
Ġread ing
Ġindivid uals
Ġcontract s
Ġcontrovers y
Ġmanufact urers
Ġdisappoint ed
Ch ina
Ġsour ces
Ġsett le
ograph y
Ġsaf ety
rast ructure
Ġpull ed
Ġcondu cted
Ġscr um
ĠGra ham
Ġcandid ate
Ġbal ance
Ġparliament ary
Fr ance
udd ock
ĠEver ton
Ġrepe ated
Ġnecess ary
Ġdelight ed
ĠWestmin ster
2 4
N P
P S
f inal
o ly
Ġ ut
in ner
in ci
Ġw ater
Ġc able
Ġb ul
Ġb ase
it Torrent
Ġf ixed
Ġp apers
Ġg ather
ĠT ex
ĠM as
et h
ow ed
Ġst yle
Ġr ub
ĠH enson
ol it
ĠD uring
ag o
ĠG ar
end um
od es
od cast
ber t
ok ing
are t
Ġsp ring
ĠK ong
Ġcont ribution
Ġthan k
Ġbec omes
Ġres ources
Ġsc ale
Ġdis appe
Ġacc om
Ġback s
Ġear n
Ġrem o
Ġhelp s
rent ly
Ġhand le
ork ovsky
Ġmove ment
Ġhard ware
ĠWorld Com
Ġinst it
Ġshort l
Ġdep artment
Ġcop e
ĠMin i
Ġpartic ip
Ġgr anted
Ġlo an
ĠEd wards
Ġhands et
Ġelect ronic
ĠAg ency
Ġoppos ed
put er
ilk inson
Ġconfident ial
For mer
ĠEl vis
Ġmer ger
Ġestim ates
hod orkovsky
Ġrefer endum
Ġquot ed
Ġdrink ing
Ġprompt ed
augh ter
Ġlik es
ĠHou ston
Ġprofess ional
Ġresear chers
' .
8 00
B I
C he
G er
N ow
P I
b ling
c ise
d ie
k rain
l ished
m ar
p ose
r ary
s ha
w ar
Ġt im
re ys
Ġc art
ha ng
it ness
Ġf alse
Ġp up
il st
Ġre con
ĠB itTorrent
ĠS ince
se lling
ac co
Ġse vent
ĠP art
ĠN okia
Ġout standing
ost er
erv ed
mer ce
ip ment
Ġsc ra
Ġacc ident
li ed
ĠV an
ĠV ict
ĠCh ief
Ġro les
Ġdes per
Ġrem ote
Ġsec ret
ĠLe igh
Ġhar m
Ġem ot
Ġkeep ing
Ġthreat ened
Ġreported ly
Ġmet hod
ĠBo ard
Ġclass ic
Ġrecogn ised
Ġenvironment al
Ġdecl ared
ĠAb out
Ġpros pect
Al though
Ġnorm al
athe red
Ġautom atically
aun ton
ĠSid eways
Ġborrow ing
Ġspl it
ĠCanad a
ĠIndones ia
Ġeth nic
ĠLin ux
Euro pe
Ġsom ew
din and
M S
T ory
b ish
c ol
h ouse
k ins
m o
u z
Ġc as
ha ll
an ks
Ġto pped
Ġn ar
Ġre in
st ruction
Ġl ib
ĠT op
ĠS and
ĠS ullivan
ig r
us ion
Ġr ing
ĠH y
ĠH ans
ĠR onald
ĠG ary
ĠG ram
ĠJ ean
ĠJ eeves
ĠN ick
ĠO l
Ġsh ops
ud ge
ud den
iv ity
Ġoff ence
ĠK hodorkovsky
Ġpart ly
ress ing
ru ck
ell ing
ĠCh ild
ass i
oun ess
ock et
Ġ5 00
Ġmay be
Ġcome back
Ġeven ing
tern al
Ġfl anker
Ġ20 10
Ġinf rastructure
Ġaut umn
Ġattack ing
Ġlot s
Ġcre ation
Ġlow est
Ġfinanc es
Ġorgan ised
Ġemploy ers
Ġpat ents
ĠAm ong
Ġseem ed
Ġru pe
Ġcomb ined
ĠEast wood
osp here
Ġlear ning
ĠBen itez
Ġpus hing
ĠChan nel
ĠSoc iety
Ġintellig ence
ĠFer dinand
ĠRad cliffe
Ġvulner able
Ġded icated
ĠJew ish
ĠIndust ry
ĠCong ress
thlet ics
Ġkne e
urone xt
2 1
D onald
S I
W h
i y
m itted
n els
Ġw ish
or ter
en ced
Ġp il
ic ed
Ġg athered
ĠT osh
ĠM ik
ĠB est
ig ious
ĠA p
Ġit ems
ĠI d
ĠC r
ĠC ross
Ġwh om
ĠH or
ĠH art
ol id
Ġcon ver
ĠL u
ĠL is
Ġwe ather
pe er
ĠW ork
ĠG ard
ĠU N
Ġex er
The se
ant ly
Ġcha ir
Ġun certain
Ġim pl
Ġtr ick
ĠUS A
ĠSt aunton
Ġdis e
Ġar ch
Ġar ms
Ġchan nels
Ġbl ow
Ġrem ove
Ġown ed
Ġown ership
Ġfe e
oth ing
Ġser vers
Ġindust ries
Ġdeb ts
Ġcomput ing
ier ce
Ġprom ises
ĠCl int
ecut ive
ces ter
Ġexper t
Ġwrit er
Ġcor re
ugh t
Ġbreak through
Ġlet ter
Ġnomin ation
Ġpat ients
elt a
Ġredu cing
Ġproper ly
Ġdom ain
Ġreach ing
Ġve ter
Ġcolle ction
ĠTe chn
ĠMur phy
Ġdecl ined
oph istic
Ġstat us
Ġcommission er
Ġdefend er
ĠYugansk neft
Ġtick ets
Ġhighlight ed
Ġacqu is
cell ent
Ġhol iday
ĠLet win
Cap rio
Ġdu o
ĠFors yth
ĠTex as
2 2
A pple
A ccording
B e
C A
D es
H S
L et
P s
S p
g ency
i us
l ar
m aking
p ing
v y
w ise
w hel
Ġs ophistic
Ġf iscal
ou d
Ġd ig
Ġd ial
Ġd ub
le w
as c
Ġg ained
Ġl ay
Ġl uck
ay ne
ĠM en
ĠM et
ĠM ary
ĠM arsh
Ġfor ces
ĠB ath
ĠS k
ĠS ar
ĠS qu
Ġr ich
ĠP an
ĠP otter
ĠR uddock
os er
ast ers
ĠN ig
Ġcl in
rit ies
Ġsp ir
Ġcould n
Ġadd itional
ĠBl ue
Ġjust ice
Ġeconom ists
Ġsha pe
Ġlead s
Ġimp lement
Ġeff icient
ef a
Ġdisc rim
Ġprov ides
Ġfl aw
Ġoffic ers
Ġinst ance
Ġfund ament
Ġappro p
Ġappro ved
Ġdep end
Ġtot ally
Ġyoung er
Ġmean ing
Ġactor s
Ġcustom er
Ġlim its
Ġthreat s
Ġclos er
Ġfa ith
Ġsuff er
Ġreve al
Ġbad ly
Ġilleg ally
ĠCent re
Ġsuper b
Ġple ased
ĠRo oney
Ġ197 0
Ġpir ated
Ġretail ers
ĠHal f
Ġdest roy
Ġsens itive
Ġpract ice
ĠBell amy
Ġviol ence
Ġapolog ise
gy pt
Ġscr ut
fort un
Ġregular ly
ĠJust ice
pir acy
spe ed
Ġtrib un
Ġhosp ital
Ġpurcha se
Ġpra ised
Ġmist ake
Ġestab lished
Ġsust ain
Ġassist ant
Ġren ew
ĠDa venport
Sha res
Ġrum ours
ĠHug hes
2 6
G M
O L
b or
b ot
b orn
c or
d o
e en
p at
s ign
v ant
z en
on t
Ġb oy
ha l
Ġf est
Ġp odcast
Ġd er
Ġd oping
ic ial
Ġl ending
Ġl iter
et ary
ld a
ĠB oy
Ġh urt
Ġh undreds
ĠC ast
Ġst ick
Ġst ructure
ter ing
ĠD J
ĠD omin
ĠP l
ĠE le
ĠE very
ĠE ner
ri ff
ĠG art
ĠG ib
um ber
Ġv o
ra ce
ĠO ver
ak istan
Ġus ual
rou d
rit ics
Ġun ique
ile y
Ġsc en
man n
Ġen orm
Ġback b
Ġback ground
Ġshow c
Ġsec ured
Ġap art
Ġrecord ing
Ġleg end
Ġleg itimate
az z
Ġmed ical
Ġext end
Ġed ge
Ġhold s
Ġreturn s
Ġvis a
Ġord inary
Ġtest ed
Ġaward ed
ĠChar lie
Ġlet ting
Ġboost ed
Ġfeel ing
Ġclos ing
Ġequ ipment
Ġcreat ive
Ġmeas ure
ĠFeder ation
Ġlif ted
ĠGold s
Ġop ens
Ġsharehold er
ĠHal o
eng ers
Ġjoin ing
Ġvar iety
Ġfly ing
Ġachieve ment
Ġcondu ct
ĠBer lin
Bl air
ĠElect ronics
Ġentire ly
ĠAnt i
Ġshar p
hail and
Ġepis ode
Ġupgr ade
ĠCount ry
Ġvent ure
ĠFal con
Ġreput ation
2 9
C l
E d
H ol
R uss
c an
c hen
i ver
i pe
l ong
r as
s m
z uel
er ies
Ġs ought
Ġw ine
Ġc ities
Ġc atch
Ġo w
is her
Ġp roud
Ġm ale
at i
as y
Ġha ck
Ġre act
st one
Ġl oc
Ġfor get
ĠB M
ĠB ru
ĠB enn
ĠS a
am o
ĠA ud
ter ror
Ġan alys
Ġat m
ĠH all
Ġcom fort
Ġy ards
ĠD ar
Ġwe alth
ul ated
ul ating
ĠF irst
ĠW ilkinson
ĠG od
ĠG av
Ġpl aced
Ġex ist
ess or
ess ions
ĠJ ay
ĠJ oss
ĠO x
Ġsu ed
Ġab use
out hern
port ion
oc racy
ap se
Ġover whel
Ġres ort
Ġadd ition
anc ing
Ġwant ing
ound s
Ġke eper
Ġret urning
Ġmat ters
Ġbo om
ug g
Ġbelie f
ov ic
Ġmain stream
Ġcare fully
leg raph
Ġstrong ly
Ġord ered
Ġair craft
Ġtest ing
ĠCon t
ĠOn ly
ivers al
Ġche ck
Ġsum mit
ĠPro ject
Ġlarge ly
Ġconne ct
Ġpotential ly
ĠTr ans
Ġste pped
Ġnewsp apers
ene zuel
Ġcateg ories
Ġinn oc
Ġcoll apse
Ġconst ruction
Ġreflect s
Ġjournal ist
Ġrob ot
ĠDi Caprio
Ġcandid ates
Ġcomplain t
Ġminor ity
Ġargu ment
ĠEdu c
Ġconstitu ency
Ġsched uled
Ġacknow led
Ġnar row
ĠGart ner
ĠGolds mith
) ;
3 7
E x
R e
S pe
d em
i xt
p res
r ass
r ative
he w
er ly
Ġw itness
it as
it als
Ġp ages
Ġm ax
Ġd ivid
le ts
ion e
Ġg ains
Ġl ock
ĠM un
ĠM ex
ĠB oys
ĠS ouness
im ent
ĠI R
ĠC ath
Ġst ruck
Ġth rown
ter ed
Ġr ural
ĠH il
Ġcon ced
ĠL am
Ġse lect
Ġmo ves
ĠE uronext
ĠF ro
ĠF ound
ĠR on
ĠG en
ĠG DP
Ġpl ant
Ġpl enty
Ġex hib
ĠN at
ĠMr s
Ġag ent
ore st
Ġcl imate
ĠK im
Ġtr uth
Ġacc ur
Ġgovernment s
Ġele ments
Ġam az
Ġmusic ians
oss ible
Ġpubl ish
Ġkn ock
ĠDe v
ĠFr ancis
Ġann ivers
Ġknow ledge
Ġpri zes
ang a
Ġbre aking
Ġrel ay
ĠAmeric ans
Ġgu itar
Ġinst ru
Ġwrit ers
Ġpass engers
Ġpost ed
ĠOn line
Ġarg ue
Ġarg ues
ĠEx p
Ġaud iences
Ġmean while
Ġgr ad
Ġens uring
epend ence
ĠAg assi
Ġinit ial
ĠCo le
Ġkick ing
Ġrecogn ition
Ġcrim inals
Ġunderstand ing
Ġmot or
Ġgen re
Ġencour aging
Ġamb ition
Ġtell s
Ġimmedi ate
Ġcomplain ts
ĠBel g
Ġarri ved
Ġtrib ute
Ġlaptop s
Ġadop t
Ind ia
Ġinteract ive
gl as
Ġdisp ute
ĠDis ney
idel ines
Ġunderst ood
ĠEnter tainment
krain e
Ġsevent h
Ġveter an
Ġtribun al
9 0
D e
M any
c are
d am
f ox
h ood
l ster
n ership
p oint
s ki
Ġs outh
Ġs outhern
re al
Ġw id
Ġb ond
Ġb ands
it ig
it ude
Ġf ashion
ou cester
Ġd ark
Ġl ord
ĠM obile
Ġfor g
Ġfor ms
ĠB re
Ġh int
im ents
ĠA C
Ġsa ved
Ġth row
Ġas ide
se a
Ġpro ving
Ġpro sec
ĠD elta
ĠP ower
ĠP akistan
ri a
ĠR ow
ĠR oy
ag g
ab ilities
ĠN ap
el ess
od ies
qu arters
Ġoff ices
Ġtr ain
ob ody
Ġthere fore
Ġres erves
Ġen able
Ġadd s
Ġind icated
Ġ19 5
ĠV ar
Ġpo orest
Ġstart s
Ġreg ime
Ġreg ional
ĠLe eds
Ġcontro lled
Ġprov iders
vious ly
ĠCl ark
Ġhead ed
ĠMc G
ĠMc I
Ġgu ys
Ġadv ance
ĠWe b
Ġrece iving
Ġpost ers
Ġ15 00
Ġmembers hip
Ġhost ed
Ġdeli ber
Ġdam aging
Ġterror ist
Ġread ers
Ġsol id
Ġtrack s
ĠBlack s
Ġserious ly
ĠPe el
Ġple aded
ĠTe legraph
Ġprep aring
Con n
Ġcoll abor
Ġprem ium
eng th
Ġorganis ers
Ġphot os
Ġmaterial s
Ġcirc um
ĠNor wich
Ġwel come
Ġathlet ics
ĊĊ Ċ
ĠMatt hew
Ġsubsid i
Ġhosp itals
Ġhousehold s
Ġestab lish
ĠEconom ic
Ġrac ist
Ġdelay ed
ĠSwed en
itzer land
Ġinvolve ment
ĠLat in
Ġvirt ual
Ġdetain ees
ĠSout hampton
Ġrupe es
Ġapprop riate
Ġannivers ary
J apan
J ohn
L ife
P ro
W orld
a ctions
c ap
c ia
c aster
d ec
e ff
g u
l ton
m ond
p ired
r um
w all
Ġs li
Ġs oul
or er
Ġb orn
Ġb odies
Ġf lex
Ġto ug
ic ia
id den
Ġn or
Ġg ross
Ġl ad
Ġl abour
ĠB ark
Ġh i
ot y
ĠS il
ĠS chool
ver ts
us i
Ġsa d
ill iant
Ġst uff
ch o
Ġr ad
est in
ĠH ong
ol i
ĠL iving
and o
ĠF ed
ĠF ull
ĠW ol
ĠG ill
ĠG reg
ĠU t
Ġex cellent
ĠO N
ĠO at
qu e
Ġab and
out s
Ġj unk
ure a
ost on
ine ken
Ġsp oke
ĠK ap
ĠK ean
ĠSt ev
Ġfin es
ook ing
Ġatt orney
Ġserv ed
ĠDe an
Ġret ired
Ġapp ly
ĠAr ts
Ġins ist
Ġent itled
Ġdet ained
ĠAn y
used ski
Ġ199 3
ĠCl ub
Ġfl at
Ġlist ed
Ġra pper
ĠAt t
Ġfall s
Ġfew er
iz z
iz ed
Ġofficial ly
aw son
Ġdownload ing
Ġenter ed
Ġaim ing
Ġprocess or
Ġhope ful
ĠSec urity
Ġfavour ites
Ġalbum s
Ġhappen ing
Ġca ught
por ary
ĠEd ward
min ation
Ġhon ours
Ġbroadcast ing
Ġbroadcast ers
Ġactiv ities
Ġcomb at
Ġcommun ications
Ġjump ed
Ġtrou b
Ġappl ications
ĠMill er
ĠMid dle
ĠAlex ander
Ġey es
Ġresign ed
ien ced
Brit ain
Brit ish
Ġsil ver
Ġsubscri bers
Ġbeg ins
prof ile
ĠDou glas
Ġang ry
Ġspark ed
Ġremo ved
Ġsophistic ated
ĠFound ation
ĠKean e
3 9
C har
D VD
M s
R ob
a ctor
b rid
b ps
c hest
f all
g en
l ined
m m
en ham
it a
it ious
Ġf ix
Ġf ired
Ġp hen
Ġto wn
Ġd ream
Ġd aughter
ic ago
Ġl aser
Ġe l
Ġe ase
ĠT wick
ĠS m
ĠA thletics
ĠC ritics
ch ing
Ġas sembly
un ction
ĠH it
ĠD uff
ĠE gypt
ĠF ree
ĠF lor
ĠR afa
ag n
ag ged
Ġpl us
ĠU efa
ĠJ ac
ack et
Ġcomp at
Ġcha t
Ġup set
Ġad just
Ġout come
Ġcl imb
ĠK ate
Ġen force
Ġind eed
form ation
ĠBl ues
Ġany where
Ġwhat ever
Ġkn ocked
Ġgrow n
Ġbro ther
Ġtax pay
Ġinvest ments
Ġstate ments
Ġins ists
Ġ7 7
ĠComm un
Ġcle ared
Ġdem ocracy
Ġmeet ings
Ġprom ote
ĠLi am
ĠSe v
Ġstand ing
Ġimport ance
Ġbuy ers
Ġsub sequ
Ġsomet imes
app ing
sel s
Ġprot ected
Ġbill s
Ġbill ions
Ġprocess ing
ĠPres ley
Ġpresent er
ĠX P
Ġpredict s
Ġdoub les
Ġrepres ents
Ġsusp ic
rupt ion
Ġste el
Ġsche mes
Ġhun t
Ġdiscuss ed
Ġdiscuss ions
ĠCent ury
Ġlif t
ĠAir bus
Ġdram atic
Ġspam mers
Ġath lete
Ġfactor y
ĠOf com
Ġconv icted
Ġocc asion
ĠServ ices
Ġident ity
Ġvar ious
ĠPhil ip
ij ing
Ġsuppl ies
Ġappoint ed
Ġbeg un
Ġworry ing
ĠSaf in
Ġpup ils
Ġdise ase
Des pite
Ġscrut iny
Ġatm osphere
ĠTwick enham
3 00
I reland
M C
M in
N e
N et
O f
S M
T O
b ar
c ost
c ks
d a
f ace
f urt
h usi
m ag
y a
Ġt rem
on ent
Ġs ister
Ġs udden
Ġw ake
Ġw ides
Ġc old
Ġc ell
Ġb ail
Ġp iece
Ġre ward
st ring
st ances
Ġl ie
ĠT y
ĠT ha
ĠT ait
ĠT hailand
ĠM S
ĠM oya
Ġfor th
Ġh us
ĠS ing
ĠS ain
am a
ĠC ra
ĠH el
ol en
ĠD ub
Ġse ar
Ġse lection
ĠP op
ĠE s
ĠF inding
ĠW ars
ĠW alk
Ġv ill
ess ed
ĠJ an
ĠJ up
ĠN ight
Ġad ap
Ġcl ick
Ġover come
Ġrec ru
ob s
ĠHe alth
Ġch ips
ress ive
pect ive
Ġpr im
ĠV egas
Ġdec ades
Ġeconom ies
Ġro ll
Ġ4 7
ind s
Ġimp ossible
te ch
ony m
Ġour selves
Ġtri umph
Ġevery body
Ġsign als
ird s
Ġcr ash
Ġdisc l
Ġcampaign ers
Ġprom in
ze ch
Ġlist ing
Ġform al
Ġmain ly
Ġstud ent
Ġsuggest ing
Ġkey board
Ġbid s
ĠBe fore
ĠBe ijing
ik al
ex pected
ĠEx ecutive
Ġest imate
Ġtrad ition
ĠSha ne
cha irman
ĠRober ts
Ġcomb ination
ĠAng els
ĠAir lines
Ġtack ling
Ġpur pose
Ġtre ated
ĠFin ance
Ġstrugg le
Ġstrugg led
Ġpled ge
Ġaddress es
ograph ic
Ġstat istics
Ġpension ers
Ġcele b
Ġdest ruction
Ġpros per
Ġbrand ed
ĠArgent ine
ĠMo ore
ĠNet her
ĠPal estin
ĠLew sey
Ġvehic le
Ġsubsid ies
iven ess
ĠBrazil ian
Ġunf air
Ġregister ed
Ġdiscipl ine
igg s
Ġsurround ing
ĠMotor ola
ĠEv ans
ĠDevelop ment
mal at
ĠVict or
Ġcorre ct
Ġdub bed
ĠSqu are
Ġanalys is
ĠFro st
ĠFrancis co
Ġcircum stances
& #
4 2
A ust
B ay
C C
V R
a ire
g ia
k m
l ife
l roy
n ier
p read
r ad
r un
w el
z one
in os
Ġs pect
re le
or por
Ġf ierce
Ġp age
Ġm ut
Ġm ix
Ġm aster
Ġha ng
Ġbe half
Ġn av
Ġg ear
Ġre nt
ĠT our
ĠM ack
et ti
ld erly
ĠB on
ĠB or
ĠB orders
Ġh itting
ir ing
ĠA v
ĠA OL
ĠC ab
Ġr ic
Ġr ally
ĠH a
ĠH ard
Ġde leg
ĠL es
ĠL as
Ġy es
Ġse lected
Ġwe lf
ort ion
ul a
ĠF ight
ĠR yan
ĠR usedski
ĠW ho
ĠW right
Ġ1 50
Ġv en
igh th
end i
od ore
Ġle ap
Ġsh op
qu es
ak en
Ġj ur
Ġad verts
ĠK ir
Ġun p
Ġint ention
Ġpart nership
ĠHe ineken
Ġpre par
Ġsc oring
ian o
Ġgovern ing
Ġ3 7
ĠBl u
ĠBl og
ĠCh icago
Ġatt ach
Ġbet ting
Ġsha ke
ics son
ib a
Ġco al
Ġimp ressed
Ġbro k
Ġstr ing
me lda
Ġsl ower
Ġgener ally
ĠLe on
sc ape
Ġspokes person
Ġmed ium
Ġsupport ed
ang ing
ĠAn field
Ġhard er
Ġfl ight
Ġreal ise
ĠMc F
Ġturn s
Ġgl ad
Ġtrans l
ĠMar ia
Ġexc lud
Ġinvol ving
Ġob ject
Ġmom ents
ĠTr ust
Ġinvestig ating
Ġhon est
Ġsk i
Ġrepresent ed
Ġfriend ly
Ġimprove ment
sh ire
Ġkick ed
Ġfun ction
ĠCor por
Ġabs ence
Ġlab els
Ġregul ator
Ġcharact ers
Ġfamil iar
Ġjudge ment
Ġsport ing
ĠAb b
ĠMot ors
ĠUs ers
Ġattract ed
Ġapolog y
yc os
Ġpurcha s
Ġnorm ally
Ġsubscri ption
Ġtyp es
Ġadop ted
Ġperfect ly
Ġassoci ated
ĠWas ps
Ġdepart ure
Ġdiscover ed
Ġmidfield er
ĠCE S
ĠMir za
Ġrat ings
Ġguarant ee
Ġweap ons
Ġbott om
Ġfre qu
Ġpil ot
ĠTosh iba
ĠYuganskneft egas
Ġenorm ous
ĠGav in
ĠEduc ation
Ġacknowled ged
Ġprosec ution
Ġsubsidi ary
Ġwides pread
Ġforth coming
ĠJup iter
ĠNether lands
Ġwelf are
B oth
D o
G C
T wo
a res
a pped
b al
f ra
i em
l u
p ter
t ax
u ct
u its
Ġs le
Ġp ig
an a
an amo
Ġn erv
Ġn ature
Ġg irl
ent ed
Ġre ly
st rong
Ġon going
ĠB ridge
ly n
Ġh ots
ĠS ales
ig ger
us sels
ĠC ueto
ĠC zech
Ġan k
Ġpro portion
ke eper
ĠL ou
ac c
ĠP rodu
ri p
ĠR F
ag on
ag ers
um ers
ĠN ev
ant anamo
Ġcomp rom
qu ality
Ġj ury
ord er
port e
Ġout look
Ġpe ak
Ġte ch
ĠK n
ĠK ar
Ġcont ra
Ġun us
ĠSt at
Ġres olution
Ġen han
Ġthem e
ĠV illa
Ġar range
Ġ4 3
Ġsup posed
han k
ĠFr anz
Ġsur ge
Ġrun ners
Ġsl ot
Ġbr illiant
ĠAl icia
Ġdeal t
Ġent husi
Ġspok en
els en
ood y
Ġprov ider
Ġprom ising
Ġext ended
Ġfl ights
Ġform ats
ĠMc Donald
Ġstand s
Ġtele ph
ĠMar g
iz on
ĠRob in
Ġrest ruct
cy cle
Ġexc hang
Ġbreak s
Ġgr ab
Ġpat tern
ĠSw itzerland
cl ays
Ġfeat ured
Ġequ ival
ĠMor ris
ĠAm az
Ġsusp ension
Ġmar athon
Ġenc ounter
Ġstep s
Ġmult iple
Ġrepresent ing
ĠRes erve
On ce
Ġregul ations
Ġregul ators
Ġtrust ed
Ġfit ness
Ġep ic
Ġcover ed
ĠSimon etti
ĠHD TV
Ġscreens aver
ĠElect ronic
Ġheav ily
tr ack
Ġhot el
Ġult imate
ĠBal co
otten ham
Ġteac hers
Ġshopp ers
Ġod ds
Ġsubstant ial
ĠFire fox
Ġbatter y
Che lsea
igr ants
Ġacquis ition
Ġfundament al
ĠEner gy
ĠFalcon er
ĠBM W
ĠBru ce
ĠHil ary
Conn or
ĠOat en
Ġhus band
ĠCra ig
ĠDub ai
' ,
3 8
6 00
A ny
B BC
E ven
L ast
O ther
P ar
R S
Y ukos
b ing
b ro
d oor
f e
f ree
l aim
l aw
m ates
p rodu
r ick
s ler
u art
Ġ era
in ct
on ing
Ġs an
re es
it ched
Ġf ue
Ġp ione
Ġm ixed
al ogue
Ġn orth
st al
st yle
ut u
Ġe lderly
ĠM and
ĠB ook
Ġh idden
ĠS ystem
ĠS ports
ĠA ff
ĠI melda
ĠC able
ĠC ru
Ġst ages
Ġst olen
Ġcon cept
ĠD awson
ain st
ĠP ress
ĠE aster
ĠR el
ĠR over
ĠR oman
ĠG riff
Ġex pos
Ġex cess
if er
ĠJ osh
el son
ust ed
pp y
Ġwor ries
Ġup beat
Ġad ult
Ġad vent
og an
Ġte ach
Ġoff ences
Ġsp in
Ġall iance
pl us
Ġtr ag
ĠHe ath
Ġqu arters
ip ated
Ġdis pl
Ġwork force
Ġind ic
ĠV enezuel
Ġ4 4
Ġfe et
Ġsur ger
Ġapp re
Ġwar m
ĠAr ab
Ġhand ling
ĠInd ependent
Ġpres ence
ĠSp ring
ĠScot s
omin ated
Ġdet ention
Ġoper ates
Ġperform ing
Ġhead s
Ġhead er
Ġhead quarters
ĠRe g
ĠMc Connell
Ġimport s
Ġinst all
Ġless ons
Ġvis iting
Ġfac ilities
hold ers
Ġrepl acing
Ġexc lus
Ġdist ance
Ġqual ifying
stit ution
ĠSha dow
Ġsever e
ĠAd am
Ġintrodu ction
Ġterror ists
Ġscreen play
Ġste al
ĠGu y
Ġsurpr ising
Ġmag n
ĠCo oper
ĠBr ussels
ĠPark er
Ġneg ative
Ġdiv ide
Ġfactor s
allag han
Ġham string
ĠMel bourne
Ġremark s
Ġprior ity
aud i
ĠBern ard
ĠNi elsen
Ġembar go
Ġtact ics
ĠBec k
ĠCarl os
Ġwat ched
Ġpercent age
Ġconclud ed
ĠNic olas
Ġincred ible
Ġrepeated ly
Ġtim ing
Ġrecon struction
col m
ĠRonald o
ĠLis bon
ĠGard ener
Ġfest ive
ĠBark ley
Ġnav ig
Ġequival ent
ĠAff airs
3 6
D av
E M
S ony
S outh
W B
a ur
b ust
b rough
c ut
c han
e em
g ar
g ence
h our
i op
i ere
i pping
l t
l ad
s l
t t
v or
w art
Ġ err
Ġt un
Ġthe ft
Ġw ave
Ġc abinet
ed ed
ed ian
Ġp und
Ġp ocket
ing e
Ġm ouse
ic an
il ly
om a
st e
Ġl ies
Ġl uc
Ġl ength
ĠT oul
ĠB and
ĠB ang
us hed
us iness
ur red
ĠC ry
ĠC ele
Ġst orm
Ġst ocks
ĠThe n
est on
un ch
Ġcon secut
ĠL ong
ĠL ittle
ĠL abor
ĠL ycos
ac cept
ĠP ict
ĠP ublic
ĠP eston
Ġwe aring
ĠF l
ĠF ord
ri x
ĠR ings
ag ging
ĠG B
her ty
Ġnot e
Ġnot ice
if ul
ĠJ un
ĠN umber
ĠO pe
od ed
Ġcomp iled
Ġcomp uls
Ġwor m
ok ed
are th
og rap
Ġcont ained
Ġcont ains
Ġall ies
Ġun w
row th
Ġinc orpor
Ġrec all
Ġrec ession
Ġtr igger
Ġdis abled
ough ly
Ġmin istry
Ġwin dow
Ġ3 3
Ġ19 60
xt on
Ġatt ended
Ġman age
Ġserv ants
act ive
Ġspe ll
Ġ4 8
Ġdes erved
Ġdef ending
Ġco verage
Ġ6 4
ren ce
Ġfe ud
Ġtri ple
Ġintern ation
hing ton
ĠInd ependence
Ġpay ment
Ġref use
Ġref uge
Ġreal ised
Ġgu ard
Ġtele v
Ġconsum ption
Ġstar red
Ġhold er
Ġfind ings
ams ung
Ġaff air
Ġexp ress
Ġdri ves
Ġ12 0
Ġposs ibly
Ġrep ay
Ġvis ual
Ġsus pected
Ġmess aging
Ġexpl os
ĠOn ce
ĠCar ol
Ġden ies
co hol
Ġdist ribute
Ġenter ing
Ġval ues
Ġjo ins
Ġchallen ging
Ġstre ets
Ġfa ult
Ġbox es
Ġport ray
ĠSim pson
Ġboss es
ĠGu ard
ĠMan agement
ĠCent ral
Ġlif est
ĠFin n
Ġprofit able
ĠCor p
Ġstrateg ic
ĠBa ikal
Ġencour aged
Ġbel ong
Ġimpress ion
ĠWar ner
ux ury
mark et
ĠLa porte
ĠTom my
ĠJon ny
Ġpros pects
Ġphot o
Ġresign ation
Ġalleged ly
rel ated
ĠTele com
Ġiniti atives
Ġmonitor ing
Ġappoint ment
Ġign ored
Ġlic ens
Ġrout e
Ġprosecut ors
ĠVer itas
ĠCap ital
Ġdepart ments
ĠCur rently
mun ications
ĠBol ton
dles brough
Ġwonder ful
Ġmotiv ated
ĠJer emy
ĠTurk ish
Ġrare ly
ĠComp any
hans son
Ġprinc iple
Ġconvin ced
Ġdisappe ar
Ġsomew here
Ġlib r
ĠGram my
ĠAp pe
ĠOx ford
Ġamaz ing
ĠLiving stone
Aust ral
Ġski pper
Ġnerv ous
Ġhots p
Ġank le
ĠAmaz on
4 6
5 3
8 5
A ids
E A
K en
M usic
P r
U nder
b acco
b viously
d on
d es
g ers
g reat
g ener
m ate
n amed
r ates
w id
z y
Ġ icon
Ġt on
Ġt ags
he nt
er vers
Ġw inger
Ġc rown
Ġc af
Ġp orn
Ġto bacco
Ġd ies
Ġd ogs
ic y
Ġre un
Ġl oyal
Ġl uxury
ut ious
Ġe ighth
ĠT el
ĠT urn
ĠT erry
ĠM ass
et a
ĠB ag
ĠB NP
ĠS ol
ĠS um
ĠS oph
ĠS amsung
ir ty
ur er
ĠC amb
Ġst amp
Ġst ret
Ġst ood
Ġst ored
Ġan ger
Ġan tic
ol k
se x
Ġpro ced
Ġpro of
ĠL j
ĠL ike
ĠP S
ĠP ers
ew art
ort ium
ĠF ort
ri pt
ĠG re
ĠG areth
Ġ2 50
ear s
th iop
ĠU kraine
Ġex ceed
ĠJ P
ĠJ ol
ĠN HS
Ġsh ip
ak a
ry sler
ap ix
Ġcl ients
Ġun its
ish i
ĠSt r
du le
ob by
ĠBut ler
Ġinter vention
Ġfin ed
Ġsc am
Ġch ose
ĠIn formation
Ġacc laim
Ġfil ing
air n
use um
Ġany body
Ġdec ent
Ġnum er
ced es
Ġnet s
Ġ4 2
Ġph ishing
Ġbl ast
Ġbl ame
Ġbl ind
enc ing
har m
Ġsee ks
Ġreg ulation
Ġput s
Ġintern al
Ġter rit
Ġeff ici
ĠJo e
ĠSp ider
Ġplan es
Ġprov ision
Ġfl ow
att le
Ġbre w
Ġbre ach
Ġhead lines
Ġinf ring
Ġsuccess ion
Th ose
Ġsuggest ions
Ġpos itions
ĠChrist op
Ġexpl ain
Ġrepl ay
Ġhope fully
Ġhost s
Ġdirect ive
Ġca utious
Ġstre et
Ġfeat uring
Ġredu ction
ev a
Ġconne cted
ĠPaul a
ĠAd v
Ġproper ties
St ade
Ġscreen ed
min ute
Ġpick ing
Ġpoll s
Ġsector s
Ġdiscuss ion
Ġdefe ated
Ġimprove ments
ĠSo ftware
ĠAir ways
Ġfun ctions
ĠSpe aking
ĠDep uty
Ġpled ges
Ġsort s
Ġgold en
ĠSpan i
Ġengine ering
ĠMe et
Ġtalent ed
Ġcarry ing
ĠKe ys
Ġblock bust
Ġanim als
Ġaware ness
Fr ancis
ope z
Ġsil icon
Ġpra ise
Ġsust ained
ĠEr icsson
ĠAsk ed
Ġsurf ace
Ġteen age
Ġhur dles
Ġembar rass
Ġpun ish
Ġsprint ers
ĠOrgan isation
ĠMik hail
Ġscen es
sm outh
ĠBenn ett
Ġinnoc ent
Ġmax imum
ĠMcI lroy
ĠUt d
ĠCorpor ation
ĠMarg aret
Ġrestruct uring
Ġluc rative
0 5
7 0
B road
C amp
D S
F A
M bps
S h
c apt
d is
h d
l antic
m et
t es
t hen
u ccess
w orth
Ġ iron
Ġt ap
he t
Ġw ages
Ġw estern
or ry
Ġb oys
ha b
ha ve
is hes
Ġp ence
Ġp sy
an ge
ar i
Ġd ip
Ġd inner
as co
Ġn an
Ġn ic
Ġre action
Ġl ived
ut t
ut in
Ġe Bay
ĠT ig
ĠM ind
ĠM its
ĠM anu
ĠB omb
Ġh ole
ot al
ce ler
ĠI I
Ġsa cked
Ġr ail
Ġas pects
ĠH S
ĠH op
ĠH ear
ĠH ere
ĠH oll
ĠL G
ĠL l
ĠL o
ĠD iv
ĠD ian
ĠD ave
Ġare n
ĠP lan
pe y
ul ous
ĠF rom
ĠF ab
ĠF air
ri ble
ĠR BS
ĠW at
ĠU WB
ard o
ĠN ov
Ġcha in
ok s
ap ore
Ġcl ient
Ġrec yc
Ġafter wards
ĠSt adium
ĠSt uart
Ġsc an
Ġdis s
Ġk ids
Ġworld s
Ġsha ring
iss an
Ġher self
ib ilities
ĠDe ad
Ġco aches
Ġbl ue
Ġ6 2
Ġbo oming
Ġapp lied
Ġinvest or
Ġmay or
Ġsl ump
Ġleg ally
Ġins pired
ĠJo hansson
Ġ7 5
Ġcompet itors
Ġmed all
ĠComm odore
Ġoper ate
Ġdem ocrat
Ġfound ed
Ġ199 5
Ġhard ly
ley ton
Ġinform ed
cept ic
Ġadv oc
Ġass um
Ġtrans p
ĠMon etary
ĠMar c
Ġaccess ible
Ġpolic ing
ĠCon n
Ġexpl ains
Ġfree ze
Ġsent ences
ĠCar ib
ĠGl oucester
enn y
enn ium
Ġden y
Ġboost ing
ern ity
Ġ198 5
Ġdeli very
Ġdam aged
Ġdoub led
Ġequ ity
Ġgoal keeper
for ward
Ġelect ric
Ġspecial ist
Ġmar g
Ġmar gin
Ġgiant s
ĠĊ Ċ
Ġamount s
Ġhun ts
ĠGu antanamo
Ġrev ised
ĠBlack burn
Ġrepresent atives
down e
br ity
Ġdefic its
Ġsound s
Ġground s
Ġdeter mination
ĠPol icy
Ġrespect ively
Ġwarning s
ĠEar th
Ġsens ible
ĠKore an
ĠNe xt
aut iful
ĠUs ed
Ġrob ots
Ġblock ing
ĠBy r
ĠDo herty
Ar senal
bre aking
Ġadmin ist
Ġlisten ers
ĠGree ce
Ġbur den
Ġoptim ism
Ġcounter part
Ġtro ops
Ġtro phy
Ġign ore
ĠMal colm
ĠGlob e
Ġult imately
ĠAut hor
Ġupd ate
ĠMer cedes
ĠBroad cast
Ġhy brid
Ġexplo it
Ġdel ays
Ġcance lled
Ġpersu ade
ĠGall as
ĠIslam ic
Ġemp has
Europe an
Ġspir it
cor p
sign ificant
chen ko
dem and
Ġexhib ition
Ġsli pped
Ġtroub led
Ġsuspic ion
onym ous
ĠPalestin ian
Ġsurger y
Ġconsecut ive
accept able
Ġlibr aries
wid th
ĠSpani ard
! !
2 50
4 00
E S
E U
I s
K elly
L ord
M c
O ver
R M
S te
e ment
e qu
f riend
h it
i ot
j ohn
l ock
n oon
t urn
z illa
Ġ ...
Ġt iny
in th
Ġs itting
re c
Ġc y
or ation
Ġb on
Ġb ed
Ġb ound
Ġb urea
Ġf ro
id ance
Ġn one
ve z
Ġg ang
Ġre ass
ut ies
Ġe ast
ĠT it
ĠM arty
ĠB ry
ĠB urn
ĠB erg
ĠB right
Ġh om
ot land
ĠS ur
ĠS ub
ĠS audi
ce an
ĠA ston
ĠC ost
Ġst ance
Ġr ig
Ġr acing
ĠH ague
ĠL y
ĠD ist
ĠD ec
ĠP oll
ĠP ass
ĠP utin
ĠE y
ĠF T
ĠF err
ri ve
ĠR ick
if ts
ast air
ĠJ a
ĠN T
ĠN as
end ous
Ġcomp ar
so va
ord inary
oc ol
Ġag ric
Ġpe ers
Ġcl amp
Ġcl ock
ans downe
Ġoff set
Ġso ft
ub ishi
Ġinc ent
Ġinc omes
Ġpart ners
Ġafter noon
ĠSt ewart
ult ural
Ġsc ient
Ġdis ag
Ġ3 8
li ance
ĠV a
ĠV ick
Ġsome body
ĠY e
Ġmark ed
Ġper man
oy d
ĠCh urch
Ġcons olid
iss ions
Ġdes erve
Ġcomm and
Ġear th
ind all
Ġexpect ing
Ġimp ose
Ġimp osed
Ġ5 6
ĠSc reen
ĠUn iversal
Ġend ing
Ġreg ions
ĠCom merce
Ġtri o
Ġrun ner
ĠAr ch
ĠMic hel
Ġbr ain
Ġdeal ing
Ġrele ases
Ġbroad caster
Ġdisc ount
Ġopp onents
ĠAn c
Ġsm oking
Ġext ent
ĠCl a
Ġhead ing
ĠSe b
ĠJohn ny
Ġ8 5
pr int
pr ise
Ġgu idance
Ġstud ying
Ġadv anced
Ġmanag ers
Ġgl ory
Ġexper ienced
Ġtrans form
Ġpress ures
Ġkeep s
Ġmod er
Ġfund ed
Ġtar iff
Ġbook ed
ĠEx pl
Ġband width
Ġenter tain
ĠBar ry
ĠBar clays
cl ass
Ġca uses
ĠSha res
ĠIraq i
Ġlo ose
Ġattempt ing
Ġsuff icient
ĠAll iance
Ġlaunch ing
Ġsol utions
Ġbroadcast s
Ġmoment um
ĠParliament ary
Ġstay ed
ĠBr ad
ĠCor ry
Ġemer gency
Ġfair ly
umb led
mark ed
Ġpers ist
Ġreb ate
Ġocc as
Ġcult ural
Ġconsult ation
ĠNe il
ĠCol le
Ġvol ley
ĠPort smouth
Ġmist akes
Ġthr iller
Ġtyp ical
net sova
ĠBow l
Sc otland
Ġdanger ous
ĠJim my
ĠAndre as
Ġrecomm ended
Ġteac her
Ġadapt ation
Ġartic le
Ger man
Ġdesper ate
uz netsova
lar gest
fortun ately
Ġoverwhel ming
ĠMex ico
ĠCath olic
itig roup
ĠSain ts
ĠStat istics
ĠEaster by
Ġeffici ency
4 4
5 2
5 5
B ar
B rown
D on
R oddick
S ky
b ig
b ook
b les
c ock
d ed
h igh
l a
l og
p ke
p ret
r ag
r age
r ics
s ur
s ider
u v
u is
v ili
Ġt empt
Ġa x
er ia
Ġw all
en ice
Ġf ill
Ġf ixt
is p
Ġp en
Ġp ark
Ġto ler
ar er
Ġm aps
Ġd ow
ic ide
le vel
id a
id ency
ut s
ĠT ime
ĠM oody
et ail
Ġfor um
ĠS n
ĠS her
ĠS av
ĠA re
ĠI E
ĠC ook
ĠC itigroup
Ġst ab
Ġth or
Ġr ating
Ġr ush
Ġr ift
ĠH P
ĠH end
Ġpro ceed
Ġde g
Ġy uan
ac le
Ġmo od
ĠE thiop
ĠR ight
ĠW ool
ĠW TO
ĠG un
ĠG reens
ĠG iggs
Ġal cohol
our ce
igh ter
ast e
ĠJ oy
ard en
ĠN ich
ĠN issan
ant as
od s
Ġsh ocked
ie ces
all er
Ġab used
ff ord
Ġsp ons
row ing
Ġdo ctors
Ġso ap
Ġint entions
Ġtr uly
Ġqu iet
Ġres c
Ġother wise
reat ive
ell ed
Ġdec iding
It aly
Ġinv ited
ound ed
ĠEurope ans
Ġserv ing
ock ers
Ġshould n
Ġ4 9
Ġreport ing
Ġco inc
Ġ5 2
ĠAs sembly
Ġret ain
Ġact ive
Ġfe ed
me i
Ġsl ide
ollow ing
Ġgener ate
Ġac celer
Ġcontro lling
ĠAl astair
Ġcap ability
Ġsign al
Ġmem or
Ġplan e
Ġjob less
ĠAn n
Ġsuccess ive
Ġsuccess fully
Ġform ed
ĠMc Let
let t
Ġcent ury
less ly
rist ol
Ġlaun ches
ĠPar malat
Ġass ault
Ġdri vers
Ġtrans actions
ĠCha pter
Ġpass ing
Ġ9 5
Ġrepl ied
Ġarg uing
ĠCar ling
ĠBe at
Ġprot oty
Ġide al
Ġbuild ings
Ġmet res
Ġ198 7
Ġglob ally
Ġsw ap
Ġattempt ed
Ġpresident ial
Ġpriv acy
ĠPh illips
Ġinvestig ate
Ġsche dule
ater al
Ġdeliver ing
Ġactiv ists
Ġdomin ate
Ġemer ging
ĠSpe aker
Ġavo ided
Ġenjoy ing
Ġreview s
Ġmer ge
Ġsett led
Ġcoll aps
Ġprem ier
New castle
Ġinflu ential
ĠMid lands
ĠCol in
Ġobs ervers
Ġpromot ing
ĠPat erson
Ġbal let
Ġmaintain ed
oper ation
ĠPal ace
Ġgig aby
Ġarri val
ope fully
Ġquot as
Mic hael
Ġprotest s
Ġshar ply
Ġlic ence
Ġrout ine
Ġshoot ing
ĠGlob al
ĠMuslim s
ĠWas hington
Ġargu ments
rog ba
ĠBol lywood
Ġregard ing
Ġswe et
ĠEll is
ĠProf essor
Ġhistor ical
Ġconsist ently
Ġtrave lling
ĠNever land
ĠCub a
ĠFred er
Ġring t
ĠOl iv
Ġbackb enc
Ed inburgh
ĠTrans port
Spe aking
ĠBre ak
ĠNap ster
Ġflex ibility
ĠStev ens
chest ra
ĠRafa el
ĠCommun ications
ĠMS N
inds ay
iem ens
Ġexchang es
Ġexpos ure
Ġdispl ays
Ġappre ci
Ġerr ors
ĠCele brity
ĠGuard ian
Ġpsy ch
ĠDiv ision
ĠAuthor ity
ĠMarty n
ĠColle ge
pke mei
ĠMcLet chie
. '
3 1
4 7
A C
A ng
C ar
E ar
G ordon
M D
O bviously
S ir
b est
b el
b oy
b its
g g
g han
h ors
h unt
j ud
l ia
m ic
n old
p arty
r ity
u ard
v in
on ce
Ġs essions
Ġw ed
Ġw est
or pe
Ġf ought
es ome
is ers
Ġp it
Ġin her
ar m
al a
as m
Ġn obody
ve t
Ġg reet
ut ton
ĠT or
ĠT ro
ĠT oy
ĠT indall
ĠM at
ĠM ub
ĠM ail
ĠB ul
ĠB rent
ĠB ristol
Ġh ide
Ġh ook
ot a
ot hes
ĠS en
ĠS us
ĠS uch
ĠA lf
ĠA ids
ĠI van
ĠC os
ĠC ham
Ġth res
Ġwh ilst
ĠH as
ĠH ick
ĠH umph
ol ami
ĠL us
ĠL ine
ĠL opez
ĠD ami
ĠP ound
Ġwe ight
ĠE C
ul ham
ĠR w
ĠW ins
ĠW estern
ĠG at
ĠG et
th ink
th ony
ĠU p
Ġnot ed
Ġv owed
os c
el a
ĠO range
Ġsh ift
Ġsu e
Ġab ortion
Ġup per
Ġcl othing
rit z
ĠK az
ĠK uznetsova
Ġso le
ign y
ign ed
Ġint ent
pl ed
Ġrec alled
ĠSt ring
erv ative
Ġqu ang
Ġinter face
Ġsc ript
Ġwin d
Ġ3 9
Ġpr inci
ĠBrit s
ĠBrit on
ĠV ill
ĠY et
Ġmark s
ell a
Ġele ctoral
Ġcons piracy
Ġ4 6
olog ical
Ġ5 3
Ġ5 5
Ġend s
Ġsur pass
Ġpublic ly
Ġwar n
ĠAl most
ious ly
Ġdevelop ments
Ġmem ories
Ġrele asing
Ġdet ect
Ġpolit ically
Ġopp ose
In tern
Ġ199 2
Ġprof ile
Ġrel uct
Ġcare ful
Ġtaking s
ĠMar athon
ĠMar igny
Ġkey not
Ġcol lected
Ġshort ly
ĠSund ance
ĠCon vention
ĠChar lton
Ġgam bling
ĠCar roll
ĠAf ghan
ĠFor um
Ġsearch ing
Ġamong st
Ġob tain
Ġhost ing
ĠSw an
ĠGr ant
Ġca ution
Ġpredict ions
Ġtour ism
Ġeng age
ĠEd die
Ġauthor ity
Ġblog gers
ĠAd rian
ĠAg ainst
Ġmar ried
Ġscreen ing
Ġsol ve
ĠPet ro
Ġdom ains
Ġextra ordinary
ĠWh y
Ġrev ival
ĠGe off
ĠBlack pool
Ġcompl ained
Ġreason able
Ġprem iere
Ġinterview s
Ġstreng the
Ġstreng then
sp am
Ġcommission ed
Ġocc up
ĠMill ennium
Ġident ify
Ġconst antly
Ġpract ices
Ġcho ices
kn app
Ġobs c
Ġcinem as
ĠDan iel
Ġinnov ative
Ġminor ities
ĠFrank furt
Ġassess ment
Ġrank ed
Ġdiscipl inary
iar ritz
ĠEven ing
Ġhal t
Ġovert urn
Ġadvis er
ĠDire ctor
Ġchampionship s
ĠOs bourne
Ġsy mb
Ġshopp ing
Ġresol ve
Ph illips
Ġrebuild ing
ĠRet ail
Ġapparent ly
ĠME P
Ġmention ed
ĠHot el
Ġinstit utions
Ġshortl ist
ĠChild ren
ĠId ol
Ġexer cise
ĠNig el
Ġrenew ed
ĠEle ctoral
Ġcomfort able
Ġconced ed
Ġforg otten
ĠFlor ida
Min isters
da q
Ġsudden ly
ĠCab ir
Ġric hest
Ġven ue
Ġattach ment
ĠRF ID
Ġfue lled
Dav id
ste in
Ġcompuls ory
Ġlifest yle
Ġhotsp ots
ĠMits ubishi
ĠManu el
Ġmedall ist
ĠByr ne
Ġburea uc
ĠExpl orer
ĠOliv ier
Ġthres hold
ĠDami en
ĠWins let
Ġkeynot e
ĠAfghan istan
1 50
3 2
8 7
A meric
B oy
C ard
H igh
L ib
P C
Q u
R ec
S ince
d om
f oot
k ing
m atch
u a
w orks
w ords
x x
y o
er ror
on aut
Ġs orry
Ġc ry
Ġc ents
Ġb inge
is er
Ġp ounds
an o
at ar
Ġd ot
ro ke
as p
as ia
as ks
Ġha bits
Ġn orthern
Ġg e
Ġe t
ĠT ou
ĠT ok
ĠT ottenham
ĠB ra
ĠB ack
ĠB oston
ĠB usiness
ĠS iemens
ig an
ce ived
ĠI c
Ġsa ving
Ġsa ck
ad den
Ġst aged
Ġwas ted
un ior
ĠH az
ol f
Ġcom ic
Ġcon ven
ĠL ane
ĠL ansdowne
Ġhas n
ĠD ata
ĠD rogba
ĠP ay
ĠP ur
ĠP ew
Ġwe ar
ĠE qu
up s
up er
ĠF am
ĠF ood
ĠF light
ĠF ulham
ĠR u
ag ones
ĠG or
ĠU lster
Ġex ternal
ĠJ udge
ĠJ eff
ĠJ obs
ĠN oon
ĠO il
Ġle af
Ġle aves
Ġsu icide
Ġab ol
Ġj oy
Ġ200 9
Ġout break
Ġcl ar
Ġne ck
Ġne ither
ĠK ee
Ġcont em
Ġun ity
ays ia
Ġres ident
Ġsc ores
ep s
ĠBl anche
ĠV ideo
ĠV inci
ĠY ann
Ġele ment
Ġman ner
Ġsha ll
amp ard
Ġunder m
Ġbu zz
Ġ5 7
ĠAs s
Ġmat ernity
ĠSc ar
Ġhigh s
Ġrecord er
Ġpublic ation
Ġpublic ity
Ġbr ings
Ġent ries
Ġmed als
Ġcle ver
Ġcar maker
Ġsim pl
Ġhead line
Ġperson ally
Ġrel ax
Ġrel igious
Ġ8 7
pr us
Ġgu idelines
Ġaut hors
Ġinst alled
Ġimm ers
Ġvis ited
Ġair port
Ġpass ion
Ġadm its
Ġart ific
ĠCon ference
Ġtra il
Ġcop per
Ġquarter ly
Ġeuro zone
Ġsum s
Ġdemand ed
Ġopt ed
ĠBar b
Ġdirect ing
ĠSha un
Ġlaws uits
Ġdoub ts
ĠHar ris
Ġpriv at
sec s
Ġmar ri
Ġappear ances
Ġty co
Ġcommun ication
Ġunve il
Ġdisappoint ment
ann ie
Ġstrik es
sp reys
Ġpers pective
ĠMill an
Ġphot ograph
Ġmor al
Ġreflect ed
ĠMid dlesbrough
ĠSch ro
Ġelse where
Ġattract ive
Ġvol unt
ĠNor way
Ġrespond ed
Ġwalk ed
ĠSky pe
DP A
Ġrecover ed
ĠMa e
Ġcontact ed
ĠSer ena
ĠFar rell
Ġfort unes
Ġassoci ation
Ġinteg rity
Le icester
Ġliber al
Ġremark able
ĠVer izon
Ġhor ror
Ġafford able
ĠAut o
itar ian
Ġepis odes
ĠAsh ley
Ġmeg apix
23 3
Ġtem per
ĠIP TV
Ġhistor ic
Ġconvers ion
ĠWell s
ugg ish
Ġaccur ate
Ġphen omen
ĠSing apore
Ġdeleg ates
Ġunus ual
Ġadvent ure
Ġton nes
ĠCamb ridge
Ġdemocrat ic
ĠBreak fast
ĠMub anga
ĠCham bers
ĠHick ie
ĠHumph reys
ĠBlanche tt
7 6
C han
D O
F rom
G o
H ar
L i
M anchester
S ec
a ware
c a
d ig
f l
f und
g ood
g onaut
j an
o oth
p age
r unning
s ene
u ate
u ition
w ith
Ġ rom
Ġa fra
in ster
Ġw aves
or g
or gan
it ure
Ġf ram
Ġf inger
is dict
Ġp in
Ġp ed
Ġp act
ing ly
Ġin ev
al ing
Ġd ates
Ġbe er
Ġre ference
ut ed
Ġe cho
ĠT B
ĠT i
ĠT ate
ĠT ennis
ĠM ed
ĠM ess
et her
et ime
et te
ĠB A
ĠB ates
ĠB ull
ĠS on
ĠS al
ig her
im ir
us sell
ĠA BC
ur a
ll er
ĠC ad
ĠC SI
ĠC airn
Ġst ress
Ġst uck
Ġst ero
Ġwh ist
ĠH ist
ĠH anks
op ic
Ġpro be
Ġcon vent
Ġcon sequ
Ġde port
ĠL ocal
ĠL abs
ĠL leyton
ĠL indsay
ĠL ampard
ĠD am
ĠD im
ĠD ell
ĠD aim
ĠD yer
ĠP M
ĠP om
ĠE li
ĠE ric
ĠF oster
ĠF actor
ĠF ockers
ĠR a
ĠR h
ĠR ub
ĠW he
ĠW ong
ĠW onder
ĠG P
ĠG ro
ĠG rew
Ġex cept
if ax
if ier
ist ance
os ure
The ir
ard ed
ĠN ort
em ble
ra ction
ĠO pp
ant uch
Ġsh r
qu era
Ġcha mber
Ġcha sing
Ġj our
Ġj unior
Ġup load
Ġcl othes
Ġoff ensive
ĠK err
ĠK inn
Ġun acceptable
Ġdo ors
Ġint ends
ous ain
ĠSt re
ĠSt am
erv ais
ens us
Ġfin als
Ġpre st
Ġpre cise
Ġch urch
ĠV o
ĠV iv
ĠY our
ĠY ush
vi ation
iss or
Ġshe l
under land
ĠDe pp
Ġco ast
Ġsecond ary
Ġmost ly
ever al
Ġsur plus
Ġrecord ers
Ġstr ict
Ġsl im
ĠAr agones
Ġbr on
Ġbr id
Ġvot er
Ġcost ly
com be
ĠTV s
Ġbus y
Ġins pe
Ġsing ing
Ġcar pet
Ġcar riers
rib e
ĠAn thony
Ġext ending
ĠCl oser
Ġdiffer ences
Ġadv ised
Ġass et
Ġexper iences
Ġposs ession
Ġpost p
Ġappro ached
Ġbid ding
ĠMin istry
be an
Ġbill ed
ĠChe pkemei
ran ch
Ġval id
ĠQ C
Ġqual ified
Ġqual ify
Ġ198 4
Ġchallen ged
ler Ch
Ġsqu ee
Ġequ ally
Ġquestion ing
Ġdr unk
Ġbatt led
ĠAg u
Ġslow ing
min em
ĠMark et
Ġhon oured
Ġcreat es
ĠAssoci ated
Ġseek ers
Ġclass room
How ard
Ġland ed
ĠJam a
Ġstrateg ist
Ġemer ge
oles ale
Ch rist
Ġretail er
Ġkill ing
Ġinterview ed
An alysts
Ġfr ag
ĠHal ifax
Ġsignificant ly
Ġweak ness
ĠUs her
Ġlangu ages
Ġrob ust
Ġwithd rew
Ġapolog ised
ĠRed knapp
ĠPat rick
Ġtrend s
ĠIsrael i
ĠRobb en
Ġbur st
Ġopin ions
Ġham mer
Ġham per
ĠAnt on
Ġnomine e
ĠNi ro
Ġbi opic
ĠCanad ian
mun ia
ĠCy prus
Ġrecomm end
Ġrestrict ions
Cons umers
Ġresol ved
Ġsatisf ied
Ġsal ary
ordin ator
Ġbarrel s
Ġrub bish
olit an
Ġscra pped
Wh y
Ġimpl ications
Be fore
Ġdiscrim ination
Hol lywood
Ġhack ers
Ġguitar ist
ĠBelg ian
Ġdeliber ately
Ġtoug her
ĠON S
ĠAtt orney
Ġtrem endous
Ġceleb rities
Ġjur isdict
Ġcoal ition
ĠMcF adden
ĠNev ille
Ġenhan ce
Ġtrag edy
ĠToul ousain
ĠJun inho
Ġblockbust er
Broad band
ĠHoll and
ĠNas daq
ĠSeb ast
Ġoccas ions
ĠGreens pan
Ġcollaps ed
ĠString er
Ġprinci ples
ĠSwan sea
ĠSchro eder
Li verpool
Ġafra id
Ġinev it
ĠGrew cock
emble y
antuch ova
ĠYush chenko
' ,"
9 8
B T
C ur
D is
E nd
F F
F rench
L ear
M ost
N adal
O R
O s
P G
b udget
f ront
g n
g s
g old
j a
l inson
o a
o z
o ft
p iece
t ar
t han
u ations
u able
Ġ id
Ġa viation
on a
Ġs hed
Ġc up
Ġb ans
Ġb reat
Ġf iction
Ġf ranch
an es
an ch
Ġm ic
Ġm ent
Ġm ission
at o
Ġd rew
ic ing
ro lled
Ġha ll
ve y
Ġg reen
Ġg aining
Ġl y
Ġl ords
ĠT ri
ĠM osc
ĠB alls
ot o
ĠS ale
ĠS aul
ĠS isters
ir ms
Ġis land
ow ay
am ount
ĠA ge
ĠI C
ad em
ĠC rown
ĠC urt
ĠC lear
ĠC reative
Ġst em
Ġth rew
Ġr ain
Ġr aces
ĠH ock
ol o
Ġcon g
ĠL om
ĠL and
ĠD ur
ĠD ick
ĠD RM
Ġse ction
ĠP rison
Ġwe aker
ort olami
ĠE vent
ĠF il
ĠF BI
ĠR od
ĠR eeves
ĠW in
ag ger
Ġex it
Ġex posed
ab out
ab its
os is
os ity
ies on
ĠJ et
ĠJ erry
ĠN ation
ĠN est
el and
ĠO ur
ud john
Ġcomp onents
nt il
ord an
Ġag es
Ġup ward
Ġout door
ost al
Ġcl ips
og y
ĠK han
ĠK night
Ġcont ain
Ġcont enders
Ġcont ext
ub ic
Ġme chan
Ġtr u
Ġtr im
ĠSt uff
ip al
Ġfin ishing
Ġdis asters
Ġacc using
ctor ate
int osh
ict ional
Ġwork er
ĠV is
Ġla id
ĠY orks
ell ow
Ġele ctorate
Ġatt itude
Ġcons ensus
Ġeconom ics
Ġmusic ian
oun ced
red it
we ek
Ġbu oy
Ġ5 1
Ġ5 4
ĠSc issor
Ġtax ation
Ġprogram ming
Ġins pir
Ġcap abilities
Ġcar rier
Ġcampaign s
ather ine
Ġ199 1
Ġ199 6
ĠRe yn
Ġlist ings
Ġrel ated
ĠSe ag
Ġfar mers
Ġform ally
ĠMc Man
ĠWorld com
Ġaut o
Ġfail s
Ġfind s
Ġview ing
Ġimm ense
Ġmod est
Ġsus pect
ĠCon f
ĠCon cer
ĠCon stitution
Ġsent enced
ivers ities
ĠMin isters
be v
Ġche cks
ĠEx eem
ĠQ antas
Ġfoot age
Ġemploy ee
Ġpat ches
Ġ198 3
Ġ198 9
ĠThat cher
Ġsw ift
Ġsw itched
ĠIs lands
Ġclos ure
Ġtalk ed
Ġtour ist
play ing
riend s
ĠHar riers
Ġdr um
Ġdr inks
Ġrequ ires
Ġblog ging
ĠMor rison
Ġbatt les
Ġslow ly
ĠGu ild
Ġpoor er
lin ing
ĠCent er
Ġve to
ĠWith out
ĠOr quera
Ġland mark
Ġcommun icate
Ġavo iding
Ġsuper com
Ġregul atory
secut ors
Ġcond em
Ġsaf eg
Ġprotect ing
Ġident ified
Ġconsult ant
Ġcommit ments
Ġpract ical
Ġwithd rawn
yc le
Ġprint s
Ġtelecom munications
Ġmaintain ing
ĠTra fford
ĠLaw rence
Ġspr inter
ĠGame Boy
Ġtyp ically
Ġir res
Ġcelebr ity
Ġdead line
Ġliber ties
ĠPri v
ĠPri x
Ġnecess arily
Ġz one
Ġrequire ments
Ġupd ated
ĠShar on
ĠShar ks
bit ration
ĠDef ence
ĠDire ct
Ġpet rol
Ġwithdraw al
ĠStud ios
writ er
Ġaw esome
pan ied
Ġcance l
Ġconsist ent
ueto oth
Ġagg ressive
Ġbirth day
Ġmethod s
ĠCr ime
ĠHor gan
Ġuncertain ty
Ġdig it
Ġluck y
Ġdiscrim in
Ġdestroy ed
Russ ian
Ġow ed
ĠDev on
Ġadopt ion
Ġaband oned
ĠJac ques
Ġtaxpay ers
Ġsubsequ ent
Ġtradition ally
ĠAv iv
ĠAbb as
lyn n
ĠSystem s
ĠBeck ham
Ġrefuge es
Ġtelev ised
ĠAppe al
Ġantic ipated
Ġterrit ory
hd ad
Ġnan ny
ĠLl oyd
ĠCarib bean
ĠVick ery
isp here
Ear lier
ĠBul gar
ĠLus combe
ĠKee gan
Ġwhist le
ĠDaim lerCh
ĠMosc ow
ĠHock ney
udjohn sen
ĠReyn olds
3 3
4 1
6 5
7 00
8 9
9 6
D oping
H en
M ur
M un
N ot
O C
P aul
S em
S ale
T r
b ay
b ridge
h y
h ow
h ill
j sters
l ers
n est
n ominated
o op
o ors
v ard
w ill
y es
z er
Ġt une
Ġt uition
er en
on ies
on na
re ts
Ġc oc
Ġb aby
ha nt
it ation
it og
Ġf ed
Ġf old
Ġf ool
Ġto uc
Ġm and
Ġm ere
Ġd im
Ġd ie
Ġd og
Ġd anc
Ġd ating
Ġha t
st ant
Ġl iqu
ĠT ob
ĠT PS
ĠM ax
ĠM utu
ct ure
ĠB j
ĠB ed
ĠB ros
ot ti
ĠS other
ĠS tern
am m
am asco
ver e
ĠA A
ĠC as
ĠC ode
Ġst ead
Ġst ruct
ch ild
Ġr ack
est ed
ĠH ugh
ĠH antuchova
Ġcom edian
ke le
ĠL im
ĠL ad
ĠL ooking
ĠD ent
ain e
ain k
ĠP ear
ĠP el
ew ell
ĠF ern
ri ot
ĠR ich
ĠW ater
ĠW oman
ĠW ayne
ĠW MC
ĠW embley
ag ons
ĠG ervais
Ġal ert
ear ly
Ġpl ot
ate p
ab a
Ġv ide
ĠJ ud
ĠJ owell
ĠN itog
el ia
ra v
ust ody
ĠO p
Ġcha se
ight ed
ight ing
Ġad equ
are ly
ost as
Ġcl ay
Ġne igh
og ether
Ġnew ly
ĠK ent
ia h
Ġun ha
Ġun known
Ġdo ctor
Ġinc om
Ġint end
Ġtr icks
Ġyou th
ob iles
Ġqu eries
Ġpre c
Ġpre ced
Ġsc ams
ĠIn f
ick et
Ġmin ing
ach vili
Ġind efin
Ġind ication
ĠBl uetooth
li jsters
Ġper mission
Ġar ts
Ġcons ortium
Ġam pl
Ġshe ll
Ġprodu ctions
Ġher ald
ind ed
ĠAnd erson
Ġdef ault
Ġco ff
Ġrem ake
Ġmat ched
Ġsl uggish
ĠAr t
ĠAr my
ĠAr nold
ĠAr sene
Ġbr ight
Ġcost ume
Ġgener ated
ĠLe g
lo v
Ġ7 2
Ġappe aring
ĠSp am
ĠSp urs
ĠSp itzer
ef an
sc ar
ĠComm on
Ġrele vant
Ġopp onent
Ġannoun cing
Ġext ras
Ġfl ash
Ġinf ect
Ġlist ening
ĠMP C
Ġgu est
Ġed iting
Ġra w
ĠAt lantic
Ġdev ast
Ġsub mit
Ġyour self
Ġpass enger
rat ors
Ġrest aur
ĠChar tered
Ġdep ri
app rop
Ġexc ited
Ġden ial
Ġval ued
ĠQ west
ĠQ atar
ĠBar on
Ġemploy s
Ġca using
Ġstre am
Ġpredict ing
Ġlo vers
rup ted
play er
Ġdifficult ies
ĠLib rary
ĠAd d
ĠAg ric
Ġintrodu cing
cha ng
Ġmar ry
ĠCommission er
Ġsurvey ed
ĠOther s
ĠSh ort
Ġlif ts
Ġbar rier
ĠCo hen
Ġland scape
ĠBr un
ĠSpe cial
Ġes c
Ġple as
Ġdiv ided
lim inary
ĠSup port
opp ing
Ġfactor ies
Ġred und
Ġprep are
Ġcond ition
iqu es
ĠPrem ier
Ġstrik ing
Ġlear ned
Ġamb itious
Ġcover ing
Ġinsur ers
Ġpolitic ian
Ġachieve ments
Ġanim ated
ĠPort ug
ĠDo om
rop olitan
ĠRed dy
Ar cy
ĠTele west
Ġbrows ers
Ġprompt ing
Ġjail ed
ĠMal aysia
Ġdeep ly
Ġflo or
Ġdemonst rated
Ġrank ings
ĠRec ords
Ġsuit able
ĠInter active
Ġod d
Ġfrust rated
ĠVirgin ia
ĠCam er
ĠInc red
Gl asgow
Ġpurs ue
ĠTest s
ĠHay es
ĠRet urn
Ġcalcul ations
Ġrid ic
Ġartic les
Ġparticip ation
Ġconver ted
Ġvo iced
Russ ia
ĠAud it
ĠMun ich
ĠIR A
ĠExp ress
Ġhint ed
Ġcollabor ation
ĠKap lan
ĠFree view
Ġenforce ment
mag a
Ġadap ted
Ġrecru it
Ġprim ary
Ġprosper ity
Ġmut ual
ĠLeon ardo
Ġsle ep
Ġenthusi asm
ĠVenezuel a
Ġpund its
Ġpunish ment
Ġtap es
ĠHS DPA
Ġelectric ity
ĠĊĊ ĠĊ
ĠBerg amasco
ĠBright on
Ġdisag ree
ĠAnc ram
mic als
Ġquang os
Americ an
Ġet c
ĠTok yo
Ġtyco on
Ġconvent ional
ĠKinn ock
Ġprest igious
ĠViv endi
Ġbron ze
Ġjurisdict ion
Ġmic ro
ĠDaimlerCh rysler
Sem it
ĠSother ton
ĠNitog lia
3 4
B N
E s
F ilm
G SM
H opefully
I T
M ar
M eanwhile
P l
P ol
P lay
S e
S ubs
T op
W est
W ho
a way
c ard
f ew
h os
i ation
i pp
j ection
l ink
n an
n ova
o qu
r adio
r nova
t a
t ake
u w
u ke
u ire
v als
w a
z ek
Ġ ice
Ġt ense
he m
on ly
on te
Ġs ight
re pre
Ġw eren
Ġc ycle
Ġc ustody
Ġb ars
Ġb order
it iveness
Ġf ox
Ġf ishing
Ġp ump
Ġp ieces
ar o
ou b
at y
Ġd a
Ġd ual
Ġd iversity
Ġd ressing
Ġd uties
as hing
Ġg ar
st r
Ġl ying
Ġl ocked
Ġl obby
Ġe lig
ĠT H
ĠT zek
ĠM M
ĠM ak
ĠM ake
ĠM ald
ĠM SP
ĠM err
ĠM DA
ĠM MS
ĠB os
ĠB og
ĠB ox
ĠB ening
ĠB ortolami
ĠS now
ĠS ubs
ĠS hank
ig ue
im ax
us hing
ce eds
ĠA z
ĠA li
ĠI T
ĠC ate
ĠC ome
ĠC BS
ĠC ulture
ĠC allaghan
Ġst ated
Ġst able
Ġst iff
ch y
Ġr anging
ĠH oly
op oly
ĠD ow
ac on
ac om
ĠP ops
ĠP ensions
ĠE lection
ĠF re
ĠF ut
ĠF annie
ĠF lynn
ĠR oma
ĠR ussell
ĠG ene
ĠG rowth
ĠG udjohnsen
Ġal er
Ġal ive
th irds
um per
ab ri
Ġv oc
ĠN orm
ĠN BC
ĠN az
el lect
od ing
Ġad s
Ġnew com
Ġwhe el
ĠK y
ĠK ay
Ġun beat
Ġso aring
Ġint r
Ġint ense
Ġint ellect
pt y
pt ions
erv ing
ob i
ens es
Ġinter cept
Ġres ur
Ġpre liminary
Ġdis gu
Ġen for
Ġen ables
Ġthem es
Ġpr inter
ĠV ol
ĠY elling
ors hip
Ġinv ent
Ġinv entions
Ġam end
Ġman ip
Ġsha me
Ġ4 1
Ġfilm ed
Ġear marked
ib les
Ġpubl ishing
Ġpubl isher
Ġbl ocked
Ġrem ov
Ġtechnolog ical
Ġend ured
Ġsur re
Ġreg istration
pen se
Ġfirm ly
ĠCom puter
Ġtri ump
Ġsl am
ĠAr gonaut
ĠMic hal
Ġser ver
ron ted
Ġdon ate
Ġpres idency
Ġter rest
Ġins isting
Ġ7 4
ĠSp ot
ĠSp ace
Ġknow ing
Ġsupport s
Ġoper a
Ġext ension
Ġprof ession
Ġfl u
att ie
Ġbre aches
Ġconcer ts
Ġrel ating
Ġrel atives
ific ations
omet imes
Ġturn over
Ġpos ed
Ġbuy er
Ġvict ories
Ġrep orter
Ġsub mitted
Ġev asion
Ġair ports
Ġpass port
Ġexpl an
Ġcor ruption
app y
Ġbeat s
Ġ11 0
ĠSouth corp
ĠFor ce
Ġprocess ors
Ġdro pping
Ġval uable
Ġthreat ening
Ġcred its
the less
Ġjud ged
ĠSha w
Ġagree ments
ient es
ĠSim ilar
ĠMor ientes
Ġhealth y
Ġbudget s
ĠAd ams
Ġrespons es
Ġsusp end
Ġreve als
Ġfront line
Ġinvestig ations
ater ina
Ġcreat or
Ġperiod s
Ġsk in
Ġpoor ly
Ġcomb ine
Ġfocus ing
ĠBr ando
On ly
ĠSpe ed
Ġdescrib e
Ġunve ils
ribut ed
Ġcolle ague
opp ins
ĠTe am
Ġrival ry
Ġdraw ing
ane ously
Ġprem ises
Ġkill er
ĠCan nes
sp yware
ĠTre vor
ĠTom linson
ĠGreen e
Ġconsult ancy
Ġvar iant
na pped
aut ou
aut hor
Ġnation als
ĠGra ce
Ar gent
Ġful f
Ġsuppl ier
ĠFore st
ĠMa ur
ĠSoc ial
Ġprison ers
ĠQu inn
Ġcelebr ate
Ġfort un
cont in
cont rol
cont rolled
ĠMurray field
Ġpain ting
Ġhor se
Ġaffect s
ĠCur ry
Ġexam ine
Ġrequest s
Every one
ĠBec ause
Ġcontribut ions
Ġunc lear
Ġtem porary
ĠSant a
ĠGates head
Ġgenuine ly
Ġweap on
ĠInc re
ĠStan ley
Ġconvin cing
Ġut ility
Ġinstit ution
Ġemot ional
Ġcas ual
ĠMen atep
ĠSar ah
Ġsustain able
Ġreact ed
Ġexist ence
Ġinstru ctions
Ġmotor cycle
ĠFull er
Ġclimb ed
Ġpromin ent
Ġprepar ation
Ġarrange ments
Ġpattern s
ĠHeath row
lad imir
ĠCry stal
ĠOpe c
ĠCarol ina
Ġcaf es
ĠSoph os
ĠLj ubic
Ġemphas is
Ġfro zen
Ġconsolid ation
ĠWool f
Ġprototy pe
Ġsymb ol
Card iff
Ġphenomen on
ĠHist ory
Ġpostp oned
Christ mas
End ers
Lear y
ĠYorks hire
Ġunha ppy
repre ne
ĠTzek os
ĠLjubic ic
4 3
5 6
6 7
8 6
9 00
? '
A m
A ctor
B iarritz
E F
F our
H al
H ome
L ew
L ike
M ark
O N
P art
R U
R eal
S L
S w
S mith
T C
T ur
U s
] ,
b i
b ut
c os
c ount
d el
e z
f air
g or
g rowing
l s
l ies
l aren
m ade
m arsh
o es
o ch
o vers
p es
p ons
p enter
p sey
r il
Ġt ab
Ġt ale
Ġt ape
Ġt asks
Ġs now
Ġs napped
Ġw ond
Ġc odes
Ġb und
en han
ha ul
Ġf av
is hers
Ġp atch
an im
ing ton
Ġm useum
al ie
al uation
at ures
ic it
le ars
ro at
as ive
as tern
id ays
Ġn inth
om s
Ġg all
Ġre li
Ġre ception
st ed
ĠT own
ĠS A
ĠS ound
ĠS oul
ĠS MS
ĠS underland
ir s
ow ing
ig hed
us ive
ĠI ce
ĠI ron
ur ance
ll ers
ad er
ĠC A
ĠC es
ĠC old
ĠC ape
ĠC BI
Ġhe ight
Ġwh ite
Ġwh olesale
un ting
ĠH ad
ĠH ogg
se eded
Ġcon vert
Ġde ploy
ĠL yn
ment ie
ĠP a
ĠP ac
ĠP erry
ĠP oppins
ew ork
ĠF ogg
ĠR ain
ĠR oll
ĠR ound
ĠR ef
ĠW omen
Ġpl astic
Ġnot eb
if a
if orm
ab e
Ġv ocal
os es
ĠJ ournal
em e
em p
ra f
ĠO cean
od ge
ie ira
ud es
qu ake
qu arter
Ġcha rities
Ġup coming
Ġout s
Ġout rage
Ġpe g
ure ly
ine z
con s
ĠK now
ĠK erry
ĠK lu
ĠK aterina
Ġcont ribute
Ġcan n
Ġun expected
Ġun iform
Ġrec k
ree k
ail ed
ĠSt efan
ft hans
Ġqu e
Ġinter pret
Ġsc ope
Ġsc rap
Ġdis ad
Ġch unk
Ġacc us
Ġk it
Ġk id
Ġind ec
ĠBl ake
ĠV ik
ĠV ladimir
ĠY achvili
Ġany way
Ġany more
ell i
Ġper ception
ĠCh or
ĠCh ile
ĠCh oice
Ġbet s
ec hes
Ġspe eches
Ġgame play
Ġdes erves
Ġcomm od
Ġpo ol
Ġtechn ically
Ġtechn iques
Ġdef ined
Ġco vers
Ġweek ly
Ġ6 8
Ġ6 00
Ġ5 9
ĠFr anc
har ds
Ġfe ared
Ġreg iments
Ġstr ange
Ġinvest ing
Ġevery day
Ġlong est
Ġac adem
ĠLe h
Ġpres ents
Ġpoint ing
Ġfore ns
sc ale
Ġcompet itions
Ġem br
Ġdisc s
Ġdisc overy
ĠRe id
ĠDem psey
Ġresult ed
Ġfar m
Ġ8 4
let cher
Ġgu ess
Ġstrong est
Ġstud ies
over ed
Ġsuggest ion
Ġturn out
Ġexp enses
Ġview er
Ġimm igrants
Ġvis its
ential s
Ġrest ore
ĠCar penter
Ġche st
ĠBe z
ĠBe kele
Ġest ate
ran os
Ġcoach ing
Ġprocess es
Ġstop ping
Ġemploy ed
Ġ198 1
Ġglob e
Ġran ks
arent s
ĠIs land
Ġsqu ab
Ġpriv ile
Ġdr ag
Ġbatt ling
Ġslow ed
ĠĊ ĠĊ
ĠDr agons
Ġaccept able
Ġste pping
Ġeduc ational
ĠWh it
Ġhun g
Ġrepresent ative
Ġactiv ist
ĠRes pond
sh ine
Ġsoon er
Ġdomin ance
ĠJam elia
ĠEl ena
ĠRobert son
ĠRic hards
Ġdi pl
Ġdi verse
Ġ197 3
Ġmot ion
Ġdeath s
angu age
Ġdeter ior
Ġfield s
umb ia
ĠEn ron
ĠMot ion
ĠGeor gia
Ġocc urred
Ġcrow ds
Ġconst ant
Ġphot ograp
ĠiPod s
UK IP
Ġstraight forward
Ġcirc ulating
Ġanim al
Ġanim ation
Ġnegoti ate
Ġspecific ations
Ġprint ed
ĠMcC laren
ij ack
Ġdefin ition
augh t
Ġacqu ire
Ġill ness
ĠSer ge
Ġir rit
athe w
Ġautom atic
Ġjoint ly
ĠPri ze
ĠEconom ics
Ġconstitution al
Ġdeterm ine
Ġcitizens hip
Ġsurf ers
ĠPer haps
Ġteen ager
Ġincident s
Ġintellig ent
Ġsucceed ed
Ġexpand ing
Ġconcent rate
Ġregard ed
Ġexplo ited
Ġcat alogue
ĠDun ne
Ġdistribut ed
Ġdistribut ing
Ġaw a
Ġrapid ly
ĠME Ps
Ġmount ain
ĠAT P
Ġincred ibly
ĠGar cia
sha dow
Ġdesper ately
ĠTechn ology
ĠGib son
pres ent
ĠNat alie
Pro f
Ġrad ical
ĠJan et
Ġbrok er
Ġpurchas ed
Ġpig s
ĠProdu cers
Ġcomprom ise
fe it
ĠMand elson
ĠRel iance
Ġexplos ion
Ġlicens ed
Austral ian
ĠBag hdad
Ġacclaim ed
Ġcounterpart s
Ġcy ber
Ġpersist ent
ĠHend rix
ĠGun ners
Ġresc ue
Ġinher it
Ġgreet ed
ĠToy ota
ĠRw anda
Ġreluct ant
Ġmarri age
Ġvolunt ary
Ġconsequ ences
ĠPom pey
ĠGP RS
Ġjour ney
Mun ster
ĠBj orn
Ġvide os
lov ak
ĠMichal ak
Ġterrest rial
Argent ina
enhan cing
mentie va
fthans a
% )
1 80
5 4
7 7
? ?
A b
A d
B ath
B udget
C D
D ou
D igital
E l
F irst
I r
L iber
M ay
M Ps
N G
O scar
S inger
S wan
V o
W ar
W ill
c ore
e ering
f old
g ment
g ian
h i
i ams
j o
k ed
k ina
m ust
m ant
m orrow
s or
s ie
t or
t ogether
u ar
v o
v ille
w ild
w orld
y ard
z ie
Ġt ur
he ro
he ll
he art
in ord
er al
on so
Ġs am
Ġs cept
Ġs ky
Ġs idel
re k
Ġw rist
Ġc ited
or o
or an
or ous
or ious
Ġb urn
Ġf its
Ġf ract
Ġf oul
ed e
Ġp ipe
Ġto pping
Ġto morrow
Ġin du
Ġin approp
ar re
ar ers
Ġm ill
Ġm ine
Ġm outh
Ġm ental
at eng
Ġd uet
ro oy
as ma
Ġha iled
Ġbe autiful
Ġn ick
Ġg lo
Ġg ift
Ġg rip
Ġg ifts
Ġre ap
Ġre ins
Ġl ure
Ġe ve
Ġe lim
ĠT ar
ĠM i
ĠM ys
ĠM athew
ĠB ir
ĠB ri
ĠB ear
ĠB ourn
ĠS ad
ĠS yl
am ents
ig a
im o
im p
im on
ĠA pp
ĠI m
ur se
ur ich
ur ban
Ġsa fer
ĠC e
ĠC ock
ĠC SA
ĠC unning
ĠC lijsters
Ġhe ll
Ġst im
Ġst ere
Ġst unning
Ġst agn
Ġr aced
Ġr ushed
Ġas pir
ĠH aw
Ġpro ves
Ġcon cl
Ġde let
ĠL en
ĠL em
ĠL ud
ĠL ock
ĠD ame
ac ens
Ġse al
Ġse am
Ġse af
Ġmo ck
ment al
ĠP ent
ĠP ack
ĠP oint
ĠP ho
ĠP VR
ĠE ri
ĠE ternal
ĠE minem
ĠF e
ĠF ollowing
ĠF riends
ĠR oc
ĠR ip
ĠR ose
ĠR io
ĠR ena
ag in
ĠG iven
Ġpl ug
Ġpl ants
Ġex pense
if fer
ist el
os ition
ĠJ ur
ĠJ ak
ĠJ ane
ĠN istel
el le
em an
ĠO k
ĠO pt
ĠO spreys
Ġcomp oser
nt on
Ġsu ing
oc a
Ġout lined
ĠK as
ĠK ie
ĠK ostas
Ġun ne
Ġun ified
Ġun aware
Ġun iversities
ub e
Ġinc lus
ĠSt ur
ite ment
ĠHe y
per form
Ġres erve
ult aneously
Ġpre dec
Ġsc ared
Ġdis g
ick ing
ach i
ict ions
Ġ19 50
Ġpr ide
ĠV ery
ĠV ieira
ink x
ink ing
Ġjust ified
Ġatt ributed
It s
vi et
Ġprodu ces
Ġunder lying
ting ham
ĠDe e
ĠDe mentieva
Ġbl ood
Ġ6 6
ars hall
Ġreg ain
Ġchar ging
ween ey
Ġsl ip
ull s
Ġhand ing
Ġhand ful
Ġser ial
com pet
ph ones
ĠAl munia
Ġent reprene
Ġ7 9
Ġdevelop er
Ġappe als
Ġappe aled
Ġcompet itiveness
Ġem pty
ath y
ier ry
Ġsm oke
Ġperform ers
ĠDav os
ster dam
Ġhard est
Ġreal istic
Ġ20 12
Ġrel ation
ĠSe a
ĠSe an
Ġaut hent
Ġchild care
Ġed ged
Ġcre w
Ġinst ant
Ġexper iment
Ġtrans mission
ci ent
ĠMon t
ĠMar ion
Ġpass words
ĠRob son
Ġcol ours
Ġpost s
Ġpost al
ĠAust ria
Ġshort ages
Ġfinanc ing
Ġexpl ore
Ġexpl oration
Ġdep th
Ġdep ending
Ġcop ying
Ġfree ly
aw a
Ġtarget ing
ĠZ urich
Ġinvol ves
Ġdist inct
Ġtrad ers
Ġdro ve
ĠGo gh
Ġthreat en
Ġpat ient
Ġmet al
Ġ198 2
Ġlo oph
Ġtour ists
ĠKen ya
Ġstri pped
Ġport al
Ġthough ts
Ġblog ger
for mer
ĠAm sterdam
aff ected
Ġur gent
ĠMac intosh
Ġsure ly
Ġoppos ite
Ġste ady
Ġinvestig ated
go al
ĠMart inez
ĠMan ager
Ġannounce ments
Ġrepresent ation
ĠSh rek
Ġlif etime
ĠEast Enders
sh ow
Ġbar red
Ġland ing
ĠJam ieson
ĠSpe ars
Ġmer ged
Ġlab or
yn am
Ġemb ark
An other
ĠPol and
reg ular
Ġkind s
Ġinsur er
ĠKing dom
Ġinflu enced
ĠSch oles
Ġviol ent
Ġvol ume
Com p
ĠKe ith
Ġpromot ion
Ġpromot ional
ĠNet craft
Ġspecific ally
Ġrespond ents
de ep
spe aking
Ġsuppl iers
Ġlik ed
odg ers
uild ing
Ġfort une
Ġprosecut ed
Ġsn ap
Ġsex ual
Ġinteg ral
ĠGlob es
Ġprior ities
Ġz ero
Ġuns uccess
abs olute
ĠDou g
ĠVal ve
Ġsurv ival
bl ack
Ġprofess or
ĠCE A
ĠVi ew
ĠVi otti
ĠVi acom
Ġexpand ed
Ġpatent ing
ĠSun shine
Ġconcent rating
Ġmeg abits
Ġpun ished
ĠStud ies
Ġbrief ly
Ġfrust ration
Ġfrust rating
Ġdraft ed
ĠBrother s
ĠGall oway
Ġbench mark
Ġsubstant ially
eter an
ĠIran ian
ĠLuc as
Ġprinc ipal
Ġimag ine
ĠInvest ors
Ġbul k
Ġrub ber
Ġaccom pl
Ġaccom panied
Ger many
Ġsomew hat
Ġcas inos
Ġexer c
Ġchair s
Ġarch ite
ĠClint on
Ġflaw s
fortun ate
Ġvo ices
Hol mes
Ġgrad ually
Ġel ite
ĠSm all
ĠEs sex
Ġvill age
ĠVictor ia
rele ased
ĠFight star
ĠBlog lines
Ġfrequ ently
ĠArab ia
Ġexclus ive
ĠFinn ish
gener ation
ĠTurn er
ĠSum mer
Ġnumer ous
ĠChristop her
ĠTig ers
ĠHear ts
Ġrecyc ling
Ġadvoc ates
Ġtransp arent
ĠBroadcast ing
Ġbon us
Ġgang s
ĠFerr ero
Ġincent ives
Ġperman ent
Ġfixt ure
Ġtoler ance
Ġdeg ree
ĠSus an
Ġcaution ed
Ġstrengthe ned
ĠFam ily
Ġunderm ine
Ġrom antic
ĠAnton io
Ġfranch ise
Ġly rics
ĠNation wide
ĠConstitution al
Ġcondem ned
nest y
Ġincom pat
ĠIncred ibles
oqu y
ĠMerr ill
ĠBog d
ĠShank lin
Ġunbeat en
ĠSpot less
Ġforens ic
Swan sea
inord oquy
ĠMys kina
ĠNistel rooy
Ġunne cess
Ġlooph oles
, '
B ig
C ast
D uring
F ive
G ames
G reen
G uard
H arden
I raq
J ones
K ast
M L
M P
M o
P er
P olit
R C
R es
S Os
T e
T ories
U lster
U lt
V i
a uty
a ude
b en
b ank
b irds
c ies
c ourt
d i
d ep
f ol
f are
f ather
j e
k in
l isted
m ary
n ie
o ann
r ban
s es
t itled
u j
u zz
w as
w ent
w ives
w atch
y al
y les
z man
Ġ ,
Ġt ag
Ġt ens
Ġt ired
Ġt aste
he im
on ographic
Ġs in
Ġs ick
Ġw r
Ġc ig
Ġc ables
Ġb ust
Ġb rave
en us
en ix
it om
Ġf ate
Ġf are
Ġf ame
Ġf uss
Ġf illed
Ġf ictional
is a
Ġp ha
Ġp ound
an ovic
Ġto ll
Ġin e
ar ian
Ġm us
Ġm iles
al ks
at ab
Ġd oss
le um
ro vision
as hes
id o
id is
Ġn ostal
Ġg ri
Ġre op
Ġre ign
Ġre verse
st ood
Ġe ased
Ġe ating
Ġe ager
ĠT U
ĠT ai
ĠT autou
ĠM ol
ĠM ans
ĠM ult
ĠM uk
Ġfor cing
ĠB rom
ĠB ever
ĠB uck
ĠB udd
ĠB usted
Ġh oles
Ġh undred
Ġh ijack
ĠS in
ĠS vet
ĠS weeney
ir van
am ax
ce l
ĠA k
ĠA er
Ġsa ves
ill ance
ĠC inem
Ġst roke
Ġth us
Ġr and
est ers
Ġas pect
ĠH our
ĠH em
ĠH ung
ĠH unt
ĠH igher
Ġde pos
ĠL A
ĠD T
ĠD et
ĠD ig
ĠD ie
ĠD ome
ĠD ance
ĠD ennis
Ġse ize
ĠP ret
ĠP ayne
ĠE mp
ĠE SP
ĠE astern
ul es
ul ent
ĠF at
ĠF ather
ĠF SA
ĠF letcher
ĠR ac
ĠW ay
ĠW ors
ĠG ay
ĠG irl
ĠG hos
our age
Ġpl un
Ġpl asma
ĠU nd
res ident
if ting
ab ian
Ġv end
Ġv ary
ess a
ess ional
ast on
ĠJ u
ĠJ en
ĠN eg
ĠN ees
ĠN EC
el ine
el ena
ra ising
ĠO bs
Ġsh out
Ġcomp liance
Ġcha os
ak s
Ġj et
Ġj ourn
Ġag rees
ok en
ap man
Ġout right
con f
Ġsp are
Ġcan cer
Ġun re
Ġun chang
Ġdo zen
Ġover shadow
ile ver
ire ctor
Ġint im
Ġrec ip
Ġtr il
ĠSt op
per ate
ace ut
Ġres ume
Ġacc omm
Ġgovern ance
ep ar
Ġmon opoly
ĠY app
Ġdec ider
itt e
ond a
Ġset back
Ġcons c
Ġro t
Ġro yal
ec ause
Ġman oe
We b
ĠTh under
ĠTh ierry
Ġshe er
Ġshould er
Ġcomm itting
Ġpo le
Ġpo ised
ĠNew ton
ĠDe chy
ĠAnd ers
Ġdef ensive
Ġimp et
Ġimp rison
ĠFr aser
te am
Ġact ual
Ġbo ards
Ġconf ront
uss ia
Ġleg acy
ale y
com fort
ph ies
Ġdon ated
ĠAl ban
Ġpres um
Ġter rible
Ġins ult
ĠSp end
Ġcr imes
sc reen
Ġoper ated
Ġmeet s
ath lon
ĠAn il
ĠAn ne
Ġref using
Ġext rem
Ġext ensive
Ġsim ultaneously
pos es
Ġbre ached
Ġinf ection
ov o
Ġsuccess es
Ġ8 3
ĠMc B
Ġcare ers
Ġcent red
Th rough
Th ousands
Ġinj unction
Ġhold ers
Ġfail ures
ĠShe arer
Ġdri ver
Ġclear ance
Ġcer t
Ġban ning
ĠCha vez
Ġsub stitute
ĠMar vel
ĠMar io
Ġev ol
Ġev olution
Ġev iction
Ġadm it
Ġadm ission
Ġappro ve
Ġart istic
Ġlow s
Ġrest ate
Ġeas tern
ĠBe attie
Ġconsider ation
ran ny
Ġsum mary
Ġdesign er
Ġemploy er
ĠX str
Ġcred ibility
ĠBo ateng
ĠGr ay
Ġca pped
Ġsw ing
asing ly
Ġport fol
ĠOff ic
Ġsurve illance
Ġspecial ly
Ġbenef iting
Ġur ge
ĠMac rovision
Ġsit uations
Ġfront man
ĠPh onographic
Ġachie ving
ĠSte el
Ġbit ter
dow u
Ġrev amp
Ġsk ill
alk ing
Ġcomb ines
Ġdefe ats
ĠWith in
sh ore
Ġclass es
Ġclass ics
ĠOr chestra
ĠSo viet
Ġpur poses
of rio
ĠRo ch
Ġ197 4
Ġ197 9
Ġcerem onies
ĠSup reme
Ġspot ted
ĠWar ren
Ġemb race
ĠEn vironment
Ġrespect ed
Ġprevent ed
Ġprevent ing
ĠEar ly
Ġbrand ing
ĠNe ither
Ġviol ations
ĠCol umbia
Ġbrow se
ĠDi aries
ĠPort able
ĠNet work
ĠNet works
ĠMag ic
ĠMag azine
ĠMag nier
200 5
ĠGra eme
ĠTele vision
ĠBel marsh
ĠTra vel
Ġspread ing
lan a
ĠJust in
Ġattend ance
Ġbur gl
Ġsuppl ied
Ġfant asy
Ġtro phies
ĠJose ph
Ġir regular
Ġroad s
Ġcelebr ated
Ġfort night
Ġsubst ance
ĠMel zer
Ġrepe at
Ġassist ance
Ġfire wall
ĠDon ofrio
Ġz omb
prof it
ĠJul ie
ĠJul ia
Ġindustrial ised
Ġsurv ived
Ġexam ining
Ġprefer red
Ġ196 9
Ġswe ep
Ġcontribut ed
ĠPre vious
Ġguarant eed
Ġmotiv ation
Cons ervative
olic ited
ĠDen is
ĠDen mark
Ph il
Ġpersu aded
place ments
Ġver ge
ga e
Ġdisappe ared
bish op
Sp ain
Ġimplement ation
Ġflaw ed
do ing
Ġpodcast ing
ĠBoy d
ĠDJ s
ĠOver all
terror ism
ĠCont in
pres ident
Ġdivid end
ĠIR B
ĠRon an
ĠBelg ium
De utsche
Ġbond s
ĠWol ves
ĠGreg ory
Ġhopeful s
Char les
Rob inson
Ġfix es
Ġtown s
Ġcompat riot
Ġtaxpay er
ĠSev ens
ĠSev ille
Ġsubsequ ently
Ġcell s
Ġreward ed
ĠTha i
ĠWalk er
wel ve
ĠLes lie
ĠKn apman
Ġteleph ony
Ġgrab bed
produ ction
Ġnavig ate
cut ting
ĠPict ures
Ġtrigger ed
Ġinternation ally
Ġinternation als
Ġrepay ments
Ġproced ures
harm aceut
ĠAdv ance
Ġnic he
ĠDian a
ĠConn ors
ĠTit an
Ġcompar ison
ĠCla xton
Ġentertain ing
Ġthor oughly
Ġproceed ings
Ġringt ones
Intern et
Ġoverturn ed
ĠIc ann
Ġconven ient
ĠGor ges
Ġresident s
Ġimmers ive
Ġartific ial
Ġprivat isation
Ġmegapix el
Chan cellor
Ġfram ework
Ġecho ed
ĠStre ets
ĠStam ford
OR PG
ĠSaul nier
Ġcong rat
ĠFil ms
ĠMcMan us
Ġswift ly
Ġirres pons
Ġliqu id
ĠAA As
ĠPel ous
ĠFern ando
Ġneigh bour
ĠBaron ess
Pol ice
Ġelig ible
Ġintellect ual
Lew is
Ġnoteb ook
ĠVik tor
ĠLeh mann
Ir ish
Ġscept ical
Ġpipe line
ĠCunning ham
ĠPho enix
ĠKas abian
Ġinclus ion
Harden ne
ĠESP N
ĠWors ley
ĠGhos n
Ġjourn als
Ġunchang ed
Ġaccomm od
Ġmanoe uv
ĠXstr ata
4 9
5 8
7 1
7 4
A F
A nt
B A
B O
B ri
B oston
C an
C al
D B
D an
D own
E R
E n
E conom
F J
F in
F ree
G iven
G reek
I C
M A
M ourinho
M oya
R ay
S ales
T ele
T oday
U V
V eteran
W enger
W omen
a ed
a igue
b oks
c ro
c ury
c lear
d ers
d istance
f ire
f unction
i est
k om
l ist
l ogs
l anguage
m ut
m ake
m ans
m und
m ru
n ation
n ival
o id
r ack
r ical
s ceptic
t ot
t ra
t aking
u i
u ous
u ated
u ley
v ia
w ind
x a
y e
Ġ ing
Ġt ies
Ġt el
Ġt ip
Ġt ips
Ġa ired
in er
in ent
in bay
er by
Ġthe ory
on ge
Ġs un
Ġs ights
Ġw oo
Ġc e
Ġc ord
or ary
Ġb om
Ġb ub
Ġb ass
Ġb arely
it udes
Ġf at
Ġf et
Ġf urn
Ġf oster
es y
Ġp ile
Ġp ose
Ġp ause
Ġp ath
ar ound
Ġm ir
Ġm ould
Ġm ap
Ġm ile
Ġm yst
Ġm igrants
at ings
Ġd atab
ic us
ic ians
ic ero
ic cia
ro ck
il ise
il ateral
id d
id an
Ġn urs
Ġn erve
Ġg rit
Ġg rid
Ġre wards
Ġre aches
Ġre think
st ate
st ruct
Ġl i
Ġl ied
Ġl ender
Ġl ira
ĠT anz
ĠT otal
ĠT error
ĠM end
ĠM em
ĠM uch
ĠM ajor
Ġfor wards
ĠB as
ĠB AA
ĠB PI
ĠB illy
ly de
Ġh o
Ġh ike
Ġh ott
ot ed
ĠS ig
ĠS ud
ĠS old
ĠS BC
ĠS everal
ir ac
ir lf
ow ler
am ous
ig ures
im a
im ental
us en
ĠA llen
ĠA BN
Ġsa ke
ad o
ĠC op
ĠC arter
ĠC icero
Ġhe at
ch oice
ter day
Ġr all
Ġr ang
Ġr oughly
ĠH o
ĠH on
ĠH ack
ĠH old
ĠH aving
ĠH utt
op les
ol ly
se ason
Ġpro long
Ġcon cess
Ġde em
ĠL ion
ĠL ater
ĠD re
ĠD ort
ĠD ust
ĠD all
ĠD ai
ĠD EC
Ġse asons
ment ed
ĠP R
ĠP in
ĠP ow
ĠP erson
ĠP ier
ĠP aper
ul ations
ĠF el
ĠF ans
ĠF orm
ĠF enice
ĠR ou
ĠR aj
ĠR eds
ĠR iver
ĠR odgers
ĠW als
ĠW here
ĠW TA
ĠG ian
Ġal be
ear ing
th ur
th orpe
ĠU ntil
Ġnot es
um es
Ġex empt
if le
art a
Ġv ac
Ġv acc
The n
ast s
ĠJ uan
ĠN a
ĠN ik
Ġ- -
od er
Ġle aked
Ġsh ots
nt y
Ġsu its
ber y
Ġus age
Ġout we
ial s
ost ers
Ġne at
Ġte et
Ġplay back
Ġoff line
Ġoff side
Ġsp o
cc an
ĠK o
ĠK um
ĠK any
ĠK ash
Ġcont rary
Ġun l
Ġun fortunately
Ġun author
Ġover c
Ġover look
Ġover haul
und ee
ail ly
ail house
ĠUS B
erv al
ne ct
Ġinter ven
Ġinter val
Ġres erv
Ġres isted
Ġres pects
Ġpre jud
Ġsc oop
Ġdis rupt
ĠIn it
ĠIn bev
Ġacc ol
Ġk ron
ick ed
Ġmin ds
Ġen velop
Ġadd iction
Ġ3 000
Ġ19 48
Ġpr ince
Ġpr iced
ĠBl inkx
li hood
ĠY es
Ġdec lining
Ġper former
Ġar ray
itt al
ĠCh ronic
ĠCh irac
Ġbet ray
Ġno ise
Ġmarket ed
Ġph r
Ġdes p
Ġunder ground
Ġtechn ique
ib re
Ġpubl ishers
ĠDe ath
ĠDe ccan
Ġdef ine
ures mo
Ġbl ocks
Ġbu ck
Ġbu ys
Ġ6 3
Ġ5 12
te ction
ĠSc r
ĠUn ison
Ġcur few
Ġreg ret
hip hop
Ġrun way
Ġ10 2
Ġsl ice
Ġsl ogan
Ġwar ns
ĠAr bitration
Ġconf usion
Ġbr anch
Ġleg s
Ġgener ous
Ġgener ating
Ġcontin ent
Ġ7 6
Ġ7 00
Ġfore ver
Ġmove ments
In vest
ang t
ĠAn ast
Ġprov ince
Ġsm ooth
Ġchief s
ĠCl uley
Ġfl our
att led
ĠRe port
ĠRe yes
ĠMP AA
Ġrel ig
Ġrel oc
ov ie
ĠSe cond
Ġformer ly
Ġgu y
Ġcrit eria
ĠPar amount
Ġed ition
Ġra ids
Ġhalf way
ĠShe ll
Ġass ume
Ġturn around
Ġclear ing
Ġtrans action
lse where
nes en
ĠMar r
Ġ9 2
rat ic
Ġbook makers
Ġappro vals
app er
be y
Ġprot ocol
Ġexc itement
ĠNews night
Ġsold iers
Ġmen u
Ġdist ract
Ġyoung est
Ġyoung sters
Ġenter prise
Ġqual ifier
Ġ198 6
ĠPro t
ĠPro secutors
cl osed
Ġens ures
Ġsw apped
Ġjud icial
Ġclos est
ps ons
Ġlo ved
Ġeng aging
Ġeng aged
ald er
ĠLiber t
Ġmid night
ĠSim s
ĠSim psons
Ġhealth care
Ġsurve ys
Ġelect ro
ĠAd min
cha nt
ĠAm icus
Ġrespons ibilities
ĠPr in
ĠPr im
Ġsusp icious
Ġsit com
ĠTr ain
put ers
Ġsol o
back s
odd le
Ġsell s
Ġpoll ing
Ġty ranny
ĠMan n
ĠAng ola
Ġmanufact urer
Ġbar riers
ĠCo ast
Ġcompl ac
ĠSl ams
ĠSl once
Ġprofit ability
ĠHen in
Ġdomin ant
ĠBill board
ĠEl ton
Ġreject s
Ġabs ent
Ġes cap
Ġop ener
Ġdi pped
Ġdiv or
Ġreview ed
Ġmer its
Ġpir ates
Ġcaptain cy
ĠSup rnova
Ġsend s
pro t
ung le
Ġcommercial ly
Ġident ification
Ġreflect ing
Ġcontest ant
Ġcirc uit
Ġviol ated
ĠKe anu
Ġtouch line
Ġhous es
zz y
ĠMy ers
ĠPat rol
Ġadvert ise
Ġprint ing
ĠTele kom
Ġwalk ing
Ġcal m
ij i
Ġrefer red
ades h
Ġrecover ing
Ġcitiz en
Ġacqu ired
Ġhot els
ĠNot tingham
Ġroom s
Ġlic ences
Ġrout es
Ġprosecut or
Ġprosecut ions
Ġshoot er
Ġliber ty
Ġrequire ment
ĠBern ie
ĠBern abe
Ġuns olicited
Ġdemonst rate
Ġund oub
ĠSid oli
Ġbi omet
Ġbi ography
Ġrank ing
ĠWall ace
ino hiphop
ĠJul ian
ĠRec ord
Ġsurv ive
Ġsurv iv
Ġexam ples
Ġteen agers
ĠAndre a
ĠBet ween
Ġrequest ed
Ġhal ted
ĠCy mru
ĠBroad band
Ġtact ic
ici ary
person al
ĠWal ter
ĠYoung er
ĠDel aigue
Ġvirt ually
Ġconvers ation
ĠComp anies
hand ed
Ġcollect ing
Ġer ror
Ġhum our
ordin ate
Ġcapt ure
Ġcrack down
ĠFred die
ĠRome o
Ġcart oon
Ġscra pping
ĠHans ard
Wh ilst
ĠLu is
ĠLu fthansa
ĠPan iccia
Ġimplement ed
ĠCast le
ĠPl aid
ĠCountry side
ĠJay nes
Ġnarrow ly
ĠVar iety
Ġtoug hest
ĠON GC
ĠKap ranos
ĠHit ler
Ġcompat ible
Ġadjust ed
Ġclick ing
Ġdiscl osure
ĠHa iley
ĠKir wan
Ġunp aid
Ġpurchas es
bro kes
ĠRoman ia
ĠJosh ua
Ġteach ing
Ġtun nel
Ġlength y
ĠPict ure
Ġportray al
Camp bell
Ġmarg inal
Ġmarg ins
friend ly
Ġreass ure
ĠPass ion
ĠNT L
Ġagric ulture
Ġscient ists
Ġtransform ed
Ġtariff s
big gest
Ġax ed
Ġdow nt
ĠSher idan
ĠNich olas
Ġspons orship
Ġpsych ological
Ang els
Ġwed ding
Ġsurpass ed
Ġbureauc racy
ĠHaz ell
Ġcontem porary
ĠYann ick
ĠBarb ara
Ġfinger print
Ġstero id
Ġshel ves
Ġbrid ge
Ġinevit able
ĠCurt is
ĠTob acco
Ġindefin itely
Ġcoff ee
Ġdepri ved
Ġfox es
ĠMald ives
ĠBox ing
ĠFut ure
Ġnewcom er
Ġvariant s
Ġfortun ate
Tur key
Ġtab lo
ĠLyn ch
Ġcommod ity
lovak ia
Ġsidel ined
Ġinapprop riate
Ġglo om
ĠPent agon
iffer ent
Ġlabor atory
deep ly
ĠBogd anovic
Ġunnecess ary
Ġpha se
Ġdoss ier
Ġnostal gia
ĠSvet lana
ĠEmp ire
ĠNees on
Ġtril ogy
Ġportfol io
inbay eva
Ġhott est
ĠDort mund
Ġalbe it
ĠKany e
ĠSlonce k
ĠBernabe u
Ġundoub ted
inohiphop radio
' ."
0 4
5 7
6 9
8 8
? ,
A ir
B en
B ill
C allaghan
F ar
F ore
H ouse
I MF
J ust
K ings
M ike
N ort
O il
O ld
S l
S chool
S earch
T F
T im
V er
W as
c re
d raft
f it
f olk
g ate
g ame
g ram
g rave
h on
h uge
i verse
i encing
m ical
o ley
p y
p op
p ower
p aid
r b
r ac
w on
y man
z ies
z ens
Ġ umb
Ġt ension
Ġt umbled
Ġa ver
he it
he ed
in ally
in ning
er rou
Ġs idelines
re hens
re holders
Ġw re
Ġw ishes
Ġc ab
Ġc raz
Ġc ement
or a
Ġb iz
Ġb lew
ha i
ha lie
Ġf asc
Ġf eta
is ms
is ons
Ġp al
Ġp ays
Ġp ock
Ġp ix
Ġp oured
Ġp uls
an ia
ar am
ar ri
ar ry
ar io
Ġm ad
Ġd od
Ġd ict
id amb
Ġn uis
om enal
om atic
Ġg ay
Ġre nd
Ġre hab
st op
Ġl ined
ĠT en
ĠT ake
ĠT CI
ĠT welve
ĠM ust
ĠM ond
ĠM ull
ĠM ats
et ry
ĠB ou
ĠB at
ĠB ad
ĠB ab
ĠB art
ĠB ets
ĠB orth
ĠB attle
Ġh ub
Ġh ors
ĠS ay
ĠS ham
ir ates
Ġis ol
am ers
ce h
ĠA M
ĠA bs
ĠA hold
ĠA ctors
ĠA xa
ĠA ceh
ĠI mm
ĠI oann
ur ate
ur ry
ad or
ad ers
ill ers
ĠC ant
ĠC ob
ĠC ustom
ĠC redit
Ġst ir
ch ief
Ġth in
Ġth umb
Ġth wart
Ġan alogue
Ġan onymous
Ġr amp
Ġas ks
Ġas semb
ĠH an
ĠH ass
ĠH ave
ĠH off
ĠH oddle
Ġcom pe
Ġde eper
ĠL anz
ĠL TA
ĠD ud
ĠD ark
ĠD ix
ĠD uty
ĠD onald
ac s
Ġse ctions
Ġse aled
ĠP as
ĠP itt
ĠP att
ĠP oor
ĠP lus
ĠP ires
ĠE asy
ĠF is
ĠF ame
ĠF ish
ĠF ield
ĠF reed
ĠF ifa
ĠF owler
ĠF oley
ri or
ĠR ush
ĠW ard
ĠW atch
ĠW ireless
ĠG E
ĠG a
ĠG i
ĠG il
ĠG TA
our go
th y
Ġpl ain
ĠU maga
ĠU FJ
Ġex ists
ab b
ist or
ist ically
Ġv ig
ĠJ r
ĠJ ude
ĠJ ordan
ĠJ ailhouse
ĠN I
ĠN on
ĠN elly
end iture
el ka
em outh
ĠO S
ĠO zzy
ant le
Ġle ve
Ġle ct
ud ic
Ġcomp ly
Ġcomp ression
Ġcomp onent
Ġcomp rehens
qu ate
qu endi
nt ree
Ġj azz
ere k
Ġus eless
Ġag ents
ge on
Ġcl ause
og ts
Ġoff enders
Ġsp ree
ĠK in
ĠK od
ĠK ok
Ġcont ender
Ġun b
Ġun av
Ġun named
Ġun anim
Ġover s
Ġso ar
Ġso vere
ous ing
Ġqu art
ne ver
ade quate
Ġpre gn
Ġsc are
Ġdis pos
Ġdis ruption
Ġch ore
Ġch ron
ect ive
Ġlast ed
Ġlast ing
ian ces
Ġgovern or
Ġadd ict
ep pe
Ġback wards
ons ense
ĠV C
ĠV ice
ĠV ote
ĠV ogts
Ġmon itors
Ġdec ides
Ġper mitted
ink i
Ġjust ify
ĠCh idamb
Ġatt ending
Ġatt raction
Ġinv ention
under ing
chn ology
Ġspe akers
olog ies
Ġsup rem
Ġsup por
red ict
we alth
Ġrem ind
Ġ6 1
ĠAs imo
ren heit
Ġbo ot
ĠUn ilever
ars son
Ġright ly
Ġreg gae
Ġ' '
Ġ10 4
ĠAr cher
ĠAr thur
Ġconf ess
Ġconf using
Ġconf ronted
Ġhand led
Ġlat ter
ger ie
com puter
Ġcontro ller
ĠAl ready
Ġhar sh
Ġdeb ates
Ġcap s
ham ed
Ġmed ic
ĠComm unity
Ġdet entions
Ġallow ance
Ġsing ers
Ġplan et
Ġcar ers
ĠAn elka
Ġprov in
ric ia
Ġminister ial
Ġprof ound
Ġfl ags
Ġbre ed
ĠGer hard
ĠMc K
Th ree
Ġexp enditure
Ġexper iencing
Ġtrans ition
Ġview ed
Ġpress ing
ĠCha irman
Ġvis ible
Ġev al
iz mond
rid ges
af l
Ġshort age
ounc ill
Ġbid der
Ġcop ied
erg round
Ġpersonal ity
ĠBe ast
ĠBe gg
Ġorgan ise
enn a
enn on
ĠEx eter
Ġtot alling
Ġdemand ing
ĠBar os
Ġstop s
ĠPro gram
Ġran ch
the y
Ġstre aming
Ġlo op
Ġsqu are
ĠKen yan
Ġredu ctions
ĠOff icial
ĠAm ban
Ġur ging
Ġste er
ĠPet e
ĠPet r
Ġru ck
Ġhon orary
Ġindivid ually
ĠGu ide
ĠGu errou
Ġmeas ured
Ġage ing
ĠMad onna
Ġbas ically
Ġquick er
Ġmag ic
Ġreven ge
Ġtext ile
Ġtext book
ah renheit
ĠOr der
Ġtack led
Ġfun eral
Ġforecast ing
ai res
mb ian
Ġdram atically
Ġlink ing
Ġabs or
elly n
Ġcolle ctions
Ġdi agn
Ġdiv isions
Ġreview ing
Ġindependent ly
Ġarrest s
Ġmer it
Ġlab elled
Ġspend s
lim ited
Ġgen oc
Ġansw ers
Ġspot light
Ġlack ing
ĠWar craft
umb ai
Ġdecl ar
Ġfr ank
Ġreb ound
ĠTre k
Ġocc ur
12 5
ĠSy mbian
Ġcontest ants
Ġcommon ly
Ġcirc ulation
Ġvol at
ĠNor folk
Ġobs essed
ĠKe y
ĠKe zman
ĠAndrew s
Ġtreat y
Ġanim osity
ĠDan ny
Ġpromot ed
Ġpromot ions
ĠMag gs
200 4
Ġrespond ing
ĠPal mer
Ġgig s
Ġrefer ring
Ġphys ics
Ġbrows ing
spe c
Ġprompt ly
mon t
Ġtransfer red
Ġcounter feit
Ġtend s
Ġlik ened
ĠQu in
ĠSer ies
ĠFar oe
Ġgraph ical
Ġsn aps
Ġlog in
Ġinteg ration
Ġinteg rated
Le inster
ĠOut look
ĠOut Kast
Ġremember ed
Ġsetting s
Ġdemonst ration
Ġdemonst rates
ĠRec ent
ĠVal ent
ĠVal ley
Ġupd ates
ĠMer cury
ĠBet amax
ĠShar p
alys ed
Ġhol idays
ĠDutch man
ĠSwed e
ĠBaft as
ĠMotor cycle
Ġhy pe
Ġconcent rated
ĠIndones ian
Ġconstitu encies
rell a
Ġpet ro
Ġcopyright ed
ĠSant ini
Ġsy mp
ĠSam uel
ĠDun can
Ġvast ly
ĠTurk cell
ĠTurk men
Ġtrave llers
Ġgun s
rig o
ĠNever theless
ĠCub an
Ġcalcul ated
aren cy
Ġimag ination
Ġoblig ations
Ġgather ing
ĠMas i
ĠMas o
Ġthank ed
Ġsecret ly
Ġharm ful
Ġemot ions
ĠOl ly
ĠHor an
Ġtrick y
lew ellyn
asc al
ĠMen zies
Ġclin ched
vant aged
Ġliter ally
ĠDomin ic
ĠDomin ici
ĠGib b
Ġshowc asing
Ġloc ation
ĠSa ab
Ġdivid ends
ĠNat halie
ĠPakistan i
ĠRow ntree
ĠClark son
ĠSil va
Ġ77 7
Ne ill
ĠHel en
Ġsear ches
ĠWalk man
Ġdiscl ose
Ġpromin ence
Ġceleb ration
ĠBon o
ĠBor o
ĠBor ussia
ĠHa as
Ġprepar ations
Ġbrok ers
Ġtransl ated
ĠAbb ott
Ġgirl s
ĠLou is
Ġsan ction
ĠSpring boks
Ġmagn ific
Ġincorpor ated
Austral ia
Ġicon ic
Ġreun ited
Ġexceed ed
Ġblast s
Ġbrew er
Ġembarrass ing
ĠDian e
rec ord
ĠBurn ley
ĠDist rict
ĠFT SE
Ġagric ultural
etail s
ĠEthiop ia
Ġgigaby te
Ġgigaby tes
Ġbackbenc hers
ĠAlf a
Qu est
Ġphotograph s
ĠTi Vo
ĠFactor y
ĠSebast ien
Cur rently
gold en
ĠDur an
ĠPrison er
ĠNest le
ĠSeag rave
Ġtouc hed
Ġmand atory
Ġstruct ures
ĠLad brokes
aink iller
Ġadequ ately
ĠCommon wealth
Ġesc ape
Ġmicro phone
Semit ic
Pl ans
ĠMM ORPG
ĠFre eman
ĠNorm an
ĠNaz i
Ġresur re
Ġtriump hed
ĠSimilar ly
ĠPac ific
Ġaccus ations
Ġindec ency
Ġphotograp hers
Ġelim in
ĠLen ovo
ĠRip Guard
ĠJur gen
oca ust
Ġpredec essor
Ġentreprene ur
Ġincompat ible
je ctions
Ġcig aret
ĠTU C
ĠBever ly
ĠCinem a
esters hire
Ġintim id
ĠThunder birds
Ġimpet us
ĠContin ental
Ġirrespons ible
Bri en
cro ft
oples oft
ĠPow ys
ĠWals h
Ġunauthor ised
Ġreserv ations
Ġscoop ed
Ġdownt urn
Ġumb rella
Ġbiz arre
Ġpock ets
Ġnuis ance
ĠBets en
ĠBorth wick
ĠFreed om
ourgo in
ĠChidamb aram
Ġsuppor ter
izmond o
ĠAmban i
ĠGuerrou j
0 1
3 50
5 1
6 6
9 3
9 5
A O
A g
B o
D C
G adget
G aming
I ran
L O
L ondon
M al
N ext
P R
P re
P resident
R F
R ad
R ock
R apper
S S
S a
S er
S ix
T hank
V B
V ision
V ideo
a a
a u
a ven
a han
a ug
b ain
c m
c as
c ould
c har
d ated
d ef
e or
f in
f our
f act
f alse
f ighting
g as
g om
g ue
g ind
h s
h yth
k er
k ab
k ok
m or
m ay
m od
m are
m ount
m ys
m obile
m atic
o om
p ies
r d
r ir
r ator
r anging
s ized
s uper
t ter
t hat
t ank
u ards
w h
w ould
w ord
w itz
y top
Ġt one
Ġt ied
Ġt att
Ġt ended
Ġt ensions
he ars
in as
in cent
er ver
er ian
er ty
Ġs ou
Ġs ch
Ġs ample
re ach
re te
Ġw are
Ġw ise
Ġc ri
Ġc yn
Ġc ouncill
or ated
Ġb le
Ġb ump
Ġb orders
Ġb inding
en o
en os
ha ck
it ored
Ġf er
Ġf le
Ġf aking
Ġf ren
es h
es i
is ive
is ible
is closed
Ġp ub
Ġp uzz
an ing
Ġto uring
Ġto ured
Ġto uted
Ġin con
Ġin acc
Ġm ild
Ġm erg
Ġm ilk
al le
al band
at ched
Ġd ry
Ġd ying
Ġd angers
Ġd ynam
ro lling
Ġha ir
Ġn ative
om i
om ain
Ġg ro
Ġg est
Ġg ra
Ġg irlf
Ġre el
Ġre vel
Ġre vers
Ġre lied
st ri
st ick
st eps
Ġl unch
ut ter
ut han
Ġe at
ĠT N
ĠT am
ĠT un
ĠT os
ĠT ower
ĠT ron
ĠT sunami
ay a
ĠM is
ĠM all
ĠM use
ĠM umbai
et ite
ĠB P
ĠB i
ĠB ot
ĠB all
ĠB row
ĠB ach
ĠB orn
ĠB Sky
ĠB DO
ĠB uilding
Ġh iring
ĠS ong
ĠS ands
ir i
ir ky
am an
am ond
us iter
ĠA N
ĠA ccess
ĠA AA
ĠI ll
ur ances
ur lock
Ġsa ga
ll ier
ad a
ad s
ill es
ill usion
ĠC at
ĠC her
ĠC ash
ĠC ox
ĠC ech
ĠC ivil
ĠC irc
ĠC owell
ĠC SOs
ĠC usiter
Ġhe ap
Ġhe pt
Ġst ays
Ġth ous
Ġwh is
Ġan t
Ġan cient
Ġr ough
Ġr hyth
Ġas hamed
ĠH ain
ĠH os
ĠH ob
ĠH ills
ĠH utch
ĠH ogan
ĠH appy
ĠH onda
ĠH rb
ol ics
Ġpro hib
Ġcon ce
Ġcon fer
Ġcon vention
Ġde af
ke l
ĠL ight
ĠL anc
ĠL ind
ĠL ady
ĠL ush
ĠL lewellyn
ĠD or
ac he
Ġare na
and y
ĠP ost
ĠP age
ĠP ainkiller
Ġwe ird
pe are
ĠE P
ĠE st
ĠE mer
ĠE FF
ul ing
up id
ĠF le
ĠF inal
ĠF ior
ĠF agin
ĠF ahrenheit
ĠR am
ĠR SA
ĠR uth
ĠG al
ĠG ere
ĠG izmondo
our se
Ġex isted
Ġex ception
if ies
ist a
art ney
ast y
ĠJ es
ĠJ ess
ard y
ĠN ar
ĠN ame
ĠN og
ĠN air
ĠN alband
end ar
em ies
em ark
ĠO b
ĠO w
ĠO EC
ant o
ant on
Ġsh ipped
ack s
ie u
Ġcomp are
qu er
Ġwor ms
Ġsu es
Ġj umper
Ġup held
Ġfir ing
Ġcl ashed
rit ical
Ġoff shore
ĠK ings
ĠK urt
Ġun iversal
row ned
ub stant
pl aced
Ġtr ained
Ġtr ump
Ġtr ains
ĠSt art
ĠSt ade
ob al
ft en
ĠHe in
ĠHe ll
Ġqu itting
ks son
ne g
Ġfin est
Ġpre d
Ġpre view
Ġdis ks
Ġdis illusion
ĠIn side
Ġacc use
Ġen abled
Ġen emies
av a
Ġ3 50
Ġind icate
ĠBl ogg
vel t
li est
ons anto
ĠV io
ĠV enice
Ġmon etary
Ġmon itored
Ġper ceived
Ġar ran
Ġar my
anc ies
anc hes
Ġatt itudes
Ġbet a
Ġinv isible
Ġro lling
Ġro of
Ġro gue
ec ution
amp a
ĠTh ird
under stood
Ġspe aker
Ġph il
Ġunder go
Ġsup reme
Ġear s
Ġdef ences
Ġco operation
Ġimp osing
Ġbl ur
Ġbu g
Ġ6 9
Ġ5 8
Ġgrow s
arch i
Ġhel m
ĠUn like
ug han
Ġsur ged
io v
Ġapp lying
Ġapp etite
Ġreg ained
Ġrecord ings
ĠCom ment
ĠCom mercial
Ġmob ility
Ġsl id
ĠAr nesen
com merce
az e
ĠLe amy
ĠLe vy
ĠAl bert
ĠJo el
Ġhar bour
ĠSp ir
ĠSp urlock
Ġpay out
Ġcour age
Ġcour ses
Ġcompet itor
Ġrele g
els inki
Ġsm ashed
ĠCl ass
Ġfl air
Ġthird s
ĠRe v
ĠRe es
ĠRe ports
Ġ20 15
Ġinf amous
Ġrel ies
Ġrel ative
Ġresult ing
ĠGer ard
Ġfar ms
Ġ8 2
ĠMc N
ĠMc All
ling ton
Ġgu ide
Ġcrit ically
Ġinj ection
ĠPar ad
Ġhold ings
Ġadv ise
ĠShe p
Ġass ured
Ġclear er
ĠCha mber
ten ance
Ġmod em
Ġaccess ed
to o
Ġadm ir
Ġtest im
Ġ9 8
ential ly
eb it
Ġlegal ity
ĠAust rian
Ġshort fall
ĠCon ti
ounc ing
Ġrepl aces
Ġgam er
ĠCar r
ĠCar ry
ĠCar nival
Ġvers us
Ġche micals
Ġdownload able
Ġconsider ably
enn ifer
Ġtot alled
Ġdist ur
Ġtrad ed
Ġtrad emark
Ġaud itors
iet ies
Ġprocess ed
ĠSec ret
Ġweb log
Ġdesign s
ĠItal ians
Ġqual ifications
eg az
Ġfinancial ly
ĠPro tection
Ġpresent ers
ĠGr ac
cl air
Ġsw apping
ĠIs le
ĠIs inbayeva
Ġjud iciary
Ġspec ulated
ĠSha rap
ĠSha kes
Ġagree ing
play ed
ĠEd ge
Ġdoub ling
Ġold est
Ġcritic ise
ĠHar rison
ĠHar inordoquy
Ġequ ipped
Ġfact s
ĠLiber ty
ĠMor quendi
ĠFrench man
ĠAm ro
Ġoppos ing
St and
put ing
rest on
Ġ14 0
Ġaccept ing
Ġtrack ing
Ġtrack ers
back ed
ford shire
Ġsell ers
Ġcreat ivity
Ġwrong doing
Ġrev ive
Ġstock p
Ġilleg itimate
Ġcomb ining
Ġcontrovers ially
sh ould
ĠCo al
Ġcrim inally
Ġworth while
Ġemer gence
Ġcomment ators
Ġsuper hero
Ġdescrib es
ĠPe as
ĠPe oplesoft
uck er
Ġple a
ĠRo vers
Ġ197 8
Ġprote ctions
Ch ief
ĠBa iley
ĠDes perate
ĠDes ailly
ĠHouse wives
Ġregul ate
Ġsort ed
Con t
ann i
Ġcross ed
ĠMill s
ĠMill wall
Ġseed ed
ĠGreen wood
Ġcrow ned
ĠHigh bury
Ġcontest ed
Ġweak ening
Ġbillion aire
ĠSch oll
ĠNe ath
Ġcho osing
Ġattract ing
ĠNor we
With out
ĠMo zilla
Ġtie break
ĠDan ish
ĠPort o
ĠPort man
Al most
ĠMag pies
rop onte
Ġnegoti ated
Ġdisplay ed
ĠBel fast
Ġhighlight s
ĠMcC artney
ĠTra ille
lan elli
Ġrelationship s
ask in
Ġphys ically
atter ed
ĠMa uresmo
Ġclean er
Ġill iter
ĠEver Quest
Ġcelebr ating
Ġcurren cies
Ġsubst ances
Le ish
aud io
Ġaffect ing
arant ino
ĠStand ards
Ġund erval
Ġund isclosed
ĠEdu Vision
Ġdisp utes
ĠVal enc
ĠBal let
Ġprop ag
Ġovert aken
Ġscand als
ĠDef ra
Ġadvis or
ĠBroad way
Ġhy p
ĠMilan esi
ĠBay ern
Ġbomb arded
ĠBur ger
ĠStud ents
Ġrestrict ed
Ġdistribut or
writ ing
rie ve
Ġtrave lled
Ġacknow ledge
Ġver dict
ĠBob by
Ġhum ans
ĠBu enos
bus iness
Ġmount ed
ĠInvest ment
Ġoblig ed
Ġoblig ation
Ġaccom p
Ġshortl ists
Ġcart ridges
igr ant
ĠHans en
Ġconver gence
ĠLis a
Ġacquis itions
Sp am
ĠSk ulls
ĠSar acens
bor ough
Ġpodcast s
Ġbackground s
Ġlegend ary
ĠDar ren
Ġbelief s
Re placements
ĠMun ster
ĠMex ican
Ġinstru ments
Ġestablish ing
ĠWol f
Ġphen omenal
ĠEs s
Ġspect rum
ĠMack lin
Ġyes terday
ĠRyan air
Ġjur ors
Ġunp redict
Ġtransl ates
Ġobject ives
ĠLou ise
Ġsan ctions
Ġpione ers
ĠGriff in
ĠVenezuel an
Ġnavig ation
sl ates
Ġtun ed
ĠBang l
Ġstorm ed
Ġlicens ing
Pr ime
Pr ince
Ġloyal ty
Ġproced ure
ĠFort une
Ġiron ic
ĠBomb ay
ĠHop man
Ġtransp arency
Ġadminist rators
Is rael
ĠEy ed
ĠVa ughan
ĠMichel le
Ġmoder ate
ĠBeat les
ĠFreder ick
Ġappreci ate
bel ief
ĠCos by
Ġsole ly
Ġobtain ed
foot ed
ĠBra very
ĠRu ud
Ġleaf let
ĠAss ault
Ġtemper atures
Sec ure
dig y
ĠMed ical
Ġprecise ly
ĠVo ip
Ġsquee z
ĠAgu as
ĠVis ual
ĠConcer n
Ġdrum mer
Ġsafeg uards
ĠBulgar ia
Ġmere ly
Ġdanc ers
Ġstead ily
ĠLeg al
Ġrestaur ant
ĠBrun o
ĠPortug al
Ġridic ulous
ĠAz kab
Ġdisgu ise
Ġremov al
ĠSpace y
Ġprofession als
Ġfulf il
ĠMaur ice
Ġbund led
Ġgall ery
ĠCold play
ĠRound about
ĠKlu ft
Ġdisad vantaged
Ġsquab bling
Liber al
May be
ĠMi ami
ĠBourn emouth
ĠCock bain
Ġstere oty
Ġdelet ed
Ġseaf arers
ĠEri ksson
ĠRena ult
ĠStur geon
Ġarchite cture
ĠMol ik
ĠHem isphere
ĠDT T
Ġplun ged
ĠUnd erground
ĠNeg roponte
ĠObs erver
epar ately
harmaceut ical
Ġmanoeuv ring
Dan iel
Ġbom bs
Ġbub ble
Ġdatab ase
ĠSig archi
Ġdeem ed
ĠDall as
Ġphr ase
Invest ors
angt ze
Ġbiomet ric
Ġsurviv ors
Was ps
Ġpix els
Ġrehab ilit
ĠIoann idis
ĠLanz one
udic ini
ĠKod ak
Ġflags hip
Ġgenoc ide
ĠGibb ons
Rad cliffe
gind y
rir ick
ytop harm
uthan asia
ĠTron con
ĠBSky B
Ġhept athlon
Ġthous and
ĠHrb aty
ĠFior ina
ĠNalband ian
ĠOEC D
ĠVio xx
ĠMcAll ister
ĠSharap ova
ĠShakes peare
ĠAzkab an
! "
0 6
0 7
2 80
5 50
6 4
6 8
8 50
9 1
9 4
A B
A T
B a
B er
B est
B el
B ob
B eing
B ecause
B ourgoin
C ol
D a
D r
F ox
F erguson
F iat
G DP
H er
H ew
H ere
I A
I F
J ames
L ook
M I
M illions
M obiles
N intendo
O D
O r
P ort
P ier
R I
R ober
S uper
U p
U kraine
W al
W ell
a us
b u
b ia
b oss
b oys
c ards
d ri
d ate
d ays
d ale
d isc
f r
f am
f ound
f ee
g rown
h ome
i ak
i well
j en
j udge
l ow
l ust
m its
m ath
n am
n ew
p m
p ot
p ost
r ant
r ising
s er
s ed
s ens
s chool
s oul
t z
t le
t ry
t ap
t wo
t ough
t aken
u ay
v ation
v ens
w y
w rong
w right
y un
z ab
Ġt ort
Ġt ear
Ġt unes
he red
in ations
in ery
Ġthe at
on i
Ġs at
Ġs its
Ġs ceptic
re ster
re ira
re present
Ġw ard
Ġw ary
Ġw ood
Ġw alls
Ġw oe
Ġc ro
Ġc os
Ġc ens
Ġc ros
Ġc iting
Ġc rop
Ġb es
Ġb ol
Ġb ra
Ġb one
Ġb ru
Ġb its
Ġb ounced
ha ms
it ives
Ġf al
Ġf ab
Ġf ish
Ġf ond
Ġo re
is ure
Ġp ending
an men
Ġto ile
Ġto ward
ing u
ing us
Ġin ad
Ġin ner
Ġin ex
Ġm igration
al ba
at ories
Ġd ress
Ġd amp
Ġd ivers
Ġd ressed
le ase
le ading
ro ot
ro vers
as ure
il ia
il ton
il ising
il era
ion ne
Ġbe ef
Ġbe wild
Ġn ud
Ġn igg
ent less
Ġre iter
Ġre organ
st an
st art
st airs
Ġl ocks
Ġl ighter
ut ory
Ġe Don
Ġe gg
Ġe uthanasia
ĠT s
ĠT ian
ĠT ods
ĠM ell
ĠM ater
ĠM aser
ĠM GM
Ġ" [
ld rum
ĠB ak
ot ic
ot ers
ot ma
ĠS or
ĠS ib
ĠS ho
ĠS earch
ĠS olid
ĠS ometimes
ĠS SL
im ise
us ch
ce y
ĠA ber
ĠA cc
ĠA ires
Ġit em
ĠI mp
ĠI de
ĠI SM
ĠI dowu
ad dy
ĠC all
ĠC are
ĠC ull
ĠC ros
ĠC rist
ĠC raw
ĠC ran
ĠC itiz
ĠC atherine
ĠC roat
Ġhe rit
Ġhe els
Ġst unt
ter y
ith s
ĠThe ft
Ġr ide
est im
un as
un te
ĠH ic
ĠH ide
ĠH ind
ĠH ands
ĠH osp
ĠH undreds
ĠH unting
ĠH elsinki
op oul
ol an
ol and
Ġcom ics
Ġde fer
Ġde lete
ĠL ag
ĠL ear
ĠL ie
ĠL ennon
ĠL ingus
ĠD ru
ĠD ams
ĠD ancing
ĠD Do
ac ro
ac io
and an
ĠP o
ĠP ed
ĠP ap
ĠP PI
ĠP arents
Ġwe ighed
ul f
ul thorpe
ĠF urther
ĠF irm
ĠF iscal
ĠF CC
ĠF urse
ri v
ĠR en
ĠR un
ĠR up
ĠR em
ĠR EM
ĠR SS
ĠR askin
ĠW or
ĠW es
ĠW an
ĠW el
ĠW rit
ĠG is
ĠG rid
ĠG amm
ĠG abri
ĠG ulf
Ġal ar
Ġal ly
Ġal ike
Ġal arm
Ġal together
th reat
ĠU g
ĠU BS
ĠU lt
ĠU MD
Ġnot ices
um ing
if ert
ab it
ab ad
ab ies
ab we
ab ling
ist ical
Ġgo spe
ast han
ast ically
ast rop
ĠJ e
ĠJ ar
ĠN ou
ĠN em
ĠN atural
ĠN irvan
ĠN AO
ust ain
ĠO h
Ġsh ore
Ġsh ocks
Ġsh ipping
Ġsh ifting
Ġcomp ares
so ever
pp led
all one
Ġj e
Ġj ack
Ġj ewell
ry de
ok es
Ġout set
Ġout law
Ġor chestra
Ġcl ocked
Ġcl utch
Ġplay wright
Ġnew est
Ġsp ots
ĠK at
ĠK hat
ĠK ite
ĠK rem
ĠK enny
Ġcont empt
Ġcont rad
Ġall oc
Ġun le
Ġun iverse
Ġover d
Ġso ared
ng r
Ġint ens
pl an
Ġafter math
age o
pt itious
ĠSt ory
ĠSt rict
ĠHe aley
per ts
Ġinter oper
Ġres ource
Ġsc orer
Ġacc um
Ġk il
Ġfil ter
ress ively
ven ue
Ġen emy
Ġen abling
air y
ru it
av vy
Ġind oors
Ġback ers
li han
ĠV ic
ĠV enus
Ġsome how
ell o
Ġatt ached
Ġwhat soever
Ġcons erv
ass y
lud ing
ec k
Ġdown side
Ġman ually
ĠTh ink
ĠTh orpe
oun ce
ced ented
Ġunder p
Ġunder lined
Ġfilm ing
Ġpo etry
Ġkn ife
ĠNew port
ĠDe b
ĠDe acon
Ġdef ect
we ight
Ġco ached
Ġbu ll
Ġ6 7
Ġmat ure
ĠEng agement
Ġact ively
ĠSc ience
har raf
ĠUn it
ĠUn ions
Ġann oy
Ġann ually
oth o
Ġsec urities
Ġsec rets
vent us
ied ad
Ġprogram mers
Ġtop ic
Ġbr ink
Ġgener ic
Ġgener ations
ĠLe ader
ĠInd eed
Ġwhere as
ĠAl ong
ason able
Ġdeal ings
ĠJo han
Ġ7 1
Ġ7 3
Ġdeb ated
ĠSp r
Ġpay outs
Ġcr ashed
aign ede
Ġgreat ly
Ġallow ances
Ġem ail
Ġem issions
rib es
ral tar
ang le
Ġsm ash
Ġfound ation
Ġref uses
ĠCl are
ĠCl ara
ĠRe view
by e
Ġreal istically
Ġ20 11
Ġrel entless
ov ich
ĠSe x
ĠSe ction
ĠSe ek
ĠSe ifert
Ġsuccess or
Ġ8 1
Ġgu ided
ave y
Ġmain tenance
Ġimport ed
Ġchild hood
ific ate
omet er
Ġass urances
ĠAt om
Ġgl it
ĠWill is
Ġpower ed
Ġposs ibilities
load ed
ush otma
ĠCons umers
ĠMar at
ĠMar oon
ĠMar lon
Ġaccess ing
Ġev il
Ġev icted
Ġpass es
Ġpass age
Ġaccount ability
Ġpropos es
eb r
Ġcol umn
ĠChrist os
Ġexpl aining
Ġexpl oring
ĠZ imb
ĠZ amb
ĠCar rag
hor se
Ġche ese
ĠBe ach
Ġproduct ive
Ġconsider able
Ġbreak down
Ġden ying
Ġlet ters
Ġcourt esy
Ġdist ances
Ġdist rict
ĠFor rester
Ġaud it
Ġopt ing
Ġfavour able
Ġgr ant
Ġgr ants
Ġgr asp
ĠAfric ans
Ġlim ped
Ġproject ed
Ġqual ities
Ġqual ification
ern od
Ġ198 8
Ġpresent ation
Ġcred ible
ĠBo fra
ead ing
cl ick
cl aim
cl aude
Ġspec ulate
ĠSha reholders
por arily
roy d
Ġlo ad
Ġsuff ers
Ġcritic ising
ĠHar old
ĠHar vey
Ġport s
Ġequ ities
ĠHol ocaust
Ġdr agged
Ġrequ iring
Ġbenef icial
aff ord
Ġseem ingly
ĠWest life
Ġread er
put ed
top ping
Ġwa res
ĠPh ytopharm
ĠSte am
ruct ive
Ġlive lihood
ĠGu iller
ĠJack ie
ĠBlack ber
off ending
Ġnight s
Ġnight cl
Ġtext ing
Ġtext iles
sh ot
Ġmanufact ured
Ġcompl aining
Ġcompl icated
ĠOr acle
ĠAir port
Ġfun ny
Ġdebut s
uff ed
uff le
vert ently
ĠFin land
ĠCor rig
Ġdomin ates
ĠGrand claude
Ġcou ples
ĠBro ok
SE C
ĠSpe ctor
ĠPark s
ĠEl gindy
itting ly
Ġdi aries
Ġ197 6
Ġ197 7
ĠTe vez
Ġaddress ing
Ġgen ius
Ġansw ered
Ġjump ing
Ġprem ature
Ġpack s
ung berg
Ġdecl are
Ġfr anc
oph ob
Ġconv iction
Ġconv ictions
Ġsepar ately
ĠAb ba
ĠHer o
ĠLa ure
ĠWhite hall
ffic ient
Ġdest ined
ĠSy mant
Ġengine er
Ġconsult ed
na ire
Ġweak ened
Ġmeant ime
Ġcommon place
ĠUs ing
ĠArgent inas
Ġmis ery
Ġvol unte
Ġobs ession
Ġrefere es
ĠParis se
Ġalleg ation
ĠRed ford
ĠPat ricia
ĠRay mond
Ġprint ers
Ġauction ed
Ġbal anced
allag her
ĠMcC all
BM W
Bl ack
Ġcal endar
Ġoverse eing
Ġarri ving
ĠHew lett
DP M
ĠPlay er
Ġprotest ed
Ġprotest ers
Ġtravel s
Ġcrowd ed
Ġthr illed
Ind ones
Ġassoci ate
Ġhandheld s
Ġlog s
ĠBow les
prof its
ĠHou lihan
rog iov
ĠJul ien
Un iversity
Ġrac ism
Ġwi pe
shar ers
ĠCE O
ĠCy ril
Ġang le
Ġadvis ory
ĠSwed ish
Ġconcent ration
Ġmeg aby
Ġ196 5
Ġpet ition
ĠGood e
Ġresear cher
Every thing
Ġswe pt
ĠEll iot
Ġcontribut ors
Ġtem porarily
Ġunderst ands
Cons umer
pre cedented
writ ten
Ġmulti player
Ġsatisf y
ĠSaf ety
Ġconvers ations
Ġvent ures
Ġagg rav
Ġsal aries
Gl oucester
Ġver bal
Ġpurs uing
ĠCD s
ĠLuc y
ĠStan sted
Ġcalcul ator
Ġbatter ies
Ġoblig es
Ġbul let
Ġremo ving
Ġshortl isted
Ġconfidential ity
war m
Ġcart ridge
Ġremote ly
uz ion
Ġrein for
ĠSand ra
ĠGram mys
udden ly
Ġpil ots
ĠWork ers
Ġarch ives
ĠTechn ologies
ĠMet al
ĠMet ropolitan
ĠSk ills
ĠSk inner
ĠNig erian
Ġdepend ent
Ġmeaning less
Ġboy friend
Ġliter ary
Ġliter acy
ĠCast rogiov
Ġshowc ase
Ġshowc ased
Cl ark
Ġloc ally
Ġcheck ing
Ġinnoc ence
Ġwitness ed
ĠCath olics
ĠLam ont
Ġwid en
Ġhint s
ĠMcG uire
Ġdeliber ate
Japan ese
John son
Ġflex ible
Ġlad s
Ġlad der
Ġsad ly
Ġrad ically
oli unas
ĠStev ie
ĠAny one
izz la
ĠEgypt ian
Ġbrother s
Ġoccasion ally
ĠPhilip pe
Ġsear ched
Ġsear chers
Ġprim arily
Ġpartnership s
Any one
ĠBook er
ĠGriff iths
Ġmagn itude
lad en
Ġpund it
ĠBang kok
ĠOpe l
Ġunw illing
Ġdisappear ance
Ken nedy
ĠSoph ie
ĠLj ungberg
ĠPers ie
ĠPers ico
Ġprovision al
Ġinfring ed
Ġinfring ement
ĠChristop he
Camp aign
ĠTig er
ĠII I
ĠHop kins
ĠHear t
ĠFab ien
ĠNov o
Over all
ĠJa uzion
Ġincent ive
Ġperman ently
Ġdiscount s
Ġax e
Ġdow ngr
Ġthor ough
Ġacceler ating
Ġringt one
ĠMat rix
Ġhook er
ĠHas sel
ĠKaz aa
ĠVill alba
ĠAdrian o
ĠTou re
ĠPur ushotma
ĠFood s
Ġabol ish
Ġclar ity
ĠScar man
Ġrelax ed
dig it
ĠWhe ther
Ġsquee ze
ĠAgu ilera
ĠJama ican
Dis ney
Ġid le
ĠEvent ually
ĠPriv ate
Hen man
Ġcoc oa
ĠPear son
Ġpreced ent
Ġherald ed
Ġdevast ating
ĠAgric ulture
ĠSupport ers
ĠCamer oon
ĠTH G
Ġsurre ptitious
Am ong
Hal o
ON S
count ry
Ġfav oured
Ġreli able
ĠCes ar
ĠPa olo
Ġacadem ic
Ġawa iting
Ġinherit ance
Dou ble
El vis
ĠBri xton
ĠHaw kins
ĠPack ard
ĠJak arta
Ġdisg race
ĠMont gom
absolute ly
Ġexerc ising
Ult imately
dep th
itom o
ĠHung ary
Ġdepos it
ĠDig by
ĠGirl s
Ġvend ors
ĠJu ventus
ĠJen kins
ĠAnders en
ĠMcB ryde
ĠOffic ers
ĠRoch us
Ġirregular ities
Ant i
Down ing
ĠSud an
ĠDai wa
ĠRou gerie
ĠRaj asthan
ĠKum ar
Ġoverlook ed
ĠChronic le
Ġrelig ion
ĠLibert ines
ĠAdmin istration
Ġescap ed
Ġdivor ce
Ġtablo id
Ġundoubted ly
Nort hampton
Ġcraz y
Ġpuls es
ĠMond ays
Ġhors es
ĠSay eed
ĠAbs a
ĠHoff man
Ġcompe lling
ĠDix on
ĠGil bert
Ġcomprehens ive
Ġquart et
ĠVC R
ĠBeast ie
Ġinacc urate
Ġgest ure
ĠTun is
ĠTos hack
ĠBrow ne
ĠHein ze
Ġdisillusion ed
Ġarran ged
ĠNorwe gian
ĠValenc ia
Ġpropag anda
Hew itt
Rober t
ĠeDon key
ĠTian anmen
ĠCros by
ĠCraw ford
Ġherit age
opoul os
ĠDru yun
ĠDDo S
ĠNirvan a
ĠKhat ami
ĠKrem lin
ĠStrict ly
ĠZimb abwe
ĠCarrag her
ĠGuiller mo
ĠCorrig an
ĠSymant ec
ĠCastrogiov anni
ĠMontgom ery
1 10
1 30
1 20
6 1
6 3
7 3
8 3
9 7
A thletics
B E
B as
B et
C o
C ES
D As
D utch
F B
F ollowing
F irms
G W
H D
H O
J ud
L G
L ink
M B
M H
N ations
O x
P M
P P
P ublic
Q aed
R atings
S m
S un
S out
S uch
S imon
T error
U rban
V enezuel
V MH
W or
Y et
a wn
a ults
b ours
b ett
b read
c ar
d r
d ominated
e conom
e lected
f ail
f alls
f illing
f ashion
g is
g ins
g iven
h r
h ur
h ost
i w
i ro
i ens
i ks
i ots
i ott
j et
j ax
k et
k ja
k usen
l ists
l ane
m ot
m ir
m os
m ass
m ove
m outh
m isphere
m inded
n ies
o itte
p ad
p ire
p ages
p burn
p hab
r ice
r ue
r ague
s he
s is
s up
t ick
u ber
v ial
w ing
w ear
x on
y p
y anga
Ġ /
Ġ ?
Ġ ub
Ġt ill
Ġt ally
Ġt ree
Ġt ink
Ġt we
Ġt win
Ġt abled
Ġt agging
Ġa er
he alth
he cha
in ness
on gh
on ising
Ġs ang
Ġs yn
re p
Ġc ul
Ġc oun
Ġb ow
Ġb ite
Ġb ury
en ers
en ch
en ote
ha us
it ri
Ġf ur
Ġf led
Ġf itted
Ġo k
Ġo ust
is an
Ġp es
Ġp erv
Ġp unt
Ġp ubs
Ġp has
Ġp icks
Ġp harmaceutical
an ium
Ġin adequate
Ġin aug
ar on
ar ity
Ġm udd
Ġm ixt
ou g
nd a
al og
at on
Ġd ar
Ġd ent
ic itor
ic ants
le in
le ting
le pool
ro it
ro od
as is
as ers
id al
id em
id ier
Ġha ils
Ġbe ar
Ġbe ll
Ġbe ars
Ġbe aring
Ġbe auty
Ġn a
Ġn ut
Ġn aming
Ġn onsense
om er
Ġg olf
ent in
Ġre iss
Ġre actions
Ġre jo
Ġre hears
Ġre offending
st age
Ġl it
Ġl itig
ut on
ut tering
ĠT O
ĠT er
ĠT ed
ĠT reat
ĠT essa
ĠT arantino
ay ing
ĠM I
ĠM it
ĠM od
ĠM erv
ĠM ob
ĠM ick
ĠM oney
ĠM ath
ĠM aid
ĠM iy
ĠM useum
ĠM arshall
ĠM ittal
ĠB ud
ĠB erry
ot ation
ot ive
ĠS ak
ĠS ue
ĠS pect
ĠS ell
ĠS ina
ĠS aid
ĠS ize
ĠS oder
ĠS izzla
ir ts
ver ton
ig o
im mer
ĠA F
ĠA K
ĠA P
ĠA st
ĠA ur
ĠA DS
ĠI ng
ur k
ll a
ĠC er
ĠC le
ĠC ot
ĠC lo
ĠC rim
ĠC udicini
Ġhe d
Ġhe s
Ġhe ating
Ġhe misphere
Ġst al
Ġst om
Ġst un
Ġst agger
Ġst upid
ch i
Ġth rive
Ġwh ip
Ġan x
Ġr up
Ġr ipping
Ġr ifle
est ing
un et
ĠH us
se at
Ġpro l
Ġcon j
ke ep
ĠL ed
ĠL il
ĠL ess
ĠL ish
ĠL av
ĠL ever
ĠL ux
ĠL ula
ĠL CD
ĠL VMH
ĠD est
ĠD ol
ĠD ocu
ĠD erby
ĠD undee
ĠD omain
ac her
Ġse a
Ġse ized
Ġmo g
ĠP E
ĠP ot
ĠP acket
ĠP reston
ĠP avey
pe i
ew ay
ort ed
ĠE ve
ĠE mail
ul ates
ul ator
ĠF M
ĠF ine
ĠF lo
ri ately
ri ati
ĠR as
ĠR ail
ĠR az
ĠR otter
ĠR oland
ĠW y
ĠW ine
ĠW ass
ĠW ham
ĠW ang
ĠW GB
ĠW EF
ag les
ĠG C
ĠG ear
ĠG allagher
her d
Ġal ien
Ġal phab
our cing
Ġpl um
Ġnot ion
Ġnot ably
ate ur
um ble
if iers
ist r
ist ant
ist ries
Ġv ying
Ġv ault
os ers
ĠJ elena
ard ier
ĠN M
ĠN elson
ĠN yanga
el ie
em bers
ra it
ĠO K
ant e
ant i
Ġsh rug
Ġcomp act
Ġcomp leting
qu ale
pp on
Ġwor s
Ġbut t
ak i
Ġab uses
ight y
Ġhad n
Ġj acket
Ġj oked
Ġus ability
ore n
Ġout ing
Ġout line
Ġout perform
Ġout fit
Ġpe aked
Ġor chest
con i
Ġnew er
Ġsp awn
ĠK a
ĠK rist
ĠK emp
ĠK lein
Ġcont aining
Ġcan v
Ġcan cell
Ġun ited
Ġun law
Ġun affected
Ġun fortunate
Ġun released
Ġun precedented
Ġdo om
Ġdo zens
und ling
ire ct
ire cted
Ġim aging
pl ak
Ġrec har
ree p
ail ability
ĠSt ri
ĠSt ra
ĠSt iller
ĠSt allone
ens ed
ĠHe pburn
Ġqu ant
Ġqu ery
Ġqu irky
per ienced
ip ro
Ġinter f
Ġinter action
Ġfin ale
Ġsc ary
Ġdis qu
Ġdis all
Ġdis rupted
Ġdis puted
ook er
ĠIn v
Ġfil ters
man ol
Ġen viron
Ġen lar
ach im
Ġadd ressed
av y
av ed
Ġind ependence
Ġback hand
Ġ19 0
Ġ19 30
Ġ19 45
Ġpr icing
Ġpr isons
ĠV HS
ĠV incent
Ġla ugh
Ġnow here
ĠY oran
Ġdec isive
oy es
anc o
Ġele v
Ġcons iders
Ġcons ervative
Ġinv itation
Ġdown ward
Ġman ages
ĠTh or
ĠTh ousands
Ġshe et
ram ble
Ġcount ing
chn er
Ġcomm uters
Ġear ns
ib e
ues e
Ġexpect ancy
we et
Ġco ordinator
ĠFr ances
ĠFr ont
Ġret iring
Ġgood will
Ġact ed
ĠSc iences
har rague
Ġend ors
Ġcur b
Ġcur sor
ty pe
Ġsec uring
Ġlaw ful
ĠCom edy
Ġstr ains
Ġinvest ed
Ġ10 1
Ġsl ashed
Ġtop s
Ġtop ics
ĠAr m
ĠAr jen
Ġconf used
ĠMic ro
Ġevery where
ool s
Ġlat inohiphopradio
Ġbr anches
Ġiss uing
com ple
az ed
az ines
ĠLe inster
ĠInd oors
Ġdon ation
ĠAl t
Ġpres erve
Ġter min
Ġins ane
Ġent r
ham bles
ĠSp y
ĠLondon ers
Ġpay roll
sc ri
Ġmed iation
Ġsupport ive
Ġcar ries
Ġcar bon
Ġdem ise
In ter
In stead
ang el
Ġprov oked
ric anes
Ġsm arter
Ġsm ugg
Ġfound ing
Ġref us
Ġref und
Ġref lection
Ġfl out
Ġfl otation
Ġbre ad
Ġbre ast
ĠRe form
ĠRe ading
Ġreal ising
Ġperson nel
ĠDem os
Ġform ula
Ġ8 6
ĠMc L
ĠMc Leish
pr ising
ament al
head s
Th om
Ġconsum e
Ġadv ances
ĠShe ahan
omet hing
ring ing
Ġaff ili
Ġexp ression
Ġtrans mitted
Ġrece ives
ĠCons ortium
Ġimm inent
uge ot
ĠMon te
ĠCha ng
Ġevent ual
Ġvis itor
Ġmod ified
ator ium
Ġwrit es
Ġaccount able
Ġ9 1
Ġ9 7
ĠRob ot
af i
af in
Ġimportant ly
Ġrest ored
ĠCon struction
ĠChrist ie
Ġexpl icit
Ġimpro per
Ġtra iling
Ġcor ners
app ro
Ġsent iment
Ġmiss es
ĠZ en
ĠZ hang
ĠZ afi
ĠCar son
ĠCar rey
Ġdifferent ly
Ġpersonal isation
be ing
Ġche er
Ġche ats
Ġche cked
ĠBe ing
ĠBe autiful
Ġforeign ers
ik a
ex p
ĠGl en
not s
ĠEx hib
ĠEx xon
Ġhouse mates
ĠChe ster
Ġ18 0
Ġdist ingu
Ġyoung ster
Ġcontent ion
ĠWed ding
Ġgr ass
Ġweb page
Ġjo ke
Ġfoot steps
Ġemploy ing
ĠX V
Ġcred ited
Ġcred entials
ĠBo oth
Ġstre ak
Ġinfl ated
Ġens ured
Ġjud ging
Ġjud gment
Ġball ots
Ġnear by
Ġclos ures
ĠMay be
Ġdifficult y
ĠAll an
Ġbox ing
As k
Ġnational ity
ĠMor oc
ĠPaul o
ĠAd ela
cha nd
cha ir
ĠAm nesty
ĠPr utton
ĠTr ading
St at
Ġsol ved
Ġsol ving
Ġsol icitor
Ġste am
Ġste ering
ows ki
ĠPet rie
Ġinvestig ators
go vernment
ains bury
Ġamount ed
Ġsubs c
Ġsimilar ly
Ġhun ger
Ġhun ters
Ġconfirm ing
Ġsurpr ises
Ġreform ed
Ġreform ing
Ġmass es
Ġbas ket
Ġmag azines
Ġnight mare
ĠThom son
Ġfocus es
ĠCo ach
ĠSl ug
br and
ĠSo on
Ġkick er
Ġpur port
Ġtre as
ai ro
ĠBr ig
ĠCor ia
osp ace
mb ro
ĠHen ri
Ġcou pled
Ġreplace ments
And y
And rew
Ġdescrib ing
Ġunve iling
Ġcolle ge
Ġground breaking
Ġenjoy s
Ġdi ver
Ġdi ary
Ġ197 1
Ġfair er
Ġprote ge
Ch ild
Ch inese
Ġlight ing
opp y
Ġred isc
Ġlack lust
Ġep onymous
ĠAvi ation
ĠWar wick
Ġdecl aring
Ġfr ame
Ġfr antic
ĠHer ren
ĠLa ura
ĠLa harrague
bo ley
reg as
Ġrock et
Ġdest ination
Ġmor atorium
Ġsens ational
ĠID N
Ġconsult ing
bour g
bour nes
Ġsubject s
Ġsubject ed
Ġdocument aries
ĠMid o
ĠNe ed
Ġcorpor ations
ĠNo el
Ġpull ing
Ġmis understood
ĠCol omb
Ġvol umes
Com puter
Ġobs erved
ĠWelsh man
ĠDi ary
Ġpromot es
ĠDo ctor
Ġinflation ary
Ġcru ise
yc hell
ĠStep hens
ĠBer lus
Ġinnov ations
Ġunemploy ed
ĠMcC orm
ĠMcC ririck
ĠTra vis
ĠMus harraf
oper ate
Ġbeha ve
Ġbeha ving
Ġoverse e
ĠDown link
Ġtro jan
ĠQu est
Ġthr ill
Ġthr ust
ĠFar go
Ġhousehold ers
Ġsubscri ptions
Ġir rele
Ġcelebr ations
Ġcast ing
Ġdead ly
Ġtight ening
ĠMel cher
Le eds
ĠBow yer
ĠPri or
ili ation
Ġconc rete
cont ent
Ġult ra
Ġhor rible
Sc ott
Ġflo ating
Ġuns ett
che ll
ĠCap tain
ĠHam ilton
ĠWall iams
Ġspl its
Ġmortg ages
Ġhear ings
Ġcheap ly
ĠSuper ior
Un fortunately
Ġfeder ation
Ġrac ial
Ġmurder ers
ĠVi enna
Ġhal ve
ĠCell tick
Ġang led
Ġprop ose
Ġwilling ness
ĠFer reira
Ġovert ook
ĠAsh croft
Ġadvis ers
ĠDire ctors
Ġ196 4
ĠGood man
ĠGood rem
Ġexplo iting
Every body
Ġten fold
Ġrat ified
ĠEv olution
ĠOs sie
ĠOs bournes
Ġunc overed
Ġcat alog
ĠSant ander
ĠCount y
Ġvulner abilities
work ing
ĠBur ke
Ġexport ers
Ġrestrict ing
Ġdistribut ors
Ġmotiv ate
Ġbrief ing
ĠDel oitte
ĠSout hern
Ġplatform s
Ġswitch ing
Ġagg ressively
Mart in
ĠCam ara
ĠEnter prise
Gl obal
Ġpurs ued
ĠEA DS
Ġcapt ured
Ġequal iser
ĠBu hecha
ĠLuc iano
ĠDevelop ers
Ġrevolution ary
ĠNic ola
ĠInvest ig
Ġconflict s
Ġut ilities
Ġparticip ate
Ġemot ion
Ġprospect ive
Ġcas ino
ĠCr agg
ĠHart son
Ġexpert ise
ĠYuganskneft egaz
Ġdial ogue
Ġlay out
Ġclin ch
Ġspir its
bor ne
sign ed
ĠEner gis
ĠGib raltar
Ġow es
Ġow ning
ĠAud rey
ĠHall iwell
Ġcomfort ably
Ġwealth y
ĠGod zilla
Ġresort s
Ġconnect ivity
Ġwitness es
ĠLam boley
ĠGen eva
Ġaccur acy
Ġknock ing
Ġgrad uate
Ġ195 6
ĠVar ga
ĠWeb ster
cap acity
Ġsli pping
Ġtroub les
ĠSm art
ĠHit achi
ĠJac ob
Ne il
Net Ratings
ĠHel ens
Ġrecru ited
Ġrent al
Ġrally ing
ĠKir chner
ĠBlog ger
Ġexclud e
Ġexclud ing
Ġhonest y
Ġfunction ality
Ġcomprom ised
ĠKn ife
Ġsupposed ly
Ġslot ted
Par malat
Ġpione er
ĠCru el
ĠRoman ian
ĠGriff en
Ġexcess ive
Ġinstall ation
ĠLabor atory
ĠLabor atories
Ġbelong ing
Ġporn ography
Ġporn ographic
ĠBag le
ĠSum itomo
Ġstret ches
ĠGre er
Ġembarrass ed
ĠFab regas
Ġrecyc led
Ġassum ptions
Ġadminist rator
Ste ve
Ste ven
ĠBry an
Ġhom eland
ĠFerr ari
Ġscient ist
Ġearth quake
ĠArch bishop
Ġmoder ators
Ġtempt ed
Ġfixt ures
Ġpen et
Ġstab bed
Ġdeg rees
ĠEthiop ian
Ġfeed back
ĠFreder ic
Ġbackbenc her
boy zz
Ġpit ches
ĠBrent ford
ĠGat wick
ĠPetro v
Rec ord
Sec urity
fund ed
ĠMess enger
ĠCad ill
ĠCad bury
ĠEli zab
ĠRh ys
ĠRub in
ĠNort el
ĠOpp ort
Ġcoast al
ĠJama ica
Ġfrag ile
ĠSebast ian
Ġbreat h
Ġment ally
ĠTri ple
ĠClear stream
ĠLom u
ĠLom ax
ĠEvent s
Ġbuoy ant
Ġsafeg uard
ĠAbbas i
ĠBulgar ian
Ġfool ish
child ren
ĠRich ie
Ġprec ious
Ġguest s
ĠAgric ultural
ĠCamer on
ĠMSP s
ĠHoly rood
Ġaler ts
Ġintr ud
Ġenfor ced
Ġamend ment
Ġexplan ation
Ġexplan ations
?' "
Us ers
Ġpeg ged
ĠChor us
ĠChile an
ĠFranc ais
Ġembr acing
ĠWhit bread
Ġhung ry
Ġdipl omatic
Prof its
heart ed
Ġsam ples
ĠRoc he
Ġauthent ic
awa ited
ĠView ers
heim er
ĠTai wan
ĠMans field
ĠMuk esh
comfort able
Ġextrem ists
Ġcert ificate
ĠEnvironment al
Ġburgl ar
Ġzomb ies
Phil ip
ĠTitan ic
tot ally
Ġbass ist
Ġfurn iture
Ġgrit ty
ĠTerror ism
Ġrall ied
Ġrang es
ĠHack ford
Ġconcess ions
ĠDust in
ĠGian n
Ġvacc ine
Ġspo of
Ġprejud ice
Ġkron or
ĠAnast asia
ĠPrin cess
prot ected
Fore ign
Ver itas
Ġdod gy
ĠBattle front
ĠImm igration
ĠPas quale
ĠFis cher
ĠKin sey
Ġunav ailable
Ġsuprem o
Ġmedic ine
Ġprovin ces
afl ops
ĠProgram me
Ġtextbook s
Ġmagnific ent
record ed
Ġcigaret te
Ġcouncill ors
Ġfer oc
Ġgirlf riend
Ġheap ed
Ġrhyth m
ĠHos ford
ĠEmer gency
Ġphil os
Ġharbour ing
Ġaccomp any
Ġunpredict able
ĠBangl adesh
Ġsqueez ed
Ġrehabilit ation
Ġsceptic ism
Ġinad vertently
Ġreiter ated
ĠRup ert
Ġgospe l
ĠJe unet
ustain able
Ġjewell ery
Ġcontrad ict
Ġlivelihood s
GW U
Qaed a
Sout hampton
fashion ed
kja er
Ġub iqu
Ġmixt ure
ĠMerv yn
ĠMaid en
ĠLish man
ĠLever kusen
ĠLux em
ĠRotter dam
ĠWGB H
Ġenviron ments
ĠFront ier
ĠAdela ide
ychell es
ĠBerlus coni
ĠElizab eth
% ),
3 20
6 2
7 50
A ct
B B
B ack
B ook
B urn
B ell
B ank
B lo
C or
C as
C all
C oll
C ler
C ole
D em
D ix
D ef
D irector
E ach
E ither
F iji
G I
G ame
G amers
I nt
I AAF
J on
J am
J ack
K il
L R
L ittle
L SE
M V
M e
M er
M id
M ac
M att
N I
N SE
O lymp
P al
P rodu
Q ueen
R ed
R ep
R eg
S ur
S everal
S ometimes
T een
T ottenham
T alks
V ict
V era
W I
W ork
W ood
Y es
] ,"
a head
a ired
b es
b et
b ow
b ad
b ul
b enc
b rew
b uild
c am
c im
c op
c ure
c ade
c ase
c ale
c ritical
d ens
d ram
d ollar
d etail
f rom
f isher
g ames
g reen
g reg
g eneral
h uman
h stal
i ate
i pt
i ated
i vert
l as
l ack
m ons
m illion
m other
n on
o ir
p o
p he
p han
p olit
r ust
r ich
r ime
r ons
r ank
r aged
s ize
s ource
s avvy
t v
u er
u els
v ised
w hat
w ho
y m
y mm
Ġt all
Ġt ail
Ġa ce
Ġa est
Ġa ston
he y
he tic
in f
er b
er ts
on ial
on itor
Ġs ie
Ġs ne
Ġw art
Ġw ished
Ġw oes
Ġw aning
Ġc od
Ġc ake
or ient
or ously
or ati
Ġb ot
Ġb old
Ġb ones
Ġb ases
Ġb ah
Ġb unch
Ġb ribe
Ġb ilateral
en ec
ha d
ha w
it ated
it ius
Ġf uro
Ġf als
Ġf right
Ġf itting
Ġf ancy
Ġf ruit
ed ded
Ġo vation
is en
is head
Ġp ess
Ġp ap
Ġp ave
Ġp iano
ing is
ing field
Ġin ch
Ġin ability
Ġm arch
Ġm isc
Ġd ign
Ġd ug
Ġd irty
ic op
ic ator
ro ving
ro kes
id man
Ġha te
Ġha bit
Ġg ut
Ġg ong
Ġg rave
Ġg ender
Ġre ct
st is
st ation
st ep
st ars
st reet
Ġl ig
Ġl ands
Ġl ining
Ġl enders
Ġl asers
ĠT w
ĠT al
ĠT em
ĠT ata
ĠT odd
ĠT aken
ĠM ut
ĠM iss
ĠM ates
ĠM ouse
ĠM eg
ĠM ah
ĠM onsanto
et ic
et ts
ld of
ĠB an
ĠB ish
ĠB ann
ĠB anks
ĠB urea
ĠB lears
Ġh iding
Ġh ubs
Ġh ounds
ĠS el
ĠS mer
ĠS ven
ĠS ug
ĠS hip
ĠS inger
ĠS NP
ĠS ella
ĠS UV
ĠS ainsbury
am in
ig e
ig ree
im m
us ions
ĠA I
ĠA S
ĠA ch
ĠA ri
ĠA th
ĠA ction
ĠA ure
ĠA round
ĠA usch
ĠI F
ĠI v
ĠI SP
ĠI bro
ĠI OC
Ġsa il
ad el
ad ays
ad oo
ill ard
ĠC rou
ĠC hen
ĠC head
ĠC orn
ĠC ray
ĠC hern
ĠC opp
ĠC lement
ĠC lears
ĠC ML
ĠC ebit
Ġst ub
Ġst ole
Ġst akes
ter rell
Ġwh im
Ġan ten
Ġr ou
Ġr ipe
Ġr acket
Ġas best
un fair
ĠH and
ĠH ul
ĠH itch
ĠH utton
ol t
ol ves
se ek
Ġpro ven
Ġde er
ĠL ic
ĠL ist
ĠL ak
ĠL ost
ĠL ang
ĠL lanelli
ĠD w
ĠD ism
ĠD isc
ĠD ifferent
ĠD idier
ac ities
ac ular
ac hers
Ġse iz
and ro
and ering
ĠP ax
ĠP har
ĠP owell
ĠP ocket
ĠP ierce
ĠP ernod
Ġby pass
ĠE xt
ĠE ton
ĠE mb
ĠE scape
ĠE quality
ĠE lsewhere
ul u
ul um
up ils
ĠF ly
ĠF ear
ĠF all
ĠF ry
ĠF lam
ĠF lying
ĠF oo
ĠF osters
ĠF ava
ri f
ri fic
ri vor
ĠR y
ĠR an
ĠR ing
ĠR and
ĠR ace
ĠR ivers
ĠR enn
ĠR aul
ĠR CA
ĠR AF
ĠW A
ĠW im
ĠW inter
ĠW ipp
ĠW RU
ĠW PP
ag en
ag ina
ĠG W
ĠG y
ĠG ot
ĠG ough
ĠG ener
ĠG raph
ĠG amb
ĠG audio
Ġal ter
Ġal gor
our ing
Ġpl acing
res ent
res olution
Ġnot ify
um i
um s
um bers
ab is
ab iding
ist rates
art is
ast ing
ĠJ K
ĠJ ain
ĠJ ag
ĠJ ob
ĠJ ens
ĠJ ennifer
ĠN an
ĠN om
ĠN ach
ĠN early
el ong
ra ham
ĠO ng
ĠO ften
Ġsh ine
Ġsh ips
Ġsh irt
Ġsh ifts
Ġcomp ressed
so ld
so cial
Ġcha ired
pp ling
ak h
ak ash
ber ly
Ġj ungle
oc key
oc het
Ġtheir s
Ġup sur
Ġup hill
rou s
Ġad verse
Ġout stri
are z
are st
ine ering
Ġcl ues
Ġne ut
og en
Ġte eth
con du
con cer
con net
Ġplay able
Ġplay ground
Ġsp at
cc ane
ĠK or
ĠK al
ĠK orn
ĠK aren
ĠK FB
ĠK iw
ĠK rivor
Ġcont ing
Ġall ied
Ġun limited
Ġun comfortable
Ġover he
Ġover night
Ġso il
ign al
ign ol
Ġinc ap
Ġinc hes
ng hai
Ġint rig
Ġpart ially
pl ess
Ġrec re
ous es
ĠSt ill
ĠSt ream
ount ney
ĠHe ather
Ġqu ake
ne ck
ne ys
ne eded
Ġinter pre
Ġres id
Ġres istance
Ġsc i
Ġsc ar
Ġsc ares
Ġdis order
Ġch ronic
ick i
int ensive
air ing
ning s
av i
Ġind ict
Ġind icted
oll s
ĠBl oom
li en
ĠBrit ney
ĠV oy
ĠV iet
Ġla undering
Ġnow adays
ĠY angtze
Ġdec lines
Ġdec orated
Ġar ise
Ġar rog
Ġar bit
ĠEuro sceptic
Ġinv ented
ass ador
ank in
vi k
vi o
ĠTh rough
Ġshe ets
Ġshe riff
Ġserv es
act ed
Ġcount ed
Ġke yst
ax o
Ġcomm ons
Ġcomm issions
Ġunder going
Ġunder taking
Ġsup ple
Ġneed ing
Ġear liest
ib u
ind er
uch y
red o
Ġdef y
Ġdef raud
Ġexpect ation
Ġbl at
Ġbl own
Ġbl aming
Ġbu gs
ister ed
Ġhel icop
Ġret reat
Ġelection eering
Ġmat urity
Ġmat hs
ital ia
ug ini
Ġend uring
Ġend less
Ġmy th
Ġreg ards
Ġchar m
Ġchar ism
Ġtri alling
Ġpublic ations
Ġstr ain
ves en
Ġwar ming
ĠAr ms
ĠAr ash
Ġconf irms
Ġbr ut
Ġleg it
ger ia
Ġoffer ings
az io
ĠLe ban
ĠInd ians
Ġdon or
ĠAl italia
Ġins ight
Ġins ider
Ġins pire
lo ved
ĠJo achim
Ġent ers
Ġ7 8
Ġdeb ating
Ġcap acities
Ġsign ature
ĠSp yware
Ġcour ting
Ġcompet ed
Ġbroad er
Ġcar makers
ash ire
In Real
Ġcampaign er
ang ling
ĠAn na
Ġprov oc
Ġsm ok
Ġref ers
Ġvi able
ĠCl iff
Ġfl ag
Ġfl agged
att i
att ack
Ġhead set
Ġconcer ning
ĠRe ally
ĠLi ver
oot ing
ĠSe ga
ĠSe ychelles
ĠGer ry
Ġfut ures
Ġinform al
ĠMc E
Ġeconomic ally
Th ings
leg al
Ġfinal ist
Ġav ailability
uc ks
Ġra ises
Ġcre am
Ġinst antly
Ġinst inct
ĠWe ek
Ġpos itives
Ġgl am
Ġgl ass
Ġfam ously
Ġbuy out
Ġexp ose
Ġexp ires
Ġexper imental
Ġtrans mit
Ġdev oted
Ġban ter
Ġban ner
ush y
Ġpress ed
ĠCha k
ĠMar connet
Ġair play
Mr s
Ġadm itting
Ġtest ament
Ġaccount ed
iz hstal
Ġ9 3
Ġfac ility
ĠRob redo
Ġcol oured
Ġseason al
raw ling
Ġrest ructure
ĠCon nect
ĠChar t
Ġdep ends
Ġtra um
Ġtra pped
Ġsent iments
Ġgam ble
ĠBe a
ĠBe ith
Ġexc use
ĠGl enn
Ġorgan ic
Ġbreak neck
mail ed
enn an
llen ge
ĠSouth well
Ġtrad er
Ġaud itor
Ġcontent ious
Ġdro ps
ĠMarch ionne
ĠQ rio
rem ittingly
ump ed
ump ing
Ġcustom s
Ġweb logs
Ġdesign ers
Ġlim iting
Ġqual ifiers
eg le
Ġob jections
Ġhost ile
Ġpresent ing
Ġcred itor
Ġmanager ial
ĠGr ady
ĠGr imes
Ġfeel ings
Ġsw ell
Ġlo oming
ĠKen zie
Ġfa ults
Ġold s
Ġcritic ises
Ġcritic isms
Ġfight s
Ġport ion
Ġport als
Ġport ability
Ġequ ality
Ġfact ual
Ġdr illing
Ġblog osphere
ĠMor ning
ĠAd vis
ĠAg ent
ĠAg ree
ĠAg ence
Ġbenef ited
ĠAm elie
Ġsusp ensions
Ġmar ine
ĠMac Donald
ĠMac World
Ġglobal isation
Ġoppos es
Ġaccept ance
Ġste alth
Ġwa ited
ĠMark ets
Ġeduc ated
ĠWh ilst
Ġcreat ures
Ġpoll ed
Ġ13 0
Ġconfirm ation
Ġdiscuss ing
Ġwrong ly
Ġrev aluation
Ġsk illed
alk er
ĠGe ordan
ĠGe ldof
ĠJack man
ĠMan ic
ĠMad den
Ġpenal ised
ourn ament
ĠRes pect
Ġfraud ulent
Ġlif ting
ĠAng lo
ah l
Ġclass ical
ĠSl ater
Ġtack les
You ng
uff y
ĠBr ady
ĠCor inth
On line
Ġworth y
ĠGold f
Ġcou p
And re
ban es
Ġpar alysed
Ġpar alle
ĠSpe egle
Ġcomment ed
Ġcomment ator
Ġsuper market
ĠPe ugeot
ĠCamp aign
ĠCamp ese
Ġcivil ian
Ġcolle ctor
uck y
Ġple ad
bell ion
Ġfair ness
Ġmer chand
Ġlab s
Ġlab elling
Ġprote in
ĠBa ume
opp a
Ġgen res
Ġlack ed
Ġjump s
Ġpack ages
Ġemb edded
pro portion
ux hall
umb ent
box es
Ġconv ince
Ġprotect s
ream ing
Ġpers ecution
Ġstat ure
Ġstat utory
ĠHer ald
Ġrespect able
Ġappl aud
reg or
Ġpension er
New s
Ġconst able
Ġconst ructive
ĠKing fisher
Ġtw ins
ĠHigh land
Ġconsult ants
Ġheart s
ĠPhil ips
Ġweak en
ĠSch wart
Ġviol ation
Com edy
Ġobs ess
ĠMo z
ĠMo ving
ĠDi ageo
ĠDan ger
Ġalleg ing
apt ic
Al so
ĠMag uire
Ġinquir ies
ĠGra vesen
Ġnegoti ating
ĠBer t
ĠBer ger
Ġadvert isers
At t
17 0
ĠTele phone
Ġmaintain s
ĠTra cey
de en
miss ions
Ġarri ve
Fr ank
Ġsubsid ised
Ġsil ly
Ġbur dens
augh ters
Ġtend er
Ġmur d
ĠMa uro
ĠSoc iedad
tr ick
ĠGame boyzz
Ġill ust
Ġthr one
Ġthr illing
Ġwatchdog s
atis ations
aun ch
aun ting
Ġlog ged
Ġsex ism
Ġunf avour
Ġinteg rate
Ġdismiss al
Ġhonour ing
ĠBow e
ĠEconom ists
ĠWas p
Ġpain ful
Ġpain ted
Ġren ational
ĠThan k
Ġflo od
Ġflo ated
ĠInt oppa
che micals
Ġund ec
ĠWall abies
ĠAut om
Ġsequ els
ĠVal bon
Sha dow
Ġexam ined
ĠOper ation
Ġhur ricanes
ĠCy ber
14 9
just ed
ĠLank an
Ġspeak s
ĠMir ror
Ġrecomm ends
Ġtact ical
oned o
Ġfather s
ĠEll iott
ĠOs borne
Ġcontribut ing
Ġunc apped
ĠProf essional
Ġcat astrop
ĠBay er
ĠBur ton
ĠSam oa
ĠDun bar
ĠEm ploy
Ġguarant ees
writ e
room s
Ġrum oured
ĠJer em
Ġcolour ful
Ġgrand mother
Ġsatisf ying
Ġsatisf action
ĠCam era
kick ing
Ġhum ble
ĠOrgan isers
Ġbott le
Ġshock ing
hol m
Ġmount ing
sell er
Ġsmart phones
ĠMas ai
sha w
sha re
Ġscra ppy
Ġrein force
ĠSand ers
ĠMik oliunas
ĠId ent
ĠHart lepool
ĠGard en
ĠUSA DA
Ġdise ases
ĠTechn orati
ĠMet life
ĠSar banes
ĠPan ke
ĠNig eria
Ġclin ical
bor g
ĠCast aignede
Ġstick ing
ĠDomin ik
ĠEvery one
ĠEvery thing
Ġunique ly
Ġbackb one
Ġbackb ench
Ġshowc ases
azz am
Ġconduct ing
Ġloc ations
ĠDar in
ĠGod father
ĠOx fam
Ġoverwhel med
Ġrobot ic
Ġmax imise
Ġselect ing
De cember
real istic
Ġforg ot
Ġthrow ing
ĠRow ling
ĠNap ier
ĠMcG regor
ĠSil ver
Ġaband on
Ġaband oning
Ġinsist ence
Rob ben
ĠDuff y
Ġsuspic ions
bar ians
ĠSain t
Ġadap ter
Ġspect ators
rele ase
Ġmix ing
Ġhang ing
ĠLes otho
ĠFight ers
Ġven ues
ĠKir k
Ġexclud ed
Ġobject ive
Ġfrequ ency
ĠKar l
Ġcontra ction
Ġarrange ment
Ġbrilliant ly
Ġteleph oning
Par ry
Ġindic ators
Ġexclus ion
Ġsurprising ly
ĠToul ouse
Ġunw anted
Ġtelev isions
Ġfault y
ĠFinn an
ĠAppe als
Ken zie
Ġdies el
Ġstret ching
Ġantic ip
Ġship ments
Ġscam mers
Ġterrit ories
Sh ould
ĠBomb ardier
ĠHS BC
ĠDave y
ĠPlan ning
ES R
ĠTit terrell
ĠBurn s
Ġhom eless
ĠSur rey
ĠSub scri
Ġclamp down
ĠVa uxhall
ĠArch os
ĠBrad shaw
pret ty
sur ance
Ġforum s
Ġcoinc ided
Ġmemor able
ĠTro tter
ĠSen ator
ĠGat land
ĠGet ting
Intern ational
ĠPetro leum
Ġstrengthe ning
Rec ent
ĠIc stis
Ġsack ing
Ġwear able
Ġcontem pl
Ġsimpl er
Ġartific ially
Ġmegapix els
Ġped igree
ĠSon aptic
Ġstero ids
Ġdeport ed
ĠDell ape
Ġexcept ional
ĠNort hampton
Ġinspe ction
Ġhammer ed
Ġinevit ably
Ġment ality
ĠIC T
Ġmechan ism
Ġinspir ing
Ġinspir ation
ĠConf essions
Paul a
Ġcoc aine
Ġdanc er
ĠBros nan
ĠJud y
ĠInf lation
ĠSpam haus
Ġrestaur ants
Ġredund ancies
ĠPortug uese
Play ing
Ġvoc ifer
Ġmanip ulate
ĠHad i
ĠRoll ing
Ġouts ourcing
ĠStefan i
Ġembr aced
Ġprivile ge
ĠĊĠĊ ĊĊ
Ab out
War ner
Ġburn er
Ġnick named
Ġreins urance
ĠCe plak
Ġstim ulate
Ġseam less
ĠOk onedo
ĠOpt InReal
Comp anies
Ġunsuccess ful
Ġunsuccess fully
Ġaccompl ished
Polit ical
Res earch
Vi ew
Ġrand om
ĠDet roit
aston bury
Ġrecip ient
Ġconfront ation
ĠAlban ia
Ġinsult ing
Ġevol ved
Ġrevamp ed
Tele com
rack ing
ĠTanz ania
ĠHold ings
ĠPin ochet
Ġteet hing
ĠKash mir
Ġinterven ed
Ġdisrupt ive
Ġaccol ade
ĠScr ubs
Ġcurfew s
Ġflour ish
bey ie
Ġdistract ed
Ġcomplac ency
Ben itez
Ġwre ck
ĠAM R
ĠCant ona
Ġramp ant
Ġassemb led
ĠDud ek
Ġleve lled
Ġpregn ant
Ġdiagn osed
ĠValent ine
ĠTurkmen istan
Bo eing
wh ich
Ġmerg ing
ĠMall on
ĠBot in
ĠAN D
ĠLanc ashire
ĠJes us
ĠNog ar
ĠClass ic
ĠShep herd
Ġtestim ony
Ġstockp iles
Cont rovers
Ġunderval ued
Da venport
Pier re
Ġcos met
ĠMaser ati
ĠSho es
ĠAber deen
ĠHosp ital
acro ix
ĠWan adoo
ĠGamm ell
ĠNem o
Ġunderp in
Ġbull ish
ĠSpr int
ĠAtom ic
Ġnightcl ub
Indones ia
Bas ically
Ġaer ospace
Ġok ay
idem ic
Ġna ive
Ġlitig ation
ĠTreat y
ĠMit chell
ĠAur ora
ĠADS L
ĠIng ram
ĠClo oney
Ġanx ious
Ġrup iah
Ġprol ifer
Ġmog ul
ĠFine gold
ĠGC SE
Ġspawn ed
Ġcanv ass
Ġunlaw ful
Ġenlar ged
ĠAlt ria
ĠSpy bot
Ġrefus al
Ġlacklust re
ĠInvestig ation
Philip pe
Ġubiqu it
Coll ins
Dix ie
Kil roy
Olymp ic
Rep ublic
cure ment
Ġsie ge
Ġwart ime
Ġbah t
Ġfuro re
Ġpess im
ĠBish op
ĠBurea u
ĠAure lien
ĠAusch witz
ĠIbro x
ĠChead le
Ġanten na
ĠDism antle
ĠFlam ini
ĠWipp it
Ġalgor ith
ĠOng aro
Ġupsur ge
ĠKrivor izhstal
ĠViet nam
ĠCorinth ians
ĠSchwart z
ĠSubscri ber
ĠOptInReal Big
! ,
- $
0 3
1 40
2 30
A L
A c
A ut
B ol
B rent
B ush
B razil
B orders
B PI
B usiness
C L
C am
C lear
C eltic
C airn
D i
D ay
D EC
E G
E r
E ast
E gypt
E verton
F eder
F igures
G od
G old
G reat
G err
G rowth
G oran
G went
G eor
H aving
I BM
I mag
J o
J ob
L ist
L eg
M or
M ult
M organ
M arshall
M ovie
M embers
N one
N ever
N othing
N obody
O ffic
O cean
O spreys
P L
P at
P op
P rem
P arents
R a
S ing
S id
S amo
S lovakia
T re
T sunami
T hailand
U ntil
U maga
U RI
V an
W A
W rit
W here
W ilkinson
W inning
Y ugansk
a o
b illion
b ull
b iz
b aink
c up
c ry
c old
c rew
c ulation
c ode
c lyde
c luding
c rime
d ek
d ings
d igital
d oping
d irector
e lect
f ar
f al
f ers
f ive
f ought
f irm
f raud
f rog
f ailed
g em
g ore
g one
g ross
g adget
h um
h ours
j t
j ury
k h
k as
k amp
k ster
l ake
l ick
l ived
m ard
m pt
m usic
m oud
n ame
n atural
n othing
p al
p us
p ol
p ri
p ack
p ign
p ress
p ublic
r ised
r ained
r aining
s s
s le
s man
s bury
s que
t em
t ically
u le
u od
u ating
u aka
u mental
u eno
v ir
v ol
v ain
v ine
v ail
v able
v ind
w ot
w ave
w ater
w yn
w ift
w alls
w aste
w agen
y on
y ou
z ing
z ac
Ġ ic
Ġt ank
Ġt ier
Ġt ears
Ġa u
Ġa ides
Ġa kin
he less
in av
in tern
in ners
er k
er able
er ner
er ling
er dek
on er
on ia
on to
Ġs ed
Ġs inking
re id
re us
Ġw ore
Ġw ip
Ġw ound
Ġw ars
Ġc iv
or iously
Ġb or
Ġb at
Ġb ird
Ġb ags
Ġb agg
Ġb umper
en ha
en et
en isa
ha ra
ha ble
it o
Ġf i
Ġf ade
Ġf ax
Ġf ert
Ġf ibre
Ġf uels
es ity
is se
is ations
is na
is dom
Ġp el
Ġp iv
Ġp itched
Ġp enny
Ġp aved
ing art
Ġin he
Ġin sec
Ġin put
ar ab
ar ia
ar ms
ar ov
ar azz
Ġm ug
ou st
ou wel
al ified
at ra
at ars
Ġd re
Ġd il
Ġd iet
Ġd wind
Ġd aughters
ic he
ic ism
ic estershire
le le
le ased
le vard
ro f
ro t
ro ve
ro be
as ha
as ible
il ant
il uod
id able
Ġbe ach
Ġn od
Ġn erves
ve ll
ve ys
ve ted
Ġg ram
Ġg rat
Ġg aps
Ġg ym
ent h
ent le
Ġre int
Ġre lying
st ay
Ġl ob
Ġl ung
Ġl oud
Ġl oses
ut i
ut her
ut ting
ĠT u
ĠT on
ĠT et
ĠT ale
ĠT ys
ĠT GWU
ĠM b
ĠM om
ĠM ich
ĠM ign
ĠM ock
ĠM ead
ĠM ortg
ĠM obiles
ĠM ovie
ĠM laden
ĠM oyes
Ġon board
Ġon sl
et able
et heless
Ġfor ay
Ġfor ged
ĠB L
ĠB in
ĠB our
ĠB od
ĠB ase
ĠB aker
ĠB atter
ĠB CC
ĠB iarritz
ĠB RC
ĠS P
ĠS om
ĠS age
ĠS ave
ĠS uis
ĠS abb
ĠS eparately
ĠS uddenly
ow den
ow een
am ara
am atti
ig er
im pro
ce es
ce ive
ĠA uss
ĠA part
ĠA DB
ĠA jax
ĠI gn
ĠI NG
ĠI manol
ll ie
ad itional
ĠC F
ĠC J
ĠC M
ĠC ow
ĠC and
ĠC ase
ĠC uar
ĠC alder
Ġhe ats
Ġhe ights
Ġhe irs
Ġst ark
Ġst yl
Ġst ressing
Ġst erling
ch field
ch ita
Ġth igh
Ġth irst
ter bury
Ġwas hed
ĠThe res
Ġan om
Ġan the
Ġr ip
Ġr iots
un ter
un like
ĠH i
ĠH in
ĠH at
ĠH oon
ĠH opefully
ĠH BO
ĠH MV
ĠH reid
ĠH unter
op t
ol s
se cond
se va
Ġpro x
Ġcom merce
Ġcon gest
Ġcon gl
Ġde ar
Ġde gr
ĠL L
ĠL or
ĠL an
ĠL ar
ĠL ab
ĠL und
ĠL iffe
ĠL otter
ĠL iga
ĠL uton
ĠL azio
ĠL acroix
Ġy ellow
ĠD C
ĠD erg
ĠD CA
ĠD izz
ĠD irty
ĠD erek
ĠD etails
ĠD anton
ĠD AB
ĠD OD
ĠD uchy
ac cess
Ġse as
Ġse gment
Ġmo sque
and ed
and ered
and inav
ĠP B
ĠP rom
ĠP ors
ĠP ubl
ĠP aw
ĠP BS
ĠP hant
ĠP irates
ĠP ascal
ĠP ouwel
pe l
ort s
ĠE id
ĠE nt
ĠF ew
ĠF ell
ĠF ever
ĠF erry
ĠF DA
ĠF isher
ĠF ellow
ĠF uj
ĠF igures
ri ef
ĠR ut
ĠR um
ĠR ice
ĠR ory
ĠR oth
ĠR ival
ĠR inal
ĠR aw
ĠR hod
ĠR osen
ĠW anted
ĠW imax
ag a
ag asc
ag matic
ĠG ant
ĠG ine
ĠG iant
ĠG wen
ĠG aming
ĠG urk
Ġal iens
th ird
th rowing
Ġpl ac
Ġpl ag
Ġpl ate
Ġpl ight
Ġpl aster
Ġpl aus
Ġpl oug
ĠU krain
ĠU mbro
Ġnot ch
Ġnot orious
um as
um ption
Ġex ceeds
if ty
if ted
ab outs
ab ilia
ist ent
ess ing
ĠN ad
ĠN athan
em aker
ra il
ra ctions
ĠO F
ĠO wn
ĠO DPM
ĠO asis
ĠO llie
Ġle aking
Ġsh orter
ie ve
ie ves
Ġcomp an
so on
so ver
so hn
iv ities
iv atives
qu in
qu ite
Ġyear ly
Ġcha nt
Ġcha pter
all ers
Ġwor n
Ġwor sen
Ġsu ck
Ġab ilities
ber lake
ere g
oc he
Ġup wards
Ġup right
Ġup turn
Ġup take
ap ton
ap ster
Ġout ings
Ġout sp
Ġout going
Ġout sider
ge yman
ong rel
Ġor ange
Ġcl aw
ans on
ans as
Ġoff ended
Ġsp y
Ġsp ite
ĠK w
ĠK ru
ĠK oss
ĠK enn
ĠK raft
ĠK SE
ĠK reme
ĠK atherine
ĠK illers
ĠK idman
Ġcont end
Ġun st
Ġun seeded
Ġun health
Ġun protected
row s
Ġover ly
Ġinc ar
Ġinc oming
Ġinc lined
Ġinc umbent
ark er
ue lling
Ġpart ial
pl in
pl ing
Ġrec alls
ous sis
ĠSt o
ĠSt ars
ĠSt rong
erv ice
ĠBut rag
ens ing
ens itive
ĠHe at
Ġqu its
ks wagen
ne cted
per t
ip her
ip lex
Ġinter con
Ġinter rupted
Ġres ent
Ġres ist
Ġres ched
Ġpre ach
Ġpre ference
Ġsc al
Ġdis content
Ġdis proportion
ĠIn surance
Ġk ing
Ġk its
Ġk icks
ick ets
ick ering
Ġmin es
Ġmin im
Ġmin us
ven ues
pect ations
Ġen com
ep omi
av is
Ġtime ly
Ġind eb
Ġind irect
Ġback door
Ġ19 00
Ġ19 40
ĠBl ogs
ĠV W
ĠV ince
ĠV antage
ĠV ignal
Ġmon ster
Ġla ug
Ġla zy
ĠY ard
ĠY ili
Ġmark ing
ell ar
Ġper il
Ġper pet
Ġper mits
Ġar bitration
itt ers
itt ances
itt ees
ĠCh rysler
Ġatt entions
Ġinv ite
ass ie
lud e
Ġro aming
Ġam ateur
Ġsha ken
ĠTh ing
ĠTh ion
ĠTh ough
ĠTh oday
Ġmarket place
iss ue
Ġserv ant
Ġke ys
Ġdes ert
Ġsup erv
Ġsup pose
ib aba
ind on
mp as
ĠNew com
ĠDe in
ĠDe al
Ġdef iant
Ġco veted
Ġbl end
Ġbl ames
Ġbl essed
Ġbl ighted
han i
Ġrem inded
ĠAs set
Ġret al
Ġret ro
Ġret ained
Ġret ains
Ġprog ressed
Ġbo il
ĠSc ene
ĠSc ulthorpe
har an
ĠUn fortunate
ug not
Ġsur ging
Ġsec ures
Ġap iece
Ġreg iment
Ġreg istr
Ġtri vial
Ġsl ack
Ġsl ick
Ġsl ash
Ġsl ots
ĠAr mes
Ġbr ush
Ġbr ains
Ġbr ushed
com p
com es
az aki
ĠLe icestershire
Ġwhere ver
Ġdon ors
Ġdon ating
ĠAl c
Ġcountry side
Ġter mination
Ġent ourage
Ġcontin ually
Ġcontin ental
ros pective
Ġ7 50
Ġsign alled
Ġcut backs
hn al
ham es
ĠSp ike
Ġfore hand
Ġcr unch
Ġcompet ent
ret ro
Ġtal ents
Ġdet ected
Ġem ulate
Ġcar ing
Ġdem o
Ġdem ographic
ath clyde
In it
Ġcampaign ed
ee ks
ĠAn alys
ier i
ric ha
ric ulum
Ġext ract
Ġhapp ier
Ġfl ank
Ġfl ared
ĠRe ad
ĠRe leased
Ġremain der
ĠLi kh
oot s
Ġinf ested
ĠDem ons
ov ies
ĠSe lect
ĠSe af
ĠSe attle
Ġfar mer
Ġfar ming
Ġform ing
Ġform idable
cept ions
pr ises
Ġaut obi
Ġattack er
Ġmain s
Ġcent uries
Ġexecut ed
ĠPar ma
Ġed ging
atch ing
over ing
over ty
Ġinst al
Ġass ure
Ġass ass
ĠAt tic
ĠWe itz
ĠWe ingart
Ġgl oss
Ġgl orious
Ġgive away
Ġexp ire
Ġexp ands
Ġexper iments
Ġtrans pl
Ġtrans formation
Ġ12 00
ush ita
ĠPC S
Ġrep aid
Ġimm igrant
ĠMon ster
ĠMon sters
ĠCha nd
ĠCha se
Ġvis ually
Ġsub mission
Ġsub tle
ĠMar ie
ĠMar co
ĠMar lin
Ġmod e
Ġmod ify
Ġaccess ion
Ġev ac
Ġev ap
Ġsong writer
Ġair ing
Ġair pl
Ġadm issions
iz er
Ġ9 4
Ġ9 9
atur ally
Ġpost ings
urs or
Ġseason ally
raw l
ris py
Ġrest rain
ĠChar l
ĠChar ity
ĠChar vis
Ġexpl ode
Ġexpl oded
Ġdep ict
Ġdep ressed
Ġdep ression
Ġcor pus
app ers
Ġsent encing
Ġmiss ions
uk i
ĠZ ach
Ġche que
sel assie
ĠBe yond
Ġproduct ivity
ex ecutive
ĠGl astonbury
Ġorgan ising
Ġorgan iz
ĠEx pectations
Ġeffect iveness
ĠChe v
ĠChe mical
ĠFor ster
Ġval uation
ĠQ ue
ĠPres se
Ġopt ic
Ġweb pages
ĠGo vern
ĠBar n
ĠBar roso
ĠBar barians
Ġpat ience
Ġob esity
Ġmet ropolitan
Ġhost ility
ĠPro p
ĠPro digy
ĠPro zac
ĠX iluod
Ġchallen ger
the re
Ġstre ams
Ġinfl ate
Ġclos es
Ġpredict ion
ĠIraq is
ĠKen enisa
Ġfa res
ĠAll ard
ĠAll ied
ev il
ĠHar vard
Ġauthor ised
10 2
Ġport rait
ĠHol me
ĠHol iff
ĠHol cim
Ġpriv atisations
As ia
light s
Ġmid st
Ġmid way
ĠSim ple
ĠMor phe
Ġelect rons
ĠAg ain
Ġ0 6
ĠAm anda
Ġsoc ially
Ġcertain ty
Ġur anium
Ġ16 0
Ġ16 7
ĠWest on
St ud
St rong
Ġread s
top per
Ġtrack er
Ġfront benc
Ġwa its
Ġhuman itarian
ĠMark ova
Ġ40 4
Ġlive ly
ĠGu inness
Ġrev is
Ġrev ital
US A
Ġstock ing
ĠMan hunt
ĠMad uaka
lin ers
Ġmass ively
Ġwhole hearted
ĠFeder ated
Ġcontract ed
off s
off ice
ĠRes ources
Ġfraud sters
Ġlif elong
Ġfriend lies
ĠIrish man
Ġclass ed
What ever
cent res
ĠSl im
ĠSl ough
Ġstay ing
br ide
Ġland line
Ġdebut ed
Ġdebut ant
nel ly
ĠGold man
ĠKil gore
ĠKil bride
Ġstrateg ies
Ġstrateg ists
ĠSpe culation
ĠPark inson
ĠWind sor
Ġsound track
Ġple ase
Ġdi allers
Ġstrugg les
ĠBa Fin
Ġpled ging
set ting
Ġred ist
ĠTe en
Ġprep ares
Ġstory line
ann ia
Ġdraw s
Ġstrik ers
ograph ical
Ġpack ed
umb ling
ĠCan al
ĠCan terbury
Ġcross es
oph y
sp oon
Ġstat istical
ĠPol it
ĠPol ar
ĠPol ish
Ġpan ic
ĠHer ve
Ġappl ies
Ġappl icants
bo ards
Ġrock ed
inc re
ĠMill oud
ĠServ at
vis ano
Ġdefend ants
Ġorganis er
Ġident ical
Ġengine ers
ĠHigh lands
Ġvar ied
ĠPhil ipp
Ġ27 0
ĠSch u
ĠSch we
ĠAlex and
Ġcorpor ation
Ġcirc les
Ġey eb
ĠMe yer
Ġmis use
Ġmis led
Ġmis represent
Ġmis leading
Ġnation ally
ĠMo ham
ĠMo jt
ĠWood en
Ġtreat ing
ĠMore no
Ġrelie ved
ĠDan i
ĠPort ishead
Ġalleg es
Ġresign ing
Ġpromot ers
Al ready
So ftware
13 5
orrow ing
amb ique
19 90
ĠRed wood
Ġcapital isation
zz a
zz el
ĠPat ent
Ġtourn aments
Ġmal function
Ġhighlight ing
Bl og
Bl ues
Ġfears ome
Ġgig abit
ĠTim berlake
ĠWhat ever
Ġrefer ences
Ġquot a
Mic hel
ĠPlay ers
ĠGazprom neft
ĠLaw yers
atter ing
ĠMa or
Ġprison er
Ġclean ing
Ġign or
Ġpra ises
ĠSer bia
ĠSer wot
athe tic
ĠTreas ure
Ind ust
Ind ian
ĠStephen son
Ġassess ing
abor ate
Ġsn ub
Ġsn ooker
Ġlog o
ĠUnder wood
Ġunf ounded
net te
Ġfire walls
Ġargu ably
Ġpain t
Ġren owned
ĠRep resent
Ġflo oded
Ġflo oding
Ġuns ure
Ġnovel s
ĠCaliforn ian
ĠCap ra
ĠCap riati
ĠHou llier
ĠHam m
Ġdiscipl ined
ĠEr furt
Un it
Un ited
ĠRec ently
Ġcomplet ion
bl og
ĠPer u
antic ipated
atisf ied
ĠMer ck
ĠBet hnal
Ġtransport ation
ogg ins
ĠAsh down
Ġadvis ors
ĠBroad reach
ĠInter est
ĠInter brew
Ġregard less
Ġconstitu ents
ĠDis asters
ĠBec ky
Ġaltern atives
Ġupgr ading
Ġcontribut or
ĠCarl s
Ġwild ly
ĠIP v
ĠLat est
ĠPSP s
ĠBur ma
ĠDun n
ĠPre achers
ĠRoss ignol
Ġexport ed
Ġexport ing
no op
ĠJer zy
Ġresol utions
Ġink jet
Ġagg reg
Ġwat ers
Ġwat chers
Ġmother s
ĠCam us
ĠFal ic
Ġsched ules
Ġer ase
Ġhum orous
ĠHay ward
ĠHay ley
Ġcrack ing
ĠBu ccane
ĠLuc ent
Ġconclud e
Ġconclud es
Ġessential ly
Ġemp ower
ĠAT R
ĠFund s
ĠInvest ec
Ġcool ed
eth in
Ġparticip ants
sha ped
ĠVan ity
Ġlib rary
ĠSand y
ĠNick y
Ġrupe e
ĠWork place
Ġcorre ction
Ġdub ious
ĠSqu ad
Ġfundament als
Ġmeaning ful
Ġreveal ing
Ġscrut in
Ġder by
Ġder ivatives
Ġliter ature
ĠEle ctions
ĠEvery body
Ġscen ario
Ġenorm ously
ĠBerlin ale
Ġcatch ing
Ġhack er
ĠCont epomi
pres ented
Ġlock ing
ĠHil ton
Ġconced ing
ĠRon nies
ĠKim berly
Ġaccur ately
Ġknock out
ĠDev ine
Ġinstru mental
ĠExp ression
Ġdark er
ĠRow an
ĠVar ig
ĠWeb b
John ny
Pro secutors
eff ective
Char lton
actor y
Ġel aborate
ĠFlor in
Ne ath
Ġtrem ors
Ġadap ting
ĠPalestin ians
run ners
Ġspect acular
Ġfierce ly
Ġgear ing
ĠTour ism
ĠMack ie
ĠBon naire
ĠCab aller
Ġric her
ĠHard ie
Ġdeleg ation
Ġattach ments
Ġexclud es
Ġcontra ctor
Ġcontra ctors
ĠMorris sey
Other s
Ġfue lling
Ġpione ering
ĠMand ar
ĠRel ations
Ġtrag ic
Ġindic ating
ĠReg istry
Ġsevere ly
wart s
ĠLong bridge
Ġincorpor ate
Ġincorpor ates
ĠCarol ine
Ġportray ed
des igned
ĠTurn bull
ĠMass ach
ĠMass enet
ĠGre gan
ĠStr ateg
ĠStr athclyde
Ġblast ed
het or
ĠWat son
ĠWat ts
ĠWat kins
Ġscan ned
Ġdiss ent
Ġadvoc ate
Ġassum ed
Ġadminist rative
Ġbon uses
Ġbound aries
ĠBry son
ĠDec isions
ĠPoll ard
ĠPass port
ĠRick y
ĠYe o
ĠYe ah
ĠMichel s
ĠAnc ic
Ġoverwhelming ly
Ġpark ing
level s
ĠTime Warner
ĠSn icket
ĠSav age
ĠSav oy
ĠAre a
ĠHend erson
Ġspons or
Ġquiet ly
Ġfeed ing
Ġacceler ated
Ġmemor abilia
ĠBeat le
ĠBeat ty
Ġprototy pes
Ġroutine ly
Ġsweet eners
Ġappreci ated
jud ged
Ġwed dings
Ġinher ited
ĠTro jan
Ġhook ed
ĠEC B
ĠRw andan
ĠGat lin
Ġabortion ist
ĠKaz akh
Ġscript s
Ġwind fall
Ġdetect or
Ġreluct ance
ĠGeoff rey
Ġobsc ured
Ġobsc ene
ĠDaniel a
Ġbureauc ratic
Ġdot com
ĠBra ff
Ġleaf lets
Ġabol ishing
Ġjoy stick
ĠScar lets
Ġclever ly
ĠAuto Link
Chan nel
Go ogle
Go vernment
Har ry
ĠMess age
ĠBull ock
ĠBull och
ĠSon ny
ĠDim itri
ĠWonder ful
ĠGro kster
Ġshr unk
Ġshr inking
Ġbrid ges
Ġinspe ctors
Ġrecommend ations
Ġhall s
ĠRod rigo
ĠWin ners
Ġtru ants
Ġimmense ly
Ġsupercom puter
Ġsupercom puters
Ġsupercom puting
Ġdigit ally
Mur ray
Mur der
Ġtouc hes
Ġdim ension
Ġhat red
ĠBed ingfield
ĠPear ce
ĠWater reus
Ġadequ ate
Ġprec ursor
Ġampl ify
Ġbright est
Ġdisagree ments
Semit ism
Se cond
Ġlobby ing
ĠMak ower
ĠMak arov
ĠBos velt
ĠDow d
Ġwheel chair
ĠKy r
Ġintercept ed
Ġenfor cing
Ġremov able
ĠMaur itius
contin ued
Ġpainting s
ĠIncre ased
ĠIncre asingly
Hal f
del ighted
Ġwond ered
Ġfav ours
ĠSA P
ĠIce land
ĠCape lla
Ġdeploy ment
Ġcann abis
Ġque ues
Ġinterpret ations
Ġdipl oma
Ġdeterior ation
Ġirrit ating
Will iams
Ġtur f
onso red
Ġfract ured
ĠSyl via
Ġaspir ing
ĠLem ony
Ġseam lessly
ĠKie ly
ĠKie fer
Ġdistinct ive
,' "
Te chnology
Ġfare well
Ġine fficient
Ġmus cle
Ġgri ps
ĠSin clair
ĠFather s
ĠRac ial
ĠRac hel
ĠGay mard
Ġovershadow ed
Ġrecip ients
Ġconsc ious
Ġconsc ience
Ġimprison ment
ĠAlban ian
Ġpresum ption
Ġaccommod ate
Econom ic
mut ual
tra vel
Ġtel co
Ġtel cos
Ġli able
ĠSold iers
ĠDre ams
ĠPier o
ĠForm at
Ġexempt ions
nty re
Ġoutwe igh
Ġoverc row
Ġbetray ed
ĠProt ocol
Ġelectro des
ĠTrain or
Ġgloom y
draft ed
ĠBou levard
ĠBart lett
Ġisol ation
ĠCustom ers
ĠHass an
ĠDonald son
ĠGi amatti
ĠNI ESR
Ġlect urer
Ġunb undling
Ġunanim ous
Ġsovere ign
Ġdispos al
Ġchron ometer
Ġaddict ive
Ġeval uate
Ġdeclar ation
Ġfrank ly
Ġvolat ility
ĠQuin cy
Ġpetro leum
ĠMMORPG s
Ser ena
cas inos
Ġsch ol
Ġfle eing
Ġfren zy
Ġincon ven
Ġdynam ic
Ġgro in
Ġrevers ed
Ġlunch time
ĠCher kas
Ġprohib ited
ĠFle et
Ġtrump et
ĠComment ing
ĠSpir it
Ġreleg ation
ĠGrac enote
Stand ard
Ġilliter ate
Ġhyp not
ĠEss entials
Ber lin
Bel grave
iak os
ser ious
wy d
Ġtort ure
Ġwood en
Ġbol ster
Ġbru ising
Ġfal tering
Ġtoile t
Ġnud ity
ĠMater ials
ĠCitiz ens
ĠCroat ian
ĠWel ch
ĠGabri el
threat ening
Ġunle ashed
Ġkil omet
Ġglit tering
ebr selassie
ĠZamb ia
claim ed
Black burn
Ġmegaby tes
Ġaggrav ating
ĠHassel baink
Jud ges
Ox ley
econom ic
mass ive
ongh orn
Ġfur ious
Ġpes os
Ġpunt ers
Ġdar ling
omer ate
ĠMiy azaki
ĠSue z
Ġstom ach
Ġconj unction
ĠRaz or
Ġalphab et
Ġplum met
Ġshrug ged
Ġwors ened
Ġcancell ations
ĠStra uss
Ġdisall owed
Ġendors ed
comple te
ĠMcL ennan
Ġaffili ate
ĠBooth royd
Ġbasket ball
Child ren
Ġredisc overed
ĠDoctor ow
ĠQuest ions
Ġirrele vant
ĠJacob sen
ĠCadill ac
ĠOpport unity
Ġphilos ophy
Ġaccompany ing
ĠLuxem bourg
Burn ley
Bell amy
Cler mont
Int el
Mid dlesbrough
NSE E
Vict or
Ġpap arazz
ĠTaken aka
ĠMah moud
ĠIv ory
ĠCorn wall
ĠChern in
Ġstub born
Ġasbest os
ĠPhar ma
rif ied
ĠRan ieri
ĠRivers ide
Ġneut ral
Ġindict ment
ĠVoy ce
Ġhelicop ter
Ġcharism atic
ĠAgree ment
Ġmerchand ise
Ġunfavour able
Ġundec ided
ĠAutom otive
ĠIdent ity
Ġpessim istic
Gerr ard
Imag ine
Samo a
pign an
Ġic ons
erdek ens
Ġbagg age
Ġpiv otal
arab edian
Ġgram mar
ĠTys abri
ĠMich igan
ĠMign oni
ĠMead ows
ĠMortg age
ĠMladen ovic
Ġonsl aught
ĠBour ne
ĠSuis se
ĠSabb ath
ĠCuar on
ĠTheres a
ĠHreid arsson
Ġcongl omerate
ĠLotter y
ĠDerg arabedian
ĠPors che
ĠPhant om
ĠPouwel se
agasc ar
ĠGine pri
Ġplaus ible
Ġploug hed
ĠUkrain ian
ĠKru ger
ĠKoss lick
ĠKenn eth
ĠButrag ueno
Ġencom pass
Ġindeb ted
ĠAttic us
ĠMojt aba
ĠSerwot ka
ĠCaballer os
Ġpaparazz i
) "
) ,"
1 60
2 20
2 27
3 75
3 39
4 99
7 2
7 8
7 9
8 2
9 50
A D
A pp
A ware
A beyie
B r
B oss
B omb
C F
C y
C ha
C ouncil
C ech
C CI
C ritics
C ube
D ollar
D rag
D etails
E ight
E du
E uronext
E minem
E OC
E lsewhere
F C
F i
F ast
F red
F ull
F ella
G u
G et
G ard
G all
G ood
G reg
G azprom
G eneral
H E
H ear
H ug
H odgson
H enson
I Y
I mp
J ason
K im
K ap
K enteris
L ess
L ocal
L ater
L abs
L leyton
M el
M anu
M edia
M CI
N M
N as
N az
N ovember
O S
O pp
O per
O range
P age
P erson
P VR
R ic
R oss
R ising
R angers
R yan
R uddock
S in
S en
S up
S pr
S ouness
S UV
T a
T en
T el
T ra
T ake
T ime
T aylor
U N
V oice
V irus
V oters
W ould
W TO
W olves
Y our
Y ahoo
a very
a ux
b in
b ies
b led
b ott
b uck
c q
c at
c hat
c ible
c rim
c estershire
d or
d ro
d id
d ent
d if
d one
d ance
e on
e very
e ady
e ating
e avour
f un
f ated
f ictional
f izer
g am
g ear
g ren
g roup
h ik
i ew
i able
i ise
k is
k ers
k illed
k illers
k owski
l op
l ab
l ash
l ins
m g
m at
m ad
m ony
m ined
m ember
m itting
m ma
n st
n ock
n ai
n icki
o il
p ers
p ract
p hal
p ieces
r s
r ide
r ine
r ays
r ations
r ors
r era
r uling
s im
s ome
s ets
s ense
s uccess
s erving
s ubstant
t im
t un
t ail
t ook
t aker
u ity
u ates
u yn
u ously
v on
v re
v ity
v oy
v ote
v antage
v chenko
w rote
w erty
x ual
x imately
y ff
y once
z i
z o
z al
z ard
z heimer
Ġ 00
Ġ icing
Ġt in
Ġt am
Ġt ong
Ġt orn
Ġt anks
Ġt agged
Ġt apped
Ġt aught
Ġt issue
Ġa ka
he ng
in v
in ion
er og
Ġthe ore
Ġs and
Ġs ink
Ġs inc
Ġs ized
re se
re asonable
Ġw al
Ġw isdom
Ġc ow
Ġc ra
Ġc raft
Ġc rap
or ate
Ġb er
Ġb end
Ġb ath
Ġb ored
en es
en ant
en amed
it is
it ter
it ia
it ches
Ġf illing
Ġf aked
Ġf olk
ed ge
ed ric
Ġo mission
Ġo usted
is and
is ory
is ode
Ġp ent
Ġp and
Ġp ure
Ġp unk
Ġp anda
Ġp oking
Ġp urely
an i
ar ios
ar lets
ar thy
Ġm p
Ġm ol
Ġm el
Ġm entions
Ġm apping
Ġm asks
Ġm ongrel
nd ication
al ways
at am
at ical
at ton
at lantic
Ġd al
Ġd ive
Ġd iction
Ġd ancing
Ġd ereg
ic ating
ic ular
ic ulous
le m
le an
ro b
ro e
il a
il ies
il ova
id ant
id ge
id dle
Ġha il
Ġha ul
Ġbe am
Ġbe ast
Ġn ods
Ġn urse
Ġn asty
om ars
Ġg at
Ġg ur
Ġg aff
Ġg rey
ent on
Ġre ar
Ġre per
Ġre liance
Ġre jection
Ġre wind
Ġre neg
Ġre bellion
Ġre write
st ated
st een
Ġl av
Ġl ull
Ġl over
Ġl ane
Ġl odge
Ġl osers
ut er
ut enant
Ġe c
Ġe cl
ĠT ab
ĠT ans
ĠT row
ĠT ell
ĠT ote
ĠT win
ĠT ampa
ĠT ournament
ĠT hames
ĠT FC
ay aro
ĠM G
ĠM am
ĠM ant
ĠM ia
ĠM ally
ĠM ount
ĠM aking
ĠM ars
ĠM aj
ĠM oor
ĠM ery
ĠM illions
ĠM ama
ĠM IT
ĠM ardy
et i
et ham
et ric
ct arian
ĠB ret
ĠB ody
ĠB rid
ĠB ald
ĠB urt
ĠB abinet
ĠB SL
ĠB ramble
ly ne
Ġh ire
Ġh ired
ĠS D
ĠS E
ĠS M
ĠS i
ĠS em
ĠS chn
ĠS lo
ĠS ative
ĠS erg
ĠS uk
ĠS ald
ĠS mit
ĠS ears
ĠS FA
ĠS utton
ĠS lovakia
ĠS richa
ĠS noop
ir k
ir ut
am ar
am ation
am ai
am bo
ig en
ig han
ig nty
im i
im s
us o
us u
us er
us an
us hes
us etts
ĠA ctor
ĠA me
ĠA way
ĠA MF
ĠA iy
ĠA lda
ĠI S
ĠI V
ĠI l
ĠI LO
ĠI NSEE
ur d
ll i
ad i
ad m
ad icate
ad justed
ĠC it
ĠC ou
ĠC ure
ĠC age
ĠC hat
ĠC af
ĠC NP
ĠC lyde
ĠC GI
ĠC PL
ĠC edric
ers et
ers ad
ers ace
Ġhe ct
Ġhe ft
Ġhe ated
Ġhe redit
Ġst all
Ġst ating
Ġst yles
Ġst alking
Ġst uttering
Ġth ieves
ĠThe o
Ġwh ing
Ġwh ipped
Ġan te
Ġan gr
Ġan onym
Ġr ational
Ġr ib
Ġr ings
Ġr ave
Ġr ipped
Ġr iot
Ġr hetor
un ately
un just
un acceptable
ĠH es
ĠH ur
ĠH ines
ĠH ins
ĠH ope
ĠH uw
ĠH odge
ĠH ingis
op ard
ol er
ol ation
ol ine
ol can
se e
se in
se vere
Ġpro ceeds
Ġcom ed
Ġcon form
ke i
ke let
ĠL ow
ĠL up
ĠL iv
ĠL ark
ĠL ook
ĠL ect
ĠL ille
ĠL ander
ĠL enders
ĠL illy
ĠL arry
ĠL arsson
ĠL onghorn
Ġhas sle
ĠD al
ĠD oc
ĠD ors
ĠD way
ĠD ared
ĠD rug
ĠD ream
ĠD rop
ĠD ubs
ĠD ogg
ĠD agg
ĠD VB
ĠD IY
ac o
ac re
ac ha
ac han
ac ility
ac ris
ac urt
ac erb
Ġse le
Ġse ism
Ġse min
ain t
ment ary
ĠP ast
ĠP av
ĠP ix
ĠP rent
ĠP ull
ĠP arent
ĠP ension
ĠP aver
ĠP oz
ĠP DAs
ĠP upils
ĠP ountney
Ġwe igh
pe lled
ew ater
ĠE V
ĠE g
ĠE p
ĠE ach
ĠE DS
ĠE EF
ĠE MI
ĠE avis
ĠE erdekens
ul pt
ul ip
ul ging
up ta
ĠF C
ĠF ou
ĠF ast
ĠF ant
ĠF oc
ĠF ears
ĠF iji
ĠF acility
ri am
ri ver
ri ors
ri ption
ĠR if
ĠR ab
ĠR ap
ĠR amp
ĠR ather
ĠR acing
ĠR ij
ĠR iley
ĠR ules
ĠR ascal
ĠW i
ĠW ord
ĠW ings
ĠW inn
ĠW aver
ag at
ag ie
ag ne
ĠG on
ĠG as
ĠG im
ĠG us
ĠG ate
ĠG ust
ĠG ran
ĠG raz
ĠG PS
ĠG ius
ĠG aston
ĠG DC
ĠG ebrselassie
ĠG omars
ĠG upta
Ġ2 30
Ġal right
Ġal tering
ear chers
th ree
Ġpl ots
ĠU rug
ĠU rban
Ġnot ing
Ġnot ified
ate l
um ed
um bs
um my
Ġex acerb
if led
ab ys
ist air
Ġgo ss
art ial
Ġv aul
os o
ess andro
ast ed
ast rous
ĠJ ill
ĠN ine
ĠN ob
ĠN ames
ĠN ative
ĠN ature
ĠN airo
el ight
el ton
em in
em ont
ra pped
ĠO t
ĠO de
ĠO SI
ĠO BE
ant ages
od a
od ges
Ġle ak
Ġle ase
Ġle agues
Ġle vy
Ġle cture
Ġle aks
Ġsh ook
ud ed
Ġcomp aring
Ġcomp osure
Ġcomp rised
iv ated
iv able
qu est
ich i
ich olas
Ġcha ins
Ġcha irm
pp ers
pp ered
all ine
Ġsu ite
Ġsu ited
ak opoulos
Ġab d
Ġj ets
Ġj aw
Ġj uke
Ġj ibe
ord es
ord erly
ere e
ere ly
Ġus hered
ry ption
oc cup
ok i
ok o
Ġup hold
Ġout lines
Ġout do
Ġout played
Ġout cry
ge ant
Ġpe ppered
Ġcl ashes
og o
Ġte a
con sc
con sider
Ġplay list
ans en
ans om
ans hip
Ġwhe never
Ġoff ending
Ġsp ur
Ġsp illed
ĠK es
ĠK el
ĠK uch
ĠK ewell
ĠK athy
ĠK uj
ĠK isna
Ġcont ents
Ġun ear
Ġun for
Ġun pat
Ġun marked
Ġun remittingly
Ġun realistic
Ġover heads
Ġover ruling
ile mma
ub sc
ign e
und ers
und ai
Ġint act
Ġim bal
Ġpart isan
Ġrec overs
ail ure
ĠSt ones
ĠSt ores
ĠSt oke
ĠSt rip
ĠSt reep
ount s
du ed
ĠHe ad
Ġqu ote
ne ath
per ed
Ġinter fer
Ġinter rog
Ġres h
Ġres idency
ult ing
Ġpre val
Ġpre vail
Ġsc ent
Ġsc ans
Ġsc oot
Ġsc roll
Ġsc reaming
Ġsc ulpt
Ġdis k
Ġdis able
Ġdis li
Ġdis eng
Ġdis mant
Ġdis rep
Ġdis appro
ĠIn st
Ġacc ord
ward robe
ian g
Ġmin er
Ġwin ds
Ġwin emaker
Ġen listed
Ġwork ings
av ier
av rat
Ġlike able
form ers
Ġback f
Ġback street
Ġback lash
Ġ19 47
Ġpr ay
Ġpr ud
Ġpr agmatic
ĠBl oc
li ber
ĠBrit annia
ĠV on
ĠV est
ĠV irus
ĠV inc
ĠV ij
ĠV ert
ĠY a
Ġdec k
Ġper ceive
Ġper ceptions
oy ong
Ġar cade
Ġar isen
ink ier
get ting
Ġele ven
ĠEuro s
ĠCh ico
Ġcons olation
Ġinv asion
Ġro lled
Ġro sy
Ġro cks
Ġman ual
Ġsha m
Ġsha ping
Ġno ises
ĠTh ings
iss ance
Ġshe ep
Ġshe lf
ock ing
act us
Ġcount s
Ġ4 40
olog ist
Ġph oney
Ġcomm ands
Ġunder way
Ġunder min
Ġunder estim
Ġunder neath
Ġneed lessly
Ġear ners
ib and
Ġpubl ishes
mp h
mp agne
ĠNew ry
ĠDe ans
Ġdef lection
Ġdef amation
we ger
its u
its une
ident ally
ident ified
Ġimp ly
Ġimp res
Ġbl oc
Ġbl ues
Ġbl itz
Ġbl urred
han a
Ġrem edy
Ġrem akes
Ġrem ittances
Ġway ward
ister ing
Ġgood ness
ĠHow l
te john
Ġcall ers
ren nan
enc er
Ġbo ots
ĠSc an
har ine
Ġfe asible
Ġend lessly
Ġcur led
Ġcur riculum
Ġsec s
ars hip
vent ure
vent ions
Ġreg ener
Ġreg rets
ĠCom pl
ĠCom air
ĠCom puters
Ġtri pled
Ġtax i
Ġstr angle
Ġrun g
me as
Ġprogram mer
Ġprogram med
Ġ10 5
Ġsl iding
Ġsl aves
Ġsl aughter
Ġsl opping
Ġsl avery
Ġbelie ver
ĠAr rese
Ġconf use
ull ed
ner g
ner ed
velop ed
Ġintern ment
Ġser geant
Ġsystem atically
Ġcost ed
Ġcost ing
Ġgener ates
Ġgener osity
Ġac ademy
Ġmillion aires
az in
az ing
Ġbus h
ĠLe ading
ĠLe isure
Ġwhere abouts
ron ts
ron ically
ĠAl b
ĠAl ain
ĠAl ice
ĠAl geria
ĠAl zheimer
ĠAl istair
ĠAl essandro
Ġter aflops
Ġins ol
Ġins ulation
lo ver
ason ic
ĠJo a
ĠJo ice
ĠJo int
Ġcamp s
Ġcontin uous
Ġbusiness man
ĠSp ore
ĠSp aces
Ġpay ers
sc or
sc enes
Ġpri est
Ġoper ational
ash ie
ath lete
ee uw
ang s
ĠAn nette
Ġprov isions
He ad
ric ed
ric ane
Ġsm iles
Ġref inery
Ġext ensions
Ġvi ability
ze bon
ĠCl apton
Ġfl op
Ġfl uct
Ġfl ashes
ĠRe bel
Ġreal isation
Ġ20 20
Ġlist ened
Ġrel ishing
ĠSe ven
ĠGer mans
ĠJohn ston
Ġform ation
lect ive
ĠMc M
ĠMc En
let ter
let ico
Ġgu iding
head ed
Ġcame o
ox y
Ġcare taker
Ġlot tery
leg round
Ġfinal ised
Ġed its
Ġadv antages
Ġcre ations
ĠShe vchenko
ĠShe ila
Ġinst ances
Ġinst alling
Ġass isting
Ġass ert
Ġass igned
ĠAt letico
ĠWe ir
ĠWe iss
ĠWe bs
ĠWe iner
Ġpos es
Ġgl imp
Ġfam ed
Ġfam ine
Ġaff ection
Ġexp ans
Ġ12 5
Ġrece ipt
load s
Ġview point
ĠPC tv
Ġrep ublic
ĠMon ten
ĠMon ica
ĠMon soon
ĠCha mpion
ĠCha llenge
Ġvis as
Ġvis uals
Ġsub ur
Ġsub missions
Ġsub dued
ĠMar se
ĠMar lu
ĠMar uti
Ġmod es
Ġmod elled
Ġfund raising
Ġev ident
Ġpass word
Ġ9 00
Ġfac ilit
Ġpropos ing
ele ctions
Ġcol leg
Ġcol onial
Ġbook maker
af ia
ris k
Ġrest oring
ĠCon st
ĠCon lon
ĠCon chita
Ġexpl ored
Ġbid ders
hold er
rew sbury
Ġtra iled
Ġcop ed
Ġfree ing
Ġeas ing
ĠZ eppe
ĠZ eeuw
ĠMin ogue
ĠCar lo
Ġpersonal ities
Ġche m
Ġche ers
ĠBe en
ĠBe auty
ĠBe yonce
ĠBe irut
Ġ11 3
empt ion
ple x
ĠGl axo
Ġsmall est
ĠEx ports
ĠEx perts
ustom ers
Ġband mates
ĠChe la
ĠSouth west
Ġest eem
ĠFor gear
Ġtrad itions
Ġenter prises
iet h
iet te
Ġschool boys
ĠBank ers
Ġgr uelling
Ġlim elight
Ġproject ors
eg ro
Ġboost s
ĠBar r
ĠBar ber
Ġthreat ens
Ġnetwork ing
Ġob st
Ġob jection
ĠX en
ĠBo o
ĠSw indon
ĠGr udge
Ġca res
Ġstre amed
Ġsw ear
Ġsw ung
Ġsw earing
ĠIf o
ĠIs lington
Ġspec ified
Ġball oon
ĠSha ll
ĠSha nda
ĠSha nghai
ler osis
Ġlo ves
Ġlo aded
Ġorig ins
ĠMay er
Ġpot ent
Ġpot ato
ĠHar mony
Ġpriv ately
As ked
Ġmid day
Ġnational ities
ĠSim ply
ĠSim ulator
ĠLib ya
ĠMor i
Ġbatt leground
Ġelect rical
ĠAg nell
une z
Ġspecial ised
ĠAm bev
aff erty
Ġsoc cer
Ġsoc ieties
ĠPr ice
Ġmar vel
Ġmar que
Ġur ges
ĠMac Kenzie
Ġcam c
ĠTr in
Ġ17 0
St ill
St ars
ĠDr agon
Ġaccept s
min ated
Ġsol icit
ĠPh oto
go ers
Ġhuman ity
ĠIr ons
Ġamount ing
Ġeduc ating
Ġsell er
Ġ13 3
Ġactress es
Ġsk et
Ġsk ies
Ġsk ip
ĠFeder ations
Ġquick est
Ġfootball er
ĠSh ir
ĠSh ould
ĠSh rewsbury
ĠRes ults
Ġlif eline
ĠAng olan
Ġdesc end
Ġdesc ription
Ġaid s
Ġtext s
Ġtext ures
sh irts
Ġcateg or
Ġbar g
Ġclass ified
Ġland l
Ġland lines
sw apping
uff icient
ĠMil iband
Ġrecogn ising
Ġrecogn ises
der abad
ĠFin ally
ĠBr anson
ĠCor bett
Ġappeal ing
eal ous
Ġdomin ation
Ġcou ch
ĠBro oks
appoint ed
Ġunderstand ably
Ġoriginal ity
lor a
Ġcomment ary
ĠEl an
ĠEl ia
Ġavo ids
Ġneg lig
Ġsuper ior
Ġbattle field
Ġcivil ians
Ġprob es
Ġprob ation
ĠRo om
Ġdi aller
Ġdi amond
Ġfair y
Ġmer chant
Ġlight s
Ġsett ling
Ġcaptain ed
Ġmot ives
Ġpositive ly
Ġtool bar
win ner
Ġcoll ateral
Ġspot ting
ĠOf sted
Ġbel t
Ġlear nt
Ġlear ners
Ġprem iership
Ġkill ings
Ġep idemic
ĠWar rior
11 1
Ġrow s
Ġamb assador
An n
Ġcross ing
ĠHer bert
Ġrespect ive
Ġappl iances
EC E
Ġlove ly
ĠTom orrow
vis o
Ġdefend ers
Ġdefend ant
Ġdest iny
Ġdest inations
ĠBen in
Ġconst ables
Ġengine ered
ĠKore ans
quir y
ĠAc ross
Ġalle ge
ĠSch rad
aut hent
Ġpract ise
Ġey eing
ĠMe ldrum
ĠMe ighan
hel wood
Ġpull s
Ġnation wide
ĠNor ah
Ġpret ending
Ġrob bery
ĠMo lyne
ĠWood hill
Ġcinem at
ĠDi emont
Ġspeed ing
Al munia
ĠCard inal
ĠDo ors
15 2
15 5
Ġcru el
19 0
200 3
Ġtouch ing
rop ia
ĠAct iv
Ġnegoti ation
cri pt
ĠRay ns
ĠBel le
ĠMcC arthy
Pe er
ĠMus sel
Bl unkett
Ġcal ibre
ĠIsrael is
Ġarri ves
Ġdefin ite
Ġdefin itive
Ġlegis l
Brit s
pir ing
ĠSan ia
ĠElect ric
Ġindex ing
Ġphys io
erse y
ĠPlay station
Ġprotest ors
ĠLaw s
Ġcounter ed
ĠDown load
Ġtend on
Ġmur ders
tr ust
ĠGame Cube
Ġcontact s
ĠQu entin
ĠQu ashie
Ġpurcha sing
Ġign oring
ĠFar ina
Ġsust aining
Ġadop ting
Ġlic ense
ĠMal oney
ĠFA O
Ġautom ated
Eng lish
Ġassess ments
Ġmodern ise
Ġtight en
Ġtight ly
Ġtight ened
Ġinteract ivity
Ġpaper work
Ġrepe ating
Ġlog ic
Ġlog ical
Ġlog ging
Ġsex ist
Ġsex ually
ĠRos es
Ġregister ing
Ġfire arms
Ġliber ation
Ġliber tar
ĠDon nelly
ĠEconom y
Ġconc iliation
Ġren ov
Ġhor izon
Ġsem is
ĠRep orter
Ġmanifest os
Sc arlets
rol ux
ĠBern ath
ĠNi ppon
Ġdemonst rating
prof essional
ĠCap gem
ĠHam ann
ĠHam mers
Ġspl itting
Ġmail s
ĠEr rera
Ġcheap est
ĠDou ble
Ġcomplet es
ĠStock holm
Ġsurf aces
bl own
bl azer
Ġbri bery
Ġdelay ing
ĠPer ugini
Ġexam ination
Ġprefer ring
Ġsurround ed
Ġsurround ings
Ġsucceed ing
ĠMer chant
ĠBet ter
ĠBet ts
Ġcompens ate
Ġhal ved
Ġhur d
Ġhur ts
ĠCell ery
ĠLet itia
Ġovert ake
ĠDef ar
ĠDef ending
Ġ196 7
Ġ196 8
fast est
ĠMir co
ĠGreat er
ĠGood ison
Ġexplo its
Ġtact ically
ĠBond i
Ġrat che
ĠEv il
Ġupgr aded
Ġwithdraw ing
lict ing
ĠSant oro
ĠIP O
ĠLat ham
ĠWal t
Ġsprint ed
Ġsprint ing
TA L
Ġsy nt
Ġsy mpt
Ġbomb ing
Ġbomb ings
ĠPre c
ĠPre ference
ĠPre vention
ĠPre viously
ĠEm il
ĠEm ily
ĠEm ma
ĠEm irates
ĠEm iew
Ġrestrict ive
Ġhistor ically
ĠRepublic an
Ġaw ful
Ġaw ait
Ġded ication
ĠDel hi
ĠJer ome
Ġcance lling
Ġconsist ency
Ġgrand children
Ġpersu ading
Ġdraft ing
ĠJew s
ĠOld ham
rig ation
rig ging
Ġcollect ive
Ġfreedom s
ID S
Ġer up
Ġer ratic
Ġer adicate
Ġver ify
Ġpurs uit
ĠHug o
ordin ated
ordin ating
Ġcrack s
Ġequal ised
eter mined
ĠCub e
ĠCub ic
Ġrevolution ised
Ġemp ire
ĠNic ole
Ġimag ery
Ġimag inary
Ġcool ing
Ġsmart phone
Ġut ilise
Ġbul lying
Ġgather s
Ġspring ing
Ġprofessional ism
mar gins
Ġtim etable
Ġrecon sider
Ġrecon struct
Ġsevent ies
Ġaccident ally
ĠVict ory
ĠVict ims
mo ving
Ġlib el
Ġring ing
ĠHy de
ĠHy derabad
ĠHans on
SI S
ĠTosh itsune
ĠAp acs
ĠLu ke
ĠWork ing
Ġchair ing
Ġuncertain ties
Ġarch ive
ĠTechn ical
lar ge
Ġsophistic ation
Ġdig its
Ġlay ing
ĠPan asonic
Ġdepend ence
Ġfest ivals
Ġpodcast ers
Ġder ail
ĠFalcon s
Cl arke
Ed wards
Ġcatch y
Ġhack ing
Ġloc ate
ĠBru vik
ĠBenn y
ĠSa akash
Ġanalys ed
ĠHall oween
Ġoverwhel m
ĠTrans lation
Ġacknowled ges
Ġdivid es
Ġdivid ing
ĠLam bert
ĠGen uine
ĠNat asha
Ġamaz ed
Ġrelay ed
ĠExp o
Ġgrad uated
Ġwid ened
Ġbond holders
ĠPower book
ĠPower Page
ĠRow lands
ĠRoy ale
Ġ195 7
ĠWeb root
Ġcollabor ated
cap tain
ĠBark er
ĠSil icon
ĠUt ah
Ġcompat ibility
Ġadjust ments
Ġlie utenant
ĠTy kes
ĠSing h
Ġvill ages
ĠNight y
Ġrecru iting
Ġcorrect ly
Ġmut ed
ĠTour ist
ĠMack ay
ĠLes ter
Ġtransl ate
Ġobject ed
Ġguarantee ing
bal anced
Ġproportion ate
ĠLou vre
ĠKar ol
Ġunus ually
Ġenhan ced
Ġenthusi asts
Ġencounter ed
ĠCru cial
ĠCru yff
Ġindic ates
Ġindic ator
Ġwarm ly
ĠSpring er
ĠSpring steen
Ġexclus ively
ĠShadow crew
Ġmagn ate
EM I
chan nel
Ġstorm s
ograp her
Ġspell s
Ġexplos ive
Ġexplos ions
Ġlifest yles
Ġbelong s
Ġbelong ed
ĠTelecom munications
Ġhotsp ot
EA D
Music ians
gener ated
Ġcaf e
Ġstret ch
ĠFort y
ĠFort uyn
ĠJol in
apix el
ĠStr achan
Ġnumer ical
Ġprovision ally
Ġflow ing
Ġbrew ing
Ġinfring e
Ġblockbust ers
Ġpunish ments
Ġrail way
ĠHere ford
ĠLl wyd
ĠFair ford
ĠNov artis
Ġdiss atisfied
Ġblue print
Ġassum ing
ĠEarth link
ĠEarth quake
significant ly
!! !
Ġbed room
ĠBerg kamp
ĠCost ello
ĠCost acurt
ĠPoll mann
Ġclamp ing
Ġclock ing
Ġdisag reed
ĠCla ude
Ġsufficient ly
Bar celona
Bar clays
uts umi
ĠNich olls
Ġcoinc ide
Ġmemor ial
.' "
MD R
ĠTor onto
ĠSen ior
ĠHas sell
Ġoccup ying
Ġobsc urity
ĠHaz el
ĠPay ing
ĠPay pal
ĠEqu al
ĠRu le
Ġoutbreak s
ĠAss istant
Ġsimpl ify
ĠBarb ra
Ġmarri ages
Ġvolunt arily
Ġliberal isation
fund amental
good bye
ĠEli ot
ĠWhe el
ĠOpp osition
Ġupload ed
ĠStre isand
Ġslim mer
Ġfrag mented
Ġhamper ed
Ġrecommend ation
ĠIC M
ĠDur ham
Ġmechan ics
Ġtru ce
Ġtru ancy
Ġbuoy ed
ĠMcMan aman
ĠConcer ns
ĠDirect ive
Ġdigit ised
Ġdiscrimin ates
Hen ry
Tr ade
oop ers
Ġfold ing
Ġdim ensions
ĠCas ino
ĠLim ited
ĠOp inion
Ġindefin ite
Ġinfect s
Ġdevast ated
Ġpleas ure
Ġredund ant
Ġredund ancy
Ġrecruit ment
Play ers
Ġice berg
hem ian
Ġpump s
Ġgar ment
Ġgar age
ĠMake lele
ĠBos ch
Ġaler ted
ĠKy lie
ĠKy oto
ĠVol vo
ĠVol kswagen
Ġamend ments
ON GC
Sw itzerland
del iver
Ġwond ers
ĠTown s
ĠCA S
ĠHad en
cons istent
ĠKlu ivert
Ġcann ib
Ġque ue
Ġinterpret ation
Ġdisad vantage
Ġkit chen
Ġsquab bles
Ġprivile ges
ĠRespond ing
Ġdeterior ate
uar al
Ġfoul s
Ġindu ction
Ġnick name
ĠBri zzel
ĠSad ly
ĠSad dam
Ġaspir ation
Ġconcl usion
Ġconcl usions
ĠLem ar
ĠLud ovic
ĠLud acris
ĠPVR s
compet ition
compet itive
Polit icians
Ġwr angling
Ġmus c
Ġreop ening
ĠMans on
ĠMult imedia
ĠBuck ingham
ĠAk amai
ĠDome cq
ĠPret ty
ĠPret tejohn
Ġshout ing
Ġroyal ties
Web ster
Ġpresum ably
Ġbitter ly
Ġzomb ie
Ġsweep ing
Ġcongrat ulated
Ġneighbour hood
Ġnotebook s
Ġaccommod ation
Cal visano
Econom y
Ġing red
onge vity
Ġsun set
Ġce ase
Ġfet ch
Ġmir ror
Ġmyst ery
Ġli abilities
ĠTanz i
ĠMend es
ĠMem or
ĠSold ier
ĠHon ours
Ġprolong ed
ĠPier re
ĠFel ic
ĠNik kei
Ġoutwe ighed
ĠKo oyong
Ġunl ucky
Ġoverc ame
ĠInit ially
Ġaccol ades
Ġenvelop e
Ġenvelop es
ĠScr ushy
Ġ76 10
Ġcomplac ent
Ġadvertise ments
Ġfingerprint s
Ġfingerprint ing
School s
rac ism
Ġfasc in
arri ages
arri aga
Ġdict ate
Ġdict ators
Ġrend ered
ĠMust afa
ĠMats ushita
ĠBab ayaro
ĠSham eless
Ġisol ated
ĠCob ain
ĠCustom s
Ġthwart ed
ĠEasy mobile
ĠWard le
Ġvig ilant
Ġunanim ously
Ġsovere ignty
Ġdeclar ations
Ġvolat ile
ĠQuin lan
Ġpetro chemicals
Ġresurre cted
Ġelimin ate
Ag assi
RF U
mod el
Ġtatt oo
Ġware house
Ġwise ly
Ġcri pple
Ġcyn ical
Ġble ak
Ġmild er
Ġrevel ation
ĠTN T
ĠBi ogen
Ġconfer ences
ĠLight body
ĠLind a
ĠEP A
ĠJess ica
Ġpred omin
ĠBlogg ers
ĠBlogg ies
ĠRev olution
Ġadmir ation
Ġdistur bing
Israel i
dri ven
Ġtheat res
Ġcros sover
Ġbra king
Ġinex perienced
Ġreorgan isation
ĠTs utsumi
ĠBak rie
ĠSor os
ĠSib neft
ĠCull um
ĠCrist iano
ĠHic ham
ĠHind i
ĠHands ets
ĠWrit ers
ĠJar vis
Ġje opard
ĠKat harine
Ġalloc ated
Ġinteroper ability
ĠBlackber ry
Ġfranc s
ĠLaure n
Ġvolunte ers
Ġreinfor ces
Campaign ers
ĠTunis ia
Venezuel a
fail ing
hur st
Ġtwe aked
Ġbury ing
Ġperv asive
Ġbell s
Ġlit res
ĠMath ieu
ĠSpect rum
ĠSell ers
ĠAF I
ĠCer i
Ġhed ge
Ġstagger ing
ĠHus sein
ĠDest iny
ĠWy att
Ġbutt ons
ĠKa hn
ĠKrist in
Ġrechar ge
Ġquant ities
Ġinterf aces
Ġdisqu iet
Ġelev ated
Inter est
Thom as
ĠExhib itor
Ġdistingu ish
Ġsubsc ribe
ĠBrig itte
ĠColomb ian
Ġcatalog ues
Ġemotion ally
ĠGiann akopoulos
Ġcontradict ory
Act ress
Jam ie
bet ter
rank ing
ymm etric
Ġtail ored
Ġaest het
Ġaston ishing
Ġfals ifying
Ġmisc arriages
Ġdign ity
ĠTem ple
ĠSmer nicki
ĠAch illes
ĠAth lete
ĠISP s
ĠCrou cher
ĠChen nai
ĠClears wift
ĠHul k
ĠDw ain
Ġbypass ed
ĠRenn ard
ĠWim pey
ĠGy ps
ĠNach ison
Ġoutstri pping
ĠStream Cast
Ġinterpre ter
Ġkeyst roke
Ġblat ant
Ġmyth ology
Ġsmok ers
ĠLiver more
ĠWeek ly
Ġtraum a
ĠGoldf ine
Ġparalle l
ĠMoz ambique
Ġmurd ered
Ġcatastrop he
ĠEmploy ment
ĠJerem iah
View ers
Controvers ial
Ġprolifer ation
ĠGCSE s
Ġubiquit ous
Brent ford
Clear ly
Gold en
Offic ials
Ra e
Sid eways
Tre viso
Ġwip ed
Ġciv ic
Ġdil ig
rof lora
vell ous
Ġreint rodu
ĠTet ris
ĠMom ents
ĠSom erset
impro ved
ĠIgn acio
ĠCand ela
Ġstyl us
Ġanthe m
unlike ly
ĠLund gren
ĠDizz ee
ĠEnt ropia
ĠFuj itsu
ĠRum ours
ĠRinal di
ĠRosen borg
Ġcompan ion
Ġunhealth y
Ġincar nation
ĠSto ica
Ġscal p
Ġdisproportion ate
retro vir
Init ially
ĠWeingart en
Ġtranspl ant
ĠBarn ard
ĠXiluod u
Ġfrontbenc her
incre asingly
Ġmisrepresent ation
ĠMaor i
ĠCarls berg
ĠBuccane ers
ĠMandar ic
ĠMassach usetts
ĠStrateg y
ĠMessage Labs
Ġschol arship
ĠCherkas ky
Ġkilomet res
ĠRazor light
Drag ons
Gard ener
Hear ts
Manu fact
Naz i
dif ficult
Ġ00 7
erog ative
Ġsinc erely
atam onitor
icular ly
Ġgur u
ĠTans ley
ĠTrow bridge
ĠTell ier
ĠMally a
ĠMery l
ĠSlo ven
ĠSative x
ĠSald arriaga
ĠSricha phan
ĠCNP C
Ġheft y
Ġangr ily
ĠHins helwood
olcan o
ĠLup oli
ĠLark in
ĠDors et
ĠDway ne
ĠDared evil
ĠDagg ers
Ġseism ic
ĠPull man
ĠPoz zebon
ĠFoc us
ĠRamp ersad
ĠWaver ley
ĠGius eppe
ĠGomars all
ĠUrug uay
Ġgoss ip
Ġvaul ter
ĠNairo bi
ĠOde on
Ġchairm anship
ĠKuch ma
ĠKuj da
Ġunfor ced
avrat ilova
ĠChico ine
Ġundermin ing
ĠMcEn roe
Ġglimp se
ĠMonten egro
ĠZeppe lin
ĠForgear d
ĠAgnell i
ĠSchrad er
authent ic
ĠMolyne ux
ĠRayns ford
ĠCapgem ini
ĠSaakash vili
ĠCostacurt a
% ,"
% ."
) :
0 8
0 9
2 000
3 80
3 99
5 9
6 30
9 20
9 60
A S
A f
A p
A re
A ction
A vi
A round
A nel
A mpas
B P
B U
B an
B ir
B ad
B and
B ag
B ark
B ased
B rian
B SA
B rain
B NP
C E
C er
C ent
C are
C ount
C ell
C ross
C ivil
C roat
C ustomers
C oopers
D I
D el
D one
D ame
D ocu
D elta
D awson
D VR
D erby
D undee
E m
E qu
E lect
E RS
E FA
E ye
F l
F ed
F ew
F ile
F urther
F ran
F ebruary
F oster
F CC
F ears
F ailure
G E
G r
G roup
G iving
G iggs
G raham
H P
H undreds
H TC
H istor
I E
I m
I lroy
I dowu
I LO
J un
J oss
J anuary
J uly
K e
K line
K evin
L A
L L
L P
L u
L is
L at
L ong
L ee
L aw
L aur
L opez
M en
M ot
M us
M ad
M ake
M ob
M aking
M ex
M DA
M PC
N T
N Z
N ID
O A
O F
O h
O ut
O ff
O wen
O liver
P A
P ac
P eter
P arker
Q antas
R A
R ow
R os
R el
R ap
R age
R oy
R ef
R ather
R ev
R onald
R afa
R etail
S y
S ar
S ou
S im
S ri
S now
S underland
S cient
S eparately
S afin
T S
T w
T rou
T ough
T ax
T han
T ex
T ech
T ext
U sing
W he
W el
W ireless
W elsh
W ayne
W OL
W inners
X tra
] ."
a vers
a uge
b is
b as
b ie
b ush
b ably
b ooking
b utt
b ulent
b ecause
c ive
c reat
c ool
c ald
c ultural
c rowned
d ner
d ows
d ancing
d rive
d irected
e er
e ven
f a
f ur
f est
f ant
f ish
f ax
f ils
f ifth
f ighter
g ut
g un
g art
g ie
g iv
g ov
g rey
g aming
g rowth
g asp
h ra
h med
h igher
h ta
h unting
i oc
i ors
j ee
k g
k it
k ur
k now
k ara
k bps
k ansas
l ic
l os
l ime
l ings
l ittle
l ength
l enec
l inder
m is
m and
m el
m ind
m ings
m ajor
m aster
m oor
m ena
m aine
n i
n ar
n ad
n orm
n early
o i
p d
p ic
p ent
p ace
p oll
p ause
p ical
p aper
p arent
p ocket
p hant
q v
r in
r ill
r ab
r ally
r ister
r acket
r ushing
r attled
s qu
s ong
s son
s ix
s me
s ley
s pecial
s hambles
s omething
s ustainable
s kjaer
t w
t an
t ight
t own
t ens
t ran
t rem
t fordshire
t ucker
t seva
u o
u ld
v ot
v ag
v ide
v oice
w i
w r
w he
w ow
w ort
w aly
x ic
x ham
y u
y el
y the
y den
y der
z ig
z hn
Ġ x
Ġ ug
Ġ ump
Ġ eras
Ġt or
Ġt ast
Ġt ide
Ġt rough
Ġt ipping
Ġt ighter
Ġt idal
Ġt aunting
Ġt iger
Ġa st
Ġa ust
Ġa iding
he nd
in st
in ch
in met
er ay
er ick
er man
er ting
er stein
Ġthe rap
on ation
on ica
Ġs ar
Ġs isters
Ġs ilk
Ġs ung
Ġs lew
re an
re nd
re ction
re ated
re acted
re xham
Ġw et
Ġw rest
Ġw ishing
Ġw rap
Ġw owed
Ġw oken
Ġc ook
Ġc ram
Ġc ave
Ġc ush
Ġc rave
Ġc oded
Ġc attle
Ġc actus
or se
or ge
or ia
Ġb ay
Ġb ree
Ġb enc
Ġb other
Ġb eds
Ġb rake
Ġb ouncing
Ġb ounce
en abled
ha re
ha ves
ha lin
ha yel
it i
it ative
it ken
it ivity
Ġf erv
Ġf used
Ġf ray
Ġf ading
Ġf ires
Ġf lew
Ġf isher
Ġf izz
Ġf raction
Ġf ronted
Ġf bi
es ter
es co
Ġo g
Ġo lig
is le
is co
Ġp our
Ġp ity
Ġp ian
Ġp ink
Ġp enc
Ġp iled
Ġp ipped
Ġp ills
Ġp ager
Ġp inn
Ġp aired
an ay
an ning
Ġto e
Ġto y
Ġto ut
Ġto urs
Ġto xic
ing ers
Ġin fer
Ġin hib
Ġin pat
Ġin access
ar at
ar ist
ar ians
Ġm es
Ġm ig
Ġm im
Ġm ud
Ġm amm
Ġm antle
Ġm igrant
Ġm afia
ou ri
ou chers
ou cestershire
nd wr
al in
al ion
al so
al one
al ong
al ous
al me
al ism
al iy
at ile
at able
at hing
Ġd ur
Ġd ys
Ġd ump
Ġd iving
Ġd read
Ġd itch
Ġd anced
Ġd ented
Ġd rowned
Ġd ilemma
ic als
ic ati
le es
ro let
ro bot
il ver
il and
il age
ion i
id est
id ane
Ġha zard
Ġn ail
Ġn ose
Ġn odd
Ġn aturally
om eland
Ġg re
Ġg ate
Ġg unning
Ġg race
Ġg uts
Ġg arden
Ġg entle
Ġg eeks
Ġg auge
Ġre ver
st ad
st ill
st ations
st orm
st oke
st ruck
st alline
Ġl id
Ġl ur
Ġl un
Ġl ag
Ġl end
Ġl one
Ġl ake
Ġl ia
Ġl ady
Ġl ured
Ġl iar
Ġl oser
Ġl uke
Ġl ongevity
Ġe ul
Ġe cc
Ġe lus
Ġe cos
ĠT an
ĠT ir
ĠT up
ĠT rou
ĠT ru
ĠT ank
ĠT rem
ĠT alk
ĠT olk
ĠT ube
ĠT onge
ĠT andy
ĠT ucker
ĠT ools
ĠT uffy
ĠT esco
ĠM C
ĠM W
ĠM ain
ĠM ap
ĠM ous
ĠM ade
ĠM ale
ĠM other
ĠM aw
ĠM elt
ĠM ott
ĠM igration
ĠM efin
ĠM ental
ĠM anga
ĠM MC
ĠM ovies
Ġ" '
et e
ct ive
ĠB R
ĠB ent
ĠB ally
ĠB ased
ĠB att
ĠB ov
ĠB iz
ĠB af
ĠB rew
ĠB asing
ĠB alk
ĠB ingham
ĠB BA
ĠB orrowing
ly mouth
ly ndwr
Ġh ilar
Ġh inge
Ġh obby
ot he
ot ine
ot ics
ot te
ĠS at
ĠS ent
ĠS ure
ĠS ach
ĠS amp
ĠS aw
ĠS ilk
ĠS uff
ĠS iber
ĠS ources
ĠS TA
ĠS olic
ĠS ender
ĠS uz
ĠS uccess
ĠS ource
ĠS urely
ĠS weet
ĠS owden
ow der
am ic
am ant
am ib
ig ley
im ming
us k
us uf
ĠA G
ĠA y
ĠA le
ĠA ish
ĠA ren
ĠA ster
ĠA leg
ĠA yn
ĠA zz
ĠA AC
ĠA aron
ĠA WOL
ĠA itken
ĠI A
ĠI ban
ĠI dle
ĠI gor
ĠI vo
ur ably
Ġsa cri
Ġsa iling
ad h
ad der
ad iere
ad ded
ĠC um
ĠC od
ĠC ram
ĠC hes
ĠC alled
ĠC ounter
ĠC aud
ĠC PS
ĠC aller
ĠC isco
ers se
ers hon
Ġhe y
Ġhe al
Ġhe ck
Ġst ing
Ġst ew
Ġst one
Ġst ip
Ġst ems
Ġst ifle
Ġst umbling
Ġth under
Ġth umped
ter ly
Ġwas h
Ġwas ting
ation ally
ĠThe ron
Ġwh olly
Ġan c
Ġan aly
Ġr am
Ġr age
Ġr av
Ġr iding
Ġr ude
Ġr iver
Ġr umbled
Ġr ousing
Ġr arity
Ġr ansom
est imate
un ited
un ted
un isation
un ching
ĠH ust
ĠH are
ĠH ollow
ĠH ale
ĠH oney
ĠH ood
ĠH ier
ĠH app
ĠH ern
ĠH igg
ĠH ousing
ĠH odges
ĠH EAD
ĠH omeland
op in
op ular
op ening
ol is
ol ve
ol ent
ol ence
se lected
Ġpro jections
Ġcon quer
Ġde mer
00 1
ĠL t
ĠL ate
ĠL if
ĠL ich
ĠL ake
ĠL ines
ĠL omb
Ġy ield
ĠD B
ĠD j
ĠD er
ĠD ul
ĠD ok
ĠD ue
ĠD ob
ĠD air
ĠD rew
ĠD iet
ĠD ogs
ĠD aly
ĠD VR
ĠD ynam
ĠD ido
ĠD addy
ĠD airy
ĠD oren
ĠD ibaba
ĠD atamonitor
ac as
ac ia
ac com
ac ious
Ġse xt
Ġse als
Ġse eds
Ġse aling
Ġse vens
Ġse greg
Ġse ctarian
and ing
ain ted
ĠP u
ĠP y
ĠP en
ĠP and
ĠP ere
ĠP ric
ĠP ugh
ĠP enn
ĠP odcast
ĠP ipe
ĠP eps
ĠP addy
ĠP fizer
pe cc
pe ace
ort on
ĠE ight
ĠE wood
ĠE ither
ĠE min
ĠE wan
ĠE cho
ĠE Bay
ĠE tz
ul p
ul ant
ul ia
ĠF ay
ĠF ol
ĠF og
ĠF ind
ĠF ool
ĠF aw
ĠF itz
ĠF inger
ĠF ero
ĠF ender
ri ved
ri ev
ĠR J
ĠR at
ĠR om
ĠR ah
ĠR ai
ĠR igg
ĠR iy
ĠR ato
ĠR idd
ĠR immer
ĠR AD
ĠW on
ĠW ent
ĠW end
ĠW ight
ĠW ap
ĠW ide
ĠW ire
ĠW orks
ĠW ald
ĠW ither
ĠW hel
ĠW ander
ĠW itness
ĠW hal
ĠW iley
ĠW igan
ĠW alder
ĠW HO
ĠW ipro
ĠW erner
ĠW SIS
ĠW igley
ag i
ag an
ag hile
ag ainst
ag uay
ĠG adget
ĠG ilm
ĠG irvan
ĠG amers
ĠG rieve
ĠG ethin
ĠG hana
ĠG angs
ĠG lyndwr
ĠG ershon
her ic
Ġal oud
Ġal tered
Ġ1 000
th is
th ia
ĠU l
ĠU pper
ĠU PS
ĠU bis
res c
res pect
res hing
res dner
Ġnot oriously
ate ful
um sy
Ġex ha
Ġex cell
Ġex agger
Ġex otic
ab i
ab ul
art i
art on
Ġv int
Ġv ib
Ġv ind
Ġv ied
Ġv ivid
Ġv icious
os ik
ast is
ast ream
ĠJ M
ĠJ ord
ĠJ ank
ĠJ ungle
ĠJ ugnot
ard ing
ĠN O
ĠN ate
ĠN ie
ĠN ice
ĠN ath
ĠN othing
ĠN obody
ĠN EM
ĠN asty
ĠN CCI
end as
end ry
end ary
el ance
em ate
ĠO d
ĠO m
ĠO ak
ĠO ber
ĠO ps
ĠO bviously
ant ha
ant ai
Ġle an
Ġle apt
Ġsh un
Ġsh red
Ġsh ield
Ġsh uff
Ġsh iny
Ġsh uffle
Ġsh ifted
ack ed
ie lli
ud row
ud sman
Ġcomp ress
Ġcomp ass
Ġcomp lement
Ġcomp osed
Ġcomp lied
Ġcomp osition
iv o
qu id
qu el
qu ins
qu een
qu ette
ich y
Ġcha sed
Ġcha mpagne
pp es
pp rop
all ica
Ġwor ding
Ġsu cc
Ġsu itor
Ġsu itors
Ġbut ton
Ġab using
ber gh
ber ty
ber to
Ġj u
Ġj ealous
ord ination
port ing
oc op
oc aster
oc ris
Ġag onising
ok er
ore nt
Ġwho ever
Ġad here
Ġad amant
Ġout m
Ġout p
Ġout lets
Ġout dated
Ġout raged
ong ol
are k
are va
ure x
ost ed
ost ering
Ġor p
Ġcl an
Ġcl am
Ġcl ue
Ġcl oud
Ġcl imax
Ġcl erk
Ġcl umsy
Ġne uro
og ram
Ġoff load
Ġsp ill
Ġsp un
Ġsp urn
Ġsp ray
Ġsp ying
Ġsp aces
Ġsp oon
Ġsp urred
Ġsp onsored
cc a
ĠK P
ĠK ot
ĠK ill
ĠK ron
ĠK ids
ĠK ipl
ĠK irst
ĠK ais
ĠK ano
ĠK uw
ĠK elli
ĠK erek
ĠK rispy
Ġall ay
Ġcan ny
Ġun m
Ġun ed
Ġun se
Ġun ru
Ġun rest
Ġun gu
Ġun spec
Ġun identified
Ġun accom
Ġover l
Ġover sp
Ġso fter
Ġinc hed
ark shire
ire ment
Ġim per
Ġim pecc
ish ment
Ġme at
Ġme als
Ġrec l
Ġrec ou
own er
Ġtr aced
Ġtr uck
ĠSt il
ĠSt oy
ĠSt rat
ĠSt utt
ĠSt alin
land o
ĠBut ter
ens ible
ĠHe iz
ĠHe llen
ĠHe aven
Ġqu o
Ġqu ad
ks en
ne xt
ade y
ace y
ip es
ip zig
Ġinter m
Ġinter im
Ġinter ior
Ġinter ference
Ġthere by
Ġres umption
uro log
Ġpre y
Ġpre aches
Ġpre fers
Ġsc o
Ġsc aled
Ġsc iences
Ġsc attered
Ġsc lerosis
Ġdis heart
Ġdis comfort
Ġdis astrous
Ġdis orderly
ĠIn s
ĠIn land
ĠIn sider
ĠIn acio
ĠIn ventions
ĠIn quiry
Ġacc ustom
Ġacc uses
ick en
ian a
Ġmin is
Ġmin istries
man aged
Ġgovern ed
Ġen vis
ach ing
ru ed
ru le
Ġwork able
Ġwork place
Ġwork stations
ep a
ep es
av al
Ġ3 60
Ġind ie
Ġind ulging
form ance
Ġback side
Ġback log
Ġ19 20
Ġ19 35
Ġ19 42
Ġ19 46
Ġpr on
ĠBl ades
ĠBl ume
ĠBl azin
li ze
ons port
ĠBrit pop
ĠV H
ĠV y
ĠV ent
ĠV el
ĠV oice
ĠV aid
ĠV AT
ĠV etham
ĠV ersace
Ġmon umental
ĠY ug
ĠY ang
ĠY oda
ĠY usuf
ĠY antai
Ġmark er
Ġshow down
Ġshow business
ell weger
Ġdec re
hed rine
Ġper mit
Ġper ipher
oy ant
Ġar son
Ġar sen
Ġar dent
itt s
itt y
Ġjust ifying
Ġjust ification
ĠEuro zone
Ġatt ractions
Ġcons ists
Ġcons pired
Ġcons ulates
Ġinv iting
Ġinv ading
Ġinv ari
ass ed
ass ies
Ġpol ish
vi ata
vi olence
Ġbest s
Ġdown fall
Ġam nesty
amp ing
Ġmusic ally
We ak
ĠTh iem
under stand
ram a
ram ovich
act ing
act ic
Ġcount y
BC C
Ġspe lling
Ġspe edy
Ġnet ted
Ġ4 20
olog ically
fer ring
oss ibly
ax y
Ġcomm em
Ġcomm ittees
Ġunder line
Ġunder dog
Ġunder estimate
Ġsup ern
Ġsup rnova
Ġpo ison
Ġneed less
Ġtechn icians
ib ald
red itors
Ġkn ocks
ĠAnd hra
Ġdef ected
Ġdef lation
Ġco he
Ġco in
its ha
Ġimp air
Ġimp erson
Ġimp ending
Ġbl unt
Ġbl essing
cond ition
Ġrem it
Ġdire ctions
Ġ5 000
arch s
ĠAs ians
ĠFr asc
ĠFr atton
Ġgood bye
te en
te chn
te chnology
Ġmat hem
ĠEng ineering
Ġhelp ful
Ġbo at
ĠSc hal
ĠSc andinav
ĠSc oggins
ĠUn cle
Ġend orse
Ġsur real
Ġsur char
rent ice
tain ly
Ġcur ve
Ġcur bs
Ġlaw makers
Ġour s
Ġreg aining
Ġchar ter
Ġtri alled
Ġpublic ise
Ġstr ide
Ġstr ained
ck ley
Ġ10 6
Ġsl urry
ystem s
Ġwar fare
ĠAr bor
ĠAr jan
ĠAr vind
ĠAr kansas
Ġconf ound
Ġconf essed
Ġhand les
uss ions
Ġgener ics
Ġgener ator
Ġac rim
Ġac rob
Ġmillion aire
ph ia
az el
ĠLe bed
ĠLe ipzig
ina pprop
Ġwhere by
ĠAl cohol
ĠAl together
ĠAl onso
hen ko
Ġter rific
Ġins ensitive
ract s
Ġdeal er
ĠJo ey
Ġhar ness
Ġcontin ents
cast s
cast ers
Ġdeb it
Ġdevelop s
hn in
ham as
ĠSp ice
ĠSp ending
ĠSp encer
Ġpoint less
Ġfore st
Ġfore head
Ġfore arm
Ġfore front
Ġcr ass
Ġcr ushing
sc ourt
sc rolling
Ġdet aining
Ġteam ed
Ġsing led
Ġem be
Ġbroad en
Ġbroad ly
Ġdisc ourage
Ġdem on
rib ed
rib utes
ath ons
He alth
ric o
Ġsm ear
Ġsm iling
Ġref in
Ġref ine
Ġref ined
Ġref ining
Ġref usen
Ġannoun ces
ĠDav yden
Ġext ortion
Ġsim ulating
Ġopen ness
Ġprof ited
ster n
Ġhard line
Ġhard core
Ġhapp ily
ĠCl ay
ĠCl oud
ĠCl aire
ĠCl imax
Ġfl ak
Ġfl ock
Ġfl ows
Ġfl owers
Ġfl urry
ĠRe ich
ĠRe venue
Ġ20 25
Ġ20 14
Ġinf ancy
Ġinf ighting
Ġrel aunch
ov ico
ov tseva
ĠGer ald
Ġfar ce
Ġ8 8
Ġrul ings
cept ive
pr ice
let oft
.. ..
Ġgu ise
Ġgu ides
Ġgu ilt
ĠWorld s
Ġaut ograph
Ġmain land
Ġstand by
Ġstand point
Ġcent rally
Ġfinal ists
Ġed it
Ġed ited
Ġed ges
Ġed itions
Ġed itors
Ġra ft
Ġra ided
Ġfail ings
Ġadv ises
Ġsug ar
Ġcre pt
ĠShe vard
Ġinst ruct
Ġbank er
Ġbank ers
ĠAt ari
ĠAt las
ploy ers
ĠWe aver
Ġpos ing
Ġgl ut
ring ton
Ġexp on
Ġexp let
Ġexp ired
Ġexp ressing
Ġexp orter
ĠWill ie
Ġdri ft
Ġpower ing
Ġtrans istor
Ġtrans atlantic
Ġ12 8
Ġdev ised
Ġdev aluation
ci ation
Ġrece iver
Ġrep ly
Ġrep air
Ġrep oss
Ġimm unisation
uge e
ĠMon fils
ĠCha plin
ten stein
Ġord eal
Ġsub stit
Ġsub lime
ĠMar ley
ĠMar que
ĠMar vin
Ġmod elling
Ġmod afin
to ire
Ġpass ive
Ġpass ports
Ġkey pad
Ġtest ify
Ġaccount ants
Ġaccount ancy
iz es
iz ard
Ġ9 6
Ġpropos ition
Ġmatch ing
ĠRob ocop
Ġlegal isation
Ġbook ing
Ġbook ings
Ġpost cards
Ġpost hum
ĠRuss ians
af onte
Ġappro ves
Ġaward ing
Ġris ky
Ġrese mb
Ġshort ened
ris is
Ġoil field
Ġrest art
Ġfinanc ed
ĠCon track
ĠCon stant
ĠChrist ine
ĠChrist ina
ĠChar ts
ĠChar lize
Ġexpl ores
Ġimpro ves
Ġdep uties
Ġtra p
Ġtra ce
Ġtra ff
Ġtra ils
Ġrepl ies
Ġrepl ays
Ġcor rupt
aw i
Ġsent imental
uk a
uk et
ĠZ omb
ĠZ oe
ĠZ iy
ĠZ eta
ĠZ von
ĠZ idane
ĠZ ellweger
ĠMin ar
ĠCar men
ĠCar stairs
Ġdifferent iate
Ġvers atile
Ġpersonal ised
cy linder
hor ga
Ġchange over
Ġche ating
Ġche mical
ĠBe hind
Ġ11 2
Ġ11 5
Ġ11 7
Ġdownload ers
ex am
ex cess
ex cept
ex cellent
Ġprot agon
Ġconsider ations
Ġlocal ised
ĠEx el
Ġsold ier
Ġmen us
Ġdist anced
Ġdist raction
ĠFor bes
Ġmight y
eder ation
Ġ15 1
Ġ15 7
Ġben ign
ĠBank ing
Ġide ological
Ġopt ical
Ġfavour ably
Ġgr im
Ġgr ade
Ġgr abs
Ġgr ateful
Ġweb cam
Ġdesign ated
Ġlim bo
ĠGo als
Ġfoot wear
ĠBar cl
ĠBar ca
ĠOlymp iakos
Ġtimes cale
Ġpat rol
Ġpat hetic
Ġmet re
Ġmet als
Ġmet atars
ĠPro v
ĠPro curement
ĠBo E
Ġdeli vers
Ġinfl ict
Ġsw elling
ĠIs a
ĠSha heed
ĠSha kur
ps wich
Ġmach inery
Ġlo osen
Ġorig inals
ĠMay or
Ġsqu andered
Ġeng ages
Ġeng agement
Ġdam n
Ġsuff ix
ĠAll ah
ĠAll ardy
ĠEd ith
Ġbox er
ĠHar ley
ĠHar iri
10 3
10 4
10 5
Ġport rays
Ġequ alled
Ġpriv y
As h
As ian
Ġfear ing
Ġfear ful
Ġfoc uss
Ġdr ain
Ġdr agging
ĠLiber ia
ĠLiber ace
ĠLiber als
ĠSim mons
for g
ĠMor an
ĠMor gen
Ġelect ronically
Ġtotal itarian
ett a
ĠPaul sme
ilar ly
ĠAd olf
ĠAd opt
ĠAg roflora
Ġspecial s
Ġspecial ists
cha sing
cha irs
ĠAm y
ĠAm or
Ġrespons ive
aff irm
ĠPr so
ĠPr adesh
ĠYork er
Ġpolicy holders
Ġmar red
Ġmar ques
Ġmar vellous
Ġur ine
Ġur gency
ĠMac ed
ĠMac Done
ĠMac queen
Ġ16 2
Ġslow est
ĠWest wood
ĠTr ack
ĠTr ident
ĠTr aders
Ġ17 8
St ay
St ate
St raw
Ġread ily
Ġread ership
Ġ14 4
Ġscreen writer
Ġste ep
Ġpick et
ows hip
ĠPet ers
ĠPh one
ĠPh uket
Ġextra vag
Ġhuman e
Ġhuman oid
ĠIr ina
ĠSte inmet
ott age
ĠYou zhn
Ġenc ryption
Ġposition ed
ĠInternational ised
Ġcreat ure
Ġpoll ution
Ġmeas uring
IP TV
Ġwrong s
Ġrev al
ĠHis lop
ĠMad sen
ĠMad agascar
lin er
Ġdeliver ies
Ġmult ilateral
down load
Ġmag ical
Ġmag net
Ġmag istrates
ĠSh in
ĠSh opping
ĠSh iga
off icial
ĠRes earchers
Ġdefe ction
ĠAng ie
Ġround s
sh oot
Ġmanufact ure
ah i
Ġbar n
Ġbar rister
ĠCo ogan
How l
cent re
cent ral
ĠOr ig
ĠOr lando
Ġserious ness
ĠSo f
ĠAir line
Ġkick ers
sw orth
sun g
Ġcommun ist
Ġpur se
ĠFin est
ĠBr ankin
osp heric
Ġboard ing
Ġboard room
mb udsman
ĠBro es
appoint ing
Ġemer ges
Ġspam mer
Ġunderstand able
ken head
Ġpar amount
ĠSpe ech
ĠEl ite
ĠEl horga
Ġsuper star
Ġparent al
Ġlower ed
Ġlower ing
20 6
oles ter
ĠRic ardo
ĠRic ksen
ribut or
ĠTur ks
Ġsound b
Ġsound ed
Ġple asing
Ġenjoy ment
Ġdi vert
Ġdi pping
Ġ197 2
Ġ197 5
Ġsharehold ing
Ch ris
Ġ22 5
Ġ22 00
Ġpir ate
Ġlight ly
Ġcard inal
Ġestim ating
Ġmot ive
ĠSup ply
opp ed
opp able
Ġtough ness
oul ton
Ġred der
Ġreason ably
Ġrisk ed
Ġtool kit
neft egas
Con cer
ĠMur do
Ġenvironment ally
val ued
bur g
bur ton
ograph ics
ane ous
yn thia
Ġpack aging
Ġep itom
ĠWar nock
ĠWar riors
Ġemb ry
Ġemb attled
Ġemb assy
Ġemb assies
ung a
ung ie
rian o
umb o
lement ed
ĠEn qv
ĠEn rico
An im
box xx
ĠHal le
Ġsepar ated
sp ir
ĠAb ramovich
Ġstat ic
Ġpan or
ĠHer ron
ĠHer tfordshire
ĠLa wn
ĠLa unching
Ġappl ause
ĠZealand er
Ġreb al
ĠTre nd
Ġrock ers
Ġcommission ing
Ġcommission ers
Ġapproach ing
Ġdoubt ful
Ġprevent ion
Ġprevent able
Ġdefend s
Ġimmedi acy
Ġcommercial ised
ĠGreen ing
ĠGreen field
Ġident ities
Ġident ifies
ĠBen z
ĠBen ita
ĠSy ria
ĠSy mm
ĠSy bar
ĠSy ndication
Ġtw ist
Ġsens es
Ġsens ing
Ġsens ation
Ġsens ors
Ġcult ures
Ġrap ed
ĠHigh lights
uit ous
uit arist
Ġinflu ences
Ġheart ening
ĠPhil adel
ĠRichard son
Ġstake holders
ĠSch war
Ġcirc le
Ġpract ising
ĠMe asure
ĠMe hr
ĠMe hta
ĠMe ersse
Ġjournal ism
Ġattract s
Ġviol ate
Ġmis con
Ġmis erable
Ġmis giv
ĠCol che
employ ment
Ġpret end
Ġpret ended
Ġrob bed
Ġobs erve
Ġobs erves
ĠMo hd
ĠMo azzam
Ġtreat ments
Ġcinem atic
Ġrefere ed
Ġrefere eing
ios ity
ĠDi amond
ĠDi aghile
ĠDan ielli
Ġalleg iance
Ġalleg iances
Ġresign s
Al icia
So ft
gy z
ĠCard well
Ġcondu ctor
Ġcondu cive
ĠNet scape
oyal ty
13 2
13 8
amb itious
19 1
Ġtouch down
ĠAct ress
ĠGra il
Ġcapital ise
Ġcapital ised
Ar nold
zz lement
ĠMy Do
ĠBer man
ĠBer ti
ĠPat ty
Ġdisplay ing
Ġrespond s
Ġtelecom mun
17 3
Ġbal ances
ĠBel ow
ĠBel mar
ĠBel afonte
ĠMcC augh
ĠMcC afferty
Ġlimit ations
She a
ĠTra viata
Bl u
Bl ind
de veloped
Ġwalk out
Ġwalk outs
ĠMusic ology
ĠJust ine
ij k
Ġoverse en
Ġdefin ing
Ġiniti ated
Ġquot es
Ġattend s
Ġattend ant
Ġdrink ers
Ġsil ence
Ġbur ied
road s
Ġbeginning s
MF G
Ġappoint ing
Ġtransfer ring
ĠSoc ieties
tr ain
tr aditional
ĠJose p
ĠQu aid
Ġign ite
ĠSer ious
Ġsav vy
Ġthr ashed
Ġscore line
Ġir re
Ġir rigation
Ġshar per
ĠTreas urer
Ġcelebr ates
Ġgraph ic
ĠMal ibu
Ġrout ines
Ġassess ed
Ġassoci ations
Ġassoci ates
Ġsn atched
Ġassist ants
Ġsports man
Ġliber ating
ĠBow ie
ĠBow den
ĠDon key
ĠEconom ist
ĠOut standing
ĠOut Rage
ĠWilliam son
ili pp
Ġremember ing
ole on
Ġz ones
Ġpain killers
Ġren amed
Sc an
Ġuns ubstant
inter ested
ĠSid ney
ĠCap acity
ĠHou ck
bon ne
Ġbi ased
Ġborrow ed
ĠHam mer
ĠEr rigo
ĠEr nst
ĠJim i
ĠJul iette
Un like
ey es
Ġfood s
ĠDou b
Ġsurf ing
Ġsurv iving
Ġdiscover ing
16 3
16 8
ĠBal ado
ĠBal four
ĠPer cy
Ġprefer able
Ġprefer ences
Ġsurround s
ĠShar k
Ġhal ving
ĠCell net
Ġpeace ful
ĠDef in
ĠAsh field
ĠAsh vin
Ġconcent rates
ĠDire cted
Ġspark ing
Ġ196 3
Ġpet ered
Ġeth ical
ĠDis aster
ĠRock star
ĠGreat est
Ġcris p
Ġten ure
Ġmilit ant
ĠBond s
ĠBond aren
Ġupgr ades
Ġunc le
Ġunc over
ĠCarl isle
Ġcat alyst
ĠSant y
ĠIP PR
ĠIP CL
ĠLin ford
ĠLat inohiphopradio
ĠRad icati
berg en
Ġunderst ated
Ġsy nerg
Ġbomb ard
ĠBur g
ĠBur ren
ĠEm cees
Ġadapt ors
Ġ36 5
Ġrestrict ion
ĠRepublic ans
Ġbrief ed
Ġbrief ings
ka ard
pay ment
writ ers
Ġess ence
ĠDen ch
ĠDen ise
ĠDel ft
ĠDel aware
Ġarm our
Cap tain
Ph one
Ġtrave ller
Ġgrand son
Ġconvers ions
ĠIndust ries
ĠSEC C
ĠFour th
ĠWell ington
thlet es
Ġcomplex ity
ext reme
ĠHay man
ĠHay ao
Ġ65 9
Ġcrack ed
ĠOrgan isations
Ġbott lenec
ĠFred dy
Ġkne es
Ġrevolution ise
Ġconclud ing
sing ing
Ġfre elance
Ġemp hat
ĠAT Ms
Ġhero ics
ĠFors ythe
ĠInvest ments
Ġballot ed
Ġsettle ments
Ġscrum m
Ġut ilising
Ġut terly
Ġbul lets
ĠGar ments
Ġparticip ated
Ġtim eless
Ġcart el
Ġpup il
Ġpup pet
ĠPart on
ĠPart iz
ĠPart nership
ĠChief s
Ġemot ive
Europe ans
bish ley
col our
col lective
house Coopers
Ġrein state
ĠSand ino
ĠSand oz
ĠHy brid
ĠHy undai
ĠCongress ional
Wh ite
iy ama
ĠId ec
ĠCross rail
Ġconver ting
Ġconver ged
ĠLu iz
ĠGard ner
Ġveter ans
Ġdig ging
ĠMet ro
ĠMet allica
ĠPan ag
Ġclin ching
Ġspir alling
Ġimplement ing
Ġefficient ly
Ġapprop riately
Ġsuffer ers
Ġsuperb ly
Ġdestroy ing
Ġsustain ability
26 4
GM T
cor ruption
Ġfest ivities
ĠBoy le
ĠPl aces
ĠEle ven
Ġscen arios
iver ing
ĠBM G
ĠSa um
ĠSa hara
Ġatm ospheric
ĠDar lington
ĠDar fur
Ġconnect ing
ĠTrans formers
Ex perts
Re illy
Ġconced es
ĠLam my
ĠLam berty
Ġexhib itors
ĠExp ansion
Ġgrad uates
Ġmotor ists
point s
Ġwid ow
Ġwid ening
Ġfashion able
Ġthrow s
Ġprosec ute
ĠRoy er
agg ressive
ĠNap oleon
Ġ195 3
ĠMcG raw
ĠMcG eady
ĠMcI ntyre
ĠWeb ber
Ġsubsidi aries
dec ent
eff ect
Ġgross ed
ĠSil vio
Ġsad ness
Ġrad ius
ĠLiving ston
ĠWol ong
ĠGill ian
ĠOat ley
Ġsilver ware
Char t
DVD s
fall en
ĠJac qu
Ġclimb ing
ĠSev astis
Min ister
Ġtrem or
ĠTy ne
ĠTy mos
ĠHel mut
Ġvill ain
Ġvill agers
Ġdiscl osed
Ġunfair ly
Ġspect ator
Ġmix es
Ġhang s
Ġrent ed
ĠMack intosh
ĠAv ril
ĠHard y
Ġleap frog
Ġunp opular
Ġstring ent
ĠLeon id
ĠLeon cia
ĠMcF ly
Ġfunction al
Ġfrequ ent
Ġfrequ encies
bal ancing
Ġpig eon
ĠBridge Head
ĠCzech s
ĠProdu ction
ĠRF U
Ġcomprom ising
ĠKar ger
Ġenhan cing
Ġteleph ones
Other wise
produ ced
ĠSports week
Ġdispl aced
Ġindic ative
Ġwarm th
ĠReg iments
South corp
cut s
ĠFl oyd
ograp hers
Ġrefuge e
Ġrepay ment
ĠOxford shire
zy k
hent i
ĠMass u
ĠSol ana
ĠSol skjaer
Ġstret ched
ĠPers ia
ĠFort unately
ĠGre f
ĠStr adey
Ġnumer acy
Ġbrew eries
Ġbreach ing
ĠAdv antage
ĠAdv anced
dis abled
Ġnic otine
ĠHop es
ĠFab rice
ĠNov astream
Ġdiss olve
Ġslump ed
ĠMarc us
ĠConn olly
Ġmargin ally
Ġemphas ised
Ġspirit ual
Is lam
Mc Ilroy
turn s
turn ed
rec ogn
Ġreass urance
ĠSur veys
ĠSub mission
ĠCost a
Ġrig ged
Ġrig ging
ĠLy on
ĠLy ons
ĠLy ric
ĠEy e
ĠEy re
ĠEy es
ĠNT PC
Ġcompar able
ocol ate
Ġsoft en
ĠChurch ill
Ġconsolid ate
Ġdiscount ed
Ġtransform ing
Ġoccas ional
rage ous
Ġtempt ation
Ġpark s
ĠSher wood
ĠSav ings
ĠIE TF
Ġstab il
Ġstab ilise
Ġspons ors
Ġresc ued
Ġcoinc idence
Ġacceler ate
Ġassault ed
ĠSpeaker boxxx
.' '
Car los
Ġpit falls
ĠMat field
ĠSen ate
ĠSen anay
ĠAlf red
ĠAlf onso
ĠIvan ovic
Ġintent ional
Ġquang o
ĠVill age
ĠVill iers
Ġoccup ation
Ġsymb olic
Ġthreshold s
PC S
Ġcry stalline
asp ian
Ġge ek
ĠTou ch
ĠTou ching
ĠEqu ity
ĠJeff rey
Ġabol ished
Ġclar ify
ĠScar lett
Ġrelax ation
Ġphenomen ally
Har inordoquy
Ġpin ned
Ġpin point
Ġped dle
ĠTB WA
ĠSon ia
ĠDam on
ĠRa ha
ĠRa ven
ĠRub y
ĠGro ening
Ġjour neys
Ġstrict ly
Ġslim ming
Ġinspe ctor
Ġfrag ment
Ġweakness es
Ġhammer ing
Ġhamper ing
Os sie
Ġshed ding
Ġbreat hing
Ġfranch ises
Ġgreen back
Ġly ric
ĠClear ly
ĠNest or
ĠVis agie
Ġinspir ational
ĠSeag ate
ĠConf ederation
ĠGuild ford
Ġirres pective
ĠPriv acy
Ġdiscrimin ated
Ġdiscrimin atory
ĠDevon ish
Ġwhistle bl
Mur phy
Tr ans
Ġfold ers
Ġmand ate
ĠBed ford
ĠCas alme
Ġstruct ural
Ġrack ed
ĠLad ies
ĠRich ter
Ġplot ting
ĠJud i
Ġneigh bours
Ġpreced ing
Ġampl ified
Ġherald s
Ġcoff ers
ĠLeg end
Ġdepri ving
ĠAdd icks
Ġmarry ing
Ġesc al
Ġsleep ing
Ġdisagree ment
Mar ion
Se ptember
oub ek
aty ne
ĠTH E
acon ian
ĠFut ures
Ġnewcom ers
Ġresur gence
Ġinvent ories
Ġmanip ulation
Ġsurre nder
Ġslam med
Ġprofession ally
Ġflu id
ĠGrace land
Ġfortun ately
contin ue
contin uing
Ġcasual ties
Part ies
Sw ed
Sw iss
Smith Kline
Us her
Ġwond ering
Ġbund le
Ġpatch y
anim ated
ĠSA IC
Ġheight ened
Ġdeploy ed
ĠRain er
ĠRound ing
ĠRef eree
ĠRef ugee
ĠJournal ists
Ġoutrage ous
Ġunexpected ly
Ġreck on
Ġkid ney
Ġphotograp her
Ġmountain ous
Ġbroker age
War ning
Ġtur bulent
Ġsam pling
Ġwrist watch
Ġreap ed
Ġreins urers
ĠBir k
ĠBir kenhead
ĠSyl vain
ĠApp rentice
ĠIm ports
Ġstagn ation
Ġstagn ated
ĠLud ovico
Ġseaf arer
ĠRose mount
ĠOpt im
ĠStur rock
ĠHey mans
ĠDee ley
Ġserial ised
Ġurgent ly
Ġembark ed
Ġarchite ct
,' '
Per pignan
went ieth
Ġreop en
Ġreign ing
ĠTai pei
ĠMult iplex
Ġhijack ed
ĠSin atra
ĠHung arian
ĠDig est
ĠDie go
Ġunre asonable
Ġrot ate
Ġrot ated
Ġimprison ed
Ġburgl ars
Ġcongrat ulate
Ġliquid ation
function al
tot ing
Ġing en
Ġwoo ing
Ġnurs es
Ġnurs ery
Ġho ax
Ġrall ies
ĠHon or
ĠHold sworth
Ġprolong ing
Ġconcess ion
ĠLion el
ĠPerson al
ĠPerson ally
Ġvac ant
Ġunl ocked
Ġinterven e
ĠInit i
Ġkron er
Ġbetray al
Ġdesp atch
ĠAnast acia
Ġsmooth ly
ĠReport ers
Ġreloc ated
ĠProt ect
prot ect
ĠFuture lab
Ben z
Far lane
Old er
Ġaver aged
Ġcab in
ĠTake away
ĠMull en
ĠBab ys
ĠSham i
ĠHan over
ĠHass on
ĠPatt erson
ĠPatt aya
ĠGa illard
ĠNon etheless
Ġleve lling
Ġlect ures
Ġovers aw
Ġpregn ancy
Ġchore ography
Ġprofound ly
Ġbreed ing
ĠMcK endry
ĠOfficial s
ĠPetr ina
Ġabsor bing
Ġdiagn osis
ĠValent e
Ġsymp athy
Ġsanction ing
Ġresurre ction
Gadget s
Sa aid
aven ey
Ġsou ped
Ġcri ppled
Ġcyn icism
Ġfle et
Ġpuzz le
Ġpuzz les
Ġreel ing
ĠTam imi
ĠSong s
ĠIll va
ĠCat al
ĠCirc le
Ġwhis ky
ĠHob day
Ġprohib its
ĠDor is
ĠFle ming
ĠOw ens
ĠOw usu
ĠStart ing
ĠStart ac
ĠSpir ited
Ġreleg ated
ĠParad orn
Ġdistur b
ĠGrac zyk
ĠCoal ition
Ġilliter acy
Ġhyp ocris
Ġstereoty pes
Daniel a
Ba ikal
Fox x
Or gan
Port able
dri ving
found er
sens ible
wrong ful
Ġtheat rical
Ġwoe ful
Ġcros scourt
hams hire
Ġfab rics
Ġdamp ened
Ġbewild ering
Ġnigg ling
ĠMell on
ĠMell or
ĠSor rell
ĠIde ally
ĠCull en
ĠHic key
ĠLear mount
ĠPed ro
ĠRen ner
ĠRen ee
ĠRem ember
ĠGis bergen
Ġalar med
ĠUg anda
ĠJar osik
ĠOh io
okes man
Ġoverd ue
Ġintens ity
Ġintens ified
plan ned
Ġinteroper able
Ġconserv atives
ĠDeb ra
Ġdistrict s
afford able
afford shire
ĠBlackber ries
ĠBrook side
ophob ic
ĠLaure nt
Ġbullet in
Ġdowngr ade
ĠTunis ian
HD TV
iks ilver
sup port
yp ia
Ġtink er
Ġsyn cing
Ġcul minated
Ġcoun sel
Ġphas ed
Ġinaug ur
Ġinaug ural
Ġnut rit
Ġreiss ues
Ġreiss ued
Ġrejo in
Ġrehears al
ĠSak halin
ĠSak hnin
ĠSoder ling
ĠSoder bergh
ĠCot onsport
ĠCrim inal
Ġhes it
Ġstun ts
keep ing
ĠLav igne
ĠWass erstein
ĠNM E
Ġorchest rating
ĠKlein wort
Ġdoom ed
ĠInv aders
Ġlaugh ing
ĠThor nton
ĠArm strong
Ġtermin als
Ġentr ance
Ġentr ants
Ġpayroll s
Ġsmugg ling
prising ly
ĠMoroc co
ĠMoroc can
Ġdiver ting
Ġdiver ted
ĠMcCorm ack
ĠMcCorm ick
Scott ish
Ġpenet ration
Ġintrud er
Ġintrud ers
Ġferoc ity
Book makers
Blo od
Teen agers
Wood ford
cop ying
dram atically
detail ed
polit ical
Ġcod enamed
Ġbot hered
Ġfright ened
Ġgut sy
Ġlig aments
ĠBann atyne
ĠIF PI
Ġrou bles
ĠLic ensing
ĠLak hani
ĠLang don
ĠEmb assy
ĠGener ation
ĠGraph ics
condu ct
ĠKiw is
Ġconting ency
Ġintrig ued
Ġresid ue
Ġarrog ance
Ġarbit rary
Ġbrut al
Ġlegit im
ĠLeban on
Ġprovoc ation
Ġinstinct s
ĠChak rab
ĠAdvis ors
Ġabandon ment
Ġanticip ation
Ġcontempl ating
Ġvocifer ously
Telecom s
Ġcosmet ics
Ġcanvass ers
Ġalgorith ms
Cam era
Er icsson
Feder er
God zilla
Geor ge
List en
Prem iership
Sing apore
Writ ing
gross ly
Ġau ctions
intern et
Ġinsec ure
Ġdwind ling
ĠTon ight
ĠBL B
ĠAuss ie
ĠCase y
ĠHin ckley
Ġcongest ion
ĠLan arkshire
ĠPB GC
ĠRhod ri
ĠGurk has
Ġplag ued
ĠNad ia
Ġchant ing
Ġoutsp oken
Ġclaw ed
ĠKw ame
Ġunst oppable
Ġresched uled
Ġminim al
Ġlaug hable
ĠNewcom er
ĠAnalys ys
ĠLikh ovtseva
ĠSeaf arers
Ġassass ination
Ġsubtle ty
Ġairpl ane
Ġrestrain t
ĠCharl otte
ĠChev rolet
ĠGovern or
ĠMorphe me
Ġrevital ise
Ġwholehearted ly
ĠSlim fast
ĠTeen age
ĠPolit ical
ĠPhilipp oussis
ĠSchwe ppes
ĠMoham med
Ġignor ance
Indust rial
Ġempower ment
ĠKazakh stan
ĠKyr gyz
Ġovercrow ding
Ġinconven ience
Cha mpions
Gu antanamo
Get ting
HE O
Opp osition
Ric hard
Sin clair
Sen ior
Sup port
Spr inter
SUV s
bott om
dor f
lins mann
success ful
tun nel
xual ity
Ġtong ue
inv asive
Ġwal lets
Ġcra ze
Ġpand as
Ġdiction ary
Ġreper toire
Ġecl ips
ĠBret t
ĠBrid get
ĠSchn yder
ĠSerg io
ĠSuk ul
igen ous
ĠAme obi
ĠAiy ar
Ġwhing eing
Ġrhetor ic
unjust ified
ĠHur ricane
kelet ons
ĠLiv i
ĠDrop out
ĠPrent is
ewater houseCoopers
ĠEp isode
ĠFou rie
ĠFant astic
ĠRij kaard
ĠGim me
ĠKes ka
Ġunpat ched
Ġinterfer ing
Ġresh uffle
Ġdisli ked
Ġdismant led
Ġdisrep ute
Ġdisappro val
Ġbackf ired
ĠVest ey
ĠVert igo
Ġunderestim ating
Ġimpres ario
Ġstrangle hold
ĠJoa quin
Ġexpans ive
Ġreceipt s
ĠPCtv t
Ġsubur bs
Ġfacilit ate
Ġcolleg es
ĠBeen ie
ĠXen on
Ġcamc orders
Ġcinemat ography
Ġcruel ty
ĠMussel man
Ġlibertar ian
Ġhurd ler
Ġsynt hes
Ġsympt oms
ĠPrec inct
ĠEmil io
Ġinfringe ments
Ġmusc les
ĠMemor ial
ĠFelic iano
Ġpredomin antly
Ġjeopard ise
retrovir al
Manufact uring
ĠSloven ia
Af ric
Avi ator
Anel ka
Bir chfield
Bark ley
Croat ia
Em ployers
Fran z
HTC U
Jun inho
Lis bon
Laur a
Ros neft
Ronald o
Sar acens
Sim ilarly
Scient ists
Tw enty
cald y
nad ze
racket eering
waly a
Ġug ly
Ġump ire
Ġtast es
Ġcush ion
Ġbree zes
Ġbenc hes
hayel itsha
Ġfisher men
Ġolig archs
Ġpian ist
Ġinhib itors
Ġinaccess ible
aliy ah
Ġdread ful
Ġluke warm
Ġeul ogy
Ġecc ent
Ġelus ive
ĠTank an
ĠTolk ien
ĠMap letoft
ĠBov ina
ĠBaf ana
ĠBasing stoke
Ġhilar ious
ĠSach s
ĠSamp ras
ĠSuff olk
ĠSender os
ĠAren a
ĠAster oid
ĠAleg re
ĠAyn sley
ĠIban ez
ĠIdle wild
ĠCaud well
ĠCaller i
ĠHigg ins
ĠLomb ard
ĠDul ko
ĠDok ic
ĠDynam ite
Ġsext ant
ĠPric ewaterhouseCoopers
ĠPipe x
ĠPeps i
ĠEtz ioni
ĠFero z
ĠRiy adh
ĠWend y
ĠWither spoon
ĠWhel an
ĠWhal ley
ĠGadget s
Ġexcell ence
Ġvint ners
ĠJord i
ĠJank ovic
ĠOber mann
ĠOps ahl
ĠKipl agat
ĠKais er
ĠKuw ait
ĠKerek ou
Ġunspec ified
Ġunaccom panied
Ġimpecc able
ĠStrat ocaster
ĠStutt gart
ĠHeiz o
ĠHellen ic
Ġaccustom ed
Ġinvari ably
ĠThiem ann
Ġunderdog s
Ġsupern atural
ĠFrasc a
Ġmathem atical
ĠSchal k
ĠLebed ev
inapprop riate
Ġembe zzlement
Ġrefusen iks
ĠDavyden ko
ĠShevard nadze
ĠMarque z
Ġmodafin il
Ġposthum ous
ĠConstant ine
ĠZiy i
ĠZvon areva
ĠBarcl ay
Ġmetatars al
ĠAllah green
ĠAllardy ce
ĠMorgen stern
ĠPaulsme ier
ĠAdopt ion
ĠMacDone ll
ĠSteinmet z
ĠYouzhn y
Ġmagnet ic
ĠMurdo ch
ĠEnqv ist
ĠSymm ons
ĠSybar i
ĠPhiladel phia
ĠMehr tens
ĠMeersse man
Ġmisgiv ings
ĠColche ster
ĠDiaghile v
ĠMyDo om
Ġtelecommun ication
ĠMcCaugh rean
Ġunsubstant iated
ĠBondaren ko
Ġsynerg ies
Ġbottlenec ks
ĠTymos henko
ĠSenanay ake
Ġhypocris y
ĠChakrab arti
) ."
. ,
3 25
3 40
3 27
4 50
4 12
4 19
4 25
4 80
4 27
4 24
5 30
5 35
5 75
5 99
5 46
6 60
6 90
7 20
8 4
9 2
? ,"
A K
A M
A N
A V
A id
A us
A ston
A mit
A CA
A IDS
A thletes
B or
B it
B al
B os
B ox
B ening
B ridge
B oo
B anks
B rive
B oro
B eck
B ringing
B GE
C r
C ould
C ong
C ub
C able
C ash
C hile
C ourt
C itiz
C SA
C PS
C BI
C Ps
C EA
C atherine
C lijsters
C ML
C SOs
C ritical
C ebit
D F
D J
D V
D s
D en
D ud
D ep
D itt
D ata
D RM
E B
E E
E Y
E b
E v
E thiop
F ry
F ans
F orm
F oot
F rid
F aster
F raud
F BI
F ockers
F annie
F ifa
F osters
F ifty
G H
G age
G ross
G ang
G ov
G arden
H on
H or
H it
H ou
H as
H ad
H ill
H art
H ard
H el
H ip
H ave
H ague
H uman
H amm
H appy
I M
I S
I an
I SP
I FA
I OC
J an
J ay
J ol
J ew
J ose
J oy
J obs
J ennifer
J URI
K ing
K ent
K ee
K raft
K err
K lu
K ostas
L a
L es
L ow
L ions
L ots
L ooking
L ycos
L ansdowne
L indsay
L CD
L lanelli
L eading
[...]
