{
  "!": 5,
  "!!": 8126,
  "!!!": 20205,
  "!\"": 13777,
  "!,": 17000,
  "\"": 6,
  "\",": 1730,
  "\".": 685,
  "#": 7,
  "$": 8,
  "%": 9,
  "%\".": 27852,
  "%)": 10728,
  "%),": 15790,
  "%).": 27853,
  "%,": 2650,
  "%,\"": 20666,
  "%-": 27851,
  "%.": 2165,
  "%.\"": 20667,
  "&": 10,
  "&#": 7020,
  "'": 11,
  "'\".": 27855,
  "''": 27854,
  "',": 7336,
  "',\"": 9364,
  "'.": 5789,
  "'.\"": 12350,
  "'d": 3219,
  "'ll": 2674,
  "'m": 1333,
  "'re": 1801,
  "'s": 334,
  "'t": 642,
  "'ve": 1466,
  "(": 12,
  ")": 13,
  ")\"": 18598,
  "),": 937,
  "),\"": 18599,
  ").": 1319,
  ").\"": 23624,
  "):": 20668,
  ");": 6379,
  ")?": 27856,
  "*": 14,
  "+": 15,
  ",": 16,
  ",\"": 445,
  ",'": 11190,
  ",'\"": 18372,
  ",''": 23070,
  "-": 17,
  "-$": 17001,
  ".": 18,
  ".\"": 451,
  ".'": 8583,
  ".'\"": 20222,
  ".''": 22911,
  ".,": 23625,
  "..": 1334,
  "...": 2270,
  "....": 21996,
  "/": 19,
  "//": 27857,
  "0": 20,
  "00": 378,
  "000": 782,
  "001": 21367,
  "01": 12992,
  "011": 27859,
  "02": 27858,
  "028": 27861,
  "03": 17002,
  "04": 12351,
  "05": 7909,
  "06": 13778,
  "07": 13779,
  "08": 20669,
  "080": 27860,
  "09": 20670,
  "1": 21,
  "10": 2133,
  "100": 3815,
  "102": 17871,
  "103": 22197,
  "104": 22198,
  "105": 22199,
  "106": 25751,
  "11": 3094,
  "110": 14703,
  "111": 19825,
  "12": 3288,
  "120": 14705,
  "125": 12767,
  "13": 3610,
  "130": 14704,
  "132": 22487,
  "133": 26058,
  "135": 18011,
  "137": 26059,
  "138": 22488,
  "14": 4859,
  "140": 17003,
  "149": 16657,
  "15": 3611,
  "150": 8845,
  "152": 19868,
  "153": 26060,
  "155": 19869,
  "16": 4691,
  "160": 18600,
  "162": 26230,
  "163": 22596,
  "168": 22597,
  "17": 3720,
  "170": 16605,
  "173": 22505,
  "178": 26077,
  "18": 4915,
  "180": 10729,
  "187": 26261,
  "19": 3630,
  "190": 19871,
  "191": 22490,
  "194": 26064,
  "196": 26065,
  "1990": 18014,
  "2": 22,
  "20": 2817,
  "200": 3632,
  "2000": 20671,
  "2003": 19872,
  "2004": 12784,
  "2005": 11558,
  "206": 22338,
  "21": 5950,
  "211": 27862,
  "22": 6045,
  "220": 18601,
  "227": 18602,
  "23": 4971,
  "230": 17004,
  "233": 9047,
  "234": 26269,
  "24": 5707,
  "25": 3631,
  "250": 8127,
  "26": 6160,
  "264": 22737,
  "265": 26435,
  "27": 4283,
  "275": 27863,
  "28": 5617,
  "280": 13780,
  "29": 6265,
  "291": 26446,
  "3": 23,
  "30": 2802,
  "300": 6871,
  "31": 8584,
  "32": 8846,
  "320": 15791,
  "322": 27867,
  "324": 27866,
  "325": 23626,
  "327": 23628,
  "328": 27865,
  "329": 27868,
  "33": 9670,
  "336": 27869,
  "339": 18604,
  "34": 9998,
  "340": 23627,
  "35": 3816,
  "350": 12993,
  "36": 7495,
  "360": 27864,
  "37": 6380,
  "370": 26462,
  "375": 18603,
  "38": 7337,
  "380": 20672,
  "39": 6748,
  "399": 20673,
  "4": 24,
  "40": 3721,
  "400": 8128,
  "41": 9671,
  "412": 23630,
  "415": 27872,
  "419": 23631,
  "42": 7021,
  "420": 27871,
  "424": 23635,
  "425": 23632,
  "427": 23634,
  "43": 10347,
  "430": 27870,
  "44": 8340,
  "444": 26690,
  "45": 5041,
  "450": 23629,
  "456": 26280,
  "458": 26281,
  "46": 7709,
  "47": 8585,
  "48": 4692,
  "480": 23633,
  "49": 11717,
  "499": 18605,
  "5": 25,
  "50": 1667,
  "500": 3693,
  "51": 12994,
  "515": 27873,
  "52": 8341,
  "53": 7710,
  "530": 23636,
  "535": 23637,
  "54": 10730,
  "546": 23640,
  "55": 8342,
  "550": 13781,
  "56": 10348,
  "560": 27874,
  "57": 12352,
  "575": 23638,
  "58": 11718,
  "59": 20674,
  "599": 23639,
  "6": 26,
  "60": 3633,
  "600": 7338,
  "603": 26066,
  "61": 14706,
  "610": 27876,
  "62": 15792,
  "63": 14707,
  "630": 20675,
  "64": 13782,
  "648": 27878,
  "65": 9672,
  "650": 27875,
  "66": 12995,
  "660": 23641,
  "67": 10349,
  "68": 13783,
  "680": 27877,
  "69": 12353,
  "690": 23642,
  "7": 27,
  "70": 7910,
  "700": 9673,
  "71": 11719,
  "713": 27880,
  "72": 18606,
  "720": 23643,
  "73": 14708,
  "730": 27879,
  "733": 27885,
  "74": 11720,
  "745": 27882,
  "75": 4138,
  "750": 15793,
  "76": 9069,
  "77": 10731,
  "775": 27881,
  "78": 18607,
  "79": 18608,
  "796": 27886,
  "798": 27884,
  "799": 27883,
  "8": 28,
  "80": 3937,
  "800": 5790,
  "81": 27887,
  "817": 27888,
  "82": 18609,
  "83": 14709,
  "838": 27889,
  "84": 23644,
  "85": 7711,
  "850": 13784,
  "857": 26611,
  "86": 10350,
  "87": 8847,
  "870": 27890,
  "88": 12354,
  "89": 9674,
  "9": 29,
  "90": 6495,
  "900": 10351,
  "91": 13785,
  "92": 23645,
  "920": 20676,
  "93": 12996,
  "94": 13786,
  "947": 27891,
  "95": 12997,
  "950": 18610,
  "96": 9675,
  "960": 20677,
  "97": 14710,
  "98": 9365,
  "99": 5370,
  ":": 30,
  ";": 31,
  "<": 32,
  "</s>": 1,
  "<mask>": 3,
  "<pad>": 2,
  "<s>": 0,
  "<unk>": 4,
  "=": 33,
  ">": 34,
  "?": 35,
  "?!": 27892,
  "?\"": 3414,
  "?\".": 27894,
  "?'": 10352,
  "?'\"": 15681,
  "?)": 27893,
  "?,": 12355,
  "?,\"": 23646,
  "??": 10732,
  "@": 36,
  "A": 37,
  "AA": 3008,
  "AAF": 4459,
  "AAMSA": 25934,
  "AB": 13787,
  "AC": 8586,
  "ACA": 23655,
  "ACC": 27905,
  "AD": 18611,
  "ADS": 27906,
  "AF": 11721,
  "AIDS": 23656,
  "AK": 23647,
  "AL": 17005,
  "AM": 23648,
  "AN": 23649,
  "AO": 12998,
  "AR": 27895,
  "AS": 20678,
  "AT": 13788,
  "ATC": 27907,
  "AV": 23650,
  "Ab": 10733,
  "Abeyie": 18614,
  "About": 16855,
  "Ac": 17006,
  "According": 6047,
  "Act": 15794,
  "Action": 20682,
  "Actor": 10354,
  "Actress": 20498,
  "Ad": 10734,
  "Adam": 27903,
  "Adults": 26900,
  "Af": 20679,
  "Afric": 23479,
  "Africa": 27620,
  "After": 5241,
  "Ag": 12999,
  "Agassi": 20408,
  "Aged": 27902,
  "Agen": 27904,
  "Ah": 27896,
  "Aid": 23651,
  "Aids": 7712,
  "Aim": 27899,
  "Air": 12356,
  "Ajax": 27908,
  "Al": 3582,
  "Alf": 27901,
  "Alicia": 22479,
  "All": 4026,
  "Almost": 13550,
  "Almunia": 19865,
  "Already": 18009,
  "Also": 16596,
  "Although": 5851,
  "Am": 10353,
  "Americ": 8848,
  "American": 9983,
  "Amit": 23654,
  "Among": 14604,
  "Ampas": 20686,
  "An": 3133,
  "Analysts": 9286,
  "And": 2766,
  "Andre": 16533,
  "Andrew": 15380,
  "Andy": 15379,
  "Anel": 20685,
  "Anelka": 23481,
  "Ang": 8587,
  "Angels": 12294,
  "Anger": 26715,
  "Anim": 22395,
  "Ann": 19828,
  "Another": 11052,
  "Anson": 25966,
  "Ant": 11722,
  "Anti": 14640,
  "Any": 7339,
  "Anyone": 14535,
  "Anything": 26588,
  "Ap": 20680,
  "Apacs": 27466,
  "App": 18612,
  "Apple": 6046,
  "Ar": 3669,
  "Arch": 26071,
  "Arcy": 9922,
  "Are": 20681,
  "Argent": 10272,
  "Argentina": 10724,
  "Argonaut": 26072,
  "Arnold": 22496,
  "Around": 20684,
  "Arsenal": 8082,
  "Art": 26070,
  "As": 2145,
  "Ash": 22203,
  "Asia": 17877,
  "Asian": 22204,
  "Ask": 15328,
  "Asked": 19713,
  "Ast": 27898,
  "Aston": 23653,
  "Asymmetric": 25754,
  "At": 3694,
  "Athletes": 23657,
  "Athletics": 14711,
  "Att": 16604,
  "Attack": 27295,
  "Aud": 27900,
  "Aus": 23652,
  "Aust": 7022,
  "Austral": 7703,
  "Australia": 12899,
  "Australian": 10698,
  "Aut": 17007,
  "Avi": 20683,
  "Aviator": 23480,
  "Aware": 18613,
  "Az": 27897,
  "B": 38,
  "BA": 11723,
  "BAA": 27923,
  "BB": 15795,
  "BBA": 27931,
  "BBC": 7340,
  "BC": 797,
  "BCC": 21820,
  "BE": 14712,
  "BEs": 27928,
  "BGE": 23671,
  "BI": 5791,
  "BM": 3780,
  "BMW": 14414,
  "BN": 9999,
  "BNP": 20699,
  "BO": 11724,
  "BP": 20687,
  "BPI": 17013,
  "BS": 4591,
  "BSA": 20697,
  "BT": 9366,
  "BU": 20688,
  "BY": 27909,
  "Ba": 13789,
  "Baas": 27112,
  "Baby": 27922,
  "Babys": 27934,
  "Back": 15796,
  "Bad": 20691,
  "Bag": 20693,
  "Baghdad": 27467,
  "Baikal": 23183,
  "Bal": 23660,
  "Balco": 27622,
  "Ban": 20689,
  "Band": 20692,
  "Bank": 15800,
  "Banks": 23666,
  "Bar": 8343,
  "Barcelona": 20216,
  "Barclays": 20217,
  "Bark": 20694,
  "Barkley": 23483,
  "Baron": 26691,
  "Baros": 26692,
  "Bas": 14713,
  "Based": 20695,
  "Basically": 16941,
  "Bath": 10735,
  "Bay": 7023,
  "Be": 6048,
  "Beattie": 26421,
  "Because": 13795,
  "Beck": 23669,
  "Beckham": 27624,
  "Bed": 27911,
  "Before": 9325,
  "Being": 13794,
  "Bel": 13792,
  "Belgrave": 18456,
  "Bell": 15799,
  "Bellamy": 18523,
  "Belle": 27929,
  "Ben": 12357,
  "Bening": 23663,
  "Benitez": 16897,
  "Benn": 27917,
  "Benz": 23118,
  "Ber": 13790,
  "Berlin": 18455,
  "Bern": 27919,
  "Best": 13791,
  "Bet": 14714,
  "Betty": 27177,
  "Biarritz": 10355,
  "Big": 11191,
  "Bill": 12358,
  "Billions": 27921,
  "Bir": 20690,
  "Birchfield": 23482,
  "Birmingham": 27924,
  "Bit": 23659,
  "Bl": 3781,
  "Black": 14415,
  "Blackburn": 18479,
  "Blair": 6253,
  "Blin": 27920,
  "Blind": 22516,
  "Blo": 15801,
  "Blog": 18023,
  "Blood": 23286,
  "Blu": 22515,
  "Blues": 18024,
  "Blunkett": 19883,
  "Bo": 13000,
  "Bob": 13793,
  "Boeing": 16909,
  "Bol": 17008,
  "Bollywood": 27305,
  "Bolton": 27304,
  "Bomb": 18617,
  "Bombay": 27380,
  "Bond": 27915,
  "Boo": 23665,
  "Boogeyman": 27623,
  "Book": 15797,
  "Bookmaker": 27234,
  "Bookmakers": 23285,
  "Booth": 27926,
  "Bor": 23658,
  "Borders": 17012,
  "Born": 27918,
  "Boro": 23668,
  "Borrowing": 27933,
  "Bortolami": 27927,
  "Bos": 23661,
  "Boss": 18616,
  "Boston": 11726,
  "Both": 7191,
  "Bourgoin": 13796,
  "Bow": 27913,
  "Box": 23662,
  "Boy": 8849,
  "Br": 18615,
  "Brad": 27925,
  "Brain": 20698,
  "Brazil": 17011,
  "Brennan": 27935,
  "Brent": 17009,
  "Brentford": 20546,
  "Brew": 27916,
  "Bri": 11725,
  "Brian": 20696,
  "Bridge": 23664,
  "Brien": 12970,
  "Bringing": 23670,
  "Brit": 3876,
  "Britain": 6735,
  "British": 6736,
  "Britons": 26104,
  "Brits": 19890,
  "Brive": 23667,
  "Bro": 27912,
  "Broad": 7911,
  "Broadband": 9346,
  "Brown": 8344,
  "Bu": 27910,
  "Budget": 10736,
  "Building": 27930,
  "Bungie": 27936,
  "Bur": 27914,
  "Burn": 15798,
  "Burnley": 18522,
  "Busch": 27932,
  "Bush": 17010,
  "Business": 17014,
  "But": 1256,
  "Butler": 25435,
  "By": 4785,
  "C": 39,
  "CA": 6049,
  "CAS": 26422,
  "CBI": 23683,
  "CC": 7024,
  "CCI": 18623,
  "CD": 10737,
  "CE": 20700,
  "CEA": 23685,
  "CES": 14716,
  "CF": 18618,
  "CG": 27937,
  "CI": 3817,
  "CL": 17015,
  "CMF": 27954,
  "CML": 23688,
  "CPS": 23682,
  "CPs": 23684,
  "CS": 27938,
  "CSA": 23681,
  "CSI": 27957,
  "CSOs": 23689,
  "CTV": 27950,
  "CWI": 27963,
  "Cabinet": 27952,
  "Cable": 23676,
  "Cairn": 17019,
  "Cal": 11728,
  "Call": 15804,
  "Callaghan": 12359,
  "Calvisano": 20348,
  "Cam": 17016,
  "Camera": 23329,
  "Camp": 7912,
  "Campaign": 14554,
  "Campaigners": 20459,
  "Campbell": 12276,
  "Can": 11727,
  "Candid": 27953,
  "Cap": 5242,
  "Caprio": 6041,
  "Captain": 22658,
  "Car": 8588,
  "Card": 8850,
  "Cardiff": 10335,
  "Care": 20703,
  "Career": 27469,
  "Carlos": 22912,
  "Carmen": 26716,
  "Cas": 15803,
  "Cash": 23677,
  "Caspian": 27965,
  "Cast": 11192,
  "Castres": 26938,
  "Casual": 27235,
  "Cat": 27939,
  "Cate": 27940,
  "Catherine": 23686,
  "Cebit": 23691,
  "Cech": 18622,
  "Cel": 27941,
  "Cele": 27949,
  "Cell": 20705,
  "Celtic": 17018,
  "Cent": 20702,
  "Central": 27468,
  "Cer": 20701,
  "Ch": 2892,
  "Cha": 18620,
  "Champions": 23390,
  "Chan": 9070,
  "Chancellor": 11676,
  "Chang": 27956,
  "Channel": 18292,
  "Char": 6749,
  "Charles": 11627,
  "Charlie": 26508,
  "Charlton": 18178,
  "Chart": 22789,
  "Che": 5792,
  "Chelsea": 7322,
  "Cheney": 26388,
  "Chepkemei": 26390,
  "Cherie": 26389,
  "Ches": 27947,
  "Chief": 13520,
  "Child": 15391,
  "Children": 18511,
  "Chile": 23678,
  "China": 5687,
  "Chinese": 15392,
  "Chris": 22353,
  "Christ": 9282,
  "Christian": 26798,
  "Christmas": 10339,
  "Church": 25915,
  "Circ": 27951,
  "Citiz": 23680,
  "Citizens": 27625,
  "City": 27942,
  "Civil": 20707,
  "Cl": 6266,
  "Claren": 26448,
  "Clark": 14505,
  "Clarke": 20096,
  "Claude": 26449,
  "Clear": 17017,
  "Clearly": 20547,
  "Cler": 15806,
  "Clermont": 18524,
  "Clijsters": 23687,
  "Clint": 26447,
  "Co": 14715,
  "Coach": 27178,
  "Col": 13797,
  "Cole": 15807,
  "Coll": 15805,
  "Collins": 16970,
  "Colombia": 27113,
  "Com": 3500,
  "Comedy": 16588,
  "Comm": 26041,
  "Comp": 11062,
  "Companies": 16865,
  "Computer": 15427,
  "Con": 2989,
  "Concer": 22371,
  "Cong": 23674,
  "Conn": 6585,
  "Connell": 4848,
  "Connor": 7331,
  "Connors": 26493,
  "Cons": 5171,
  "Conservative": 11596,
  "Considering": 26301,
  "Consumer": 14457,
  "Consumers": 9314,
  "Cont": 13527,
  "Controvers": 16922,
  "Controversial": 20542,
  "Coopers": 20710,
  "Cor": 15802,
  "Cost": 27943,
  "Could": 23673,
  "Council": 18621,
  "Councils": 27382,
  "Count": 20704,
  "Country": 27470,
  "Court": 23679,
  "Cr": 23672,
  "Crack": 27960,
  "Creat": 27946,
  "Creative": 27959,
  "Creditors": 27964,
  "Crim": 27955,
  "Cririck": 27962,
  "Crist": 27948,
  "Critical": 23690,
  "Critics": 18624,
  "Croat": 20708,
  "Croatia": 23484,
  "Cross": 20706,
  "Crow": 27944,
  "Cub": 23675,
  "Cube": 18625,
  "Cudicini": 27961,
  "Cult": 27945,
  "Cur": 9367,
  "Current": 26800,
  "Currently": 12923,
  "Customers": 20709,
  "Cy": 18619,
  "Cyber": 27381,
  "Czech": 27958,
  "D": 40,
  "DA": 5313,
  "DAs": 14717,
  "DB": 11729,
  "DC": 13001,
  "DEC": 17022,
  "DF": 23692,
  "DG": 27966,
  "DI": 20711,
  "DJ": 23693,
  "DO": 9071,
  "DP": 3938,
  "DPA": 9027,
  "DPM": 14420,
  "DRM": 23701,
  "DS": 7913,
  "DV": 23694,
  "DVB": 27984,
  "DVD": 6750,
  "DVDs": 22790,
  "DVR": 20718,
  "Da": 13798,
  "Dallaglio": 27981,
  "Dam": 27968,
  "Dame": 20714,
  "Dan": 11730,
  "Dance": 27975,
  "Daniel": 13737,
  "Daniela": 23182,
  "Data": 23700,
  "Dav": 7496,
  "Davenport": 16924,
  "David": 8828,
  "Dawson": 20717,
  "Day": 17021,
  "De": 6496,
  "Deb": 27977,
  "December": 16734,
  "Def": 15810,
  "Del": 20712,
  "Delta": 20716,
  "Dem": 15808,
  "Demand": 27236,
  "Den": 23696,
  "Dent": 27967,
  "Dep": 23698,
  "Derby": 20719,
  "Des": 6050,
  "Despite": 6867,
  "Details": 18628,
  "Deutsche": 11622,
  "Di": 17020,
  "Dibaba": 27986,
  "Digital": 10739,
  "Dim": 27969,
  "Dire": 27974,
  "Director": 15811,
  "Dirty": 27982,
  "Dis": 9368,
  "Disc": 27979,
  "Dism": 27976,
  "Disney": 14589,
  "Dist": 27972,
  "Ditt": 23699,
  "Ditto": 27627,
  "Div": 27973,
  "Dix": 15809,
  "Dixie": 16971,
  "Do": 7192,
  "Docu": 20715,
  "Does": 26562,
  "Dollar": 18626,
  "Domain": 27985,
  "Don": 8345,
  "Donald": 5951,
  "Done": 20713,
  "Doping": 9676,
  "Dou": 10738,
  "Double": 14615,
  "Dour": 27971,
  "Down": 11731,
  "Downing": 14641,
  "Dr": 13799,
  "Drag": 18627,
  "Dragons": 20601,
  "Drisc": 5042,
  "Driscoll": 5108,
  "Drogba": 27983,
  "Ds": 23695,
  "Dublin": 27980,
  "Dud": 23697,
  "Dudek": 27626,
  "Duff": 27978,
  "Dun": 27970,
  "Dundee": 20720,
  "During": 11193,
  "Dutch": 14718,
  "E": 41,
  "EA": 7713,
  "EAD": 20177,
  "EB": 23702,
  "EC": 3198,
  "ECB": 25989,
  "ECE": 19833,
  "EE": 23703,
  "EF": 10356,
  "EFA": 20725,
  "EFF": 28000,
  "EG": 17023,
  "EL": 27987,
  "EM": 7497,
  "EMI": 20165,
  "EN": 27988,
  "ENG": 28001,
  "EOC": 18633,
  "ER": 11732,
  "ERS": 20724,
  "ES": 8129,
  "ESR": 16789,
  "EU": 8130,
  "EV": 27989,
  "EY": 23704,
  "Each": 15812,
  "Ealing": 27999,
  "Ear": 8589,
  "Earlier": 9660,
  "Early": 26717,
  "East": 17025,
  "Eb": 23705,
  "Ebbers": 27628,
  "Eco": 27996,
  "Econom": 11734,
  "Economic": 18391,
  "Economy": 20349,
  "Ed": 6267,
  "Eddie": 26450,
  "Edinburgh": 8556,
  "Edu": 18630,
  "Edwards": 20097,
  "Eff": 27992,
  "Egypt": 17026,
  "Eight": 18629,
  "Eighth": 27998,
  "Eighty": 28002,
  "Either": 15813,
  "El": 10740,
  "Elect": 20723,
  "Election": 27997,
  "Electrolux": 27472,
  "Ellen": 27995,
  "Elsewhere": 18634,
  "Elvis": 14616,
  "Em": 20721,
  "Eminem": 18632,
  "Employers": 23485,
  "En": 11733,
  "End": 9369,
  "Enders": 10340,
  "Eng": 4210,
  "England": 4504,
  "English": 19918,
  "Enron": 26978,
  "Ent": 27991,
  "Equ": 20722,
  "Equally": 27471,
  "Er": 17024,
  "Ericsson": 23330,
  "Es": 10000,
  "Especially": 26846,
  "Esquive": 26847,
  "Ess": 26845,
  "Est": 27990,
  "Ethiop": 23707,
  "Ethiopia": 27629,
  "Ets": 27993,
  "Euro": 5109,
  "Euronext": 18631,
  "Europe": 5863,
  "European": 8108,
  "Europeans": 22704,
  "Eurosceptic": 26289,
  "Ev": 23706,
  "Even": 7341,
  "Event": 27994,
  "Everton": 17027,
  "Every": 4972,
  "Everybody": 15501,
  "Everyone": 10292,
  "Everything": 14451,
  "Ex": 6381,
  "Excluding": 26463,
  "Experts": 22754,
  "Eye": 20726,
  "F": 42,
  "FA": 7914,
  "FB": 14719,
  "FBI": 23715,
  "FC": 18635,
  "FCC": 20735,
  "FDA": 28025,
  "FF": 9370,
  "FI": 28003,
  "FJ": 11735,
  "FL": 28004,
  "FO": 28005,
  "FSA": 28020,
  "Factor": 28026,
  "Factory": 28031,
  "Failure": 20737,
  "Famed": 28016,
  "Fannie": 23717,
  "Fans": 23709,
  "Fant": 28010,
  "Far": 12360,
  "Farlane": 23119,
  "Fast": 18637,
  "Faster": 23713,
  "Fat": 28006,
  "Fears": 20736,
  "February": 20733,
  "Fed": 20728,
  "Feder": 17028,
  "Federer": 23331,
  "Fella": 18640,
  "Fellow": 28027,
  "Ferguson": 13801,
  "Ferr": 28018,
  "Few": 20729,
  "Fi": 18636,
  "Fiat": 13802,
  "Fidel": 28023,
  "Fifa": 23718,
  "Fifth": 28019,
  "Fifty": 23720,
  "Figures": 17029,
  "Fiji": 15814,
  "Fil": 28007,
  "File": 20730,
  "Film": 10001,
  "Fin": 11736,
  "Final": 28015,
  "Finding": 28024,
  "Finn": 28022,
  "Fire": 28013,
  "Firms": 14721,
  "First": 10741,
  "Firstly": 26901,
  "Five": 11194,
  "Fl": 20727,
  "Fletcher": 28029,
  "Fly": 28008,
  "Fockers": 23716,
  "Following": 14720,
  "Foot": 23711,
  "Football": 27630,
  "For": 2713,
  "Ford": 28011,
  "Fore": 12361,
  "Foreign": 15728,
  "Form": 23710,
  "Former": 5775,
  "Foster": 20734,
  "Fosters": 23719,
  "Found": 28014,
  "Four": 10357,
  "Fox": 13800,
  "Foxx": 23184,
  "Fr": 3877,
  "Fran": 20732,
  "France": 5700,
  "Francis": 7883,
  "Franco": 26105,
  "Francois": 27831,
  "Frank": 16612,
  "Frankfurt": 27296,
  "Franz": 23486,
  "Fraud": 23714,
  "Fred": 18638,
  "Free": 11737,
  "French": 9371,
  "Fresh": 28021,
  "Fri": 28009,
  "Frid": 23712,
  "Friend": 28017,
  "Friends": 28028,
  "From": 9072,
  "Fry": 23708,
  "Full": 18639,
  "Fuming": 28030,
  "Fund": 28012,
  "Further": 20731,
  "Future": 28032,
  "G": 43,
  "GAS": 28050,
  "GB": 5532,
  "GC": 7193,
  "GDP": 13803,
  "GE": 20738,
  "GES": 28044,
  "GH": 23721,
  "GI": 15815,
  "GM": 6161,
  "GMT": 22738,
  "GP": 28033,
  "GSM": 10002,
  "GW": 14722,
  "GWU": 15770,
  "Gadget": 13002,
  "Gadgets": 23149,
  "Gage": 23722,
  "Gall": 18644,
  "Gamb": 28042,
  "Game": 15816,
  "Gamers": 15817,
  "Games": 11195,
  "Gaming": 13003,
  "Gang": 23724,
  "Gara": 4741,
  "Gard": 18643,
  "Garden": 23726,
  "Gardener": 20602,
  "Gat": 28036,
  "Gav": 28038,
  "Gazprom": 18647,
  "Gener": 28041,
  "General": 18648,
  "Geor": 17037,
  "George": 23333,
  "Ger": 5793,
  "German": 8327,
  "Germany": 11119,
  "Gerr": 17033,
  "Gerrard": 18553,
  "Gervais": 28045,
  "Get": 18642,
  "Gethin": 28049,
  "Getting": 23392,
  "Gha": 28035,
  "Gib": 28040,
  "Giggs": 20742,
  "Gil": 28037,
  "Given": 11738,
  "Giving": 20741,
  "Gl": 5445,
  "Glasgow": 9940,
  "Global": 15527,
  "Gloucester": 14467,
  "Go": 9073,
  "God": 17030,
  "Godzilla": 23332,
  "Gold": 17031,
  "Golden": 20548,
  "Golds": 28043,
  "Good": 18645,
  "Google": 18293,
  "Goran": 17035,
  "Gordon": 8590,
  "Gov": 23725,
  "Government": 18294,
  "Gr": 20739,
  "Grac": 28047,
  "Graham": 20743,
  "Gram": 28039,
  "Gre": 28034,
  "Great": 17032,
  "Greek": 11739,
  "Green": 11196,
  "Greg": 18646,
  "Groot": 28048,
  "Gross": 23723,
  "Group": 20740,
  "Growth": 17034,
  "Gu": 18641,
  "Guantanamo": 23391,
  "Guard": 11197,
  "Gudjohnsen": 28046,
  "Guitarist": 28051,
  "Gwent": 17036,
  "H": 44,
  "HD": 14723,
  "HDTV": 23233,
  "HE": 18649,
  "HEO": 23393,
  "HL": 28052,
  "HO": 14724,
  "HP": 20744,
  "HRC": 28073,
  "HS": 6051,
  "HSDPA": 26423,
  "HT": 28053,
  "HTC": 20746,
  "HTCU": 23487,
  "Hack": 28061,
  "Had": 23732,
  "Hague": 23739,
  "Hal": 10358,
  "Half": 18347,
  "Hall": 28062,
  "Halo": 14605,
  "Hamm": 23741,
  "Hanks": 28070,
  "Hansen": 28076,
  "Hantuchova": 28072,
  "Happy": 23742,
  "Har": 9074,
  "Hard": 23735,
  "Harden": 11198,
  "Hardenne": 11708,
  "Harinordoquy": 22940,
  "Harry": 18295,
  "Hart": 23734,
  "Has": 23731,
  "Hat": 28057,
  "Have": 23738,
  "Having": 17038,
  "Hazel": 28078,
  "He": 1222,
  "Head": 19547,
  "Healey": 25421,
  "Health": 21952,
  "Hear": 18650,
  "Hearts": 20603,
  "Heineken": 25420,
  "Hel": 23736,
  "Help": 27632,
  "Hen": 9677,
  "Hend": 28060,
  "Henman": 14593,
  "Henry": 20263,
  "Henson": 18653,
  "Her": 13804,
  "Here": 13806,
  "Hereford": 27115,
  "Herlihy": 27114,
  "Hert": 28069,
  "Hew": 13805,
  "Hewitt": 14682,
  "High": 8851,
  "Higher": 28071,
  "Hill": 23733,
  "Hingis": 28075,
  "Hip": 23737,
  "His": 5110,
  "Histor": 20747,
  "Hit": 23729,
  "Ho": 28054,
  "Hob": 28064,
  "Hodgson": 18652,
  "Hoff": 28066,
  "Hol": 6268,
  "Hollywood": 9327,
  "Holmes": 11129,
  "Home": 10359,
  "Hon": 23727,
  "Honda": 28074,
  "Hong": 28063,
  "Hop": 28059,
  "Hopefully": 10003,
  "Hor": 23728,
  "Hosp": 28067,
  "Hots": 28065,
  "Hou": 23730,
  "Houllier": 27631,
  "House": 12362,
  "How": 2633,
  "Howard": 9276,
  "However": 3996,
  "Howl": 22305,
  "Huaral": 28077,
  "Hug": 18651,
  "Hugo": 27383,
  "Human": 23740,
  "Hun": 28058,
  "Hundreds": 20745,
  "Hunt": 28068,
  "Hy": 28055,
  "Hz": 28056,
  "I": 45,
  "IA": 13807,
  "IAAF": 15819,
  "IBM": 17039,
  "IC": 11740,
  "ID": 5446,
  "IDS": 20037,
  "IE": 20748,
  "IF": 13808,
  "IFA": 23747,
  "IFF": 28084,
  "IFPI": 27116,
  "IG": 28079,
  "IHRC": 28089,
  "ILO": 20752,
  "IM": 23743,
  "IMF": 12363,
  "ING": 28085,
  "IOC": 23748,
  "IP": 2465,
  "IPS": 25833,
  "IPTV": 22278,
  "IS": 23744,
  "ISM": 28082,
  "ISP": 23746,
  "IT": 10004,
  "ITF": 26848,
  "IV": 5371,
  "IY": 18654,
  "Ian": 23745,
  "Idowu": 20751,
  "If": 1605,
  "Il": 28080,
  "Ilroy": 20750,
  "Im": 20749,
  "Imag": 17040,
  "Imagine": 18554,
  "Imanol": 28087,
  "Imelda": 28083,
  "Imm": 28081,
  "Imp": 18655,
  "Implemented": 27384,
  "In": 1206,
  "InReal": 16363,
  "Incre": 25409,
  "Ind": 4178,
  "Indefinite": 26149,
  "India": 6483,
  "Indian": 18046,
  "Indie": 26148,
  "Indones": 14427,
  "Indonesia": 16940,
  "Indust": 18045,
  "Industrial": 23384,
  "Init": 17727,
  "Initially": 20582,
  "Instead": 15217,
  "Int": 15818,
  "Intel": 18525,
  "Inter": 15216,
  "Interest": 20487,
  "Intern": 8722,
  "International": 16808,
  "Internet": 11666,
  "Intyre": 28088,
  "Invest": 12058,
  "Investors": 13745,
  "Ioann": 28086,
  "Ir": 10742,
  "Iran": 13004,
  "Iranian": 27061,
  "Iraq": 11199,
  "Ireland": 6872,
  "Irish": 11701,
  "Is": 8131,
  "Islam": 22871,
  "Islamic": 27605,
  "Isn": 26659,
  "Israel": 13663,
  "Israeli": 20432,
  "It": 739,
  "Italy": 8442,
  "Its": 10943,
  "J": 46,
  "JURI": 23757,
  "Jack": 15822,
  "Jade": 28097,
  "Jam": 15821,
  "James": 13809,
  "Jamie": 20499,
  "Jan": 23749,
  "January": 20755,
  "Japan": 6615,
  "Japanese": 14516,
  "Jar": 28093,
  "Jason": 18656,
  "Jay": 23750,
  "Jays": 28096,
  "Jaze": 28104,
  "Jazz": 28102,
  "Jen": 28092,
  "Jennifer": 23756,
  "Jer": 28091,
  "Jet": 28094,
  "Jew": 23752,
  "Jewish": 27633,
  "Jez": 28103,
  "Jim": 28095,
  "Jo": 17041,
  "Job": 17042,
  "Jobs": 23755,
  "John": 6616,
  "Johnny": 18175,
  "Johnson": 14517,
  "Jol": 23751,
  "Jon": 15820,
  "Jonathan": 27238,
  "Jones": 11200,
  "Jonny": 27237,
  "Jose": 23753,
  "Josh": 28100,
  "Joss": 20754,
  "Jowell": 28101,
  "Joy": 23754,
  "Ju": 28090,
  "Jud": 14725,
  "Judges": 18483,
  "Jugnot": 28105,
  "July": 20756,
  "Jun": 20753,
  "June": 28099,
  "Juninho": 23488,
  "Junk": 28098,
  "Just": 12364,
  "K": 47,
  "KM": 28106,
  "Kap": 18658,
  "Kaplan": 27385,
  "Kast": 11201,
  "Kbps": 28112,
  "Ke": 20757,
  "Kee": 23760,
  "Kelly": 8132,
  "Ken": 7714,
  "Kennedy": 14545,
  "Kent": 23759,
  "Kenteris": 18659,
  "Kenya": 26612,
  "Kenzie": 16777,
  "Kerr": 23762,
  "Kevin": 20759,
  "Kewell": 28114,
  "Khan": 28108,
  "Khayelitsha": 28116,
  "Khodorkovsky": 28111,
  "Kier": 28109,
  "Kil": 15823,
  "Kilroy": 16972,
  "Kim": 18657,
  "King": 23758,
  "Kings": 12365,
  "Kir": 28107,
  "Kline": 20758,
  "Klu": 23763,
  "Kostas": 23764,
  "Kraft": 23761,
  "Krispy": 28115,
  "Krup": 28110,
  "Kuznetsova": 28113,
  "L": 48,
  "LA": 20760,
  "LAC": 28130,
  "LCD": 23774,
  "LD": 28117,
  "LE": 28118,
  "LG": 14726,
  "LL": 20761,
  "LO": 13005,
  "LP": 20762,
  "LR": 15824,
  "LSE": 15826,
  "La": 23765,
  "Labour": 4139,
  "Labs": 18663,
  "Lady": 28124,
  "Lansdowne": 23772,
  "Las": 28120,
  "Last": 7342,
  "Lat": 20765,
  "Late": 28121,
  "Later": 18662,
  "Laur": 20769,
  "Laura": 23490,
  "Law": 20768,
  "Le": 4341,
  "Lead": 28126,
  "Leading": 23776,
  "Lear": 9372,
  "Leary": 10341,
  "Lee": 20767,
  "Leeds": 15462,
  "Leg": 17044,
  "Legal": 27306,
  "Legendary": 27307,
  "Leicester": 9036,
  "Leigh": 26172,
  "Leinster": 12806,
  "Leish": 13571,
  "Lennon": 28131,
  "Les": 23766,
  "Less": 18660,
  "Let": 6052,
  "Lev": 28127,
  "Lew": 10360,
  "Lewis": 11697,
  "Li": 9075,
  "Lib": 8852,
  "Liber": 10743,
  "Liberal": 13715,
  "Liberian": 26902,
  "Life": 6617,
  "Lifest": 28129,
  "Like": 10361,
  "Lindsay": 23773,
  "Link": 14727,
  "Lions": 23768,
  "Lis": 20764,
  "Lisbon": 23489,
  "List": 17043,
  "Listen": 23334,
  "Little": 15825,
  "Liverpool": 9357,
  "Living": 28128,
  "Ll": 28119,
  "Llanelli": 23775,
  "Lleyton": 18664,
  "Loc": 28123,
  "Local": 18661,
  "London": 13006,
  "Long": 20766,
  "Look": 13810,
  "Looking": 23770,
  "Lopez": 20770,
  "Lord": 8133,
  "Los": 28122,
  "Lots": 23769,
  "Low": 23767,
  "Loyalty": 28132,
  "Lu": 20763,
  "Luc": 28125,
  "Lufthansa": 27473,
  "Lycos": 23771,
  "M": 49,
  "MA": 11741,
  "MAC": 28154,
  "MB": 14728,
  "MC": 6873,
  "MCI": 18668,
  "MD": 8591,
  "MDA": 20779,
  "MDR": 20223,
  "MF": 3965,
  "MFG": 22534,
  "MG": 28133,
  "MH": 14729,
  "MI": 13811,
  "MIT": 28155,
  "ML": 11202,
  "MM": 28134,
  "MMS": 28151,
  "MP": 11203,
  "MPC": 20780,
  "MPs": 10745,
  "MS": 5866,
  "MSA": 23785,
  "MTFG": 28162,
  "MTV": 28149,
  "MV": 15827,
  "MW": 28135,
  "Ma": 28136,
  "Mac": 15831,
  "Mack": 28140,
  "Mad": 20774,
  "Main": 23781,
  "Mak": 28141,
  "Make": 20775,
  "Making": 20777,
  "Mal": 13007,
  "Malaysia": 27063,
  "Malcolm": 27062,
  "Male": 28146,
  "Man": 4643,
  "Manchester": 9076,
  "Mand": 23780,
  "Manu": 18666,
  "Manufact": 20604,
  "Manufacturing": 23477,
  "Many": 6497,
  "Mar": 10005,
  "March": 28145,
  "Marie": 26849,
  "Marion": 23002,
  "Mark": 10362,
  "Markets": 26876,
  "Marshall": 17048,
  "Mart": 5373,
  "Martin": 15524,
  "Martina": 26323,
  "Mary": 28142,
  "Mat": 28137,
  "Matt": 15832,
  "Maur": 28153,
  "May": 10744,
  "Maybe": 13716,
  "Mb": 23777,
  "Mbps": 7915,
  "Mc": 8134,
  "McClaren": 26661,
  "McDonald": 26660,
  "McIlroy": 22872,
  "Me": 15828,
  "Meanwhile": 10006,
  "Media": 18667,
  "Mel": 18665,
  "Members": 17050,
  "Men": 20771,
  "Mentally": 28161,
  "Mer": 15829,
  "Merriam": 27239,
  "Merry": 28150,
  "Met": 23779,
  "Mex": 20778,
  "Mexican": 27476,
  "Mic": 3939,
  "Michael": 8531,
  "Michel": 18031,
  "Michelle": 27371,
  "Microsoft": 5365,
  "Mid": 15830,
  "Middlesbrough": 18526,
  "Mido": 23787,
  "Mik": 28148,
  "Mike": 12366,
  "Mil": 23778,
  "Millions": 13812,
  "Min": 6874,
  "Minister": 22795,
  "Ministers": 8819,
  "Mir": 28139,
  "Miss": 23782,
  "Mits": 28144,
  "Mittal": 28156,
  "Mixed": 23784,
  "Mo": 11204,
  "Moazzam": 26939,
  "Mob": 20776,
  "Mobile": 4742,
  "Mobiles": 13813,
  "Monica": 28160,
  "Monitor": 28158,
  "Monsanto": 23788,
  "Moody": 28152,
  "Mor": 17045,
  "More": 4916,
  "Morgan": 17047,
  "Morrison": 27308,
  "Most": 9373,
  "Mot": 20772,
  "Mother": 28147,
  "Motor": 27474,
  "Mourinho": 11742,
  "Movie": 17049,
  "Movies": 28159,
  "Moya": 11743,
  "Moyes": 28157,
  "Mr": 1557,
  "Mrs": 16415,
  "Ms": 6751,
  "Much": 23783,
  "Mult": 17046,
  "Multimedia": 27309,
  "Mun": 9679,
  "Munster": 10718,
  "Mur": 9678,
  "Murder": 18318,
  "Murphy": 22978,
  "Murray": 18317,
  "Mus": 20773,
  "Music": 7715,
  "Musical": 26613,
  "Musicians": 20178,
  "Muslim": 27475,
  "Mut": 28138,
  "Mutu": 23786,
  "My": 5372,
  "Myst": 28143,
  "N": 50,
  "NA": 28163,
  "NEM": 28173,
  "NG": 10746,
  "NHTCU": 28179,
  "NI": 15833,
  "NID": 20783,
  "NM": 18669,
  "NN": 23789,
  "NP": 5708,
  "NSE": 15834,
  "NSEE": 18527,
  "NT": 20781,
  "NY": 23790,
  "NZ": 20782,
  "Nadal": 9374,
  "Napster": 23795,
  "Nar": 28165,
  "Nas": 18670,
  "Nat": 28166,
  "National": 28169,
  "Nations": 14730,
  "Nato": 28175,
  "Naturally": 28176,
  "Navratilova": 28178,
  "Naz": 18671,
  "Nazi": 20605,
  "Ne": 6875,
  "Nearly": 23794,
  "Neath": 18182,
  "Neil": 15580,
  "Neill": 12878,
  "Neither": 26523,
  "Net": 6876,
  "NetRatings": 15581,
  "Never": 17052,
  "New": 3261,
  "Newcastle": 8516,
  "Newport": 25997,
  "News": 16576,
  "Next": 13008,
  "Nic": 28167,
  "Nicholas": 23796,
  "Nig": 23791,
  "Nike": 28168,
  "Nintendo": 13814,
  "Nipple": 28180,
  "Nissan": 28174,
  "No": 4463,
  "Nobody": 17054,
  "Nokia": 23793,
  "Nomine": 28171,
  "None": 17051,
  "Nor": 28164,
  "Nort": 12367,
  "Northampton": 14656,
  "Not": 9680,
  "Nothing": 17053,
  "Nov": 28170,
  "November": 18672,
  "Now": 5794,
  "Nuclear": 23792,
  "Number": 28172,
  "Nunez": 28177,
  "O": 51,
  "OA": 20784,
  "OC": 9681,
  "OD": 13815,
  "ODPM": 23800,
  "OF": 20785,
  "OK": 28181,
  "OL": 6162,
  "ON": 10363,
  "ONGC": 20292,
  "ONS": 14606,
  "OR": 9375,
  "ORPG": 11681,
  "OS": 18673,
  "OUS": 28187,
  "OW": 28182,
  "Oasis": 28189,
  "Obs": 28185,
  "Obviously": 8592,
  "Ocean": 17056,
  "Of": 6877,
  "Off": 20788,
  "Offic": 17055,
  "Office": 27477,
  "Officials": 20549,
  "Often": 28188,
  "Oh": 20786,
  "Oil": 12368,
  "Ok": 28183,
  "Old": 12369,
  "Older": 23120,
  "Oliver": 20790,
  "Olymp": 15835,
  "Olympic": 16973,
  "On": 2724,
  "Once": 7299,
  "One": 4098,
  "Online": 16529,
  "Only": 10247,
  "Opec": 28190,
  "Open": 23798,
  "Oper": 18675,
  "Operators": 27386,
  "Opp": 18674,
  "Opposition": 23394,
  "Opt": 23797,
  "Optimism": 27634,
  "Or": 13816,
  "Orange": 18676,
  "Organ": 23185,
  "Organisers": 27616,
  "Orig": 23799,
  "Os": 9376,
  "Osc": 28186,
  "Oscar": 10747,
  "Ospreys": 17057,
  "Ossie": 22959,
  "Other": 7343,
  "Others": 18202,
  "Otherwise": 22830,
  "Our": 4097,
  "Out": 20787,
  "Over": 8135,
  "Overall": 14561,
  "Ow": 28184,
  "Owen": 20789,
  "Ox": 14731,
  "Oxley": 18484,
  "P": 52,
  "PA": 20791,
  "PC": 8853,
  "PCS": 22927,
  "PD": 23801,
  "PG": 9377,
  "PI": 5795,
  "PL": 17058,
  "PM": 14732,
  "PN": 23802,
  "PP": 14733,
  "PPI": 23808,
  "PR": 13009,
  "PS": 5709,
  "PSP": 28200,
  "PT": 28191,
  "PVR": 18679,
  "Pac": 20792,
  "Pacific": 27478,
  "Page": 18677,
  "Pairing": 28205,
  "Pake": 23804,
  "Pakistan": 23810,
  "Pal": 15836,
  "Pan": 28192,
  "Pants": 28199,
  "Par": 7344,
  "Parents": 17062,
  "Parker": 20794,
  "Parliament": 26589,
  "Parma": 26590,
  "Parmalat": 15596,
  "Parry": 16767,
  "Part": 10364,
  "Parties": 23022,
  "Party": 28198,
  "Pat": 17059,
  "Paul": 9682,
  "Paula": 16835,
  "Pay": 23803,
  "Pe": 3746,
  "Peace": 26086,
  "Pear": 28193,
  "Peer": 19881,
  "Pension": 23806,
  "People": 4177,
  "Per": 11205,
  "Perhaps": 26940,
  "Pernod": 28202,
  "Perpignan": 23071,
  "Person": 18678,
  "Personal": 27387,
  "Peter": 20793,
  "Ph": 5243,
  "Phil": 11600,
  "Philip": 15708,
  "Philippe": 16968,
  "Phillips": 8800,
  "Phone": 22659,
  "Physically": 26313,
  "Piazza": 28207,
  "Pier": 13818,
  "Pierre": 16925,
  "Pix": 28196,
  "Pl": 10007,
  "Plans": 12939,
  "Play": 10009,
  "Players": 20278,
  "Playing": 16845,
  "Please": 23811,
  "Pod": 3220,
  "Pol": 10008,
  "Police": 11694,
  "Polit": 11206,
  "Political": 16869,
  "Politicians": 20326,
  "Poll": 23805,
  "Pop": 17060,
  "Port": 13817,
  "Portable": 23186,
  "Porter": 23809,
  "Post": 28195,
  "Pountney": 28204,
  "Power": 28197,
  "Pr": 7716,
  "Pre": 13010,
  "Prem": 17061,
  "Premiership": 23335,
  "President": 13011,
  "Preston": 28201,
  "Prime": 13653,
  "Prince": 13654,
  "Priv": 23812,
  "Pro": 6618,
  "Produ": 15837,
  "Producer": 27240,
  "Prof": 10685,
  "Profile": 26899,
  "Profits": 15691,
  "Prog": 23807,
  "Prom": 28194,
  "Prosecutors": 18176,
  "Ps": 6053,
  "Public": 14734,
  "Pupils": 28203,
  "Putting": 28206,
  "Q": 53,
  "QPR": 28209,
  "Qaed": 14735,
  "Qaeda": 15771,
  "Qantas": 20795,
  "Qu": 8854,
  "Queen": 15838,
  "Quest": 12918,
  "Qwest": 28208,
  "R": 54,
  "RA": 20796,
  "RC": 11207,
  "RE": 28210,
  "REM": 23823,
  "RF": 13012,
  "RFU": 20409,
  "RI": 13819,
  "RJ": 28211,
  "RM": 8136,
  "RN": 28212,
  "RO": 23813,
  "RR": 28213,
  "RS": 7345,
  "RU": 10365,
  "Ra": 17063,
  "Rad": 13013,
  "Radcliffe": 13759,
  "Radio": 23818,
  "Rae": 20550,
  "Rafa": 20807,
  "Rage": 20801,
  "Rally": 28220,
  "Rangers": 18683,
  "Rank": 23817,
  "Rap": 20800,
  "Rapper": 13015,
  "Rates": 28222,
  "Rather": 20804,
  "Ratings": 14736,
  "Ray": 11744,
  "Re": 6382,
  "Reading": 28230,
  "Real": 10366,
  "Rec": 8855,
  "Recent": 16811,
  "Record": 15640,
  "Red": 15839,
  "Reds": 23820,
  "Ref": 20803,
  "Reg": 15841,
  "Reilly": 22755,
  "Rel": 20799,
  "Rem": 28218,
  "Rena": 23821,
  "Renault": 27636,
  "Rep": 15840,
  "Replacements": 13626,
  "Reports": 26464,
  "Republic": 16974,
  "Res": 11208,
  "Research": 16870,
  "Respond": 26941,
  "Ret": 28217,
  "Retail": 20808,
  "Rev": 20805,
  "Reyes": 28233,
  "Ric": 18680,
  "Rich": 23815,
  "Richard": 23395,
  "Right": 28219,
  "Riise": 28231,
  "Rings": 28223,
  "Rip": 28221,
  "Rising": 18682,
  "Rival": 23819,
  "River": 28228,
  "Ro": 23814,
  "Rob": 6752,
  "Robben": 16745,
  "Robbie": 26510,
  "Rober": 13820,
  "Robert": 14683,
  "Robinson": 11628,
  "Robots": 26509,
  "Rock": 13014,
  "Roddick": 8346,
  "Rog": 23816,
  "Roger": 27635,
  "Roma": 28229,
  "Roman": 28226,
  "Ron": 28215,
  "Ronald": 20806,
  "Ronaldo": 23492,
  "Ros": 20798,
  "Rosneft": 23491,
  "Ross": 18681,
  "Rou": 28216,
  "Rover": 28224,
  "Rovers": 23824,
  "Row": 20797,
  "Roxy": 28232,
  "Roy": 20802,
  "Royal": 28227,
  "Ru": 28214,
  "Ruddock": 18685,
  "Rugby": 28225,
  "Rusedski": 23822,
  "Russ": 6269,
  "Russia": 9951,
  "Russian": 9635,
  "Ryan": 18684,
  "S": 55,
  "SA": 4059,
  "SBC": 28242,
  "SCC": 23838,
  "SE": 2756,
  "SEC": 14363,
  "SF": 23825,
  "SGC": 28261,
  "SI": 5952,
  "SIS": 20077,
  "SJ": 23826,
  "SK": 23827,
  "SL": 10367,
  "SM": 6878,
  "SOs": 11209,
  "SP": 3262,
  "SS": 13016,
  "ST": 23828,
  "SUV": 18691,
  "SUVs": 23400,
  "Sa": 13017,
  "Saaid": 23150,
  "Sad": 28236,
  "Safety": 28272,
  "Safin": 20818,
  "Saharan": 27064,
  "Sale": 9684,
  "Sales": 11745,
  "Sam": 28235,
  "Samo": 17066,
  "Samoa": 18555,
  "Sania": 28265,
  "Sant": 28238,
  "Sar": 20810,
  "Saracens": 23493,
  "Sat": 23829,
  "Satellite": 28258,
  "Saturday": 23835,
  "Saudi": 23839,
  "Save": 23833,
  "Savvy": 28266,
  "Say": 28234,
  "Sc": 4464,
  "Scan": 22575,
  "Scarlets": 19945,
  "School": 12371,
  "Schools": 20381,
  "Sci": 28246,
  "Scient": 20816,
  "Scientists": 23495,
  "Scotland": 8319,
  "Scott": 15470,
  "Scottish": 23280,
  "Sculthorpe": 26195,
  "Se": 10010,
  "Search": 12372,
  "Sec": 9077,
  "Second": 18331,
  "Section": 28255,
  "Secure": 13681,
  "Security": 15641,
  "Segas": 28253,
  "Sella": 28263,
  "Sem": 9683,
  "Semit": 9995,
  "Semitic": 12938,
  "Semitism": 18330,
  "Sen": 18687,
  "Senior": 23397,
  "Separately": 20817,
  "September": 23003,
  "Ser": 13018,
  "Serena": 18433,
  "Service": 28269,
  "Set": 23830,
  "Several": 15843,
  "Sex": 28248,
  "Sh": 7916,
  "Sha": 4693,
  "Shadow": 16652,
  "Shaftesbury": 26231,
  "Shar": 28243,
  "Shares": 6157,
  "She": 3747,
  "Shea": 22513,
  "Shel": 28252,
  "Shot": 26634,
  "Should": 16784,
  "Show": 26635,
  "Sid": 17065,
  "Side": 23832,
  "Sideways": 20551,
  "Siemens": 28262,
  "Silk": 3134,
  "Sim": 20812,
  "Similarly": 23494,
  "Simon": 14741,
  "Sin": 18686,
  "Since": 8856,
  "Sinclair": 23396,
  "Sing": 17064,
  "Singapore": 23336,
  "Singer": 10748,
  "Sino": 28254,
  "Sir": 8593,
  "Siv": 28239,
  "Six": 13019,
  "Size": 28251,
  "Sky": 8347,
  "Sl": 12370,
  "Slim": 28249,
  "Slovakia": 17067,
  "Slower": 27019,
  "Sm": 14737,
  "Smaller": 27179,
  "Smith": 10369,
  "SmithKline": 23025,
  "Snow": 20814,
  "So": 3583,
  "Soc": 23831,
  "Soft": 22480,
  "Software": 18010,
  "Sol": 28237,
  "Solid": 28259,
  "Some": 4342,
  "Somebody": 26173,
  "Something": 28267,
  "Sometimes": 15844,
  "Sonia": 28268,
  "Sony": 7498,
  "Soon": 23837,
  "Sou": 20811,
  "Souness": 18690,
  "Sources": 28256,
  "Sout": 14739,
  "South": 7499,
  "Southampton": 15772,
  "Southcorp": 22837,
  "Southern": 28260,
  "Souza": 27480,
  "Sp": 6054,
  "Spain": 11607,
  "Spam": 13617,
  "Span": 28257,
  "Spe": 6383,
  "Speaking": 8558,
  "Special": 28250,
  "Speech": 26466,
  "Speed": 26465,
  "Spending": 26424,
  "Sporting": 28271,
  "Spr": 18689,
  "Sprinter": 23399,
  "Spurs": 26425,
  "Sri": 20813,
  "St": 2292,
  "Stade": 7857,
  "Staffordshire": 25791,
  "Stand": 13488,
  "Standard": 18451,
  "Star": 25787,
  "Stars": 19738,
  "Stat": 15338,
  "State": 22253,
  "Station": 5160,
  "Stay": 22252,
  "Ste": 8137,
  "Stephen": 25792,
  "Stern": 28245,
  "Steve": 15617,
  "Steven": 15618,
  "Still": 19737,
  "Sto": 28247,
  "Story": 25789,
  "Straw": 22254,
  "Stri": 25788,
  "Strong": 17894,
  "Stuart": 25790,
  "Stud": 17893,
  "Sub": 28240,
  "Subs": 10011,
  "Such": 14740,
  "Suddenly": 23840,
  "Sug": 28244,
  "Sullivan": 5618,
  "Sun": 14738,
  "Sund": 28241,
  "Sunderland": 20815,
  "Sup": 18688,
  "Super": 13821,
  "Support": 23398,
  "Sur": 15842,
  "Surely": 28264,
  "Surity": 23834,
  "Susan": 28270,
  "Sw": 10368,
  "Swan": 10749,
  "Swansea": 11184,
  "Swed": 23023,
  "Sweden": 27611,
  "Swiss": 23024,
  "Switzerland": 20293,
  "Sy": 20809,
  "Sydney": 27479,
  "Syl": 23836,
  "T": 56,
  "TA": 5111,
  "TAL": 20004,
  "TC": 10370,
  "TCI": 23848,
  "TE": 23841,
  "TER": 28286,
  "TF": 12373,
  "TFG": 27020,
  "TGWU": 28288,
  "TH": 23842,
  "TI": 23843,
  "TIA": 23851,
  "TO": 6879,
  "TP": 28273,
  "TPS": 23849,
  "TS": 20819,
  "TTC": 28284,
  "TU": 28274,
  "TV": 2215,
  "Ta": 18692,
  "Tagging": 28282,
  "Taik": 27388,
  "Take": 18696,
  "Talk": 23846,
  "Talks": 15847,
  "Tarantino": 28287,
  "Tate": 28277,
  "Tautou": 23850,
  "Tax": 20823,
  "Taylor": 18698,
  "Te": 11210,
  "Tech": 20826,
  "Technology": 18373,
  "Teen": 15845,
  "Teenager": 27241,
  "Teenagers": 23287,
  "Tel": 18694,
  "Tele": 11746,
  "Telecom": 16881,
  "Telecoms": 23325,
  "Television": 26979,
  "Ten": 18693,
  "Terror": 14742,
  "Terrorism": 27180,
  "Test": 23845,
  "Tex": 20825,
  "Text": 20827,
  "Th": 1370,
  "Thailand": 17070,
  "Than": 20824,
  "Thank": 13020,
  "Thanou": 27481,
  "That": 2740,
  "The": 432,
  "Their": 9179,
  "Then": 11949,
  "There": 1577,
  "Therefore": 25574,
  "These": 5985,
  "They": 1993,
  "Things": 16388,
  "Third": 25498,
  "This": 1697,
  "Thom": 15243,
  "Thomas": 20488,
  "Thompson": 27215,
  "Those": 7839,
  "Though": 25497,
  "Thousands": 11470,
  "Three": 12679,
  "Through": 11469,
  "Throughout": 26970,
  "Ti": 28275,
  "Tickets": 23853,
  "Tim": 12374,
  "Time": 18697,
  "Tindall": 28283,
  "To": 5043,
  "Tob": 28278,
  "Today": 11747,
  "Tom": 23844,
  "Tonga": 28290,
  "Tony": 4743,
  "Top": 10012,
  "Tories": 11211,
  "Torrent": 5447,
  "Tory": 5867,
  "Tottenham": 15846,
  "Tough": 20822,
  "Toul": 23847,
  "Toulouse": 27637,
  "Tr": 9685,
  "Tra": 18695,
  "Track": 26818,
  "Trade": 20264,
  "Trafford": 27389,
  "Trans": 22979,
  "Transport": 27610,
  "Tre": 17068,
  "Treviso": 20552,
  "Trial": 28281,
  "Tries": 28279,
  "Trou": 20821,
  "Tsunami": 17069,
  "Tuesday": 28280,
  "Tulip": 28289,
  "Tunes": 5314,
  "Tur": 10371,
  "Turkey": 12319,
  "Tw": 20820,
  "Twelve": 28285,
  "Twenty": 23496,
  "Two": 7194,
  "Ty": 28276,
  "Typ": 23852,
  "Typically": 27638,
  "U": 57,
  "UB": 28291,
  "UJ": 28292,
  "UK": 3356,
  "UKIP": 10634,
  "UN": 18699,
  "URI": 17073,
  "US": 2488,
  "USA": 17907,
  "USADA": 27362,
  "UV": 11748,
  "UWB": 28296,
  "Uefa": 23854,
  "Ug": 28293,
  "Ukraine": 13823,
  "Ulster": 11212,
  "Ult": 11213,
  "Ultimately": 14625,
  "Umaga": 17072,
  "Un": 4644,
  "Under": 7717,
  "Unfortunately": 15482,
  "Unison": 26222,
  "Unit": 18072,
  "United": 18073,
  "University": 14436,
  "Unless": 26221,
  "Unlike": 22589,
  "Uns": 28295,
  "Until": 17071,
  "Unveiling": 26223,
  "Up": 13822,
  "Ur": 28294,
  "Urban": 14743,
  "Us": 10372,
  "Users": 15682,
  "Usher": 23026,
  "Using": 20828,
  "Utter": 28297,
  "V": 58,
  "VB": 13021,
  "VC": 28298,
  "VD": 1859,
  "VMH": 14745,
  "VO": 28299,
  "VR": 7025,
  "Van": 17074,
  "Various": 28308,
  "Venezuel": 14744,
  "Venezuela": 20461,
  "Venezuelan": 27181,
  "Venus": 23861,
  "Ver": 12375,
  "Vera": 15849,
  "Veritas": 15729,
  "Very": 23858,
  "Veteran": 11749,
  "Vi": 11214,
  "Viadana": 26943,
  "Vibe": 28307,
  "Vick": 23856,
  "Vickery": 27639,
  "Vict": 15848,
  "Victor": 18528,
  "Video": 13023,
  "View": 16871,
  "Viewers": 20541,
  "Vincent": 28306,
  "Violent": 26942,
  "Viot": 28304,
  "Virgin": 23859,
  "Virt": 28303,
  "Virus": 18701,
  "Vis": 23855,
  "Visa": 23862,
  "Vision": 13022,
  "Vives": 28301,
  "Vo": 10750,
  "Vodafone": 23860,
  "Voice": 18700,
  "Voip": 26903,
  "Vote": 28302,
  "Voters": 18702,
  "Vox": 23857,
  "Voz": 28305,
  "Vs": 28300,
  "W": 59,
  "WA": 17075,
  "WB": 7500,
  "WI": 15850,
  "WINN": 27242,
  "WINNERS": 27849,
  "WMC": 23867,
  "WOL": 20834,
  "WRU": 28324,
  "WTO": 18704,
  "WTTC": 28327,
  "Wada": 23868,
  "Wai": 28318,
  "Wal": 13824,
  "Wales": 5619,
  "Wall": 23864,
  "Walter": 27117,
  "War": 10751,
  "Warner": 16856,
  "Warning": 23046,
  "Was": 12376,
  "Wasps": 13749,
  "Watch": 28315,
  "Water": 28316,
  "Wayne": 20833,
  "We": 773,
  "Weak": 21812,
  "Web": 11419,
  "Webster": 20339,
  "Wed": 28309,
  "Wel": 20830,
  "Welcome": 27483,
  "Well": 13825,
  "Welsh": 20832,
  "Wembley": 28323,
  "Wenger": 11750,
  "Were": 28312,
  "Werner": 28326,
  "Wes": 23863,
  "West": 10013,
  "Western": 28321,
  "Wh": 5953,
  "Wham": 28314,
  "What": 2634,
  "Whatever": 17924,
  "Whe": 20829,
  "When": 3314,
  "Where": 17077,
  "Whether": 27482,
  "While": 5244,
  "Whilst": 12245,
  "White": 22715,
  "Who": 10014,
  "Whoever": 26850,
  "Why": 9323,
  "Wil": 28311,
  "Wilkinson": 17078,
  "Will": 10752,
  "Williams": 18361,
  "Wind": 23865,
  "Windows": 27640,
  "Winds": 28322,
  "Wine": 28313,
  "Wing": 28310,
  "Winn": 28320,
  "Winners": 20835,
  "Winning": 17079,
  "Winter": 28319,
  "Wipro": 28325,
  "Wireless": 20831,
  "With": 3501,
  "Within": 26042,
  "Without": 13544,
  "Wolves": 18705,
  "Women": 11751,
  "Wood": 15852,
  "Woodford": 23288,
  "Wor": 14746,
  "Worcester": 27183,
  "Work": 15851,
  "Works": 23866,
  "World": 6619,
  "WorldCom": 26497,
  "Worldcom": 26496,
  "Worries": 27182,
  "Would": 18703,
  "Wright": 28317,
  "Writ": 17076,
  "Writing": 23337,
  "X": 60,
  "Xbox": 23869,
  "Xtra": 20836,
  "Y": 61,
  "Yachvili": 28330,
  "Yahoo": 18707,
  "Yangtze": 23871,
  "Ye": 23870,
  "Yeading": 28331,
  "Yeah": 27641,
  "Year": 28328,
  "Yes": 15853,
  "Yet": 14747,
  "Yili": 28329,
  "You": 2675,
  "Young": 16525,
  "Your": 18706,
  "Yugansk": 17080,
  "Yukos": 7346,
  "Z": 62,
  "Zamb": 23872,
  "Zambia": 27642,
  "Zenec": 23873,
  "Zeneca": 27643,
  "[": 63,
  "\\": 64,
  "]": 65,
  "],": 10373,
  "],\"": 15854,
  "].\"": 20837,
  "^": 66,
  "_": 67,
  "`": 68,
  "a": 69,
  "aL": 23874,
  "aRally": 28339,
  "aa": 13024,
  "aan": 23875,
  "ab": 424,
  "aba": 9775,
  "abad": 14083,
  "abagina": 24786,
  "abama": 24785,
  "abb": 12550,
  "abbling": 24783,
  "abe": 10474,
  "abees": 24782,
  "abi": 21517,
  "abian": 11364,
  "abiding": 16170,
  "abies": 14084,
  "abilia": 17491,
  "abilities": 6538,
  "ability": 2290,
  "abinet": 3146,
  "abis": 16169,
  "abit": 14082,
  "abits": 9461,
  "able": 650,
  "abled": 4882,
  "ables": 5561,
  "abling": 14086,
  "ablished": 24784,
  "ably": 2060,
  "abor": 4258,
  "aborate": 18049,
  "abour": 822,
  "about": 9460,
  "abouts": 17490,
  "abres": 24781,
  "abri": 10124,
  "abs": 4564,
  "absolute": 11084,
  "absolutely": 14623,
  "abul": 21518,
  "abwe": 14085,
  "aby": 2938,
  "abys": 19222,
  "ac": 384,
  "acas": 21396,
  "acc": 7228,
  "accept": 7555,
  "acceptable": 8122,
  "access": 17419,
  "acclaimed": 29776,
  "acco": 5818,
  "accom": 21398,
  "ace": 616,
  "aced": 2718,
  "acens": 10870,
  "acerb": 19127,
  "aces": 2775,
  "aceut": 11403,
  "acey": 21700,
  "ach": 662,
  "acha": 19122,
  "achan": 19123,
  "ache": 13239,
  "ached": 2324,
  "acher": 14992,
  "achers": 16101,
  "aches": 4360,
  "achi": 10933,
  "achieve": 25104,
  "achim": 15128,
  "achine": 25103,
  "aching": 21737,
  "acht": 25102,
  "achvili": 9811,
  "acia": 21397,
  "acies": 29771,
  "acility": 19124,
  "acing": 3651,
  "acio": 14036,
  "acious": 21399,
  "acitated": 24639,
  "acities": 16099,
  "acity": 3732,
  "ack": 453,
  "acked": 21568,
  "acket": 6792,
  "acknell": 24864,
  "acks": 13288,
  "acle": 8406,
  "acled": 29773,
  "acles": 24638,
  "aco": 19120,
  "acom": 10107,
  "acon": 10106,
  "aconian": 23007,
  "acott": 29774,
  "acqu": 29772,
  "acre": 19121,
  "acris": 19125,
  "acro": 14035,
  "acroix": 16931,
  "acru": 24637,
  "acs": 12516,
  "act": 792,
  "acted": 16294,
  "actic": 21818,
  "acting": 21817,
  "action": 4592,
  "actions": 6620,
  "active": 7599,
  "actor": 6753,
  "actors": 28337,
  "actory": 18179,
  "actus": 19420,
  "acula": 29775,
  "acular": 16100,
  "acurt": 19126,
  "acus": 29770,
  "acy": 1793,
  "ad": 347,
  "ada": 13192,
  "adal": 4295,
  "adale": 24495,
  "adana": 24497,
  "adata": 29512,
  "adation": 29505,
  "adav": 29509,
  "adays": 16054,
  "add": 29502,
  "added": 21294,
  "adden": 8898,
  "adder": 21292,
  "addy": 13991,
  "ade": 614,
  "adea": 25051,
  "aded": 4005,
  "adel": 16053,
  "adem": 9430,
  "ademy": 3648,
  "adequate": 12600,
  "ader": 10442,
  "aders": 12486,
  "ades": 3851,
  "adesh": 12187,
  "adey": 21699,
  "adget": 1952,
  "adh": 21291,
  "adi": 19028,
  "adic": 29504,
  "adicate": 19030,
  "adice": 29506,
  "adiere": 21293,
  "ading": 4189,
  "adingley": 26152,
  "adio": 1337,
  "aditional": 17347,
  "aditionally": 29515,
  "adium": 3591,
  "adjusted": 19031,
  "adley": 24496,
  "adm": 19029,
  "adne": 29508,
  "ado": 11885,
  "adona": 29514,
  "adoo": 16055,
  "ador": 12485,
  "adoro": 24498,
  "adors": 29510,
  "adown": 29507,
  "adoy": 29511,
  "ads": 13193,
  "adu": 29503,
  "adults": 29513,
  "advised": 24499,
  "ady": 950,
  "adyen": 25284,
  "aed": 11752,
  "aefa": 28338,
  "aero": 28336,
  "af": 1601,
  "afa": 5507,
  "afer": 28335,
  "afety": 25583,
  "aff": 2236,
  "affected": 11028,
  "afferty": 19726,
  "affirm": 22232,
  "affirmed": 27587,
  "affled": 25777,
  "afford": 14327,
  "affordable": 23224,
  "affordshire": 23225,
  "afi": 15267,
  "afia": 19633,
  "afin": 15268,
  "afl": 12690,
  "aflop": 27050,
  "aflops": 15740,
  "afonte": 22079,
  "after": 23876,
  "ag": 406,
  "aga": 17462,
  "against": 21484,
  "agan": 21482,
  "agasc": 17463,
  "agascar": 18582,
  "agasy": 29958,
  "agat": 19188,
  "age": 579,
  "aged": 2732,
  "agedy": 29955,
  "agement": 2748,
  "agen": 16149,
  "agena": 24738,
  "ageo": 14138,
  "ager": 4440,
  "agers": 7233,
  "ages": 1126,
  "agg": 6537,
  "agged": 6788,
  "agger": 9457,
  "agging": 7564,
  "aggressive": 22770,
  "agh": 24737,
  "aghile": 21483,
  "agi": 21481,
  "agie": 19189,
  "agin": 10892,
  "agina": 16150,
  "aging": 2643,
  "agint": 29953,
  "agish": 29952,
  "agles": 15025,
  "agmatic": 17464,
  "agn": 6787,
  "agna": 29956,
  "agne": 19190,
  "agnosis": 26515,
  "ago": 5732,
  "agoe": 29957,
  "agon": 7232,
  "agones": 8923,
  "agons": 9769,
  "agotchi": 29959,
  "agre": 29951,
  "agreed": 29954,
  "ags": 4941,
  "agu": 29950,
  "aguay": 21485,
  "ague": 1718,
  "agues": 5133,
  "ah": 2623,
  "ahan": 13027,
  "ahead": 15855,
  "ahi": 22301,
  "ahl": 16521,
  "ahoo": 4593,
  "ahrenheit": 12735,
  "ai": 2699,
  "aid": 1829,
  "aight": 28333,
  "aign": 1152,
  "aignede": 14221,
  "aigue": 11753,
  "ail": 584,
  "ailability": 15102,
  "ailable": 1926,
  "ailed": 10505,
  "ailhouse": 11985,
  "ailly": 11984,
  "ailstorm": 25015,
  "ailure": 19333,
  "aily": 3480,
  "aim": 921,
  "aims": 25263,
  "ain": 390,
  "aine": 9756,
  "ained": 1792,
  "ainen": 24645,
  "aining": 2123,
  "aink": 9757,
  "ainkiller": 12933,
  "ainment": 24646,
  "ains": 2380,
  "ainsbury": 15348,
  "ainst": 7387,
  "aint": 19131,
  "ainted": 21408,
  "air": 660,
  "aire": 7026,
  "aired": 15856,
  "aires": 12740,
  "airing": 16265,
  "airn": 7808,
  "airo": 15371,
  "airs": 3306,
  "airy": 14154,
  "ais": 5448,
  "ait": 5245,
  "aith": 28332,
  "aj": 1220,
  "aja": 25417,
  "ajec": 25419,
  "aji": 25418,
  "ajor": 1285,
  "ak": 472,
  "aka": 7791,
  "akash": 16198,
  "ake": 516,
  "aked": 5650,
  "aken": 7088,
  "aker": 2680,
  "akers": 3925,
  "akes": 5651,
  "akh": 16197,
  "aki": 15063,
  "aking": 788,
  "akis": 24881,
  "akistan": 6205,
  "akopoulos": 19273,
  "akos": 24882,
  "aks": 11382,
  "akub": 24883,
  "akubu": 27759,
  "al": 291,
  "ala": 8621,
  "alaxy": 29035,
  "alba": 13928,
  "alband": 13127,
  "alcul": 29034,
  "ald": 2146,
  "alder": 12117,
  "ale": 1055,
  "aled": 2424,
  "ales": 775,
  "aley": 11440,
  "algam": 24260,
  "ali": 29027,
  "alie": 10413,
  "alies": 24258,
  "alified": 17245,
  "alin": 21110,
  "aling": 9108,
  "alion": 21111,
  "alism": 21117,
  "alistic": 29033,
  "alities": 29031,
  "ality": 4246,
  "aliy": 21118,
  "aliyah": 23513,
  "alk": 2492,
  "alker": 16509,
  "alking": 11522,
  "alks": 11277,
  "all": 467,
  "allag": 3734,
  "allaghan": 7466,
  "allagher": 14412,
  "allaglio": 5363,
  "allah": 24879,
  "alle": 13126,
  "alled": 2482,
  "aller": 8427,
  "allers": 17519,
  "allica": 21589,
  "alline": 19270,
  "alling": 5265,
  "allone": 14108,
  "alls": 4566,
  "ally": 574,
  "alme": 21116,
  "almost": 29032,
  "alog": 14862,
  "alogue": 7368,
  "alone": 21113,
  "along": 21114,
  "alor": 29028,
  "alore": 24259,
  "alous": 21115,
  "als": 768,
  "alse": 4983,
  "alshaw": 25190,
  "also": 21112,
  "alth": 1607,
  "alty": 29030,
  "aluation": 10414,
  "alup": 29029,
  "always": 18883,
  "aly": 5542,
  "alys": 4791,
  "alysed": 12820,
  "alyst": 1254,
  "alysts": 3457,
  "am": 333,
  "ama": 6913,
  "amai": 19002,
  "amal": 29423,
  "aman": 13181,
  "amant": 21264,
  "amar": 19000,
  "amara": 17333,
  "amaraja": 27408,
  "amasco": 9738,
  "amation": 19001,
  "amatti": 17334,
  "amax": 11314,
  "amazing": 29430,
  "amb": 3616,
  "ambique": 18013,
  "ambitious": 22489,
  "amble": 29426,
  "ambo": 19003,
  "ame": 525,
  "amed": 1929,
  "amee": 24925,
  "amela": 29429,
  "amen": 29422,
  "ament": 1332,
  "amental": 15241,
  "aments": 10837,
  "amers": 12473,
  "ames": 810,
  "ami": 2077,
  "amib": 21265,
  "amic": 21263,
  "amin": 16033,
  "amination": 29428,
  "aming": 4873,
  "amis": 24453,
  "amless": 29427,
  "amm": 9737,
  "amo": 6298,
  "amond": 13182,
  "amore": 24454,
  "amos": 29425,
  "amount": 9427,
  "amous": 11877,
  "amp": 764,
  "ampa": 13350,
  "ampard": 8956,
  "amping": 21810,
  "ampire": 25185,
  "ample": 2826,
  "ampments": 25186,
  "ams": 1431,
  "amsung": 7622,
  "amus": 29424,
  "amy": 4757,
  "an": 283,
  "ana": 7207,
  "anamo": 7208,
  "anay": 21083,
  "anc": 719,
  "ance": 590,
  "anced": 4948,
  "ancell": 25017,
  "ances": 2195,
  "anch": 9403,
  "anchard": 25152,
  "anche": 2277,
  "anches": 13342,
  "anchester": 2535,
  "ancholy": 26802,
  "ancial": 4718,
  "ancies": 13341,
  "ancing": 6330,
  "ancis": 4572,
  "anco": 15146,
  "ancy": 4266,
  "and": 389,
  "anda": 5126,
  "andal": 24641,
  "andals": 24643,
  "andan": 14037,
  "anded": 17423,
  "ander": 4479,
  "andered": 17424,
  "andering": 16104,
  "andez": 29782,
  "andid": 3618,
  "andinav": 17425,
  "anding": 21407,
  "ando": 6661,
  "andon": 29779,
  "andri": 29780,
  "andro": 16103,
  "ands": 1592,
  "andull": 29781,
  "andum": 24642,
  "andums": 29783,
  "andvide": 24644,
  "andy": 13241,
  "ane": 3057,
  "anek": 28968,
  "aneous": 22378,
  "aneously": 10257,
  "anes": 9402,
  "ang": 1217,
  "anga": 6446,
  "ange": 7938,
  "angel": 15218,
  "angelical": 27213,
  "anger": 4142,
  "angers": 4321,
  "angest": 28969,
  "anging": 7121,
  "angle": 14228,
  "angling": 16365,
  "angs": 19544,
  "angt": 12059,
  "angtze": 13746,
  "angu": 3054,
  "anguage": 10622,
  "ani": 18871,
  "ania": 12433,
  "anic": 24224,
  "anies": 1200,
  "anim": 10410,
  "animated": 23030,
  "aning": 13117,
  "anium": 14853,
  "ank": 745,
  "anker": 5411,
  "ankin": 16287,
  "ankind": 25172,
  "anks": 5876,
  "anley": 28970,
  "anmen": 13919,
  "ann": 3012,
  "anna": 25938,
  "anni": 13528,
  "annia": 17953,
  "annie": 9010,
  "anning": 21084,
  "ano": 8874,
  "anov": 28971,
  "anova": 24225,
  "anovic": 11271,
  "ans": 532,
  "ansas": 17542,
  "ansdowne": 8210,
  "ansen": 19301,
  "anship": 19303,
  "ansion": 5209,
  "ansk": 3273,
  "ansom": 19302,
  "anson": 17541,
  "ant": 448,
  "antage": 3366,
  "antages": 19247,
  "antai": 21558,
  "antanamo": 7236,
  "antas": 8423,
  "ante": 15054,
  "anted": 4259,
  "antha": 21557,
  "anti": 15055,
  "antic": 4709,
  "anticipated": 18078,
  "antle": 12566,
  "antly": 5986,
  "anto": 13285,
  "anton": 13286,
  "ants": 2205,
  "antuch": 9185,
  "antuchova": 9362,
  "anu": 1366,
  "anuary": 1496,
  "any": 564,
  "anything": 24997,
  "anz": 4700,
  "ao": 17081,
  "ap": 500,
  "apan": 1480,
  "ape": 3634,
  "aper": 1728,
  "apers": 3797,
  "apix": 7793,
  "apixel": 20185,
  "aples": 24908,
  "apman": 11387,
  "apolis": 24909,
  "apore": 7988,
  "app": 1680,
  "appe": 5403,
  "apped": 7196,
  "apper": 12093,
  "appers": 17822,
  "apping": 6826,
  "appoint": 2754,
  "appointed": 19789,
  "appointing": 22325,
  "appro": 15277,
  "approp": 9867,
  "appy": 10214,
  "aps": 4010,
  "apse": 6326,
  "apster": 17532,
  "apt": 3563,
  "aptic": 16595,
  "apton": 17531,
  "ar": 287,
  "ara": 3117,
  "arab": 17237,
  "arabedian": 18561,
  "aragi": 29000,
  "aram": 12434,
  "aran": 24238,
  "arant": 4470,
  "arantino": 13574,
  "arat": 21095,
  "arations": 28996,
  "aray": 28995,
  "arazz": 17241,
  "arch": 889,
  "archi": 13366,
  "arching": 25250,
  "archs": 21857,
  "ard": 438,
  "arded": 9180,
  "arden": 8420,
  "ardier": 15046,
  "ardieu": 24819,
  "arding": 21535,
  "ardo": 7984,
  "ards": 1428,
  "ardy": 13273,
  "are": 517,
  "ared": 1198,
  "arek": 21618,
  "arely": 9788,
  "aren": 5653,
  "arency": 12846,
  "arent": 2013,
  "arents": 10593,
  "arer": 8377,
  "arers": 10806,
  "ares": 7195,
  "arest": 16210,
  "aret": 5739,
  "areth": 7578,
  "aretta": 26382,
  "areva": 21619,
  "arez": 16209,
  "ari": 7939,
  "aria": 17238,
  "arian": 11274,
  "arians": 21097,
  "aries": 3533,
  "arily": 5116,
  "arin": 28994,
  "aring": 2161,
  "ario": 12437,
  "arios": 18872,
  "arious": 24240,
  "aris": 24237,
  "arised": 28997,
  "arist": 21096,
  "arity": 14857,
  "ark": 557,
  "arke": 3335,
  "arker": 17567,
  "arkshire": 21672,
  "arlane": 28999,
  "arlets": 18873,
  "arm": 8620,
  "arms": 17239,
  "arnton": 24242,
  "aro": 10053,
  "aron": 14856,
  "around": 11821,
  "arov": 17240,
  "arre": 10805,
  "arri": 12435,
  "arriaga": 20385,
  "arriages": 20384,
  "arring": 24241,
  "arrog": 28998,
  "arry": 12436,
  "arrying": 27029,
  "ars": 954,
  "arse": 24239,
  "arsgard": 25285,
  "arsh": 4721,
  "arshall": 10952,
  "arship": 19471,
  "arsson": 12643,
  "art": 427,
  "arta": 11946,
  "artan": 24790,
  "arter": 1488,
  "arters": 4525,
  "arthy": 18874,
  "arti": 21519,
  "artial": 19225,
  "artis": 16172,
  "artment": 2734,
  "artney": 13269,
  "arton": 21520,
  "arty": 2048,
  "aru": 28993,
  "ary": 563,
  "arya": 24996,
  "as": 299,
  "asa": 29094,
  "asant": 24294,
  "asc": 6070,
  "ascal": 12860,
  "ascent": 29099,
  "asco": 7942,
  "ase": 758,
  "ased": 804,
  "aser": 4792,
  "asers": 14874,
  "ases": 1925,
  "asgow": 4429,
  "ash": 1194,
  "asha": 17263,
  "ashed": 4215,
  "ashes": 11282,
  "ashie": 19541,
  "ashing": 10061,
  "ashion": 5665,
  "ashire": 16362,
  "asi": 24293,
  "asia": 8879,
  "asibility": 29098,
  "asible": 17264,
  "asing": 2069,
  "asingly": 11505,
  "asion": 4603,
  "asions": 29095,
  "asis": 14873,
  "asive": 10419,
  "ask": 3885,
  "aska": 26106,
  "askel": 24295,
  "askin": 13561,
  "asks": 8880,
  "asm": 8622,
  "asma": 10814,
  "ason": 1096,
  "asonable": 14212,
  "asonic": 19527,
  "asons": 4214,
  "asoot": 29097,
  "asp": 8878,
  "aspian": 22929,
  "ass": 743,
  "assador": 16286,
  "assed": 21802,
  "assi": 5908,
  "assie": 17640,
  "assies": 21803,
  "assy": 14167,
  "ast": 434,
  "astair": 8197,
  "aste": 8418,
  "asted": 19229,
  "aster": 1591,
  "astern": 10420,
  "asters": 6089,
  "asthan": 14089,
  "astic": 3702,
  "astically": 14090,
  "asting": 16173,
  "astis": 21528,
  "aston": 11369,
  "astonbury": 16874,
  "astores": 24806,
  "astream": 21529,
  "astrop": 14091,
  "astrous": 19230,
  "asts": 11950,
  "asty": 13270,
  "asure": 13938,
  "asures": 29096,
  "asy": 6288,
  "at": 293,
  "ata": 1351,
  "atab": 11278,
  "atable": 21120,
  "atam": 18884,
  "atamonitor": 20610,
  "atan": 29036,
  "atar": 8875,
  "atars": 17247,
  "atch": 1401,
  "atched": 13128,
  "atching": 17762,
  "ate": 420,
  "ated": 606,
  "ateful": 21511,
  "ateg": 1610,
  "atel": 19216,
  "atell": 5134,
  "atellite": 5311,
  "ately": 1799,
  "ateng": 10811,
  "atep": 9774,
  "ater": 2394,
  "ateral": 8503,
  "aterina": 10239,
  "ates": 862,
  "ateur": 15036,
  "atform": 5187,
  "ath": 1205,
  "athan": 4290,
  "athclyde": 17726,
  "athe": 4143,
  "ather": 1230,
  "athered": 5853,
  "atherine": 9521,
  "athes": 29040,
  "athetic": 18043,
  "athetically": 26142,
  "athew": 10650,
  "athing": 21121,
  "athlete": 19542,
  "athlon": 11453,
  "athon": 4894,
  "athons": 21951,
  "athy": 10971,
  "ati": 6287,
  "atic": 3266,
  "atical": 18885,
  "atically": 4426,
  "atics": 24263,
  "atient": 29043,
  "atif": 24262,
  "atile": 21119,
  "ating": 965,
  "atings": 11828,
  "atinum": 29046,
  "ation": 359,
  "ational": 816,
  "ationally": 21322,
  "ations": 604,
  "atis": 4247,
  "atisations": 16627,
  "atisf": 4737,
  "atisfied": 18079,
  "atist": 29037,
  "ative": 1130,
  "atively": 4771,
  "atives": 2106,
  "atlantic": 18887,
  "atley": 29041,
  "ato": 9407,
  "atographer": 29045,
  "atollah": 29047,
  "atom": 24261,
  "aton": 14863,
  "atoon": 29044,
  "ator": 1540,
  "atories": 13929,
  "atorium": 15261,
  "ators": 2183,
  "atory": 4034,
  "atov": 29042,
  "atra": 17246,
  "atre": 3336,
  "ats": 2409,
  "att": 1268,
  "attack": 16375,
  "atter": 4002,
  "attered": 13563,
  "attering": 18035,
  "attery": 26117,
  "atti": 16374,
  "attie": 10196,
  "attle": 7833,
  "attled": 12066,
  "atton": 18886,
  "atts": 29038,
  "atunga": 24264,
  "atur": 1575,
  "atural": 3928,
  "aturally": 17806,
  "aturday": 2074,
  "ature": 4383,
  "atures": 10415,
  "aturing": 29039,
  "aty": 10055,
  "atyne": 23005,
  "au": 13025,
  "aud": 4417,
  "aude": 11216,
  "audi": 7471,
  "audio": 13572,
  "audits": 26184,
  "aug": 13028,
  "auge": 20839,
  "augh": 3966,
  "aught": 10645,
  "aughter": 5784,
  "aughters": 16616,
  "aul": 1823,
  "ault": 4381,
  "aults": 14749,
  "aun": 4284,
  "aunch": 16628,
  "aunched": 26161,
  "aunted": 26162,
  "aunting": 16629,
  "aunton": 5855,
  "aur": 7501,
  "aus": 13826,
  "ause": 762,
  "aused": 23877,
  "auses": 23880,
  "aut": 3435,
  "authent": 19849,
  "authentic": 20660,
  "author": 10269,
  "autiful": 8076,
  "autou": 10268,
  "auty": 11215,
  "aux": 18709,
  "av": 675,
  "ava": 13327,
  "aval": 21745,
  "avan": 25111,
  "ave": 1340,
  "aved": 15131,
  "avel": 28334,
  "aven": 13026,
  "aveney": 23151,
  "aver": 4973,
  "average": 23879,
  "avers": 20838,
  "avery": 18708,
  "aves": 4820,
  "avey": 14247,
  "avi": 16267,
  "avier": 19374,
  "aving": 3567,
  "avis": 17611,
  "avour": 1795,
  "avours": 25112,
  "avrat": 19375,
  "avratilova": 20650,
  "avvy": 14156,
  "avy": 15130,
  "aw": 1676,
  "awa": 11007,
  "awaited": 15696,
  "aware": 9078,
  "away": 10015,
  "aways": 23878,
  "awi": 22105,
  "awn": 14748,
  "awning": 25605,
  "awson": 6706,
  "ax": 815,
  "axo": 16297,
  "axter": 25205,
  "axy": 21828,
  "ay": 316,
  "aya": 13160,
  "ayaro": 18949,
  "ayed": 29240,
  "ayen": 24384,
  "aying": 14907,
  "aylor": 3469,
  "ayne": 6074,
  "ayo": 29239,
  "ays": 578,
  "aysia": 8945,
  "ayson": 25010,
  "az": 1065,
  "azaki": 17698,
  "aze": 13382,
  "azed": 15196,
  "azel": 21907,
  "azer": 3830,
  "aziland": 25341,
  "azin": 19508,
  "azine": 3279,
  "azines": 15197,
  "azing": 19509,
  "azio": 16342,
  "azprom": 3802,
  "azz": 6222,
  "azzam": 16724,
  "b": 70,
  "ba": 5044,
  "bably": 20844,
  "bacco": 7718,
  "bach": 28347,
  "back": 2363,
  "backed": 13495,
  "backs": 12136,
  "bad": 15860,
  "bag": 23882,
  "bah": 28356,
  "bain": 13029,
  "baink": 17085,
  "bal": 7197,
  "balanced": 20147,
  "balancing": 22820,
  "ball": 2010,
  "balled": 25704,
  "bally": 28345,
  "ban": 2767,
  "band": 1503,
  "bane": 25891,
  "banes": 16534,
  "bank": 11218,
  "bar": 6880,
  "barians": 16748,
  "baring": 28354,
  "bas": 20841,
  "based": 1860,
  "bashing": 23890,
  "batch": 28350,
  "batter": 28359,
  "bay": 9686,
  "bazz": 28362,
  "bbed": 28358,
  "bby": 28349,
  "be": 1709,
  "bean": 9251,
  "beat": 4957,
  "because": 20848,
  "beck": 28367,
  "bed": 3918,
  "being": 15287,
  "bel": 8595,
  "belief": 13671,
  "bell": 2875,
  "bellion": 16548,
  "ben": 11217,
  "benc": 15862,
  "bench": 26944,
  "ber": 480,
  "berg": 5077,
  "bergen": 22636,
  "bergh": 21596,
  "berlake": 17524,
  "berly": 16199,
  "bers": 1075,
  "berspace": 25348,
  "bert": 5737,
  "berto": 21598,
  "berty": 21597,
  "bery": 11960,
  "bes": 15857,
  "best": 8594,
  "bet": 15858,
  "beth": 28361,
  "bett": 14751,
  "better": 20500,
  "bev": 9545,
  "bey": 12094,
  "beyie": 16894,
  "bi": 10374,
  "bia": 13828,
  "bian": 23884,
  "bid": 28340,
  "bidden": 28363,
  "bie": 20842,
  "bies": 18711,
  "big": 8348,
  "biggest": 12287,
  "bike": 28346,
  "bill": 23881,
  "billies": 27644,
  "billion": 17082,
  "billions": 28357,
  "bin": 18710,
  "bing": 7347,
  "binned": 27390,
  "bird": 23887,
  "birds": 11219,
  "bis": 20840,
  "bish": 5868,
  "bishley": 22705,
  "bishop": 11606,
  "bit": 4786,
  "biting": 28352,
  "bitration": 9613,
  "bits": 8597,
  "biz": 17084,
  "bl": 4694,
  "black": 11088,
  "blazer": 19963,
  "ble": 623,
  "bleby": 25059,
  "bled": 18712,
  "blems": 25058,
  "bler": 28353,
  "bles": 8350,
  "bling": 5796,
  "blo": 23886,
  "blog": 18076,
  "blood": 27645,
  "blow": 26232,
  "blown": 19962,
  "bn": 740,
  "bo": 3199,
  "board": 4281,
  "boards": 17972,
  "bodied": 28370,
  "body": 3177,
  "boks": 11754,
  "boley": 15406,
  "bomb": 23888,
  "bon": 4550,
  "bone": 28342,
  "bonne": 22581,
  "book": 8349,
  "booking": 20845,
  "bor": 6163,
  "borg": 16714,
  "boring": 28360,
  "born": 6165,
  "borne": 15552,
  "boro": 26436,
  "borough": 13620,
  "bos": 23883,
  "boss": 13829,
  "bot": 6164,
  "both": 23885,
  "bots": 28355,
  "bott": 18713,
  "bottom": 23401,
  "bound": 28348,
  "bour": 3390,
  "bourg": 15414,
  "bourne": 5034,
  "bournes": 15415,
  "bours": 14750,
  "bow": 15859,
  "box": 3135,
  "boxes": 16564,
  "boxxx": 22396,
  "boy": 8596,
  "boys": 13830,
  "boyzz": 15635,
  "bps": 6755,
  "br": 2651,
  "bra": 28341,
  "brand": 15366,
  "bre": 3748,
  "bread": 14752,
  "break": 5037,
  "breaking": 8083,
  "breaks": 26279,
  "brew": 15863,
  "brid": 6754,
  "bride": 17929,
  "bridge": 9687,
  "brief": 28369,
  "bring": 28351,
  "brities": 23889,
  "brity": 8064,
  "bro": 7348,
  "brokes": 12268,
  "brough": 7503,
  "brow": 28343,
  "bs": 915,
  "bu": 13827,
  "bub": 28344,
  "buck": 18714,
  "budget": 9378,
  "build": 15864,
  "building": 28366,
  "built": 27118,
  "bul": 15861,
  "bulent": 20847,
  "bull": 17083,
  "bum": 1878,
  "bundling": 28368,
  "bur": 3046,
  "burea": 28364,
  "burg": 22375,
  "burgh": 3718,
  "burn": 3009,
  "burse": 25944,
  "burton": 22376,
  "bury": 4744,
  "bus": 5620,
  "bush": 20843,
  "business": 13604,
  "bust": 7502,
  "but": 10375,
  "butt": 20846,
  "buyers": 27119,
  "bviously": 7719,
  "bwa": 28365,
  "by": 1276,
  "bye": 14235,
  "c": 71,
  "ca": 9079,
  "cabinet": 28386,
  "cade": 15869,
  "cades": 23901,
  "cald": 20852,
  "caldy": 23497,
  "cale": 15871,
  "called": 3967,
  "cam": 15865,
  "camp": 28380,
  "cams": 28382,
  "can": 6270,
  "cann": 23900,
  "cap": 6621,
  "capacity": 15574,
  "cape": 28387,
  "capital": 26498,
  "capt": 7917,
  "captain": 20127,
  "car": 14753,
  "card": 10016,
  "cards": 13831,
  "care": 6498,
  "career": 26476,
  "carrying": 28396,
  "cart": 23893,
  "cas": 13031,
  "case": 15870,
  "casinos": 18434,
  "cast": 1114,
  "caster": 6623,
  "casters": 21924,
  "casting": 25372,
  "castle": 3253,
  "casts": 21923,
  "cat": 18716,
  "catching": 23905,
  "categ": 28383,
  "cation": 28374,
  "cats": 23899,
  "caught": 28393,
  "cay": 28371,
  "cc": 539,
  "cca": 21643,
  "ccan": 11971,
  "ccane": 16222,
  "ccess": 1240,
  "ccording": 2857,
  "ce": 339,
  "cean": 8178,
  "ced": 790,
  "cedented": 14175,
  "cedes": 7813,
  "ceed": 3168,
  "ceeds": 10089,
  "cees": 17337,
  "ceh": 12474,
  "ceit": 24469,
  "ceivable": 24471,
  "ceive": 17338,
  "ceived": 8894,
  "cel": 11315,
  "cele": 24470,
  "celer": 7957,
  "cell": 4109,
  "cellent": 6038,
  "cellor": 4434,
  "celon": 4933,
  "celona": 4970,
  "celyn": 29459,
  "cember": 1516,
  "cement": 29456,
  "cements": 29457,
  "cens": 28378,
  "cent": 2635,
  "central": 22307,
  "centre": 22306,
  "centres": 17925,
  "cept": 1327,
  "ceptance": 25491,
  "ceptic": 8025,
  "ception": 5021,
  "ceptions": 17753,
  "ceptive": 21993,
  "cer": 988,
  "cers": 3878,
  "certain": 5663,
  "ces": 1452,
  "cess": 1314,
  "cester": 6011,
  "cestershire": 18720,
  "cett": 23898,
  "ceva": 29458,
  "cey": 13982,
  "ch": 354,
  "cha": 2223,
  "chable": 25772,
  "chair": 15334,
  "chairman": 6974,
  "chairs": 22228,
  "challen": 25773,
  "chan": 7505,
  "chand": 15333,
  "chang": 9886,
  "change": 4027,
  "channel": 20166,
  "chant": 12126,
  "char": 13033,
  "chasing": 22227,
  "chat": 18717,
  "che": 4505,
  "cheap": 26205,
  "cheating": 26206,
  "checked": 26207,
  "ched": 1534,
  "chell": 15473,
  "chemicals": 16646,
  "chen": 6271,
  "chenko": 8112,
  "cher": 2478,
  "chers": 4236,
  "ches": 2166,
  "chest": 6756,
  "chestra": 8563,
  "chfield": 17363,
  "chi": 14962,
  "chie": 2170,
  "chief": 12493,
  "chiku": 29594,
  "child": 9745,
  "children": 15667,
  "chill": 29592,
  "ching": 6778,
  "chio": 24538,
  "chip": 29593,
  "chita": 17364,
  "chn": 796,
  "chner": 15158,
  "chnology": 12630,
  "cho": 6655,
  "choice": 11890,
  "chool": 1568,
  "cht": 29591,
  "chuk": 24539,
  "chy": 10101,
  "ci": 1477,
  "cia": 6622,
  "cial": 1091,
  "ciation": 22042,
  "cible": 18718,
  "cibly": 28389,
  "cient": 10990,
  "cies": 11220,
  "cim": 15866,
  "cing": 2117,
  "cipl": 25541,
  "cise": 5797,
  "cist": 23892,
  "city": 23894,
  "cive": 20849,
  "ck": 991,
  "cked": 5417,
  "ckeray": 25308,
  "ckley": 21888,
  "cks": 6882,
  "cl": 2018,
  "claim": 14310,
  "claimed": 18478,
  "clair": 13465,
  "class": 8285,
  "classic": 26688,
  "claude": 14311,
  "clays": 7287,
  "cle": 5374,
  "clear": 11757,
  "cleared": 26324,
  "cled": 23895,
  "click": 14309,
  "cliffe": 5031,
  "clock": 25707,
  "closed": 12108,
  "cluding": 17093,
  "clusive": 25708,
  "clyde": 17092,
  "cm": 13030,
  "cma": 28388,
  "co": 1780,
  "coach": 25641,
  "cock": 8351,
  "cod": 28376,
  "codd": 28384,
  "code": 17091,
  "cohol": 7636,
  "col": 5869,
  "cold": 17088,
  "collective": 22707,
  "colm": 7486,
  "colour": 22706,
  "coloured": 26402,
  "com": 1060,
  "combe": 9231,
  "come": 3113,
  "comed": 5083,
  "comes": 17697,
  "comfort": 11441,
  "comfortable": 15702,
  "coming": 4624,
  "commerce": 13381,
  "commercial": 25337,
  "community": 25339,
  "comp": 17696,
  "compared": 27349,
  "compet": 10961,
  "competition": 20324,
  "competitive": 20325,
  "compl": 25336,
  "comple": 15195,
  "complete": 18506,
  "comprom": 25338,
  "computer": 12656,
  "con": 529,
  "concent": 24929,
  "concentration": 27767,
  "concer": 16217,
  "cond": 875,
  "condition": 21853,
  "conditional": 25245,
  "conditioned": 27571,
  "condu": 16216,
  "conduct": 23307,
  "conductor": 27273,
  "conf": 11389,
  "confidence": 26967,
  "confident": 26966,
  "conflicting": 26968,
  "coni": 15077,
  "connet": 16218,
  "conom": 706,
  "cons": 10494,
  "consc": 19298,
  "conscious": 27429,
  "consider": 19299,
  "consistent": 20299,
  "constitution": 24930,
  "construct": 24931,
  "consuming": 26886,
  "cont": 4393,
  "contain": 24928,
  "contained": 27766,
  "content": 15467,
  "contin": 10282,
  "continue": 23019,
  "continued": 18343,
  "continuing": 23020,
  "control": 10283,
  "controlled": 10284,
  "cool": 20851,
  "cop": 15867,
  "copying": 23289,
  "cor": 6166,
  "core": 10753,
  "corp": 8110,
  "corruption": 22739,
  "cos": 10376,
  "cost": 6881,
  "cote": 28385,
  "cotics": 28394,
  "cott": 5172,
  "could": 13032,
  "count": 10377,
  "country": 14607,
  "courage": 23902,
  "course": 23903,
  "court": 11221,
  "cover": 23897,
  "cow": 28372,
  "cq": 18715,
  "cracking": 23904,
  "craft": 4285,
  "crass": 28391,
  "cre": 12377,
  "creat": 20850,
  "created": 27021,
  "creative": 28392,
  "cred": 28381,
  "crew": 17089,
  "cri": 3670,
  "crib": 23896,
  "crim": 18719,
  "crime": 17094,
  "criminals": 27391,
  "cript": 19877,
  "cription": 26073,
  "crisis": 28395,
  "critical": 15872,
  "cro": 11755,
  "croft": 12971,
  "crowned": 20854,
  "cru": 28379,
  "cry": 17087,
  "ct": 323,
  "ctarian": 18968,
  "cted": 3339,
  "cter": 29291,
  "ction": 489,
  "ctions": 1724,
  "ctive": 21219,
  "ctober": 2343,
  "ctor": 647,
  "ctoral": 5408,
  "ctorate": 9495,
  "ctors": 4013,
  "cture": 9730,
  "cue": 28377,
  "cul": 4917,
  "culation": 17090,
  "culosis": 26262,
  "cultural": 20853,
  "culture": 28390,
  "cum": 28375,
  "cup": 17086,
  "cur": 23891,
  "cure": 15868,
  "curement": 16975,
  "cury": 11756,
  "cus": 28373,
  "cut": 7504,
  "cuts": 22838,
  "cutting": 11647,
  "cy": 1710,
  "cycle": 7281,
  "cylinder": 22122,
  "d": 72,
  "da": 6883,
  "dah": 28415,
  "dal": 28399,
  "dale": 13835,
  "dam": 6499,
  "dance": 18727,
  "dancing": 20857,
  "danger": 23914,
  "dangerous": 27646,
  "daq": 8820,
  "dar": 28398,
  "data": 28407,
  "date": 13833,
  "dated": 13034,
  "daw": 28408,
  "day": 645,
  "days": 13834,
  "dd": 28397,
  "dded": 28419,
  "de": 3782,
  "dead": 28410,
  "dec": 6624,
  "decent": 22778,
  "ded": 8352,
  "deen": 16609,
  "deep": 11069,
  "deeply": 12330,
  "def": 13035,
  "defin": 3635,
  "definition": 3719,
  "deg": 28409,
  "dek": 17095,
  "del": 10378,
  "delighted": 18348,
  "deliver": 20294,
  "dem": 6384,
  "demand": 8113,
  "democrat": 26467,
  "demonising": 26468,
  "den": 2385,
  "dens": 15873,
  "dent": 18724,
  "dep": 11223,
  "depress": 26945,
  "depth": 14626,
  "der": 2687,
  "derabad": 19780,
  "ders": 11758,
  "des": 7721,
  "designed": 18217,
  "desperate": 26614,
  "det": 23908,
  "detail": 15876,
  "detailed": 23291,
  "determined": 23916,
  "dev": 28411,
  "developed": 22517,
  "di": 11222,
  "dict": 1830,
  "did": 18723,
  "die": 5798,
  "dif": 18725,
  "different": 23915,
  "difficult": 20606,
  "dig": 9080,
  "digit": 14584,
  "digital": 17097,
  "digitally": 27173,
  "digy": 13682,
  "dike": 28404,
  "din": 5621,
  "dinand": 5865,
  "ding": 3843,
  "dings": 17096,
  "dington": 26103,
  "directed": 20859,
  "director": 17099,
  "dirty": 28417,
  "dis": 7918,
  "disabled": 22859,
  "disc": 13836,
  "disgrace": 26636,
  "disgraceful": 27836,
  "dish": 28403,
  "dism": 23910,
  "dist": 28401,
  "distance": 11759,
  "ditch": 23911,
  "diving": 28412,
  "dj": 23906,
  "dle": 3329,
  "dled": 28405,
  "dles": 4860,
  "dlesbrough": 7685,
  "dling": 28406,
  "dner": 20855,
  "dney": 4594,
  "do": 6167,
  "docu": 28413,
  "dog": 3879,
  "doing": 11610,
  "dollar": 15875,
  "dom": 8857,
  "dominated": 14755,
  "don": 7720,
  "donald": 28416,
  "done": 18726,
  "door": 7349,
  "doping": 17098,
  "dor": 18721,
  "dorf": 23402,
  "dos": 23909,
  "dotal": 28418,
  "dou": 23907,
  "dow": 2433,
  "down": 2554,
  "downe": 8063,
  "download": 22287,
  "downloaded": 25850,
  "dows": 20856,
  "dowu": 11519,
  "dr": 14754,
  "dra": 28402,
  "draft": 12378,
  "drafted": 18410,
  "dram": 15874,
  "dramatically": 23290,
  "dri": 13832,
  "drive": 20858,
  "driven": 20433,
  "driving": 23187,
  "dro": 18722,
  "drop": 23913,
  "ds": 2513,
  "du": 599,
  "ductor": 25031,
  "dued": 19340,
  "dule": 7798,
  "dull": 25030,
  "dumb": 23912,
  "dus": 28400,
  "duty": 28414,
  "dy": 5449,
  "e": 73,
  "ea": 28420,
  "ead": 2002,
  "eading": 14308,
  "eady": 18730,
  "eal": 2714,
  "ealous": 19785,
  "ean": 2247,
  "eanwhile": 3256,
  "ear": 412,
  "earch": 3362,
  "earchers": 19209,
  "eared": 23921,
  "earing": 11938,
  "early": 9772,
  "earned": 29999,
  "earns": 24761,
  "ears": 7783,
  "eas": 23917,
  "east": 28422,
  "easy": 23922,
  "eating": 18731,
  "eau": 23923,
  "eavour": 18732,
  "eb": 1584,
  "ebe": 25576,
  "eber": 28423,
  "ebit": 13432,
  "ebr": 14272,
  "ebrselassie": 18476,
  "ebruary": 1914,
  "ec": 751,
  "ecause": 11417,
  "ech": 2393,
  "eches": 10530,
  "eck": 14169,
  "econom": 14756,
  "economic": 18485,
  "ect": 634,
  "ected": 2031,
  "ection": 4646,
  "ective": 12607,
  "ecut": 1282,
  "ecuted": 25463,
  "ecution": 13349,
  "ecutive": 6010,
  "ed": 278,
  "edas": 28933,
  "eday": 24199,
  "edbank": 24201,
  "edded": 15959,
  "ede": 10799,
  "eded": 7524,
  "eder": 1831,
  "ederation": 22146,
  "edes": 28932,
  "edge": 18857,
  "edi": 3047,
  "edia": 2819,
  "edial": 28935,
  "edian": 7525,
  "edly": 24200,
  "edom": 28934,
  "edric": 18858,
  "eds": 2557,
  "educated": 28936,
  "edy": 2334,
  "ee": 1213,
  "eed": 4179,
  "eeks": 17729,
  "eem": 7506,
  "een": 6168,
  "eenth": 28432,
  "eer": 20860,
  "eered": 28429,
  "eering": 10754,
  "ees": 2893,
  "eeuw": 19543,
  "eeves": 4677,
  "ef": 1139,
  "efa": 6103,
  "efan": 9844,
  "efe": 25383,
  "eff": 6625,
  "effect": 22779,
  "effective": 18177,
  "efficient": 23924,
  "efin": 3043,
  "efinite": 25943,
  "eg": 1918,
  "egas": 4330,
  "egaz": 13460,
  "egger": 25668,
  "egle": 16458,
  "egro": 19680,
  "ei": 28421,
  "eight": 23919,
  "eili": 28430,
  "eing": 3548,
  "eint": 28427,
  "ek": 725,
  "eki": 25156,
  "el": 441,
  "ela": 8674,
  "elance": 21549,
  "eland": 9469,
  "elda": 28431,
  "ele": 1589,
  "elect": 17100,
  "elected": 14757,
  "election": 5023,
  "elections": 19629,
  "eled": 24840,
  "elena": 11376,
  "eless": 6540,
  "elia": 9780,
  "elie": 15050,
  "elight": 19238,
  "eline": 11375,
  "elka": 12562,
  "ell": 712,
  "ella": 8703,
  "ellar": 17629,
  "elle": 10904,
  "ellect": 10129,
  "elled": 8440,
  "elli": 10524,
  "ellie": 25146,
  "ellig": 4571,
  "elling": 5906,
  "ello": 14163,
  "ellow": 9502,
  "ellweger": 21781,
  "elly": 2838,
  "ellyn": 12745,
  "elman": 24841,
  "elong": 16184,
  "els": 1209,
  "elsen": 7267,
  "elsh": 3429,
  "elsinki": 13395,
  "elsohn": 24842,
  "elson": 7398,
  "elt": 2005,
  "elta": 6020,
  "eltic": 4775,
  "eltine": 25703,
  "elton": 19239,
  "em": 442,
  "emaker": 17496,
  "eman": 10905,
  "emark": 13281,
  "emasters": 24843,
  "emate": 21550,
  "ember": 1778,
  "embers": 15051,
  "emble": 9182,
  "embley": 9361,
  "eme": 10478,
  "ement": 8138,
  "emies": 13280,
  "emin": 19240,
  "emont": 19241,
  "emouth": 12563,
  "emp": 10479,
  "empire": 26885,
  "employ": 3477,
  "employment": 22460,
  "empt": 1741,
  "emption": 19659,
  "ems": 4813,
  "emy": 2788,
  "en": 274,
  "ena": 3334,
  "enab": 28878,
  "enabled": 21046,
  "enal": 1460,
  "enamed": 18849,
  "enant": 18848,
  "enc": 920,
  "ence": 592,
  "enced": 5959,
  "encephal": 25018,
  "encer": 19462,
  "ences": 2052,
  "ench": 14836,
  "encies": 4227,
  "encing": 7820,
  "ency": 1518,
  "end": 440,
  "enda": 4884,
  "endar": 13279,
  "endary": 21548,
  "endas": 21546,
  "ended": 1587,
  "enden": 24836,
  "endent": 24837,
  "ender": 5206,
  "enders": 5137,
  "endi": 7083,
  "endijk": 24838,
  "ending": 1078,
  "enditure": 12561,
  "endo": 3364,
  "endous": 8201,
  "endry": 21547,
  "ends": 4565,
  "endum": 5734,
  "enduski": 24839,
  "ene": 2491,
  "enec": 15948,
  "ened": 2905,
  "enee": 28881,
  "enefe": 28887,
  "ener": 887,
  "eneral": 3858,
  "eners": 14835,
  "enes": 18847,
  "eness": 24173,
  "enet": 17212,
  "enezuel": 6359,
  "enforce": 28883,
  "eng": 3163,
  "enger": 3697,
  "engers": 6246,
  "engine": 25975,
  "ength": 6588,
  "enha": 17211,
  "enhahn": 27315,
  "enham": 6761,
  "enhan": 10405,
  "enhancing": 10725,
  "enheim": 24175,
  "enheimer": 28885,
  "eni": 28876,
  "eniable": 28886,
  "enice": 8370,
  "ening": 2727,
  "enisa": 17213,
  "enity": 28879,
  "enius": 28884,
  "enix": 11260,
  "enko": 24174,
  "enn": 1755,
  "enna": 12700,
  "ennan": 16441,
  "enness": 25638,
  "ennial": 25639,
  "ennifer": 13447,
  "ennis": 3603,
  "ennium": 8040,
  "ennon": 12701,
  "enny": 8039,
  "eno": 13102,
  "enoord": 27072,
  "enor": 28877,
  "enorm": 28880,
  "enos": 13103,
  "enote": 14837,
  "enric": 28882,
  "ens": 607,
  "ensable": 25038,
  "ense": 3696,
  "ensed": 15107,
  "enses": 10145,
  "ensible": 21691,
  "ensing": 17579,
  "ension": 2268,
  "ensions": 3147,
  "ensitive": 17580,
  "ensive": 2940,
  "ensively": 25039,
  "enson": 5212,
  "ensus": 9204,
  "ent": 309,
  "ental": 5056,
  "entally": 24329,
  "ented": 7212,
  "enter": 3552,
  "entered": 29166,
  "enteris": 4414,
  "enth": 17278,
  "enthusi": 29167,
  "ential": 1582,
  "entially": 13431,
  "entials": 10578,
  "entin": 14890,
  "ention": 2336,
  "entional": 24330,
  "entions": 4473,
  "entive": 29164,
  "entle": 17279,
  "entless": 13948,
  "ently": 3337,
  "enton": 18918,
  "entry": 29165,
  "ents": 1146,
  "enty": 5635,
  "enus": 11259,
  "enzo": 24176,
  "eon": 18728,
  "eor": 13036,
  "eous": 28424,
  "ep": 672,
  "epa": 21743,
  "epar": 11407,
  "eparately": 13734,
  "epend": 2174,
  "ependence": 6463,
  "ependent": 2487,
  "eper": 3880,
  "epes": 21744,
  "ephen": 25110,
  "eping": 25109,
  "epomi": 17610,
  "eppe": 12613,
  "eps": 8948,
  "ept": 28425,
  "equ": 8139,
  "er": 265,
  "era": 1923,
  "erable": 17188,
  "eracing": 28782,
  "eraine": 24109,
  "eral": 10782,
  "erals": 28779,
  "eras": 3674,
  "eray": 21002,
  "erb": 15925,
  "erby": 11798,
  "erco": 28780,
  "erdek": 17191,
  "erdekens": 18558,
  "erder": 28781,
  "ere": 487,
  "ered": 2068,
  "eree": 19281,
  "ereg": 17525,
  "erek": 12578,
  "erely": 19282,
  "eren": 9703,
  "eret": 28774,
  "erex": 24897,
  "erg": 1689,
  "erget": 28778,
  "erground": 12695,
  "ergus": 3461,
  "erguson": 3526,
  "eria": 8368,
  "erial": 3265,
  "erian": 13085,
  "erical": 24106,
  "erick": 21003,
  "erie": 28776,
  "eried": 24107,
  "eries": 6278,
  "ering": 2273,
  "erity": 28777,
  "erk": 17187,
  "erling": 17190,
  "erly": 6390,
  "erman": 21004,
  "erment": 28775,
  "ern": 1924,
  "erner": 17189,
  "ernic": 25669,
  "ernity": 8043,
  "ernod": 14303,
  "ero": 3970,
  "erog": 18828,
  "erogative": 20608,
  "eron": 28773,
  "eros": 24105,
  "erplan": 28783,
  "err": 3264,
  "error": 8866,
  "errou": 12409,
  "erry": 3392,
  "ers": 350,
  "ersace": 19045,
  "ersad": 19044,
  "erse": 3920,
  "erset": 19043,
  "ersey": 19896,
  "erseys": 26109,
  "ership": 1758,
  "ershon": 21306,
  "erson": 1068,
  "ersse": 21305,
  "erstadt": 28784,
  "erstein": 21006,
  "ert": 3971,
  "erted": 24108,
  "erting": 21005,
  "erts": 15926,
  "erty": 13086,
  "erv": 600,
  "ervais": 9203,
  "erval": 11987,
  "ervasive": 25033,
  "ervative": 8691,
  "erve": 3375,
  "erved": 5824,
  "erver": 13084,
  "ervers": 7734,
  "erves": 4528,
  "ervice": 17577,
  "ervices": 25032,
  "erving": 10143,
  "ervolcano": 25034,
  "erwitz": 24110,
  "ery": 2637,
  "es": 279,
  "esbank": 24203,
  "esbian": 24204,
  "esbit": 28942,
  "esbury": 24202,
  "escher": 28939,
  "esco": 21067,
  "ese": 2305,
  "eseret": 28943,
  "eses": 28937,
  "esh": 13110,
  "esi": 13111,
  "esity": 17223,
  "esome": 8616,
  "esova": 28941,
  "especially": 28940,
  "ess": 433,
  "essa": 11367,
  "essandro": 19228,
  "essed": 6926,
  "essel": 28938,
  "essential": 24805,
  "essing": 17493,
  "ession": 2912,
  "essional": 11368,
  "essions": 6317,
  "essor": 6316,
  "essors": 24804,
  "est": 365,
  "established": 29632,
  "estants": 24564,
  "ested": 9747,
  "esten": 24559,
  "ester": 21066,
  "estern": 5186,
  "esters": 11324,
  "estershire": 12964,
  "estic": 3171,
  "estim": 14009,
  "estimate": 21337,
  "estimated": 27147,
  "estin": 6657,
  "estine": 24562,
  "esting": 14969,
  "estival": 2563,
  "estly": 24560,
  "esto": 29629,
  "eston": 7548,
  "estone": 24561,
  "estones": 29630,
  "estors": 24563,
  "estruct": 29631,
  "esy": 11816,
  "et": 320,
  "eta": 7752,
  "etable": 17309,
  "etail": 8387,
  "etails": 12912,
  "etary": 6183,
  "ete": 21218,
  "etect": 29281,
  "eter": 5547,
  "eteran": 11109,
  "etermined": 20048,
  "etes": 29280,
  "eth": 5725,
  "etham": 18966,
  "etheless": 17310,
  "ether": 9120,
  "ethin": 18133,
  "eti": 18965,
  "etic": 16011,
  "etime": 9121,
  "etise": 29282,
  "etite": 13165,
  "etric": 18967,
  "etry": 12458,
  "ets": 1502,
  "ett": 2200,
  "etta": 22219,
  "ette": 9122,
  "etti": 7053,
  "ettler": 25766,
  "etts": 16012,
  "ety": 4753,
  "euro": 28426,
  "eus": 23918,
  "ev": 2127,
  "eva": 7852,
  "even": 20861,
  "event": 28428,
  "ever": 907,
  "everal": 9221,
  "every": 18729,
  "eves": 23920,
  "evil": 17868,
  "evin": 4839,
  "ew": 397,
  "ewart": 7776,
  "ewater": 19147,
  "ewaterhouseCoopers": 23431,
  "eway": 15002,
  "eways": 5259,
  "ewbush": 24668,
  "ewell": 9760,
  "ewicz": 29828,
  "ework": 10463,
  "ex": 1736,
  "exam": 22132,
  "examined": 27581,
  "excellent": 22135,
  "except": 22134,
  "exceptional": 27583,
  "excess": 22133,
  "excessive": 27582,
  "executive": 17831,
  "exist": 25629,
  "exp": 15295,
  "expanding": 27220,
  "expected": 6969,
  "expl": 25630,
  "expression": 27219,
  "ext": 5450,
  "extra": 26338,
  "extreme": 22669,
  "ey": 4645,
  "eyes": 22590,
  "ez": 10379,
  "ezza": 28433,
  "f": 74,
  "fES": 28449,
  "fL": 28434,
  "fa": 20862,
  "face": 6884,
  "fact": 13039,
  "fail": 14758,
  "failed": 17109,
  "failing": 20462,
  "fair": 10380,
  "fal": 17102,
  "fall": 6757,
  "fallen": 22791,
  "falls": 14759,
  "false": 13040,
  "fam": 13838,
  "famous": 28453,
  "fan": 23925,
  "fancy": 28445,
  "fant": 20865,
  "fantasy": 27484,
  "far": 17101,
  "fare": 11225,
  "farm": 28451,
  "fashion": 14761,
  "fashioned": 15773,
  "fast": 4918,
  "fastest": 19986,
  "fastly": 26263,
  "fat": 23927,
  "fated": 18734,
  "father": 11226,
  "fault": 28446,
  "faults": 23939,
  "favour": 28443,
  "fax": 20867,
  "fe": 7350,
  "fed": 28436,
  "fee": 13840,
  "feely": 27121,
  "feit": 10693,
  "fell": 23930,
  "fellow": 28452,
  "fer": 806,
  "ference": 2124,
  "fermline": 25202,
  "ferring": 21826,
  "fers": 17103,
  "fest": 20864,
  "few": 10017,
  "ff": 535,
  "ffic": 3274,
  "ffici": 25999,
  "fficient": 14389,
  "fford": 8429,
  "fi": 4240,
  "fic": 1978,
  "fiction": 23937,
  "fictional": 18735,
  "ficult": 2062,
  "field": 2118,
  "fifth": 20869,
  "fig": 28438,
  "fight": 28440,
  "fighter": 20870,
  "fighting": 13041,
  "fights": 28444,
  "file": 23929,
  "fill": 28439,
  "filling": 14760,
  "fils": 20868,
  "fin": 13037,
  "final": 5710,
  "finals": 5315,
  "find": 23931,
  "fing": 23926,
  "finished": 27065,
  "fion": 28437,
  "fire": 11760,
  "firm": 17106,
  "first": 23938,
  "fish": 20866,
  "fisher": 15878,
  "fit": 12379,
  "fits": 23932,
  "five": 17104,
  "fizer": 18736,
  "fl": 9081,
  "fler": 23936,
  "flo": 23934,
  "fly": 23928,
  "focused": 28455,
  "fol": 11224,
  "fold": 10755,
  "folds": 28448,
  "folk": 12380,
  "fonica": 28454,
  "food": 23935,
  "foot": 8858,
  "footed": 13675,
  "for": 2181,
  "force": 4170,
  "ford": 2421,
  "fordshire": 13496,
  "fore": 793,
  "foreign": 25197,
  "forg": 22214,
  "forgotten": 27586,
  "form": 682,
  "formance": 21749,
  "formation": 6802,
  "former": 11026,
  "formers": 19377,
  "fort": 3636,
  "fortun": 6142,
  "fortunate": 11127,
  "fortunately": 8331,
  "forward": 8050,
  "fought": 17105,
  "found": 13839,
  "founded": 28450,
  "founder": 23188,
  "four": 13038,
  "fox": 6500,
  "fr": 13837,
  "fra": 7198,
  "frame": 27120,
  "fraud": 17107,
  "fred": 28441,
  "free": 7351,
  "frey": 28447,
  "friend": 8140,
  "friendly": 12279,
  "frog": 17108,
  "from": 15877,
  "front": 9379,
  "fronts": 23940,
  "fs": 28435,
  "ft": 602,
  "ftbank": 25036,
  "ften": 13312,
  "fter": 558,
  "ftesbury": 25037,
  "fthans": 10507,
  "fthansa": 10727,
  "ftware": 1301,
  "ful": 963,
  "fulfilling": 25291,
  "full": 23933,
  "fully": 2607,
  "fun": 18733,
  "function": 11761,
  "functional": 23089,
  "functions": 27392,
  "fund": 9082,
  "fundamental": 20241,
  "funded": 15642,
  "fur": 20863,
  "furt": 6885,
  "further": 28442,
  "g": 75,
  "ga": 5533,
  "gadget": 17114,
  "gae": 11604,
  "gain": 28461,
  "gal": 23941,
  "gam": 18737,
  "game": 12382,
  "games": 15879,
  "gaming": 20878,
  "gan": 1017,
  "gang": 25323,
  "gans": 23943,
  "gar": 7507,
  "gard": 23942,
  "gart": 20873,
  "gas": 13042,
  "gasp": 20880,
  "gate": 12381,
  "ge": 511,
  "geant": 19293,
  "gear": 18738,
  "ged": 994,
  "gem": 17110,
  "gen": 6758,
  "gence": 7508,
  "gency": 6055,
  "gener": 7724,
  "general": 15882,
  "generated": 20179,
  "generation": 11143,
  "gent": 2741,
  "genuine": 26511,
  "geon": 12581,
  "ger": 1051,
  "geria": 16340,
  "gerie": 12655,
  "gers": 7722,
  "ges": 1469,
  "gest": 825,
  "gestions": 25211,
  "get": 724,
  "geting": 25155,
  "getting": 19402,
  "geyman": 17537,
  "gg": 8598,
  "gh": 486,
  "ghan": 8599,
  "gia": 7027,
  "giakos": 28470,
  "gian": 10757,
  "giant": 28466,
  "gic": 28458,
  "gie": 20874,
  "gil": 28459,
  "gin": 2053,
  "gind": 13045,
  "gindy": 13760,
  "ging": 2098,
  "gins": 14763,
  "girl": 23947,
  "girlf": 28468,
  "gis": 14762,
  "git": 28457,
  "giv": 20875,
  "given": 14764,
  "giving": 28467,
  "gl": 4343,
  "glas": 6485,
  "glass": 26174,
  "gling": 23946,
  "glo": 28465,
  "gment": 10756,
  "gn": 9380,
  "gne": 28463,
  "go": 2376,
  "goal": 11035,
  "goers": 19744,
  "going": 4959,
  "gold": 9382,
  "golden": 12924,
  "gom": 13043,
  "gonaut": 9084,
  "gone": 17112,
  "gons": 23944,
  "good": 9083,
  "goodbye": 20242,
  "gor": 10381,
  "gore": 17111,
  "goss": 28464,
  "got": 28460,
  "gov": 20876,
  "government": 15347,
  "governmental": 27223,
  "gow": 4418,
  "gr": 3637,
  "grab": 26068,
  "grace": 23948,
  "grad": 26067,
  "gram": 12383,
  "grave": 12384,
  "great": 7723,
  "green": 15880,
  "greg": 15881,
  "gren": 18739,
  "grey": 20877,
  "gross": 17113,
  "grossly": 23338,
  "ground": 4419,
  "group": 18740,
  "grove": 28469,
  "growing": 10382,
  "grown": 13841,
  "growth": 20879,
  "gs": 9381,
  "gt": 28456,
  "gu": 6626,
  "gud": 28462,
  "gue": 13044,
  "guitarist": 28471,
  "gun": 20872,
  "gut": 20871,
  "gware": 23945,
  "gy": 3584,
  "gypt": 6140,
  "gyz": 22481,
  "h": 76,
  "ha": 275,
  "hab": 7933,
  "habit": 24179,
  "hable": 17215,
  "hack": 13104,
  "had": 15949,
  "hael": 1551,
  "hai": 12421,
  "hail": 4468,
  "hailand": 6258,
  "hajiang": 24180,
  "hal": 6175,
  "half": 2689,
  "halie": 12422,
  "halin": 21049,
  "hall": 5875,
  "ham": 1129,
  "hamas": 21928,
  "hambles": 15206,
  "hamed": 12662,
  "hames": 17714,
  "hammer": 25376,
  "hampton": 4626,
  "hams": 13910,
  "hamshire": 23194,
  "han": 874,
  "hana": 19451,
  "hand": 5382,
  "handed": 12233,
  "handedly": 27017,
  "hane": 24177,
  "haned": 28890,
  "hang": 5809,
  "hange": 2472,
  "hani": 17668,
  "hank": 7257,
  "hans": 5492,
  "hansson": 7692,
  "hant": 9709,
  "hanted": 26819,
  "haox": 28891,
  "haps": 4001,
  "har": 926,
  "hara": 17214,
  "haran": 17679,
  "hard": 2763,
  "hardcore": 25890,
  "hards": 10545,
  "hare": 21047,
  "harest": 24178,
  "hari": 28889,
  "harine": 19465,
  "harm": 7821,
  "harmaceut": 11654,
  "harmaceutical": 13735,
  "harmon": 25269,
  "harraf": 14193,
  "harrague": 15172,
  "has": 4790,
  "hash": 28892,
  "hat": 580,
  "haul": 10406,
  "hauled": 28893,
  "haus": 14838,
  "hav": 28888,
  "have": 7934,
  "haves": 21048,
  "haw": 15950,
  "hayel": 21050,
  "hayelitsha": 23507,
  "hd": 7919,
  "hdad": 9654,
  "he": 263,
  "head": 1344,
  "headed": 19574,
  "heads": 15242,
  "health": 14822,
  "hears": 13081,
  "heart": 10780,
  "hearted": 15692,
  "heast": 24092,
  "heated": 28758,
  "hecha": 14823,
  "hed": 715,
  "hedrine": 21783,
  "heed": 12406,
  "heet": 28756,
  "heid": 28755,
  "heim": 11250,
  "heimer": 15698,
  "hein": 28754,
  "heit": 12405,
  "hel": 3463,
  "held": 3587,
  "heless": 17183,
  "hell": 10779,
  "help": 26031,
  "helwood": 19854,
  "hem": 10038,
  "heme": 24093,
  "hemian": 20280,
  "hen": 1084,
  "hend": 20998,
  "hended": 27490,
  "hened": 28759,
  "heng": 18825,
  "henko": 21915,
  "hens": 2827,
  "hension": 25901,
  "hent": 7733,
  "henti": 22845,
  "hequer": 28761,
  "her": 408,
  "herald": 24757,
  "herd": 15029,
  "herds": 29994,
  "here": 2082,
  "hered": 13881,
  "heres": 28757,
  "heric": 21496,
  "heries": 28760,
  "herjee": 24758,
  "hern": 2786,
  "hero": 10778,
  "hers": 3733,
  "herty": 7566,
  "hes": 1203,
  "hesion": 25407,
  "hesis": 25406,
  "hest": 2407,
  "het": 7928,
  "hetic": 15923,
  "hetor": 18225,
  "heuser": 28762,
  "hew": 6389,
  "hey": 15922,
  "hh": 23949,
  "hi": 10758,
  "hib": 4595,
  "hic": 3818,
  "hid": 28473,
  "hield": 28480,
  "hig": 28475,
  "high": 8353,
  "higher": 20883,
  "highly": 26693,
  "hik": 18741,
  "hile": 1678,
  "hill": 9690,
  "hind": 1824,
  "hing": 1046,
  "hington": 7610,
  "hip": 972,
  "hiphop": 12041,
  "hir": 23951,
  "hire": 5173,
  "hirt": 28483,
  "hist": 28476,
  "histor": 23953,
  "hit": 8141,
  "hits": 28479,
  "hl": 28472,
  "hmed": 20882,
  "hmet": 28485,
  "hn": 1127,
  "hnal": 17713,
  "hnin": 21927,
  "ho": 1731,
  "hod": 3585,
  "hodorkovsky": 5779,
  "hofler": 25626,
  "hol": 5622,
  "hold": 1660,
  "holder": 19641,
  "holders": 7444,
  "hole": 25625,
  "holm": 16692,
  "home": 13842,
  "hon": 12385,
  "honoured": 27022,
  "hoo": 4545,
  "hood": 6501,
  "hop": 4241,
  "hope": 28482,
  "hops": 23952,
  "hor": 1711,
  "horga": 22123,
  "hors": 8600,
  "horse": 14280,
  "hos": 10018,
  "host": 14767,
  "hot": 28474,
  "hound": 28478,
  "hour": 7509,
  "hours": 17116,
  "house": 5870,
  "houseCoopers": 22708,
  "houses": 28488,
  "how": 9689,
  "hoy": 28477,
  "hr": 14765,
  "hra": 20881,
  "hran": 28481,
  "hs": 13046,
  "hstal": 15884,
  "hta": 20884,
  "hu": 23950,
  "hua": 28486,
  "huge": 12386,
  "hugely": 27023,
  "hui": 28487,
  "hum": 17115,
  "human": 15883,
  "hundreds": 28484,
  "hunt": 8601,
  "hunting": 20885,
  "hur": 14766,
  "hurst": 20463,
  "husi": 6886,
  "hy": 9688,
  "hyth": 13047,
  "i": 77,
  "iMP": 28495,
  "ia": 545,
  "iable": 18743,
  "iac": 28490,
  "iah": 9795,
  "iak": 13843,
  "iakos": 18457,
  "ial": 513,
  "ialists": 24919,
  "ially": 2997,
  "ials": 11963,
  "iam": 28489,
  "iams": 10759,
  "ian": 648,
  "iana": 21731,
  "iance": 3845,
  "iances": 12610,
  "iang": 19368,
  "iann": 25090,
  "iano": 7098,
  "ians": 1935,
  "iant": 1809,
  "ianz": 25091,
  "iar": 4647,
  "iara": 23957,
  "iarritz": 8789,
  "iary": 28491,
  "ias": 23954,
  "iat": 3695,
  "iate": 15885,
  "iated": 15887,
  "iating": 23955,
  "iation": 10019,
  "iatory": 26076,
  "iazza": 24961,
  "ib": 840,
  "iba": 7108,
  "ibaba": 17656,
  "ibald": 21839,
  "iband": 19432,
  "ibas": 25218,
  "ibe": 15161,
  "iber": 3550,
  "ibilities": 8001,
  "ibility": 2309,
  "ibion": 25219,
  "ible": 1032,
  "ibles": 10165,
  "ibley": 25330,
  "ibly": 4825,
  "ibre": 12025,
  "ibu": 16305,
  "ic": 295,
  "ica": 5634,
  "icable": 24284,
  "icago": 6770,
  "ical": 839,
  "ically": 1657,
  "icals": 21132,
  "ican": 7530,
  "icans": 29070,
  "icants": 14867,
  "icap": 29069,
  "icar": 29066,
  "icate": 5463,
  "icated": 3440,
  "icati": 21133,
  "icating": 18893,
  "ication": 3180,
  "ications": 2638,
  "icator": 15977,
  "iccia": 11833,
  "ice": 504,
  "iced": 5961,
  "icef": 24912,
  "icero": 11832,
  "ices": 688,
  "icester": 3598,
  "icestershire": 17255,
  "ich": 462,
  "iche": 17253,
  "ichel": 29073,
  "ichi": 19264,
  "icholas": 19265,
  "ichy": 21584,
  "ici": 4984,
  "icia": 6639,
  "icial": 6180,
  "icians": 11831,
  "iciary": 12225,
  "icide": 8380,
  "icient": 4291,
  "icing": 9409,
  "icious": 3700,
  "icip": 24283,
  "icipal": 29074,
  "icism": 17254,
  "icit": 10416,
  "icitor": 14866,
  "icits": 24285,
  "ick": 643,
  "icked": 12001,
  "icken": 21730,
  "ickering": 17603,
  "icket": 9809,
  "ickets": 17602,
  "icki": 16263,
  "icking": 10932,
  "icks": 4867,
  "icle": 29067,
  "ico": 4927,
  "icode": 29072,
  "icon": 4601,
  "icop": 15976,
  "icott": 29071,
  "ics": 828,
  "icsson": 7107,
  "ict": 666,
  "icted": 4486,
  "icter": 29068,
  "iction": 4265,
  "ictional": 9497,
  "ictions": 10934,
  "icture": 25106,
  "icular": 18894,
  "icularly": 20611,
  "iculous": 18895,
  "iculously": 29075,
  "icus": 11830,
  "icy": 7742,
  "icz": 29065,
  "id": 302,
  "ida": 8382,
  "idable": 17267,
  "idad": 29112,
  "idal": 14875,
  "idamb": 12441,
  "idan": 11838,
  "idance": 8160,
  "idane": 21142,
  "idant": 18903,
  "idas": 24302,
  "iday": 1819,
  "idays": 10421,
  "idd": 11837,
  "idden": 6640,
  "iddle": 18905,
  "iddy": 29115,
  "ide": 515,
  "ided": 1694,
  "idel": 4986,
  "idelines": 6488,
  "idem": 14876,
  "idemic": 16944,
  "idence": 1510,
  "idences": 29114,
  "idency": 8383,
  "ident": 865,
  "idental": 25233,
  "identally": 19443,
  "identified": 19444,
  "ideo": 1348,
  "ider": 1255,
  "idering": 25434,
  "iders": 4985,
  "ides": 2253,
  "idest": 21141,
  "idge": 18904,
  "idier": 14877,
  "idimensional": 29118,
  "idine": 24303,
  "iding": 2547,
  "idiot": 29116,
  "idis": 11284,
  "idisc": 24304,
  "idl": 29110,
  "idle": 29111,
  "idley": 29113,
  "idman": 15980,
  "ido": 11283,
  "idon": 24301,
  "ids": 3119,
  "iduka": 29117,
  "ie": 454,
  "iece": 4814,
  "ieces": 8426,
  "ied": 984,
  "iedad": 14202,
  "ief": 1102,
  "ieira": 10483,
  "iel": 5623,
  "ield": 1308,
  "ielka": 26365,
  "ielli": 21569,
  "iem": 7199,
  "iemens": 8568,
  "ien": 3722,
  "ience": 1450,
  "ienced": 6734,
  "iences": 4180,
  "iencing": 12388,
  "iennes": 26078,
  "iens": 14770,
  "ient": 2099,
  "ientes": 10228,
  "ients": 3940,
  "ier": 1223,
  "ierce": 6007,
  "iere": 7511,
  "ieri": 17731,
  "ierry": 10972,
  "iers": 4648,
  "iership": 3221,
  "ierski": 26224,
  "iery": 25422,
  "ies": 435,
  "ieson": 9464,
  "iest": 11762,
  "iet": 1839,
  "ieth": 19673,
  "ieties": 13453,
  "iette": 19674,
  "iety": 2419,
  "ieu": 13289,
  "ieve": 17506,
  "ieves": 17507,
  "iew": 18742,
  "if": 423,
  "ifa": 10472,
  "ifax": 9175,
  "ife": 1109,
  "ifer": 7396,
  "ifert": 14081,
  "ifest": 4193,
  "iff": 2071,
  "iffe": 4685,
  "iffer": 10897,
  "ifferent": 12328,
  "ific": 1407,
  "ificant": 2752,
  "ificate": 14251,
  "ification": 5420,
  "ifications": 10201,
  "ifics": 24780,
  "ified": 2519,
  "ifier": 9176,
  "ifiers": 15038,
  "ifies": 13267,
  "ifle": 11945,
  "ifled": 19221,
  "iform": 10473,
  "iforn": 4390,
  "ift": 3474,
  "ifted": 17489,
  "ifth": 4042,
  "ifting": 11363,
  "ifts": 8196,
  "ifty": 17488,
  "iful": 7569,
  "ify": 3085,
  "ifying": 4999,
  "ig": 336,
  "iga": 10838,
  "igade": 29435,
  "igan": 8893,
  "igaro": 24460,
  "igate": 29434,
  "igating": 29436,
  "ige": 16034,
  "igen": 19004,
  "igenous": 23420,
  "iger": 17335,
  "igg": 4657,
  "igger": 7220,
  "igget": 24458,
  "iggs": 7006,
  "igh": 431,
  "ighan": 19005,
  "ighed": 10436,
  "igher": 9128,
  "ight": 476,
  "ighted": 9785,
  "ighter": 8417,
  "ighth": 7082,
  "ighting": 9786,
  "ights": 3124,
  "ighty": 15065,
  "igible": 24459,
  "igion": 29433,
  "igiosity": 29439,
  "igious": 5966,
  "igital": 1246,
  "igley": 21266,
  "igmatic": 24461,
  "ign": 554,
  "ignal": 16237,
  "igne": 19326,
  "igned": 8686,
  "igney": 24991,
  "igning": 24990,
  "ignol": 16238,
  "igns": 24989,
  "ignty": 19006,
  "igny": 8685,
  "igo": 14936,
  "igog": 24457,
  "igoglioso": 27699,
  "igorate": 29438,
  "igr": 5885,
  "igrant": 13612,
  "igrants": 7323,
  "igrated": 29437,
  "igration": 2446,
  "igree": 16035,
  "igt": 29432,
  "igue": 10086,
  "igures": 11878,
  "ihab": 28494,
  "ihik": 28496,
  "iise": 18744,
  "ij": 3844,
  "ijack": 10643,
  "iji": 12185,
  "ijing": 6859,
  "ijk": 22522,
  "ik": 1732,
  "ika": 15294,
  "ikal": 6968,
  "ike": 594,
  "iks": 14771,
  "iksilver": 23234,
  "iku": 25627,
  "ikwel": 25628,
  "il": 300,
  "ila": 18900,
  "ilage": 21139,
  "iland": 21138,
  "ilant": 17265,
  "ilar": 2208,
  "ilarly": 22221,
  "ilater": 29104,
  "ilateral": 11836,
  "ilation": 24297,
  "ilco": 24299,
  "ild": 820,
  "ile": 551,
  "iled": 2559,
  "ilemma": 19324,
  "ilend": 24298,
  "ilera": 13942,
  "iles": 2281,
  "ilever": 11396,
  "iley": 6210,
  "ili": 4384,
  "ilia": 13939,
  "iliating": 26180,
  "iliation": 15465,
  "ilies": 18901,
  "iling": 5464,
  "ilingual": 26346,
  "ilion": 29102,
  "ilipp": 22569,
  "ilis": 29101,
  "ilise": 11835,
  "ilising": 13941,
  "ilit": 4104,
  "ilities": 3298,
  "ility": 1087,
  "ilk": 2306,
  "ilkinson": 5773,
  "ill": 348,
  "illa": 4518,
  "illake": 29519,
  "illan": 24501,
  "illance": 11319,
  "illard": 16056,
  "illating": 29520,
  "illaz": 24503,
  "ille": 3886,
  "illed": 4991,
  "illeg": 2493,
  "iller": 4558,
  "illers": 12487,
  "illes": 13194,
  "illi": 24500,
  "illian": 24502,
  "illiant": 6653,
  "illing": 4802,
  "illion": 871,
  "illions": 2934,
  "illips": 5551,
  "illity": 29518,
  "illo": 29516,
  "illon": 29517,
  "ills": 3649,
  "illusion": 13195,
  "illy": 7531,
  "ilm": 2805,
  "ilmann": 29105,
  "ilo": 29100,
  "ilot": 24296,
  "ilova": 18902,
  "ils": 3590,
  "ilst": 5813,
  "ilt": 3167,
  "ilted": 29103,
  "ilton": 13940,
  "ilty": 3441,
  "iluod": 17266,
  "ilver": 21137,
  "ily": 1375,
  "im": 337,
  "ima": 11879,
  "image": 29446,
  "imagin": 24466,
  "imals": 29447,
  "iman": 29442,
  "imate": 2411,
  "imately": 5390,
  "imates": 29448,
  "imax": 10087,
  "imb": 3377,
  "ime": 548,
  "imedia": 4433,
  "imen": 29441,
  "imens": 24463,
  "imensional": 27700,
  "iment": 6405,
  "imental": 11880,
  "imentary": 26469,
  "iments": 6523,
  "imer": 29440,
  "imes": 1304,
  "imet": 29443,
  "imi": 19007,
  "imir": 9129,
  "imise": 13980,
  "imism": 24464,
  "imity": 29444,
  "imm": 16036,
  "immed": 29449,
  "immer": 14937,
  "immicks": 27254,
  "immigration": 27253,
  "imming": 21267,
  "imo": 10839,
  "imon": 10841,
  "imou": 24462,
  "imp": 10840,
  "import": 29445,
  "imposed": 24465,
  "impro": 17336,
  "improved": 20562,
  "ims": 19008,
  "imsy": 29450,
  "imum": 3228,
  "in": 264,
  "ina": 1073,
  "inadequate": 24104,
  "inal": 1455,
  "inally": 12407,
  "inals": 3531,
  "inapprop": 21910,
  "inappropriate": 23581,
  "inary": 3200,
  "inas": 13082,
  "inat": 24094,
  "ination": 3436,
  "inations": 13882,
  "inative": 24098,
  "inav": 17184,
  "inbay": 11797,
  "inbayeva": 12341,
  "inburgh": 3822,
  "inc": 3222,
  "ince": 895,
  "incent": 13083,
  "incess": 28767,
  "inch": 21000,
  "inci": 5714,
  "income": 24101,
  "incre": 17974,
  "increasingly": 20588,
  "inct": 7360,
  "inction": 24096,
  "ind": 841,
  "indall": 8237,
  "inded": 9823,
  "inder": 16306,
  "inding": 5081,
  "individ": 25222,
  "indler": 25221,
  "indon": 17657,
  "inds": 6945,
  "indsay": 8567,
  "indust": 25220,
  "ine": 521,
  "ined": 1404,
  "ineering": 16211,
  "ineken": 6677,
  "inem": 3178,
  "inent": 11796,
  "iner": 11795,
  "inery": 13883,
  "ines": 1053,
  "inese": 3407,
  "iness": 1066,
  "inet": 3030,
  "inez": 10493,
  "inf": 15924,
  "inform": 24097,
  "ing": 285,
  "ingart": 17233,
  "inge": 7528,
  "inger": 3788,
  "ingering": 28978,
  "ingers": 21090,
  "ingfield": 15968,
  "ingham": 3699,
  "inghamshire": 28981,
  "inghurst": 28980,
  "inghy": 28979,
  "ingis": 15967,
  "ingly": 9106,
  "ingo": 24231,
  "ings": 870,
  "ington": 10411,
  "ingu": 13922,
  "ingular": 28977,
  "ingus": 13923,
  "inho": 3292,
  "inhua": 28772,
  "ini": 4510,
  "ining": 4978,
  "inion": 18827,
  "inis": 28764,
  "inished": 24099,
  "injection": 28769,
  "injury": 28771,
  "ink": 720,
  "inked": 25153,
  "inki": 12623,
  "inkier": 19401,
  "inking": 10940,
  "inks": 2612,
  "inkx": 10939,
  "inle": 28765,
  "inmet": 21001,
  "inn": 4789,
  "inner": 5713,
  "inners": 17186,
  "inness": 14824,
  "inning": 12408,
  "ino": 4596,
  "inohiphop": 12211,
  "inohiphopradio": 12349,
  "inord": 10781,
  "inordoquy": 11185,
  "inos": 7037,
  "ins": 1474,
  "inson": 2075,
  "inst": 20999,
  "installed": 27491,
  "instein": 24103,
  "inster": 9095,
  "insula": 25538,
  "int": 659,
  "intendent": 25101,
  "intendo": 3512,
  "intense": 25100,
  "intensive": 16264,
  "inter": 4511,
  "interested": 22577,
  "intern": 17185,
  "internal": 28768,
  "internet": 23340,
  "inth": 8150,
  "inton": 25099,
  "intosh": 9496,
  "inum": 24095,
  "inut": 28766,
  "inuzz": 28770,
  "inv": 18826,
  "invasive": 23408,
  "invest": 24102,
  "inx": 28763,
  "iny": 3999,
  "inyl": 24100,
  "io": 938,
  "ioc": 20886,
  "iod": 2440,
  "iola": 23958,
  "ion": 301,
  "ionable": 29109,
  "ional": 2138,
  "ionale": 24300,
  "ionate": 29107,
  "ione": 6398,
  "ioned": 29106,
  "ioni": 21140,
  "ionne": 13943,
  "ions": 567,
  "ionue": 29108,
  "iop": 7510,
  "ior": 1959,
  "iors": 20887,
  "ios": 3549,
  "iosity": 22472,
  "iot": 8142,
  "iots": 14772,
  "iott": 14773,
  "ious": 1107,
  "iously": 8715,
  "iov": 13371,
  "ip": 617,
  "ipa": 25053,
  "ipal": 9491,
  "ipated": 7414,
  "ipe": 6273,
  "iper": 28493,
  "ipes": 21701,
  "ipher": 17586,
  "ipl": 4345,
  "iple": 4715,
  "iplex": 17587,
  "ipment": 5826,
  "ipp": 10020,
  "ipped": 3289,
  "ipping": 7512,
  "ipple": 23956,
  "ipro": 15113,
  "ips": 2720,
  "ipt": 15886,
  "ipzig": 21702,
  "iqu": 3026,
  "ique": 4460,
  "iques": 9908,
  "iquette": 25940,
  "ir": 330,
  "ira": 5549,
  "irac": 11874,
  "irai": 29421,
  "iral": 29418,
  "irates": 12471,
  "irc": 3120,
  "ird": 1132,
  "irds": 6953,
  "ire": 559,
  "irect": 15096,
  "irected": 15097,
  "irector": 11397,
  "ired": 2008,
  "ireless": 3052,
  "irement": 21673,
  "ires": 4344,
  "irgin": 5123,
  "iri": 13179,
  "irin": 29416,
  "iring": 7059,
  "irious": 29420,
  "iris": 29417,
  "irk": 18998,
  "irky": 13180,
  "irl": 5254,
  "irlf": 11875,
  "irm": 1714,
  "irman": 1869,
  "irmingham": 4048,
  "irms": 9424,
  "iro": 14769,
  "iron": 2366,
  "irres": 29419,
  "irs": 10434,
  "irst": 4357,
  "irt": 4356,
  "irth": 5255,
  "irties": 24450,
  "irts": 14934,
  "irty": 7759,
  "irus": 1770,
  "irut": 18999,
  "irvan": 11313,
  "is": 281,
  "isa": 11268,
  "isable": 24212,
  "isan": 14845,
  "isand": 18861,
  "isation": 2037,
  "isations": 17225,
  "isc": 3315,
  "iscal": 5102,
  "isclosed": 13114,
  "isco": 21071,
  "isdict": 9102,
  "isdom": 17227,
  "ise": 691,
  "ised": 837,
  "isen": 15961,
  "iser": 8872,
  "isers": 8617,
  "ises": 2625,
  "ish": 568,
  "isha": 28948,
  "ishaw": 28952,
  "ishead": 15962,
  "ished": 1690,
  "isher": 6284,
  "ishers": 10408,
  "ishes": 7935,
  "ishi": 7796,
  "ishing": 3125,
  "ishings": 25001,
  "ishment": 21676,
  "isible": 13113,
  "isign": 28949,
  "ising": 1264,
  "ision": 901,
  "isions": 2992,
  "isive": 13112,
  "isk": 24210,
  "isle": 21070,
  "ism": 1439,
  "isman": 24213,
  "isms": 12425,
  "isna": 17226,
  "iso": 28947,
  "isode": 18863,
  "ison": 2728,
  "isons": 12426,
  "isory": 18862,
  "isova": 28950,
  "isp": 8373,
  "isphere": 9659,
  "iss": 780,
  "issan": 7999,
  "issance": 19416,
  "isse": 17224,
  "ission": 1376,
  "issions": 8233,
  "issor": 9214,
  "issue": 17650,
  "issued": 25196,
  "ist": 425,
  "ista": 13268,
  "istair": 19223,
  "istan": 4303,
  "istance": 9177,
  "istant": 15040,
  "isted": 2276,
  "istel": 10898,
  "istent": 17492,
  "ister": 888,
  "istered": 16316,
  "istering": 19456,
  "isters": 2030,
  "istic": 2415,
  "istical": 14087,
  "istically": 12552,
  "istics": 4662,
  "isting": 2939,
  "istor": 12551,
  "istr": 15039,
  "istrates": 16171,
  "istration": 3795,
  "istries": 15041,
  "istry": 4611,
  "ists": 1133,
  "isure": 13917,
  "isurely": 28951,
  "isy": 24211,
  "it": 276,
  "itTorrent": 5719,
  "ita": 6762,
  "ital": 927,
  "italia": 16322,
  "itals": 6393,
  "itar": 4651,
  "itarian": 9043,
  "itaries": 28902,
  "itars": 24182,
  "itary": 28899,
  "itas": 6392,
  "itated": 15951,
  "itation": 9710,
  "itative": 21052,
  "itch": 2835,
  "itched": 7364,
  "itches": 18853,
  "itchie": 28901,
  "ite": 598,
  "ited": 959,
  "itely": 4443,
  "itement": 10924,
  "iter": 3116,
  "iterate": 25960,
  "ites": 1412,
  "itez": 5335,
  "ith": 357,
  "ither": 2182,
  "ithero": 24184,
  "ithium": 24543,
  "iths": 14006,
  "iti": 21051,
  "itia": 18852,
  "ities": 977,
  "itig": 6512,
  "itigroup": 8335,
  "itimate": 5184,
  "itime": 28898,
  "iting": 1767,
  "ition": 728,
  "itional": 2999,
  "itionally": 25157,
  "itions": 2159,
  "itious": 6763,
  "itis": 18850,
  "itising": 24183,
  "itist": 28896,
  "ititi": 24185,
  "itius": 15952,
  "itive": 1842,
  "itiveness": 10048,
  "itives": 13911,
  "itivities": 28903,
  "itivity": 21054,
  "itiz": 3677,
  "itken": 21053,
  "itled": 5383,
  "itness": 5810,
  "ito": 17216,
  "itog": 9711,
  "itom": 11261,
  "itome": 28897,
  "itomo": 14627,
  "iton": 28894,
  "itor": 1961,
  "itored": 13105,
  "itoring": 25681,
  "itors": 2199,
  "itri": 14839,
  "its": 864,
  "itsha": 21847,
  "itsu": 19441,
  "itsune": 19442,
  "itt": 721,
  "ittal": 12015,
  "ittance": 25154,
  "ittances": 17635,
  "itte": 11411,
  "itted": 1773,
  "ittee": 2206,
  "ittees": 17636,
  "itter": 18851,
  "itters": 17634,
  "itting": 2842,
  "ittingly": 14367,
  "ittle": 1603,
  "itts": 21790,
  "itty": 21791,
  "itude": 6513,
  "itudes": 11811,
  "iture": 9099,
  "itus": 24181,
  "itution": 28900,
  "itve": 28895,
  "ity": 469,
  "itz": 3438,
  "itzer": 4852,
  "itzerland": 6606,
  "itzls": 26027,
  "itzlsperger": 27827,
  "ium": 1752,
  "ius": 6056,
  "iv": 459,
  "iva": 24873,
  "ivable": 19262,
  "ival": 1382,
  "ivals": 3981,
  "ivan": 3762,
  "ivated": 19261,
  "ivatives": 17513,
  "ive": 436,
  "ived": 1813,
  "ively": 2581,
  "iven": 4118,
  "iveness": 7001,
  "iver": 6272,
  "ivering": 22745,
  "ivers": 1698,
  "iversal": 6349,
  "iverse": 12387,
  "iversities": 9543,
  "iversity": 2484,
  "ivert": 15888,
  "ivery": 28492,
  "ives": 1010,
  "ivid": 2061,
  "ivil": 2645,
  "iving": 2346,
  "ivities": 17512,
  "ivity": 5900,
  "ivo": 21578,
  "iw": 14768,
  "iwell": 13844,
  "ix": 846,
  "ixed": 3953,
  "ixt": 6385,
  "iy": 5954,
  "iyama": 22716,
  "iz": 1571,
  "izard": 22068,
  "ization": 25571,
  "ize": 3373,
  "ized": 6704,
  "izer": 17803,
  "izes": 22067,
  "izhstal": 16419,
  "izing": 25570,
  "izmond": 12688,
  "izmondo": 12989,
  "izon": 7278,
  "izoph": 25572,
  "izz": 6703,
  "izzla": 14526,
  "j": 78,
  "ja": 9383,
  "jad": 28499,
  "jamin": 23960,
  "jan": 9085,
  "jax": 14775,
  "jaya": 28506,
  "je": 11227,
  "jean": 28502,
  "ject": 1064,
  "jected": 25340,
  "jection": 10021,
  "jections": 12959,
  "jee": 20888,
  "jen": 13845,
  "jet": 14774,
  "jew": 28500,
  "ji": 23959,
  "jiang": 23961,
  "jit": 28498,
  "jo": 10760,
  "jobs": 28505,
  "john": 8143,
  "joined": 26904,
  "joke": 28503,
  "jsters": 9691,
  "jt": 17117,
  "ju": 28497,
  "jud": 8602,
  "judge": 13846,
  "judged": 18265,
  "jumbo": 28507,
  "jured": 28501,
  "juries": 28504,
  "jury": 17118,
  "just": 4861,
  "justed": 16658,
  "k": 79,
  "ka": 5174,
  "kaard": 22649,
  "kab": 13049,
  "kamp": 17121,
  "kansas": 20895,
  "kar": 28508,
  "kara": 20893,
  "kas": 17120,
  "kbps": 20894,
  "kcell": 28514,
  "ke": 377,
  "ked": 10761,
  "keep": 14975,
  "keeper": 7226,
  "keeping": 23257,
  "kei": 19091,
  "kel": 13231,
  "kele": 9751,
  "kelet": 19092,
  "keletons": 23427,
  "keley": 29712,
  "kemusic": 29714,
  "ken": 2768,
  "kenhead": 22329,
  "kept": 29711,
  "ker": 13048,
  "kers": 18746,
  "kes": 5451,
  "ket": 14776,
  "key": 3143,
  "keys": 29713,
  "kg": 20889,
  "kh": 17119,
  "ki": 4919,
  "kick": 5452,
  "kicking": 16687,
  "kies": 28509,
  "killed": 18747,
  "killer": 28515,
  "killers": 18748,
  "killing": 28516,
  "kin": 11228,
  "kina": 10762,
  "king": 8859,
  "kins": 5871,
  "kinson": 28513,
  "kirts": 28519,
  "kis": 18745,
  "kiser": 28518,
  "kish": 23963,
  "kiss": 23964,
  "kit": 20890,
  "kitt": 28511,
  "kja": 14777,
  "kjaer": 15774,
  "km": 7028,
  "kn": 3502,
  "knapp": 8779,
  "kner": 28512,
  "know": 20892,
  "known": 4413,
  "ko": 4862,
  "kog": 23962,
  "kok": 13050,
  "kom": 11763,
  "kov": 23965,
  "kovic": 28517,
  "kowski": 18749,
  "krain": 5799,
  "kraine": 6491,
  "ks": 611,
  "ksen": 21697,
  "ksson": 13316,
  "kster": 17122,
  "kswagen": 17583,
  "ktop": 5175,
  "kur": 20891,
  "kusen": 14778,
  "kward": 28510,
  "ky": 1967,
  "l": 80,
  "la": 8354,
  "lab": 18751,
  "laby": 23972,
  "lace": 28527,
  "lack": 15890,
  "lad": 7514,
  "laden": 14539,
  "ladimir": 10322,
  "lag": 28522,
  "laim": 7352,
  "lak": 23966,
  "lake": 17123,
  "lam": 4695,
  "lan": 3783,
  "lana": 11564,
  "lance": 28526,
  "land": 596,
  "lando": 21689,
  "lands": 3481,
  "lane": 14780,
  "lanelli": 13559,
  "language": 11766,
  "lantic": 7920,
  "lapp": 28535,
  "lar": 6057,
  "lared": 28533,
  "laren": 10385,
  "large": 20086,
  "largely": 27456,
  "largest": 8330,
  "las": 15889,
  "lash": 18752,
  "late": 28524,
  "later": 28537,
  "lation": 3391,
  "laughter": 23974,
  "lav": 23970,
  "law": 7353,
  "lay": 2405,
  "ld": 322,
  "lda": 6184,
  "lderly": 7054,
  "ldof": 16013,
  "ldom": 29289,
  "ldridge": 29290,
  "ldrum": 13968,
  "le": 296,
  "leader": 29085,
  "leading": 13935,
  "leaf": 24289,
  "lean": 18897,
  "leap": 29078,
  "lear": 3166,
  "lears": 10417,
  "lease": 13934,
  "leased": 17257,
  "leavers": 29086,
  "lec": 29076,
  "lect": 1325,
  "lected": 4128,
  "lecting": 25486,
  "lection": 4351,
  "lections": 29083,
  "lective": 19568,
  "led": 1012,
  "ledge": 5219,
  "ledon": 5218,
  "leen": 24286,
  "leep": 29082,
  "lees": 21134,
  "leeves": 29087,
  "left": 29080,
  "leg": 1378,
  "legal": 16389,
  "legate": 25502,
  "legged": 25503,
  "legis": 25501,
  "legraph": 6342,
  "leground": 19579,
  "leian": 29081,
  "lein": 14868,
  "lele": 17256,
  "lell": 29077,
  "lem": 18896,
  "lement": 3118,
  "lemented": 22392,
  "lenec": 20902,
  "leness": 28541,
  "length": 20901,
  "leone": 29079,
  "lepool": 14870,
  "lequins": 24291,
  "ler": 2054,
  "lerCh": 9261,
  "lerosis": 19704,
  "lers": 9692,
  "les": 818,
  "less": 1362,
  "lessly": 8476,
  "let": 1331,
  "letcher": 10567,
  "lete": 2335,
  "leth": 24287,
  "letico": 19572,
  "leting": 14869,
  "letoft": 21995,
  "leton": 24288,
  "lets": 6397,
  "lett": 8474,
  "letter": 19571,
  "leum": 11280,
  "levard": 17258,
  "level": 8381,
  "levels": 18247,
  "lew": 6069,
  "lewd": 26426,
  "lewell": 29084,
  "lewellyn": 12859,
  "lewood": 24290,
  "lex": 2239,
  "ley": 1291,
  "leyton": 8023,
  "lf": 730,
  "lful": 25159,
  "li": 694,
  "lia": 8603,
  "liament": 1903,
  "liance": 8223,
  "liber": 19386,
  "liberal": 27437,
  "lic": 20896,
  "lical": 28530,
  "licate": 28540,
  "lich": 28525,
  "lick": 17124,
  "lict": 5045,
  "licted": 28539,
  "licting": 19997,
  "lide": 23968,
  "lie": 883,
  "lied": 5829,
  "lien": 16272,
  "lier": 1562,
  "lies": 10384,
  "liest": 13332,
  "life": 7029,
  "lift": 28538,
  "lig": 4099,
  "light": 2158,
  "lights": 17878,
  "lihan": 14159,
  "lihood": 12010,
  "lihy": 25130,
  "lijsters": 9815,
  "like": 2434,
  "likowski": 25131,
  "lim": 2931,
  "lime": 20898,
  "liminary": 9901,
  "limited": 12755,
  "lin": 2514,
  "linder": 20903,
  "line": 931,
  "lined": 6759,
  "liner": 22284,
  "liners": 17911,
  "lines": 2636,
  "liness": 28532,
  "ling": 1335,
  "lings": 20899,
  "lington": 13413,
  "lining": 9573,
  "link": 10022,
  "lins": 18753,
  "linsmann": 23403,
  "linson": 9384,
  "lio": 5269,
  "lioso": 25132,
  "lish": 2526,
  "lished": 5800,
  "list": 11764,
  "listed": 11229,
  "listing": 23973,
  "lists": 14779,
  "lit": 28521,
  "little": 20900,
  "lived": 17125,
  "liver": 5214,
  "livid": 23971,
  "living": 28536,
  "lize": 21760,
  "lk": 28520,
  "ll": 346,
  "lla": 14946,
  "lled": 2640,
  "llen": 1777,
  "llenge": 16442,
  "ller": 9133,
  "llers": 10441,
  "lli": 19027,
  "llie": 17346,
  "llier": 13191,
  "lling": 1648,
  "llo": 29500,
  "llor": 1666,
  "llors": 24494,
  "llow": 29501,
  "lman": 28529,
  "lo": 1095,
  "load": 1484,
  "loaded": 14259,
  "loads": 19604,
  "local": 28534,
  "lock": 8144,
  "log": 8355,
  "logs": 11765,
  "lon": 3551,
  "lone": 23967,
  "long": 6274,
  "look": 4181,
  "looking": 26150,
  "lop": 18750,
  "lor": 2769,
  "lora": 19792,
  "los": 20897,
  "lose": 28528,
  "lost": 23969,
  "lothian": 28543,
  "lour": 28523,
  "lousy": 28542,
  "lov": 9838,
  "lovak": 10721,
  "lovakia": 12323,
  "love": 28531,
  "loved": 16350,
  "lover": 19526,
  "low": 13847,
  "lowest": 27122,
  "lroy": 7030,
  "ls": 10383,
  "lse": 1481,
  "lsea": 2028,
  "lsewhere": 12086,
  "lster": 6502,
  "lt": 7513,
  "lton": 6627,
  "lu": 7200,
  "luca": 28544,
  "lud": 747,
  "lude": 17641,
  "luding": 14168,
  "lus": 4242,
  "lust": 13848,
  "ly": 325,
  "lyde": 11864,
  "lygons": 24417,
  "lying": 4990,
  "lymouth": 21234,
  "lymp": 1883,
  "lyn": 7217,
  "lyndwr": 21235,
  "lyne": 18977,
  "lynn": 9646,
  "lywood": 2614,
  "m": 81,
  "ma": 3671,
  "mable": 23977,
  "machine": 28565,
  "mad": 18756,
  "made": 10386,
  "mag": 6887,
  "maga": 9961,
  "mail": 1754,
  "mailed": 16440,
  "mails": 4328,
  "main": 28547,
  "maine": 20913,
  "major": 20909,
  "make": 11768,
  "maker": 4506,
  "makers": 4551,
  "making": 6058,
  "mal": 5624,
  "malat": 7011,
  "male": 28554,
  "man": 651,
  "managed": 21734,
  "mand": 20905,
  "mann": 6212,
  "manol": 15125,
  "mans": 11769,
  "mant": 10764,
  "manuel": 25094,
  "many": 2536,
  "map": 23975,
  "mar": 5801,
  "marathon": 26391,
  "mard": 17126,
  "mare": 13054,
  "margins": 20063,
  "mark": 3159,
  "marked": 8304,
  "market": 7662,
  "marks": 25970,
  "marsh": 10387,
  "mary": 11230,
  "mas": 2189,
  "mases": 28555,
  "mask": 25763,
  "mass": 14784,
  "massive": 18486,
  "master": 20910,
  "masters": 28563,
  "mat": 18755,
  "match": 8860,
  "mate": 7725,
  "mater": 23983,
  "mates": 7354,
  "math": 13850,
  "matic": 13058,
  "may": 13052,
  "mayne": 28562,
  "mb": 2715,
  "mber": 1030,
  "mbian": 12741,
  "mbro": 15375,
  "mbudsman": 22323,
  "me": 992,
  "meas": 19483,
  "med": 4243,
  "media": 28557,
  "medium": 26158,
  "meg": 25309,
  "mei": 8457,
  "mel": 20906,
  "melda": 7113,
  "mem": 28548,
  "member": 18759,
  "men": 4863,
  "mena": 20912,
  "ment": 391,
  "mental": 10875,
  "mentary": 19132,
  "mented": 11916,
  "mentie": 10458,
  "mentieva": 10726,
  "ments": 898,
  "mer": 603,
  "merce": 5825,
  "mercial": 3018,
  "mere": 28550,
  "meric": 1259,
  "mers": 3749,
  "merson": 23980,
  "mes": 1960,
  "met": 7921,
  "mg": 18754,
  "mi": 28545,
  "mic": 8604,
  "mical": 12389,
  "micals": 9981,
  "middle": 23986,
  "might": 28549,
  "million": 15892,
  "millions": 28559,
  "min": 2321,
  "minated": 19741,
  "mination": 6719,
  "mind": 20907,
  "minded": 14788,
  "mined": 18758,
  "minem": 9269,
  "mines": 28553,
  "ming": 3290,
  "mings": 20908,
  "minute": 7859,
  "mione": 23984,
  "mir": 14782,
  "mis": 20904,
  "misphere": 14787,
  "miss": 3819,
  "mission": 5047,
  "missions": 16610,
  "mit": 3846,
  "mith": 2258,
  "mits": 13849,
  "mitted": 5955,
  "mitting": 18760,
  "mixed": 28561,
  "mline": 23979,
  "mm": 6760,
  "mma": 18761,
  "mny": 28556,
  "mo": 5872,
  "mob": 28552,
  "mobi": 23985,
  "mobile": 13057,
  "mod": 13053,
  "model": 20410,
  "mon": 3968,
  "mond": 6628,
  "money": 23981,
  "mong": 28551,
  "mons": 15891,
  "mont": 12793,
  "month": 5236,
  "months": 26311,
  "mony": 18757,
  "moon": 28560,
  "moor": 20911,
  "mop": 28546,
  "mor": 13051,
  "more": 5046,
  "morrow": 10765,
  "mos": 14783,
  "most": 1712,
  "mot": 14781,
  "mote": 28558,
  "mother": 15893,
  "moud": 17129,
  "mount": 13055,
  "mouth": 14786,
  "move": 14785,
  "moving": 20071,
  "mp": 849,
  "mpagne": 19435,
  "mpas": 17658,
  "mph": 19434,
  "mpion": 2300,
  "mpions": 1679,
  "mpt": 17127,
  "mru": 11771,
  "ms": 671,
  "much": 23978,
  "mult": 23976,
  "mun": 4745,
  "mund": 11770,
  "munia": 9310,
  "munications": 7683,
  "munity": 23982,
  "museum": 28564,
  "music": 17128,
  "must": 10763,
  "mut": 11767,
  "mutual": 18392,
  "my": 2770,
  "mys": 13056,
  "n": 82,
  "na": 3374,
  "nable": 23989,
  "nad": 20916,
  "nadze": 23498,
  "nai": 18764,
  "naire": 14394,
  "naires": 23993,
  "nam": 13851,
  "name": 17130,
  "named": 7726,
  "nan": 10023,
  "napped": 10267,
  "nar": 20915,
  "nat": 23988,
  "nation": 11772,
  "national": 23990,
  "natural": 17131,
  "natured": 27647,
  "nced": 28568,
  "nd": 290,
  "nda": 14861,
  "ndall": 29026,
  "ndan": 24257,
  "nde": 29025,
  "nder": 3317,
  "ndication": 18882,
  "ndwr": 21109,
  "ne": 612,
  "neapolis": 25048,
  "nearly": 20918,
  "neath": 19343,
  "neck": 16252,
  "nect": 11988,
  "nected": 17584,
  "nection": 25046,
  "ned": 858,
  "nedy": 2684,
  "needed": 16254,
  "neft": 2984,
  "neftegas": 22370,
  "neg": 13317,
  "nei": 25044,
  "neither": 25047,
  "nel": 2700,
  "nell": 4074,
  "nelly": 17933,
  "nels": 5956,
  "ner": 1026,
  "nered": 19497,
  "nerg": 19496,
  "ners": 2043,
  "nership": 6503,
  "nes": 1490,
  "nesday": 1943,
  "nesen": 12087,
  "neside": 25545,
  "ness": 1840,
  "nest": 9693,
  "nesty": 11174,
  "net": 4346,
  "nets": 28569,
  "netsova": 8317,
  "nette": 18055,
  "nev": 25045,
  "never": 12599,
  "new": 13852,
  "next": 21698,
  "ney": 1759,
  "neys": 16253,
  "ng": 561,
  "nghai": 16241,
  "ngr": 14134,
  "ni": 20914,
  "nia": 28566,
  "nian": 28567,
  "nic": 5453,
  "nicious": 28571,
  "nicki": 18765,
  "nie": 11231,
  "nier": 7031,
  "nies": 14789,
  "night": 4060,
  "nin": 23987,
  "ning": 661,
  "nings": 16266,
  "nival": 11773,
  "no": 5176,
  "nobody": 28572,
  "nock": 18763,
  "nold": 8605,
  "nominated": 9694,
  "non": 15894,
  "nonsense": 28573,
  "noon": 8145,
  "noop": 18107,
  "norm": 20917,
  "normal": 27485,
  "not": 1765,
  "nothing": 17132,
  "nots": 15297,
  "nova": 10024,
  "now": 3114,
  "nows": 23991,
  "ns": 4382,
  "nst": 18762,
  "nt": 466,
  "ntil": 9473,
  "nton": 10910,
  "ntree": 12576,
  "nty": 11958,
  "ntyre": 18402,
  "nuclear": 23992,
  "numb": 28570,
  "numbered": 28574,
  "ny": 2293,
  "o": 83,
  "oa": 9385,
  "oan": 28578,
  "oann": 11232,
  "ob": 601,
  "obal": 13311,
  "obally": 25035,
  "obby": 7799,
  "ober": 1432,
  "obi": 10144,
  "obile": 3247,
  "obiles": 9803,
  "obody": 6545,
  "obs": 6934,
  "oc": 491,
  "oca": 10912,
  "ocal": 1548,
  "ocaster": 21604,
  "ocaust": 12955,
  "occup": 19285,
  "och": 10389,
  "oche": 17526,
  "ochet": 16202,
  "ock": 785,
  "ocked": 3149,
  "ockers": 8447,
  "ocket": 5910,
  "ockey": 16201,
  "ocking": 19419,
  "ocks": 4222,
  "ocol": 8205,
  "ocolate": 22890,
  "ocop": 21603,
  "ocracy": 6325,
  "ocrat": 2065,
  "ocris": 21605,
  "ocu": 2371,
  "ocused": 24900,
  "od": 449,
  "oda": 19248,
  "odaf": 5264,
  "odafone": 5312,
  "oday": 3426,
  "odcast": 5736,
  "odd": 2397,
  "odder": 25816,
  "oddick": 2904,
  "oddle": 12137,
  "ode": 2388,
  "oded": 7573,
  "oder": 11955,
  "odes": 5735,
  "odg": 4153,
  "odge": 10482,
  "odgers": 11073,
  "odges": 19249,
  "odgson": 4784,
  "odia": 24855,
  "odied": 24856,
  "odies": 6541,
  "oding": 10130,
  "odore": 7084,
  "ods": 8424,
  "ody": 1559,
  "oe": 4787,
  "oes": 10388,
  "oeta": 28582,
  "of": 2725,
  "ofanova": 25884,
  "off": 2569,
  "offending": 14341,
  "office": 17917,
  "official": 22294,
  "offs": 17916,
  "ofo": 25883,
  "ofrio": 11532,
  "oft": 9387,
  "og": 526,
  "ogames": 24926,
  "ogan": 7405,
  "ogen": 16214,
  "ogether": 9792,
  "ogg": 4816,
  "ogged": 24927,
  "oggins": 18083,
  "ogle": 2840,
  "ogn": 2582,
  "ogo": 19296,
  "ogram": 21632,
  "ograp": 7579,
  "ograph": 3051,
  "ographer": 20168,
  "ographers": 22840,
  "ographic": 6987,
  "ographical": 17956,
  "ographically": 25945,
  "ographics": 22377,
  "ography": 5690,
  "ogs": 5005,
  "ogts": 12583,
  "ogue": 5566,
  "ogy": 9480,
  "oh": 28575,
  "ohn": 4746,
  "oi": 20919,
  "oice": 1637,
  "oices": 23995,
  "oid": 11774,
  "oil": 18766,
  "oint": 1462,
  "oir": 15895,
  "ois": 28577,
  "oit": 28576,
  "oitte": 14790,
  "ok": 493,
  "oka": 24902,
  "oke": 3998,
  "oked": 7577,
  "oken": 11386,
  "oker": 21607,
  "okes": 14113,
  "okesman": 23215,
  "oki": 19286,
  "okia": 5564,
  "oking": 5738,
  "oko": 19287,
  "oks": 7987,
  "ol": 371,
  "ola": 4253,
  "olami": 8654,
  "olan": 14021,
  "oland": 14022,
  "olas": 5256,
  "olate": 29687,
  "olation": 19082,
  "olay": 24589,
  "olcan": 19084,
  "olcano": 20626,
  "old": 633,
  "older": 25085,
  "olds": 5485,
  "ole": 4420,
  "olen": 6916,
  "olence": 21362,
  "olent": 21361,
  "oleon": 22571,
  "oler": 19081,
  "oles": 2823,
  "olesale": 9281,
  "olester": 22339,
  "oley": 12390,
  "olf": 8903,
  "oli": 6659,
  "olia": 29688,
  "olic": 5196,
  "olicited": 11597,
  "olics": 13225,
  "olid": 5975,
  "olidation": 26414,
  "olin": 29685,
  "oline": 19083,
  "olis": 21359,
  "olit": 5730,
  "olitan": 9321,
  "oliunas": 14523,
  "olk": 7768,
  "oll": 686,
  "ollah": 25126,
  "ollar": 4314,
  "ollo": 25125,
  "ollow": 1048,
  "ollowing": 8459,
  "olls": 16270,
  "olly": 11902,
  "olo": 9440,
  "olog": 803,
  "ological": 8707,
  "ologically": 21825,
  "ologies": 12632,
  "ologist": 19423,
  "ologues": 25200,
  "ology": 5217,
  "olopolo": 29693,
  "olous": 29689,
  "ols": 17386,
  "olson": 29690,
  "olt": 16083,
  "olute": 3536,
  "olution": 3058,
  "olve": 21360,
  "olved": 29691,
  "olver": 29686,
  "olves": 16084,
  "olving": 29692,
  "oly": 5711,
  "om": 306,
  "oma": 7532,
  "omain": 13137,
  "oman": 2783,
  "omars": 18913,
  "omatic": 12444,
  "omb": 2878,
  "ombe": 29141,
  "ombia": 25914,
  "ome": 477,
  "omeland": 21148,
  "omen": 4794,
  "omenal": 12443,
  "omer": 14888,
  "omerate": 18492,
  "omes": 2528,
  "omestic": 29142,
  "omet": 1419,
  "ometer": 14252,
  "omething": 15247,
  "ometimes": 10202,
  "omi": 13136,
  "omime": 29140,
  "omin": 1174,
  "ominated": 7430,
  "ominations": 25397,
  "omine": 4292,
  "oming": 2425,
  "omm": 4249,
  "omo": 29139,
  "oms": 10423,
  "on": 267,
  "ona": 9395,
  "onald": 3393,
  "onation": 21008,
  "onaut": 8867,
  "onca": 28791,
  "once": 8610,
  "ond": 727,
  "onda": 11412,
  "onder": 4014,
  "ondon": 1118,
  "one": 506,
  "oned": 4979,
  "onedo": 16664,
  "onel": 28787,
  "onent": 6890,
  "onents": 5250,
  "oner": 17192,
  "ones": 1019,
  "onest": 28786,
  "onet": 28785,
  "onex": 24913,
  "oney": 1081,
  "ong": 512,
  "onga": 24918,
  "onge": 11800,
  "ongevity": 20351,
  "ongh": 14825,
  "onghorn": 18487,
  "ongol": 21617,
  "ongrel": 17538,
  "oni": 13885,
  "onia": 17193,
  "onial": 15927,
  "onian": 24112,
  "onica": 21009,
  "onics": 24113,
  "onies": 9704,
  "oning": 7361,
  "onious": 24114,
  "onising": 14826,
  "onitor": 15928,
  "only": 10039,
  "onna": 9705,
  "onno": 28790,
  "ono": 24111,
  "onographic": 11251,
  "ons": 695,
  "onsanto": 13333,
  "onse": 2978,
  "onsense": 12615,
  "onso": 10783,
  "onsored": 18363,
  "onsport": 21761,
  "onst": 4245,
  "ont": 6173,
  "onte": 10040,
  "onti": 28789,
  "onto": 17194,
  "onts": 28788,
  "ony": 953,
  "onym": 6948,
  "onymous": 8118,
  "oo": 5246,
  "ood": 1216,
  "oody": 7268,
  "ook": 631,
  "ooker": 15122,
  "ooking": 6683,
  "ooks": 25082,
  "ool": 1031,
  "ools": 15191,
  "oom": 13059,
  "ooming": 23997,
  "ooms": 28583,
  "oon": 2977,
  "oons": 23996,
  "oook": 28579,
  "oop": 9695,
  "oopers": 20265,
  "oor": 2589,
  "oors": 9696,
  "oos": 23994,
  "oot": 1286,
  "ooth": 9086,
  "ooting": 16380,
  "oots": 17742,
  "op": 370,
  "opa": 29681,
  "opard": 19080,
  "opath": 29683,
  "ope": 3891,
  "opefully": 8529,
  "opener": 24588,
  "opening": 21358,
  "oper": 3757,
  "operate": 15444,
  "operating": 26092,
  "operation": 8525,
  "operative": 26093,
  "opes": 24585,
  "opez": 7884,
  "opf": 29682,
  "oph": 3141,
  "ophistic": 6030,
  "ophob": 14381,
  "ophobia": 27169,
  "ophobic": 23228,
  "ophone": 25968,
  "ophy": 17962,
  "opic": 9143,
  "opin": 21356,
  "oping": 4477,
  "ople": 528,
  "oples": 11901,
  "oplesoft": 12972,
  "opol": 24586,
  "opolo": 29684,
  "opoly": 10104,
  "opoul": 14020,
  "opoulos": 14689,
  "opp": 2949,
  "oppa": 16555,
  "oppable": 22363,
  "opped": 22362,
  "opping": 9903,
  "oppins": 10253,
  "oppy": 15394,
  "ops": 3037,
  "opt": 17385,
  "opting": 24587,
  "opular": 21357,
  "opy": 24584,
  "oqu": 10025,
  "oquy": 11177,
  "or": 272,
  "ora": 12418,
  "orably": 28855,
  "orado": 24150,
  "orama": 28858,
  "oran": 10792,
  "orary": 11806,
  "orate": 18842,
  "orated": 13097,
  "orati": 15939,
  "oration": 8154,
  "orbit": 28856,
  "orcan": 28857,
  "orcist": 24151,
  "ord": 483,
  "ordan": 9474,
  "orde": 24895,
  "order": 7240,
  "ordered": 24896,
  "orderly": 19280,
  "orders": 4710,
  "ordes": 19279,
  "ordin": 5480,
  "ordinarily": 26355,
  "ordinary": 8204,
  "ordinate": 12237,
  "ordinated": 20044,
  "ordinating": 20045,
  "ordination": 21601,
  "ordinator": 9318,
  "ording": 1214,
  "ordon": 2507,
  "ords": 4391,
  "ore": 495,
  "ored": 2317,
  "oren": 15070,
  "orent": 21608,
  "orer": 6634,
  "ores": 3723,
  "orest": 6429,
  "org": 9097,
  "organ": 9098,
  "orge": 21036,
  "orgeous": 27494,
  "oria": 21037,
  "orical": 24149,
  "orient": 15937,
  "ories": 1296,
  "oring": 4553,
  "orious": 10794,
  "oriously": 17204,
  "oris": 28851,
  "orised": 28854,
  "ority": 28853,
  "ork": 1027,
  "orkman": 25329,
  "orkovsky": 5755,
  "orks": 1937,
  "orld": 1244,
  "orm": 628,
  "ormouth": 25075,
  "orn": 1837,
  "orney": 4924,
  "oro": 10791,
  "orous": 10793,
  "orously": 15938,
  "orpe": 8614,
  "orpor": 7040,
  "orrent": 5055,
  "orrow": 3613,
  "orrowing": 18012,
  "orry": 7931,
  "ors": 708,
  "orse": 21035,
  "orsese": 5489,
  "orship": 10156,
  "ort": 398,
  "orted": 15003,
  "orter": 5958,
  "ortg": 4299,
  "orth": 1553,
  "orthern": 3978,
  "orthington": 24669,
  "orting": 29829,
  "ortion": 7073,
  "ortium": 7777,
  "ortolami": 9450,
  "orton": 21424,
  "orts": 17437,
  "orus": 28852,
  "ory": 680,
  "os": 429,
  "osc": 8673,
  "ose": 635,
  "osed": 5000,
  "osen": 4008,
  "osens": 24800,
  "oser": 6088,
  "osers": 15044,
  "oses": 10476,
  "osexuality": 25086,
  "osh": 3344,
  "oshan": 24802,
  "osik": 21527,
  "osing": 3206,
  "osis": 9462,
  "osition": 10899,
  "osity": 9463,
  "oslav": 24803,
  "oso": 19227,
  "osp": 2706,
  "ospace": 15374,
  "osphere": 5933,
  "ospheric": 22320,
  "oss": 812,
  "ossible": 6438,
  "ossibly": 21827,
  "ost": 519,
  "ostal": 9478,
  "ostas": 9789,
  "osted": 21621,
  "oster": 5823,
  "ostering": 21622,
  "osters": 11964,
  "oston": 6676,
  "osur": 24799,
  "osure": 9178,
  "osures": 24801,
  "ot": 327,
  "ota": 8639,
  "otage": 29354,
  "otal": 7956,
  "otation": 14923,
  "otchi": 29359,
  "ote": 2896,
  "oted": 11868,
  "otel": 29352,
  "oters": 13971,
  "otes": 29350,
  "oth": 947,
  "othe": 21239,
  "othem": 29358,
  "other": 1125,
  "otherap": 25375,
  "othes": 8640,
  "othian": 25283,
  "othing": 6002,
  "otho": 14198,
  "othy": 25282,
  "oti": 3471,
  "otic": 13970,
  "otics": 21241,
  "otine": 21240,
  "oting": 29351,
  "otional": 29357,
  "otive": 14924,
  "otland": 8174,
  "otma": 13972,
  "oto": 9420,
  "otry": 29353,
  "ots": 2323,
  "otseva": 29360,
  "ott": 2387,
  "otta": 25812,
  "ottage": 22270,
  "otte": 21242,
  "otten": 4932,
  "ottenham": 7315,
  "otter": 4755,
  "otti": 9734,
  "otting": 29355,
  "otty": 29356,
  "oty": 6647,
  "ou": 289,
  "oub": 10054,
  "oubek": 23004,
  "oucester": 6515,
  "oucestershire": 21108,
  "ouchers": 21107,
  "ouchi": 29024,
  "oud": 6065,
  "ouette": 24256,
  "ouf": 24255,
  "oug": 14860,
  "ough": 637,
  "oughly": 7590,
  "ought": 1165,
  "oul": 2962,
  "ould": 380,
  "oule": 29022,
  "oulton": 22365,
  "oume": 29023,
  "oun": 784,
  "ounc": 1645,
  "ounce": 14174,
  "ounced": 9508,
  "ouncil": 1735,
  "ouncill": 12692,
  "ouncing": 13437,
  "ound": 753,
  "ounded": 8444,
  "ounds": 6332,
  "ouness": 5909,
  "ount": 595,
  "ounted": 25028,
  "ounter": 3148,
  "ounters": 25029,
  "ountney": 16249,
  "ounts": 19339,
  "our": 413,
  "ourage": 11358,
  "ouraging": 24762,
  "ource": 8416,
  "ources": 4812,
  "ourcing": 15032,
  "oured": 4213,
  "ourgo": 12544,
  "ourgoin": 12986,
  "ouri": 21106,
  "ouring": 16161,
  "ourinho": 4070,
  "ourn": 2531,
  "ournal": 3092,
  "ournament": 16516,
  "ours": 1715,
  "ourse": 13264,
  "ourt": 2809,
  "ous": 577,
  "ousain": 9200,
  "ousands": 3207,
  "ouse": 1142,
  "ouses": 16246,
  "ousing": 12597,
  "ously": 4224,
  "oussis": 17573,
  "oust": 17243,
  "oustic": 27321,
  "ousy": 25009,
  "out": 475,
  "outdated": 24888,
  "outh": 1347,
  "outhern": 6323,
  "outrageous": 24889,
  "outs": 6673,
  "outure": 24887,
  "ouw": 29020,
  "ouwel": 17244,
  "oux": 29021,
  "ov": 1298,
  "ova": 4047,
  "ove": 1063,
  "ovember": 1983,
  "over": 1411,
  "overed": 10571,
  "overing": 17763,
  "overs": 10390,
  "overty": 17764,
  "overy": 3115,
  "ovic": 6339,
  "ovich": 14239,
  "ovico": 21987,
  "ovie": 12072,
  "ovies": 17745,
  "ovil": 25472,
  "oving": 28580,
  "ovo": 11463,
  "ovsky": 5584,
  "ovtseva": 21988,
  "ow": 332,
  "oware": 24451,
  "oway": 9426,
  "owden": 17331,
  "owder": 21262,
  "owdown": 24452,
  "owed": 5726,
  "oween": 17332,
  "owell": 5389,
  "ower": 1018,
  "owers": 3245,
  "owing": 10435,
  "owler": 11876,
  "own": 581,
  "owned": 5484,
  "owner": 21681,
  "owners": 25011,
  "ownership": 25012,
  "ows": 2345,
  "owship": 22261,
  "owski": 15344,
  "ox": 1357,
  "oxy": 19576,
  "oy": 717,
  "oya": 5575,
  "oyal": 3599,
  "oyalty": 22486,
  "oyant": 21786,
  "oyd": 8230,
  "oyes": 15145,
  "oyong": 19398,
  "oys": 4044,
  "oz": 9386,
  "oze": 28581,
  "ozy": 23998,
  "p": 84,
  "pBB": 24011,
  "pace": 20923,
  "pack": 17137,
  "pad": 14791,
  "page": 9087,
  "pages": 14793,
  "paid": 12394,
  "pain": 24001,
  "painful": 27649,
  "pal": 17133,
  "pan": 5247,
  "pandering": 28600,
  "panied": 9621,
  "pants": 24009,
  "paper": 20927,
  "papers": 28591,
  "par": 2555,
  "parent": 20928,
  "part": 5454,
  "particularly": 26340,
  "partisan": 26339,
  "party": 8606,
  "pass": 5455,
  "passing": 26341,
  "pat": 6169,
  "pathetic": 28602,
  "patitis": 26437,
  "pause": 20925,
  "paw": 28590,
  "pay": 5178,
  "payer": 26303,
  "payment": 22650,
  "pburn": 14794,
  "pd": 20920,
  "pe": 394,
  "peace": 21423,
  "peare": 13246,
  "pec": 24665,
  "pecc": 21422,
  "pecial": 3246,
  "pecially": 3389,
  "pect": 656,
  "pectations": 17608,
  "pected": 4618,
  "pective": 6938,
  "pects": 2952,
  "ped": 3820,
  "peer": 5980,
  "pei": 15001,
  "pel": 17436,
  "pell": 29826,
  "pelled": 19146,
  "pen": 970,
  "pense": 10174,
  "pent": 20922,
  "penter": 10393,
  "people": 24666,
  "per": 613,
  "perate": 11402,
  "pered": 19344,
  "perform": 10926,
  "perger": 25049,
  "perhaps": 25050,
  "perienced": 15112,
  "pers": 18767,
  "person": 5048,
  "personal": 12226,
  "pert": 17585,
  "perts": 14143,
  "pervasive": 28604,
  "pes": 10391,
  "pet": 4864,
  "pets": 28589,
  "pey": 7975,
  "ph": 1061,
  "phab": 14795,
  "phal": 18769,
  "phan": 15898,
  "phant": 20930,
  "phe": 15897,
  "phia": 21906,
  "phies": 11442,
  "phone": 3601,
  "phones": 10962,
  "phy": 4162,
  "pic": 20921,
  "pical": 20926,
  "pically": 24007,
  "picture": 28605,
  "pie": 28584,
  "piece": 9388,
  "pieces": 18770,
  "pies": 13060,
  "pign": 17138,
  "pignan": 18556,
  "ping": 6059,
  "pion": 23999,
  "pione": 24010,
  "pipe": 28594,
  "pir": 3881,
  "piracy": 6145,
  "pire": 14792,
  "pired": 6629,
  "piring": 19891,
  "piro": 28599,
  "pish": 28587,
  "pite": 1429,
  "pke": 8356,
  "pkemei": 8581,
  "pl": 572,
  "place": 5404,
  "placed": 13305,
  "placement": 26336,
  "placements": 11602,
  "places": 25004,
  "plak": 15099,
  "plan": 14136,
  "planned": 23219,
  "play": 2086,
  "played": 13474,
  "player": 9880,
  "playing": 9561,
  "ple": 1746,
  "pled": 8688,
  "plement": 25633,
  "ples": 5010,
  "pless": 16244,
  "plex": 19660,
  "plin": 17570,
  "pling": 17571,
  "ploy": 1425,
  "ployers": 22024,
  "plus": 7410,
  "pluses": 25005,
  "ply": 1881,
  "pm": 13853,
  "png": 28586,
  "po": 15896,
  "pocket": 20929,
  "point": 6504,
  "points": 22763,
  "poke": 28592,
  "pol": 17135,
  "polit": 15899,
  "political": 23292,
  "poll": 20924,
  "pond": 3969,
  "pons": 10392,
  "pool": 2134,
  "pop": 12392,
  "popping": 28597,
  "por": 2056,
  "porarily": 14314,
  "porary": 6717,
  "port": 484,
  "porte": 7241,
  "porting": 21602,
  "portion": 6324,
  "ports": 1864,
  "pos": 1249,
  "pose": 5802,
  "posed": 5088,
  "poses": 11460,
  "positive": 25432,
  "post": 13855,
  "postal": 28595,
  "pot": 13854,
  "pound": 28588,
  "poverty": 28601,
  "powder": 28603,
  "power": 12393,
  "powered": 27024,
  "pox": 24005,
  "pp": 465,
  "ppa": 24878,
  "pped": 1197,
  "pper": 4221,
  "ppered": 19269,
  "ppers": 19268,
  "ppes": 21587,
  "pping": 2950,
  "pple": 1956,
  "ppled": 14107,
  "ppling": 16196,
  "ppon": 15060,
  "pprop": 21588,
  "ppy": 7400,
  "pr": 1330,
  "pract": 18768,
  "pre": 5177,
  "pread": 7032,
  "precedented": 14458,
  "pred": 24004,
  "prem": 24008,
  "prep": 26302,
  "pres": 6386,
  "present": 10683,
  "presented": 18160,
  "president": 11617,
  "press": 17139,
  "pressing": 28593,
  "pret": 8357,
  "pretty": 16799,
  "pri": 17136,
  "price": 21994,
  "priced": 24012,
  "print": 8265,
  "priot": 28596,
  "prise": 8266,
  "prises": 17754,
  "prising": 15240,
  "prisingly": 23273,
  "prit": 24002,
  "priv": 28598,
  "pro": 3095,
  "produ": 7355,
  "produced": 22831,
  "production": 11645,
  "prof": 4501,
  "professional": 19950,
  "profile": 6740,
  "profit": 11583,
  "profits": 14432,
  "prom": 3672,
  "proportion": 16561,
  "prot": 12166,
  "protect": 23116,
  "protected": 15727,
  "prov": 25958,
  "prus": 8978,
  "ps": 2055,
  "psey": 10394,
  "pson": 3882,
  "psons": 12113,
  "pswich": 22181,
  "pt": 591,
  "ptember": 2298,
  "pter": 7201,
  "ption": 3703,
  "ptions": 10142,
  "ptitious": 14139,
  "pton": 4262,
  "pty": 10141,
  "publ": 24003,
  "public": 17140,
  "pud": 28585,
  "pur": 24000,
  "purpose": 27648,
  "pus": 17134,
  "push": 24006,
  "put": 2303,
  "puted": 14331,
  "puter": 5772,
  "puters": 12134,
  "puting": 13489,
  "py": 12391,
  "q": 85,
  "qu": 460,
  "quake": 10485,
  "quale": 15059,
  "qualified": 24875,
  "quality": 7238,
  "quarter": 10486,
  "quarters": 6542,
  "quate": 12574,
  "que": 6671,
  "queen": 21582,
  "quel": 21580,
  "quendi": 12575,
  "quer": 13291,
  "quera": 9187,
  "ques": 7087,
  "quest": 19263,
  "quette": 21583,
  "quid": 21579,
  "quin": 17514,
  "quins": 21581,
  "quir": 3380,
  "quiry": 19845,
  "quite": 17515,
  "quive": 24874,
  "qv": 20931,
  "qwerty": 24013,
  "r": 86,
  "ra": 443,
  "rab": 20934,
  "rac": 12396,
  "race": 6203,
  "racism": 20382,
  "rack": 11775,
  "racket": 20937,
  "racketeering": 23499,
  "racking": 16882,
  "ract": 1093,
  "raction": 9183,
  "ractions": 17498,
  "racts": 21918,
  "racy": 5179,
  "rad": 7033,
  "radical": 26547,
  "radio": 10026,
  "rael": 3508,
  "raf": 10480,
  "raft": 2595,
  "rag": 8358,
  "rage": 8359,
  "raged": 15905,
  "rageous": 22897,
  "rague": 14798,
  "raham": 16185,
  "raight": 3303,
  "rail": 17497,
  "rain": 4649,
  "rained": 17142,
  "raining": 17143,
  "raising": 11377,
  "rait": 15052,
  "rak": 24844,
  "rake": 5002,
  "ral": 1207,
  "rally": 20935,
  "raltar": 14227,
  "ram": 789,
  "rama": 21815,
  "ramble": 15156,
  "ramovich": 21816,
  "ran": 1817,
  "ranch": 9254,
  "range": 3662,
  "ranging": 13064,
  "rank": 15904,
  "ranking": 20501,
  "ranny": 11495,
  "ranos": 10585,
  "rant": 13856,
  "rants": 24016,
  "rap": 4194,
  "raph": 1894,
  "rapped": 19242,
  "raq": 1973,
  "rard": 3883,
  "rarily": 28609,
  "rary": 5803,
  "ras": 6275,
  "rash": 24014,
  "rasner": 26451,
  "rass": 6387,
  "rast": 3415,
  "rastructure": 5692,
  "rat": 1595,
  "rate": 4974,
  "rated": 4028,
  "rates": 7727,
  "rather": 24015,
  "ratic": 12090,
  "rating": 5376,
  "ration": 1458,
  "rations": 18775,
  "rative": 6388,
  "ratman": 25580,
  "rator": 13063,
  "rators": 9863,
  "rats": 25579,
  "rattled": 20939,
  "ratulations": 25581,
  "raud": 2381,
  "rav": 9781,
  "rave": 5001,
  "raw": 1622,
  "raway": 24845,
  "rawl": 17810,
  "rawling": 16425,
  "rawn": 3924,
  "ray": 2237,
  "rays": 18774,
  "raz": 3365,
  "razil": 3963,
  "razzi": 26016,
  "rb": 12395,
  "rban": 11233,
  "rd": 13061,
  "rds": 28608,
  "re": 269,
  "reach": 13090,
  "reaching": 27070,
  "reacted": 21019,
  "read": 2757,
  "readie": 25888,
  "ready": 1119,
  "real": 6508,
  "realistic": 16735,
  "reality": 24126,
  "really": 28803,
  "ream": 3162,
  "reaming": 16567,
  "rean": 21015,
  "reason": 28805,
  "reasonable": 18835,
  "reat": 693,
  "reated": 21018,
  "reative": 8439,
  "rec": 8152,
  "received": 24127,
  "recent": 28807,
  "recogn": 22875,
  "recognised": 27606,
  "recon": 28802,
  "record": 12907,
  "recorded": 15744,
  "rect": 24124,
  "rection": 21017,
  "recy": 28806,
  "red": 844,
  "redict": 12635,
  "redit": 9509,
  "redited": 25223,
  "reditors": 21840,
  "redo": 16308,
  "redu": 28804,
  "ree": 583,
  "reed": 1699,
  "reek": 10504,
  "reen": 1392,
  "reens": 3243,
  "reep": 15101,
  "rees": 7363,
  "reet": 2423,
  "ref": 28800,
  "reg": 3201,
  "regas": 15407,
  "registered": 25991,
  "regor": 16574,
  "regular": 11054,
  "regulated": 25990,
  "reheated": 28810,
  "rehens": 12411,
  "reholders": 12412,
  "reid": 17197,
  "reira": 13890,
  "rek": 10788,
  "rel": 3675,
  "reland": 1422,
  "related": 7670,
  "rele": 7039,
  "release": 16752,
  "released": 11136,
  "reliance": 28809,
  "rell": 4922,
  "rella": 12830,
  "rem": 1890,
  "reme": 3293,
  "remittingly": 16450,
  "ren": 913,
  "rence": 7606,
  "rench": 2042,
  "rend": 21016,
  "reng": 24125,
  "renheit": 12640,
  "renic": 25261,
  "rennan": 19461,
  "rent": 939,
  "rentice": 21876,
  "rently": 5753,
  "rep": 14829,
  "report": 28801,
  "repre": 10042,
  "reprene": 10344,
  "represent": 13891,
  "represented": 24128,
  "rera": 18777,
  "res": 417,
  "resc": 21506,
  "resdner": 21509,
  "rese": 18834,
  "resent": 16163,
  "resh": 4365,
  "reshing": 21508,
  "resident": 11362,
  "resolution": 16164,
  "respect": 21507,
  "respond": 4761,
  "ress": 646,
  "ressed": 2350,
  "ressing": 5904,
  "ression": 5486,
  "ressive": 6937,
  "ressively": 14150,
  "rest": 2314,
  "rester": 13889,
  "reston": 13490,
  "ret": 1159,
  "retary": 1538,
  "rete": 13091,
  "retion": 25391,
  "retro": 17719,
  "retrovir": 20581,
  "retroviral": 23476,
  "rets": 9706,
  "reus": 17198,
  "rew": 1661,
  "rewsbury": 19642,
  "rexham": 21020,
  "rey": 4552,
  "reys": 5807,
  "reza": 28808,
  "ri": 403,
  "ria": 6534,
  "riage": 29891,
  "rial": 3473,
  "riam": 19169,
  "rian": 3101,
  "riano": 22390,
  "rians": 24698,
  "riate": 5131,
  "riately": 15011,
  "riati": 15012,
  "rib": 1201,
  "ribe": 9238,
  "ribed": 21949,
  "ribes": 14226,
  "rible": 7980,
  "ribut": 2829,
  "ribute": 5419,
  "ributed": 10251,
  "ributes": 21950,
  "ribution": 3516,
  "ributor": 22342,
  "ric": 1225,
  "rical": 11776,
  "ricane": 19549,
  "ricanes": 15220,
  "rice": 14796,
  "riced": 19548,
  "rich": 15901,
  "richa": 17732,
  "ricia": 12672,
  "rick": 7356,
  "rico": 21953,
  "rics": 8360,
  "rict": 3784,
  "riculum": 17733,
  "rid": 1580,
  "ride": 18772,
  "riders": 25575,
  "ridge": 3577,
  "ridges": 12689,
  "rie": 5260,
  "ried": 2530,
  "rief": 17449,
  "riend": 2093,
  "riends": 9562,
  "rier": 4939,
  "riers": 5130,
  "ries": 1175,
  "riet": 24697,
  "riev": 21447,
  "rieve": 13597,
  "rieved": 26315,
  "rieving": 26316,
  "rif": 16130,
  "riff": 6198,
  "rific": 16131,
  "rified": 18538,
  "rift": 29892,
  "rig": 5375,
  "rigation": 20033,
  "rigging": 20034,
  "right": 2422,
  "rights": 25824,
  "rigid": 26325,
  "rigo": 12842,
  "ril": 10395,
  "rill": 20933,
  "rim": 4286,
  "rime": 15902,
  "rimin": 26163,
  "rin": 20932,
  "rine": 18773,
  "ring": 1447,
  "ringing": 15248,
  "rington": 22028,
  "rio": 4562,
  "rior": 12534,
  "riors": 19171,
  "riot": 9762,
  "riots": 24699,
  "rious": 29890,
  "rip": 7230,
  "riple": 29893,
  "ript": 7779,
  "ription": 19172,
  "rir": 13062,
  "ririck": 13761,
  "ris": 1628,
  "risc": 5025,
  "rised": 17141,
  "rising": 13857,
  "risis": 22085,
  "risk": 19634,
  "rison": 4401,
  "rispy": 17811,
  "riss": 28606,
  "rist": 1365,
  "rister": 20936,
  "ristol": 8477,
  "rit": 530,
  "ritable": 24932,
  "ritical": 13298,
  "ritics": 6208,
  "rities": 6092,
  "rity": 8607,
  "ritz": 8681,
  "rium": 29889,
  "riv": 14051,
  "rivals": 29894,
  "rive": 8194,
  "rived": 21446,
  "river": 19170,
  "rivor": 16132,
  "rix": 7562,
  "riy": 24696,
  "rmal": 28610,
  "rnova": 10027,
  "ro": 298,
  "road": 3946,
  "roads": 22532,
  "roat": 10418,
  "rob": 18898,
  "robe": 17262,
  "robot": 21136,
  "robotiquette": 27504,
  "rock": 11834,
  "rodu": 1737,
  "roe": 18899,
  "rof": 17259,
  "roflora": 20556,
  "rog": 4602,
  "rogba": 8541,
  "rogiov": 14434,
  "roie": 29088,
  "roiled": 24292,
  "roit": 14871,
  "roke": 8877,
  "roken": 29091,
  "rokes": 15979,
  "rol": 4471,
  "rolet": 21135,
  "roll": 5117,
  "rolled": 9410,
  "rolling": 13133,
  "rolux": 19946,
  "rom": 419,
  "ron": 1079,
  "rong": 2057,
  "ronic": 3487,
  "ronically": 19515,
  "ronics": 3709,
  "ronkjaer": 25349,
  "rons": 15903,
  "ront": 2115,
  "ronted": 10182,
  "ronts": 19514,
  "rood": 14872,
  "room": 5189,
  "rooms": 16679,
  "root": 13936,
  "roots": 29090,
  "rooy": 10813,
  "rop": 3643,
  "ropia": 19874,
  "ropolitan": 9920,
  "roponte": 13552,
  "rops": 29089,
  "ror": 1638,
  "rors": 18776,
  "ros": 1111,
  "rosive": 25369,
  "roso": 1602,
  "rosoft": 1646,
  "rospective": 17709,
  "ross": 1215,
  "rossing": 25410,
  "rot": 17260,
  "rote": 4428,
  "rou": 498,
  "roud": 6207,
  "rough": 831,
  "rought": 2762,
  "round": 908,
  "roup": 930,
  "rous": 16206,
  "rove": 17261,
  "rovers": 13937,
  "rovial": 29092,
  "roving": 15978,
  "rovision": 11281,
  "row": 547,
  "rowing": 8431,
  "rown": 998,
  "rowned": 13303,
  "rows": 17561,
  "rowth": 7584,
  "roximately": 29093,
  "roy": 2063,
  "royd": 14315,
  "rs": 18771,
  "rty": 28607,
  "ru": 665,
  "ruary": 1912,
  "ruck": 5905,
  "ruct": 2389,
  "ruction": 3127,
  "ructive": 14336,
  "ructure": 3664,
  "rue": 14797,
  "rued": 21738,
  "ruff": 25105,
  "rug": 1399,
  "rugg": 2845,
  "ruit": 14155,
  "rule": 21739,
  "rules": 28611,
  "ruling": 18778,
  "rum": 6630,
  "run": 7034,
  "runners": 18186,
  "running": 9088,
  "rup": 2081,
  "ruple": 25730,
  "rupt": 2284,
  "rupted": 9879,
  "rupting": 25731,
  "ruption": 6839,
  "rushing": 20938,
  "rust": 15900,
  "ry": 490,
  "ryde": 14112,
  "ryption": 19284,
  "rysler": 7792,
  "s": 87,
  "safer": 28641,
  "said": 24024,
  "sar": 24019,
  "save": 28626,
  "saver": 28635,
  "saving": 28631,
  "savvy": 15908,
  "sawa": 28640,
  "sburgh": 28632,
  "sbury": 17147,
  "sc": 1150,
  "scale": 10557,
  "scape": 7117,
  "scar": 9845,
  "scenes": 19538,
  "sceptic": 11777,
  "sche": 3022,
  "schild": 28639,
  "school": 13861,
  "scor": 19537,
  "scorching": 27442,
  "scourt": 21939,
  "screen": 11450,
  "scri": 15210,
  "scrolling": 21940,
  "se": 372,
  "sea": 6528,
  "sealing": 29697,
  "seamless": 29699,
  "season": 11903,
  "seat": 14972,
  "sec": 2191,
  "second": 17387,
  "secret": 25764,
  "secs": 9003,
  "secut": 3007,
  "secution": 25765,
  "secutors": 9583,
  "sed": 13859,
  "see": 19085,
  "seed": 24590,
  "seeded": 10454,
  "seek": 16085,
  "seeking": 27262,
  "seems": 29696,
  "sees": 29695,
  "sehen": 24591,
  "sein": 19086,
  "sel": 1723,
  "selassie": 17828,
  "seldom": 29698,
  "selected": 21363,
  "self": 1353,
  "sell": 5645,
  "seller": 16694,
  "selling": 5817,
  "sels": 6827,
  "selves": 2157,
  "semb": 4255,
  "sembly": 4854,
  "sen": 5180,
  "senal": 2406,
  "sending": 24023,
  "sene": 9089,
  "sener": 28624,
  "sens": 13860,
  "sense": 18782,
  "sensible": 23189,
  "sensitive": 27124,
  "sequ": 4993,
  "ser": 13858,
  "series": 28637,
  "serious": 18458,
  "seriously": 27123,
  "sers": 28616,
  "serve": 28630,
  "serving": 18784,
  "ses": 11234,
  "set": 2958,
  "sets": 18781,
  "setting": 17948,
  "sev": 29694,
  "seva": 17388,
  "several": 24592,
  "severe": 19087,
  "severely": 27415,
  "sex": 7769,
  "sey": 4254,
  "sh": 2611,
  "sha": 5804,
  "shadow": 10679,
  "shambles": 20947,
  "shaped": 18135,
  "shar": 4747,
  "share": 16698,
  "sharers": 14439,
  "sharing": 5440,
  "shaw": 16697,
  "she": 14799,
  "shifting": 25863,
  "shine": 10610,
  "ship": 28625,
  "shire": 7142,
  "shirts": 19769,
  "shoot": 22299,
  "shore": 11526,
  "shot": 14346,
  "should": 13505,
  "show": 11043,
  "sick": 28620,
  "side": 1549,
  "sided": 28627,
  "sider": 8362,
  "sie": 10767,
  "siff": 28628,
  "sign": 6170,
  "signed": 15553,
  "significant": 8111,
  "significantly": 20204,
  "silly": 28638,
  "sim": 18779,
  "sin": 28612,
  "sing": 5625,
  "singer": 28633,
  "singing": 22680,
  "sion": 28614,
  "sis": 14800,
  "site": 24020,
  "six": 20943,
  "size": 15906,
  "sized": 13065,
  "ski": 6505,
  "skilled": 24027,
  "skjaer": 20950,
  "sky": 5248,
  "sl": 7515,
  "slates": 13648,
  "sle": 17145,
  "sler": 7357,
  "sley": 20945,
  "slight": 28629,
  "slim": 24025,
  "sm": 6276,
  "sman": 17146,
  "smart": 26452,
  "sme": 20944,
  "smore": 28636,
  "smouth": 7899,
  "sn": 24017,
  "so": 457,
  "soci": 1955,
  "social": 16194,
  "soever": 14106,
  "sohn": 17511,
  "sold": 16193,
  "some": 18780,
  "something": 20948,
  "son": 774,
  "song": 20941,
  "soon": 17509,
  "sop": 28617,
  "sor": 10766,
  "sou": 28613,
  "soul": 13862,
  "sound": 24021,
  "source": 15907,
  "sova": 8203,
  "sover": 17510,
  "sp": 3160,
  "spa": 25971,
  "space": 25973,
  "spam": 8771,
  "spe": 3941,
  "speaking": 11070,
  "spec": 12791,
  "special": 20946,
  "spect": 28621,
  "speed": 6146,
  "spinning": 25974,
  "spir": 22399,
  "spirit": 27593,
  "spoon": 17963,
  "spot": 25972,
  "spreys": 9012,
  "spyware": 10261,
  "squ": 20940,
  "squabbling": 27486,
  "sque": 17148,
  "ss": 17144,
  "sson": 20942,
  "st": 311,
  "stad": 21159,
  "stadt": 27505,
  "stage": 14896,
  "stairs": 13953,
  "stakes": 29178,
  "stal": 7370,
  "stalk": 29177,
  "stalking": 29180,
  "stalline": 21165,
  "stan": 13951,
  "stances": 6901,
  "stand": 2059,
  "standard": 25728,
  "standing": 4497,
  "stant": 9724,
  "star": 4869,
  "stars": 15991,
  "start": 13952,
  "stat": 24338,
  "state": 11846,
  "stated": 18927,
  "static": 24341,
  "station": 15989,
  "stations": 21161,
  "stay": 17282,
  "ste": 7533,
  "stead": 4929,
  "sted": 10427,
  "steen": 18928,
  "stein": 8829,
  "sten": 24337,
  "step": 15990,
  "steps": 13148,
  "ster": 1257,
  "sterdam": 10976,
  "stern": 21967,
  "sters": 5190,
  "stfallen": 29183,
  "sthesis": 29185,
  "stick": 13147,
  "sticking": 29179,
  "still": 21160,
  "stink": 29175,
  "stis": 15988,
  "stit": 1938,
  "stitute": 4168,
  "stitution": 7449,
  "stman": 24340,
  "stoke": 21163,
  "stolen": 24343,
  "ston": 3338,
  "stone": 6291,
  "stood": 11290,
  "stop": 12448,
  "store": 24339,
  "storm": 21162,
  "stow": 29174,
  "str": 10063,
  "straight": 24342,
  "straightforward": 27670,
  "strapped": 29182,
  "stream": 5191,
  "street": 15992,
  "streng": 29184,
  "stret": 29176,
  "stri": 13146,
  "string": 6900,
  "strip": 24344,
  "stroie": 29186,
  "strong": 7214,
  "struck": 21164,
  "struct": 11847,
  "struction": 5880,
  "stupid": 29181,
  "style": 7371,
  "su": 24018,
  "sub": 28619,
  "substant": 18785,
  "substantial": 27393,
  "success": 18783,
  "successful": 23404,
  "such": 24022,
  "sues": 28622,
  "sufficient": 24028,
  "sun": 2662,
  "sunami": 2782,
  "sung": 22315,
  "sup": 14801,
  "super": 13066,
  "support": 23235,
  "sur": 8361,
  "surance": 16800,
  "surers": 28634,
  "sus": 28615,
  "sust": 28618,
  "sustainable": 20949,
  "sw": 2661,
  "swappers": 25869,
  "swapping": 19775,
  "swe": 28623,
  "sweet": 24026,
  "swick": 25868,
  "sworth": 22314,
  "sy": 5456,
  "t": 88,
  "ta": 10028,
  "tage": 28651,
  "tail": 18788,
  "tain": 943,
  "tainly": 21877,
  "tainment": 2710,
  "take": 10029,
  "taken": 13869,
  "taker": 18790,
  "taking": 11780,
  "tal": 28645,
  "tale": 28656,
  "talking": 28659,
  "tan": 20952,
  "tank": 13069,
  "tap": 13866,
  "tape": 28658,
  "tar": 9389,
  "tasting": 28662,
  "tat": 28646,
  "tax": 7202,
  "taxpayer": 26563,
  "te": 905,
  "team": 11434,
  "tech": 6947,
  "techn": 21863,
  "technology": 21864,
  "tection": 12036,
  "ted": 1546,
  "teen": 21862,
  "tejohn": 19459,
  "tel": 24030,
  "tem": 17149,
  "temporary": 27310,
  "ten": 1522,
  "tenance": 13424,
  "tens": 20955,
  "tenstein": 22051,
  "ter": 356,
  "terbury": 17367,
  "terday": 11891,
  "tered": 6410,
  "tering": 6191,
  "terly": 21319,
  "term": 3422,
  "tern": 1147,
  "ternal": 5915,
  "terrell": 16071,
  "terrified": 29600,
  "terror": 6300,
  "terrorism": 11615,
  "ters": 3847,
  "tery": 14005,
  "tes": 7922,
  "test": 28648,
  "testing": 24041,
  "tfordshire": 20958,
  "th": 414,
  "than": 9390,
  "that": 13068,
  "the": 2003,
  "thed": 24032,
  "theless": 10224,
  "themed": 25700,
  "then": 7923,
  "ther": 533,
  "there": 17858,
  "they": 12709,
  "thia": 21501,
  "thing": 1643,
  "think": 8668,
  "thinking": 26727,
  "thiop": 7784,
  "third": 17472,
  "thirds": 10122,
  "this": 21500,
  "thlet": 5401,
  "thletes": 22667,
  "thletics": 5947,
  "thony": 8669,
  "thora": 24764,
  "thorpe": 11940,
  "though": 1523,
  "thought": 24763,
  "threat": 14074,
  "threatening": 18472,
  "three": 19210,
  "through": 5475,
  "throwing": 17473,
  "thur": 11939,
  "thy": 12545,
  "ti": 1451,
  "tic": 5049,
  "tical": 28653,
  "tically": 17150,
  "tick": 14802,
  "ticking": 24040,
  "tics": 24033,
  "tier": 24035,
  "ties": 3096,
  "tight": 20953,
  "tim": 18786,
  "time": 2175,
  "times": 24036,
  "tin": 28643,
  "ting": 850,
  "tingham": 10947,
  "tipped": 25530,
  "tit": 28644,
  "titled": 11235,
  "tl": 28642,
  "tle": 13864,
  "tner": 28655,
  "to": 1535,
  "together": 10769,
  "toire": 22060,
  "ton": 1252,
  "too": 13427,
  "took": 18789,
  "top": 2313,
  "topper": 17896,
  "toppers": 25799,
  "topping": 14332,
  "tor": 10768,
  "torn": 28657,
  "tort": 28649,
  "tot": 11778,
  "total": 24039,
  "totally": 15710,
  "toting": 23090,
  "tou": 24029,
  "touchy": 27650,
  "toug": 28661,
  "tough": 13868,
  "tour": 28650,
  "town": 20954,
  "tr": 4061,
  "tra": 11779,
  "track": 7311,
  "tracked": 26585,
  "trackers": 26586,
  "trading": 26127,
  "traditional": 22539,
  "train": 22538,
  "trained": 26126,
  "tran": 20956,
  "travel": 18393,
  "trem": 20957,
  "tremendous": 27487,
  "tress": 28652,
  "trial": 24037,
  "tribes": 28660,
  "trick": 16621,
  "tries": 24034,
  "trip": 24038,
  "tru": 24031,
  "true": 26125,
  "trust": 19904,
  "trusted": 26128,
  "try": 13865,
  "trying": 27125,
  "ts": 830,
  "tseva": 20960,
  "tshire": 25215,
  "tskog": 25216,
  "tt": 7516,
  "ttelton": 26604,
  "tter": 13067,
  "tucker": 20959,
  "tun": 18787,
  "tunnel": 23405,
  "tur": 28647,
  "turn": 8146,
  "turned": 22874,
  "turns": 22873,
  "tv": 15909,
  "tw": 20951,
  "twe": 28654,
  "two": 13867,
  "ty": 949,
  "type": 15176,
  "tz": 13863,
  "u": 89,
  "ua": 8861,
  "uable": 9392,
  "uaka": 17154,
  "ual": 1011,
  "ually": 1536,
  "uals": 5050,
  "uan": 5457,
  "uana": 26342,
  "uar": 10770,
  "uaral": 20310,
  "uard": 8608,
  "uards": 13070,
  "uart": 7358,
  "uary": 24043,
  "uate": 9090,
  "uated": 11783,
  "uates": 18792,
  "uating": 17153,
  "uation": 2489,
  "uations": 9391,
  "uay": 13870,
  "ub": 553,
  "ubb": 24987,
  "ubbs": 24988,
  "ube": 10921,
  "uber": 14803,
  "uberculosis": 27184,
  "ubic": 9486,
  "ubishi": 8213,
  "ubl": 754,
  "ublic": 3249,
  "ublin": 5272,
  "ubs": 4195,
  "ubsc": 19325,
  "ubstant": 13304,
  "uc": 1390,
  "uca": 25508,
  "ucated": 25509,
  "uccess": 7924,
  "uce": 28664,
  "uced": 28667,
  "uch": 842,
  "uchy": 16307,
  "uck": 2848,
  "ucker": 13515,
  "ucks": 16392,
  "ucky": 16546,
  "uclear": 5022,
  "uct": 7203,
  "uction": 3527,
  "ud": 455,
  "uda": 24865,
  "udd": 4072,
  "udden": 5899,
  "uddenly": 14487,
  "uddock": 5701,
  "ude": 2883,
  "uded": 19257,
  "udes": 10484,
  "udge": 5898,
  "udget": 1578,
  "udic": 12569,
  "udicini": 13754,
  "uding": 24866,
  "udjohn": 9471,
  "udjohnsen": 9668,
  "udos": 24867,
  "udrow": 21570,
  "udrue": 24868,
  "udsman": 21571,
  "ue": 562,
  "ued": 1403,
  "ueen": 4527,
  "uel": 2545,
  "uelling": 17568,
  "uels": 15911,
  "uendo": 28670,
  "ueno": 17156,
  "uer": 15910,
  "uers": 24042,
  "ues": 843,
  "uesday": 1942,
  "uese": 15162,
  "uet": 4347,
  "ueto": 5309,
  "uetooth": 9624,
  "uf": 2441,
  "ufact": 2610,
  "uff": 2676,
  "uffed": 14354,
  "ufficient": 19776,
  "uffle": 14355,
  "uffy": 16526,
  "ug": 933,
  "ugansk": 3311,
  "ugby": 1995,
  "uge": 1512,
  "ugee": 22048,
  "ugeot": 15255,
  "ugg": 6337,
  "uggish": 9053,
  "ugh": 1713,
  "ughan": 13369,
  "ught": 6015,
  "ugini": 16323,
  "ugnot": 17681,
  "uham": 28668,
  "ui": 11781,
  "uild": 4182,
  "uilding": 11074,
  "uine": 4748,
  "uing": 2663,
  "uire": 10032,
  "uis": 8364,
  "uit": 3357,
  "uitable": 26013,
  "uitarist": 22440,
  "uition": 9091,
  "uitive": 28669,
  "uitous": 22439,
  "uits": 7204,
  "uitt": 28666,
  "uity": 18791,
  "uj": 11236,
  "uk": 1692,
  "uka": 22107,
  "uke": 10031,
  "uket": 22108,
  "uki": 17825,
  "ukos": 2089,
  "ul": 400,
  "ula": 7074,
  "ulance": 24676,
  "ulant": 21434,
  "ular": 1006,
  "ulate": 5201,
  "ulated": 6308,
  "ulates": 15006,
  "ulating": 6309,
  "ulation": 1972,
  "ulations": 11923,
  "ulative": 29850,
  "ulator": 15007,
  "ulators": 29852,
  "ulatory": 29853,
  "ulberg": 29854,
  "ulcan": 29855,
  "ulco": 29851,
  "uld": 20962,
  "ule": 17151,
  "uled": 5200,
  "ulent": 11347,
  "ulently": 24677,
  "ules": 11346,
  "uley": 11784,
  "ulf": 14044,
  "ulge": 29849,
  "ulging": 19159,
  "ulham": 8662,
  "ulia": 21435,
  "ulic": 29848,
  "uling": 13251,
  "ulip": 19158,
  "ulist": 24675,
  "ull": 1021,
  "ulled": 19495,
  "ullivan": 3768,
  "ulls": 10957,
  "ulner": 5072,
  "ulous": 7976,
  "ulously": 24678,
  "ulp": 21433,
  "ulpt": 19157,
  "uls": 5327,
  "ult": 622,
  "ultaneously": 10928,
  "ulthorpe": 14045,
  "ulting": 19349,
  "ults": 4043,
  "ultural": 8219,
  "ulture": 5569,
  "ulu": 16118,
  "ulum": 16119,
  "uly": 2944,
  "um": 421,
  "umacher": 24773,
  "uman": 1940,
  "umas": 17485,
  "umb": 3102,
  "umbai": 12761,
  "umbent": 16563,
  "umber": 6201,
  "umbered": 26444,
  "umbers": 16168,
  "umbia": 10625,
  "umble": 15037,
  "umbled": 8303,
  "umbling": 17958,
  "umbo": 22391,
  "umbs": 19218,
  "ume": 3980,
  "umed": 19217,
  "umental": 17155,
  "umer": 4302,
  "umers": 7234,
  "umes": 11943,
  "umi": 16166,
  "umin": 24772,
  "uming": 14080,
  "ummy": 19219,
  "umn": 4997,
  "ump": 1893,
  "umped": 16451,
  "umper": 10123,
  "umph": 4998,
  "umping": 16452,
  "umption": 17486,
  "ums": 16167,
  "umsy": 21512,
  "un": 367,
  "unab": 29636,
  "unacceptable": 19071,
  "unami": 29639,
  "unas": 14010,
  "unately": 19069,
  "unch": 7549,
  "unching": 21341,
  "unciation": 29643,
  "unct": 24567,
  "unction": 6780,
  "und": 556,
  "undai": 19328,
  "undee": 11983,
  "under": 786,
  "undering": 12629,
  "underland": 9216,
  "unders": 19327,
  "understand": 21814,
  "understood": 13352,
  "undling": 15095,
  "undred": 4309,
  "undreds": 5039,
  "une": 2212,
  "unes": 3731,
  "unesh": 26081,
  "unet": 14970,
  "unez": 19723,
  "unfair": 16078,
  "ung": 3100,
  "unga": 22388,
  "ungberg": 14378,
  "ungie": 22389,
  "ungle": 12167,
  "unho": 29638,
  "uni": 24565,
  "unior": 8901,
  "unisation": 21340,
  "unit": 24566,
  "united": 21338,
  "unities": 29637,
  "unity": 1695,
  "unjust": 19070,
  "unjustified": 23425,
  "unk": 2078,
  "unkett": 3158,
  "unlike": 17375,
  "unlikely": 20567,
  "unning": 4607,
  "unrec": 29640,
  "unremittingly": 29642,
  "uns": 29635,
  "unt": 3361,
  "unte": 14011,
  "unted": 21339,
  "unter": 17374,
  "unthorpe": 29641,
  "unting": 10451,
  "untled": 26014,
  "uo": 20961,
  "uod": 17152,
  "uosity": 28672,
  "uous": 11782,
  "uously": 18794,
  "up": 401,
  "uper": 8917,
  "upid": 13252,
  "upils": 16120,
  "upon": 29856,
  "ups": 8916,
  "upta": 19160,
  "ur": 344,
  "ura": 9132,
  "urable": 29492,
  "urably": 21288,
  "urai": 29495,
  "ural": 3378,
  "urance": 10440,
  "urances": 13188,
  "urate": 12483,
  "urban": 10846,
  "urch": 5323,
  "urd": 19026,
  "ure": 518,
  "urea": 6675,
  "ured": 1832,
  "urely": 10492,
  "urer": 7760,
  "urers": 4801,
  "ures": 855,
  "uresmo": 12030,
  "urex": 21620,
  "urich": 10845,
  "uries": 4874,
  "uring": 918,
  "urised": 29493,
  "uristic": 24492,
  "urities": 4517,
  "urity": 1405,
  "urk": 14945,
  "urlock": 13189,
  "urn": 709,
  "urney": 29494,
  "urning": 3341,
  "uro": 624,
  "urolog": 21709,
  "urone": 5638,
  "uronext": 5949,
  "urous": 29491,
  "urprisingly": 29496,
  "urred": 7542,
  "urri": 24491,
  "urry": 12484,
  "urs": 1599,
  "urse": 10844,
  "ursor": 17808,
  "urt": 3082,
  "urther": 1641,
  "ury": 1097,
  "us": 338,
  "usan": 19012,
  "usch": 13981,
  "uscled": 29455,
  "uscript": 29454,
  "use": 698,
  "used": 1221,
  "usedski": 6694,
  "usen": 11881,
  "user": 19011,
  "users": 29452,
  "uses": 4386,
  "usetts": 19014,
  "useum": 7809,
  "ush": 1492,
  "usha": 29451,
  "ushed": 7540,
  "ushes": 19013,
  "ushing": 10088,
  "ushita": 17780,
  "ushotma": 14260,
  "ushy": 16410,
  "usi": 6651,
  "usic": 714,
  "usiness": 7541,
  "using": 3889,
  "usion": 5886,
  "usions": 16037,
  "usiter": 13183,
  "usive": 10437,
  "usk": 21268,
  "uski": 24468,
  "uso": 19009,
  "usory": 29453,
  "uss": 1047,
  "ussell": 9130,
  "ussels": 7221,
  "ussia": 11438,
  "ussions": 21900,
  "ust": 446,
  "ustain": 14099,
  "ustainable": 15766,
  "usted": 7399,
  "ustice": 24847,
  "usting": 24846,
  "ustody": 9782,
  "ustom": 1784,
  "ustomers": 19665,
  "usu": 19010,
  "usually": 24467,
  "usuf": 21269,
  "ut": 313,
  "uta": 29201,
  "utaragi": 29204,
  "utch": 3753,
  "utches": 24356,
  "ute": 1243,
  "uted": 9112,
  "utenant": 18936,
  "uter": 18935,
  "uters": 3972,
  "utes": 1775,
  "uth": 4987,
  "uthan": 13151,
  "uthanasia": 13763,
  "uther": 17288,
  "uti": 17287,
  "uties": 8165,
  "utin": 7948,
  "ution": 1232,
  "utions": 4796,
  "utious": 7746,
  "utnev": 29203,
  "uton": 14899,
  "utory": 13956,
  "uts": 8384,
  "utsche": 3036,
  "utsumi": 20218,
  "utt": 7947,
  "utter": 13150,
  "uttered": 29202,
  "uttering": 14900,
  "utting": 17289,
  "utton": 8626,
  "utu": 7372,
  "uture": 24355,
  "uty": 2426,
  "uum": 28665,
  "uv": 8363,
  "uver": 28663,
  "uw": 10030,
  "ux": 3097,
  "uxe": 25959,
  "uxhall": 16562,
  "uxury": 7661,
  "uyn": 18793,
  "uyo": 28671,
  "uz": 5873,
  "uzion": 14483,
  "uznetsova": 8329,
  "uzz": 11237,
  "v": 90,
  "va": 3848,
  "vable": 17162,
  "vac": 28677,
  "vador": 24051,
  "vag": 20964,
  "vail": 17161,
  "vain": 17159,
  "val": 3027,
  "vals": 10033,
  "valued": 22374,
  "van": 5534,
  "vance": 24044,
  "vant": 6171,
  "vantage": 18800,
  "vantaged": 12863,
  "var": 28674,
  "vard": 9697,
  "varez": 24052,
  "vas": 28676,
  "vath": 24047,
  "vation": 13871,
  "vchenko": 18801,
  "vd": 28673,
  "ve": 307,
  "ved": 826,
  "veiling": 24321,
  "vel": 692,
  "veland": 29143,
  "velength": 25129,
  "vell": 17271,
  "velling": 29144,
  "vellous": 20557,
  "velop": 1036,
  "veloped": 19498,
  "veloping": 25331,
  "velt": 13331,
  "ven": 654,
  "vency": 25097,
  "vene": 25095,
  "venge": 25096,
  "venport": 5487,
  "vens": 13872,
  "vent": 961,
  "vented": 25288,
  "vention": 4317,
  "ventions": 19473,
  "ventry": 25289,
  "vents": 25287,
  "venture": 19472,
  "ventures": 25290,
  "ventus": 14201,
  "venue": 14151,
  "venues": 17607,
  "ver": 335,
  "verage": 2367,
  "veral": 24455,
  "vere": 9739,
  "vergence": 29431,
  "vern": 636,
  "vernment": 4717,
  "verns": 25087,
  "verpool": 2370,
  "vers": 769,
  "verse": 5060,
  "versible": 25192,
  "version": 25191,
  "vert": 2690,
  "vertently": 14356,
  "vertible": 25876,
  "verting": 24456,
  "verton": 14935,
  "verts": 6650,
  "verty": 4004,
  "very": 573,
  "ves": 987,
  "vesen": 16333,
  "vest": 4183,
  "vester": 25307,
  "vet": 8624,
  "veta": 26718,
  "veted": 17273,
  "veter": 24320,
  "vey": 9412,
  "veyors": 26803,
  "veys": 17272,
  "vez": 8162,
  "vi": 752,
  "via": 11785,
  "vial": 14804,
  "viata": 21805,
  "viation": 9213,
  "vic": 28675,
  "vict": 24045,
  "vide": 20965,
  "video": 24048,
  "viet": 10944,
  "view": 1626,
  "vik": 16288,
  "vili": 8365,
  "ville": 10772,
  "vin": 8609,
  "vind": 17163,
  "vine": 17160,
  "ving": 979,
  "vio": 16289,
  "violence": 21806,
  "viour": 4444,
  "vious": 1238,
  "viously": 6560,
  "vir": 17157,
  "viron": 2677,
  "vironment": 2801,
  "virt": 24049,
  "virus": 4696,
  "vis": 3242,
  "visano": 17977,
  "vise": 24046,
  "vised": 15912,
  "vision": 2135,
  "visional": 25752,
  "viso": 19836,
  "vital": 28680,
  "vity": 18797,
  "vo": 10771,
  "voice": 20966,
  "vol": 17158,
  "von": 18795,
  "vone": 28678,
  "vor": 7517,
  "vot": 20963,
  "vote": 18799,
  "voter": 27488,
  "vous": 28679,
  "voy": 18798,
  "vrash": 28681,
  "vre": 18796,
  "vy": 6060,
  "vyan": 24050,
  "w": 91,
  "wC": 24053,
  "wa": 10034,
  "wage": 28688,
  "wagen": 17171,
  "wagon": 24060,
  "wait": 28695,
  "wal": 24056,
  "wala": 28697,
  "wale": 28689,
  "walk": 28693,
  "walker": 24062,
  "wall": 6631,
  "walls": 17169,
  "waly": 20972,
  "walya": 23500,
  "wan": 4920,
  "wanted": 28694,
  "war": 5805,
  "ward": 644,
  "wardrobe": 19367,
  "wards": 1038,
  "ware": 945,
  "warm": 14480,
  "wart": 7518,
  "warts": 18211,
  "warya": 28702,
  "was": 11238,
  "waste": 17170,
  "wasteful": 27311,
  "wat": 28684,
  "wata": 28691,
  "watch": 11241,
  "watched": 24061,
  "watching": 26946,
  "water": 17166,
  "watra": 28700,
  "wave": 17165,
  "waves": 24059,
  "way": 1163,
  "ways": 1581,
  "wd": 28682,
  "we": 860,
  "wealth": 12636,
  "wear": 14806,
  "week": 9510,
  "ween": 1002,
  "weeney": 10955,
  "weet": 15164,
  "weger": 19440,
  "weight": 14185,
  "wel": 7035,
  "well": 4421,
  "wellty": 26185,
  "welve": 11640,
  "wen": 3884,
  "went": 11239,
  "wentieth": 23072,
  "wer": 24055,
  "wered": 28692,
  "werty": 18803,
  "wess": 28685,
  "west": 5249,
  "wh": 13071,
  "what": 15913,
  "whe": 20969,
  "whel": 6062,
  "when": 28690,
  "where": 3849,
  "which": 16910,
  "while": 2556,
  "white": 27066,
  "who": 15914,
  "why": 28698,
  "wi": 20967,
  "wich": 5535,
  "wick": 4465,
  "wid": 7728,
  "wide": 2990,
  "width": 8124,
  "wift": 17168,
  "wild": 10773,
  "will": 9698,
  "wimmer": 28699,
  "win": 3010,
  "wind": 11786,
  "wing": 14805,
  "wings": 24057,
  "winner": 19814,
  "winning": 5432,
  "winter": 25935,
  "wire": 28686,
  "wise": 6061,
  "wish": 28687,
  "with": 9092,
  "within": 26771,
  "witz": 13074,
  "wives": 11240,
  "wkish": 28701,
  "wn": 819,
  "wo": 587,
  "woks": 28696,
  "woman": 3821,
  "women": 24058,
  "won": 12397,
  "wood": 1786,
  "woody": 25016,
  "wor": 28683,
  "word": 13073,
  "words": 8863,
  "work": 5112,
  "worked": 26290,
  "working": 15512,
  "works": 8862,
  "world": 10774,
  "wort": 20971,
  "worth": 7925,
  "worths": 26637,
  "wot": 17164,
  "would": 13072,
  "wow": 20970,
  "wr": 20968,
  "wracking": 24063,
  "wright": 13875,
  "writ": 5181,
  "write": 16678,
  "writer": 9619,
  "writers": 22651,
  "writing": 13596,
  "written": 14459,
  "wrong": 13874,
  "wrongful": 23190,
  "wrote": 18802,
  "ww": 24054,
  "wy": 13873,
  "wyd": 18459,
  "wyn": 17167,
  "x": 92,
  "xa": 11787,
  "xal": 28703,
  "xham": 20974,
  "xic": 20973,
  "xide": 28704,
  "ximately": 18805,
  "xis": 24064,
  "xon": 14807,
  "xophone": 28705,
  "xt": 690,
  "xton": 7595,
  "xual": 18804,
  "xuality": 23406,
  "xus": 24065,
  "xx": 8864,
  "xxx": 26736,
  "y": 93,
  "ya": 6888,
  "yal": 11242,
  "yan": 4749,
  "yanga": 14809,
  "yap": 28708,
  "yard": 10775,
  "yaz": 28710,
  "yc": 3638,
  "ych": 24066,
  "ychell": 15435,
  "ychelles": 15787,
  "ycle": 9592,
  "ycos": 7158,
  "yden": 20978,
  "yder": 20979,
  "ye": 11788,
  "year": 1153,
  "yel": 20976,
  "yer": 3028,
  "yers": 4466,
  "yes": 9699,
  "yff": 18806,
  "ying": 2333,
  "yke": 28707,
  "yl": 2716,
  "yle": 3330,
  "yles": 11243,
  "ylish": 28711,
  "ylock": 25880,
  "ylum": 3326,
  "ym": 15915,
  "yman": 12398,
  "ymm": 15916,
  "ymmetric": 20502,
  "yn": 3072,
  "ynam": 11050,
  "ynthia": 22379,
  "yo": 8865,
  "yob": 28709,
  "yon": 17172,
  "yonce": 18807,
  "yond": 3528,
  "you": 17173,
  "your": 24067,
  "yp": 14808,
  "ypia": 23236,
  "ys": 1341,
  "ysically": 25494,
  "yst": 722,
  "ystem": 1007,
  "ystems": 21891,
  "yth": 4865,
  "ythe": 20977,
  "ytop": 13075,
  "ytopharm": 13762,
  "yu": 20975,
  "yun": 13876,
  "yware": 3785,
  "yx": 28706,
  "z": 94,
  "za": 5536,
  "zab": 13877,
  "zac": 17175,
  "zal": 18810,
  "zale": 28718,
  "zaran": 28722,
  "zard": 18811,
  "ze": 1263,
  "zealous": 25438,
  "zebon": 19554,
  "zech": 6958,
  "zek": 10035,
  "zel": 28714,
  "zem": 28715,
  "zen": 6172,
  "zenegger": 26438,
  "zens": 12400,
  "zer": 9700,
  "zero": 28720,
  "zes": 5537,
  "zhan": 28717,
  "zheimer": 18812,
  "zhn": 20981,
  "zi": 18808,
  "zie": 10776,
  "ziers": 24069,
  "zies": 12399,
  "zig": 20980,
  "zilla": 8147,
  "ziness": 28719,
  "zing": 17174,
  "zink": 28716,
  "zle": 28713,
  "zlin": 24068,
  "zman": 11244,
  "zo": 18809,
  "zon": 28712,
  "zona": 28721,
  "zone": 7036,
  "zuel": 6277,
  "zy": 7729,
  "zyk": 22844,
  "zz": 3673,
  "zza": 18017,
  "zzel": 18018,
  "zzlement": 22497,
  "zzy": 12177,
  "{": 95,
  "|": 96,
  "}": 97,
  "~": 98,
  "¡": 99,
  "¢": 100,
  "£": 101,
  "¤": 102,
  "¥": 103,
  "¦": 104,
  "§": 105,
  "¨": 106,
  "©": 107,
  "ª": 108,
  "«": 109,
  "¬": 110,
  "®": 111,
  "¯": 112,
  "°": 113,
  "±": 114,
  "²": 115,
  "³": 116,
  "´": 117,
  "µ": 118,
  "¶": 119,
  "·": 120,
  "¸": 121,
  "¹": 122,
  "º": 123,
  "»": 124,
  "¼": 125,
  "½": 126,
  "¾": 127,
  "¿": 128,
  "À": 129,
  "Á": 130,
  "Â": 131,
  "Â£": 608,
  "Ã": 132,
  "Ä": 133,
  "Å": 134,
  "Æ": 135,
  "Ç": 136,
  "È": 137,
  "É": 138,
  "Ê": 139,
  "Ë": 140,
  "Ì": 141,
  "Í": 142,
  "Î": 143,
  "Ï": 144,
  "Ð": 145,
  "Ñ": 146,
  "Ò": 147,
  "Ó": 148,
  "Ô": 149,
  "Õ": 150,
  "Ö": 151,
  "×": 152,
  "Ø": 153,
  "Ù": 154,
  "Ú": 155,
  "Û": 156,
  "Ü": 157,
  "Ý": 158,
  "Þ": 159,
  "ß": 160,
  "à": 161,
  "á": 162,
  "â": 163,
  "ã": 164,
  "ä": 165,
  "å": 166,
  "æ": 167,
  "ç": 168,
  "è": 169,
  "é": 170,
  "ê": 171,
  "ë": 172,
  "ì": 173,
  "í": 174,
  "î": 175,
  "ï": 176,
  "ð": 177,
  "ñ": 178,
  "ò": 179,
  "ó": 180,
  "ô": 181,
  "õ": 182,
  "ö": 183,
  "÷": 184,
  "ø": 185,
  "ù": 186,
  "ú": 187,
  "û": 188,
  "ü": 189,
  "ý": 190,
  "þ": 191,
  "ÿ": 192,
  "Ā": 193,
  "ā": 194,
  "Ă": 195,
  "ă": 196,
  "Ą": 197,
  "ą": 198,
  "Ć": 199,
  "ć": 200,
  "Ĉ": 201,
  "ĉ": 202,
  "Ċ": 203,
  "ĊĊ": 3639,
  "ĊĊĊ": 6596,
  "ċ": 204,
  "Č": 205,
  "č": 206,
  "Ď": 207,
  "ď": 208,
  "Đ": 209,
  "đ": 210,
  "Ē": 211,
  "ē": 212,
  "Ĕ": 213,
  "ĕ": 214,
  "Ė": 215,
  "ė": 216,
  "Ę": 217,
  "ę": 218,
  "Ě": 219,
  "ě": 220,
  "Ĝ": 221,
  "ĝ": 222,
  "Ğ": 223,
  "ğ": 224,
  "Ġ": 225,
  "Ġ!": 24070,
  "Ġ\"": 318,
  "Ġ\"'": 21217,
  "Ġ\"[": 13967,
  "Ġ$": 699,
  "Ġ&": 3073,
  "Ġ'": 982,
  "Ġ''": 12646,
  "Ġ(": 505,
  "Ġ($": 2566,
  "Ġ(Â£": 1210,
  "Ġ).": 28726,
  "Ġ,": 11245,
  "Ġ-": 444,
  "Ġ--": 11954,
  "Ġ.": 4507,
  "Ġ...": 8148,
  "Ġ/": 14810,
  "Ġ0": 2229,
  "Ġ00": 18813,
  "Ġ000": 24075,
  "Ġ007": 20607,
  "Ġ06": 17885,
  "Ġ0800": 25774,
  "Ġ0900": 25775,
  "Ġ1": 411,
  "Ġ10": 1001,
  "Ġ100": 1992,
  "Ġ1000": 21499,
  "Ġ101": 15182,
  "Ġ102": 12043,
  "Ġ104": 12647,
  "Ġ105": 19486,
  "Ġ106": 21889,
  "Ġ11": 1727,
  "Ġ110": 10216,
  "Ġ112": 22128,
  "Ġ113": 19658,
  "Ġ1130": 25624,
  "Ġ115": 22129,
  "Ġ117": 22130,
  "Ġ12": 1471,
  "Ġ120": 7626,
  "Ġ1200": 17779,
  "Ġ1230": 25537,
  "Ġ125": 19602,
  "Ġ127": 25536,
  "Ġ128": 22039,
  "Ġ13": 2449,
  "Ġ130": 16503,
  "Ġ133": 19750,
  "Ġ134": 25831,
  "Ġ136": 25832,
  "Ġ14": 2316,
  "Ġ140": 13491,
  "Ġ144": 22257,
  "Ġ146": 25800,
  "Ġ15": 1844,
  "Ġ150": 7080,
  "Ġ1500": 6570,
  "Ġ151": 22147,
  "Ġ157": 22148,
  "Ġ158": 25659,
  "Ġ16": 2266,
  "Ġ160": 17890,
  "Ġ162": 22245,
  "Ġ167": 17891,
  "Ġ17": 2289,
  "Ġ170": 19736,
  "Ġ1700": 25786,
  "Ġ178": 22251,
  "Ġ18": 1806,
  "Ġ180": 15302,
  "Ġ1800": 25650,
  "Ġ1830": 25651,
  "Ġ185": 25648,
  "Ġ187": 25649,
  "Ġ19": 684,
  "Ġ190": 15134,
  "Ġ1900": 17616,
  "Ġ1920": 21752,
  "Ġ1930": 15135,
  "Ġ1934": 25123,
  "Ġ1935": 21753,
  "Ġ1938": 25121,
  "Ġ1940": 17617,
  "Ġ1941": 25122,
  "Ġ1942": 21754,
  "Ġ1945": 15136,
  "Ġ1946": 21755,
  "Ġ1947": 19381,
  "Ġ1948": 12006,
  "Ġ1949": 25124,
  "Ġ195": 6551,
  "Ġ1950": 10935,
  "Ġ1952": 26484,
  "Ġ1953": 22772,
  "Ġ1954": 26485,
  "Ġ1955": 26486,
  "Ġ1956": 15571,
  "Ġ1957": 20124,
  "Ġ1958": 26487,
  "Ġ196": 4890,
  "Ġ1960": 7594,
  "Ġ1962": 26259,
  "Ġ1963": 22614,
  "Ġ1964": 15497,
  "Ġ1965": 14447,
  "Ġ1966": 26260,
  "Ġ1967": 19984,
  "Ġ1968": 19985,
  "Ġ1969": 11590,
  "Ġ197": 2871,
  "Ġ1970": 6130,
  "Ġ1971": 15388,
  "Ġ1972": 22350,
  "Ġ1973": 10619,
  "Ġ1974": 11534,
  "Ġ1975": 22351,
  "Ġ1976": 14369,
  "Ġ1977": 14370,
  "Ġ1978": 13518,
  "Ġ1979": 11535,
  "Ġ198": 1974,
  "Ġ1980": 4405,
  "Ġ1981": 10590,
  "Ġ1982": 11018,
  "Ġ1983": 9552,
  "Ġ1984": 9259,
  "Ġ1985": 8044,
  "Ġ1986": 12105,
  "Ġ1987": 8494,
  "Ġ1988": 14304,
  "Ġ1989": 9553,
  "Ġ199": 1234,
  "Ġ1990": 4952,
  "Ġ1991": 9522,
  "Ġ1992": 8723,
  "Ġ1993": 6695,
  "Ġ1994": 5020,
  "Ġ1995": 8021,
  "Ġ1996": 9523,
  "Ġ1997": 3861,
  "Ġ1998": 4628,
  "Ġ1999": 4272,
  "Ġ2": 409,
  "Ġ20": 1284,
  "Ġ200": 501,
  "Ġ2000": 2681,
  "Ġ2001": 2163,
  "Ġ2002": 2437,
  "Ġ2003": 1281,
  "Ġ2004": 957,
  "Ġ2005": 1202,
  "Ġ2006": 2719,
  "Ġ2007": 5334,
  "Ġ2008": 5565,
  "Ġ2009": 8937,
  "Ġ2010": 5917,
  "Ġ2011": 14237,
  "Ġ2012": 10979,
  "Ġ2014": 21983,
  "Ġ2015": 13403,
  "Ġ2020": 19561,
  "Ġ2025": 21982,
  "Ġ2050": 25464,
  "Ġ21": 3538,
  "Ġ2100": 26048,
  "Ġ211": 24759,
  "Ġ22": 2898,
  "Ġ220": 29995,
  "Ġ2200": 22355,
  "Ġ225": 22354,
  "Ġ23": 3979,
  "Ġ230": 19206,
  "Ġ2300": 26113,
  "Ġ24": 2655,
  "Ġ25": 1990,
  "Ġ250": 7782,
  "Ġ26": 4041,
  "Ġ260": 24760,
  "Ġ27": 3399,
  "Ġ270": 17985,
  "Ġ28": 3760,
  "Ġ29": 4944,
  "Ġ3": 679,
  "Ġ30": 1846,
  "Ġ300": 5013,
  "Ġ3000": 12005,
  "Ġ31": 4313,
  "Ġ310": 25114,
  "Ġ32": 5659,
  "Ġ33": 7593,
  "Ġ337": 25115,
  "Ġ34": 5012,
  "Ġ35": 5337,
  "Ġ350": 13328,
  "Ġ36": 5143,
  "Ġ360": 21746,
  "Ġ365": 22644,
  "Ġ37": 7100,
  "Ġ38": 8222,
  "Ġ39": 8696,
  "Ġ4": 802,
  "Ġ40": 2428,
  "Ġ400": 4767,
  "Ġ404": 17902,
  "Ġ41": 10162,
  "Ġ42": 7815,
  "Ġ420": 21824,
  "Ġ43": 7255,
  "Ġ44": 7419,
  "Ġ440": 19422,
  "Ġ45": 4077,
  "Ġ46": 8706,
  "Ġ47": 6944,
  "Ġ474": 26541,
  "Ġ48": 7601,
  "Ġ49": 8449,
  "Ġ5": 882,
  "Ġ50": 2033,
  "Ġ500": 5911,
  "Ġ5000": 21856,
  "Ġ51": 9512,
  "Ġ512": 12035,
  "Ġ52": 8452,
  "Ġ53": 8708,
  "Ġ530": 25249,
  "Ġ54": 9513,
  "Ġ55": 8709,
  "Ġ56": 8241,
  "Ġ57": 8959,
  "Ġ58": 13364,
  "Ġ59": 10543,
  "Ġ6": 880,
  "Ġ60": 2669,
  "Ġ600": 10542,
  "Ġ61": 12638,
  "Ġ62": 8005,
  "Ġ625": 25248,
  "Ġ63": 12034,
  "Ġ64": 7605,
  "Ġ65": 5493,
  "Ġ659": 22672,
  "Ġ66": 10951,
  "Ġ67": 14188,
  "Ġ68": 10541,
  "Ġ69": 13363,
  "Ġ7": 1113,
  "Ġ70": 3658,
  "Ġ700": 12055,
  "Ġ71": 14215,
  "Ġ717": 25370,
  "Ġ72": 9839,
  "Ġ73": 14216,
  "Ġ737": 25371,
  "Ġ74": 10187,
  "Ġ75": 8014,
  "Ġ750": 17710,
  "Ġ76": 12054,
  "Ġ7610": 20376,
  "Ġ77": 6813,
  "Ġ777": 12877,
  "Ġ78": 16353,
  "Ġ79": 10965,
  "Ġ8": 1318,
  "Ġ80": 3771,
  "Ġ800": 4576,
  "Ġ81": 14245,
  "Ġ82": 13410,
  "Ġ83": 11465,
  "Ġ84": 10566,
  "Ġ85": 8264,
  "Ġ86": 15237,
  "Ġ87": 8977,
  "Ġ88": 21991,
  "Ġ89": 25482,
  "Ġ9": 1572,
  "Ġ90": 4541,
  "Ġ900": 19626,
  "Ġ91": 15264,
  "Ġ92": 12089,
  "Ġ93": 16420,
  "Ġ94": 17804,
  "Ġ95": 8485,
  "Ġ96": 22069,
  "Ġ97": 15265,
  "Ġ98": 13430,
  "Ġ99": 17805,
  "Ġ999": 25573,
  "Ġ:": 24071,
  "Ġ?": 14811,
  "ĠA": 340,
  "ĠAA": 9740,
  "ĠAAA": 13186,
  "ĠAAAs": 11689,
  "ĠAAC": 21279,
  "ĠABC": 9131,
  "ĠABN": 11883,
  "ĠAC": 6524,
  "ĠADB": 17341,
  "ĠADS": 14943,
  "ĠADSL": 16950,
  "ĠAEFA": 29477,
  "ĠAF": 14938,
  "ĠAFI": 20472,
  "ĠAFP": 27194,
  "ĠAG": 21270,
  "ĠAGM": 24480,
  "ĠAI": 16038,
  "ĠAK": 14939,
  "ĠAL": 24472,
  "ĠAM": 12475,
  "ĠAMD": 24481,
  "ĠAMF": 19018,
  "ĠAMR": 16899,
  "ĠAMRO": 27302,
  "ĠAN": 13184,
  "ĠAND": 16914,
  "ĠANY": 27082,
  "ĠAOL": 7061,
  "ĠAP": 14940,
  "ĠAR": 29460,
  "ĠARU": 24482,
  "ĠAS": 16039,
  "ĠAT": 5637,
  "ĠATMs": 22683,
  "ĠATP": 10676,
  "ĠATR": 18129,
  "ĠAV": 29461,
  "ĠAWOL": 21281,
  "ĠAZ": 29462,
  "ĠAaliyah": 24484,
  "ĠAaron": 21280,
  "ĠAb": 3169,
  "ĠAbb": 7153,
  "ĠAbba": 14385,
  "ĠAbbas": 9645,
  "ĠAbbasi": 15664,
  "ĠAbbott": 12892,
  "ĠAbd": 25978,
  "ĠAbdull": 25980,
  "ĠAber": 13983,
  "ĠAberdeen": 16929,
  "ĠAbeyie": 29475,
  "ĠAbout": 5849,
  "ĠAbraham": 25979,
  "ĠAbramovich": 22400,
  "ĠAbs": 12476,
  "ĠAbsa": 14662,
  "ĠAbur": 29470,
  "ĠAc": 3396,
  "ĠAcademy": 3814,
  "ĠAcc": 13984,
  "ĠAccess": 13185,
  "ĠAccording": 3617,
  "ĠAccounts": 27139,
  "ĠAceh": 12480,
  "ĠAch": 16040,
  "ĠAchilles": 20511,
  "ĠAcross": 19846,
  "ĠAct": 3647,
  "ĠAction": 16043,
  "ĠActiv": 19875,
  "ĠActor": 19015,
  "ĠActors": 12478,
  "ĠActress": 22492,
  "ĠAd": 2209,
  "ĠAdam": 7452,
  "ĠAdams": 10233,
  "ĠAdarsh": 25769,
  "ĠAdd": 9883,
  "ĠAddicks": 22997,
  "ĠAddison": 26838,
  "ĠAdela": 15332,
  "ĠAdelaide": 15786,
  "ĠAdmin": 12125,
  "ĠAdministration": 14651,
  "ĠAdolf": 22222,
  "ĠAdopt": 22223,
  "ĠAdoption": 23598,
  "ĠAdri": 25768,
  "ĠAdrian": 8753,
  "ĠAdriano": 14576,
  "ĠAdv": 7855,
  "ĠAdvance": 11655,
  "ĠAdvanced": 22858,
  "ĠAdvantage": 22857,
  "ĠAdvis": 16483,
  "ĠAdvisors": 23320,
  "ĠAdvisory": 27292,
  "ĠAdvoc": 26632,
  "ĠAer": 11317,
  "ĠAf": 1756,
  "ĠAff": 7379,
  "ĠAffairs": 7494,
  "ĠAfghan": 8738,
  "ĠAfghanistan": 8844,
  "ĠAfric": 1907,
  "ĠAfrica": 2485,
  "ĠAfrican": 4375,
  "ĠAfricans": 14298,
  "ĠAfter": 3793,
  "ĠAg": 2210,
  "ĠAgain": 17884,
  "ĠAgainst": 8754,
  "ĠAgassi": 6464,
  "ĠAge": 9428,
  "ĠAgence": 16486,
  "ĠAgency": 5770,
  "ĠAgenda": 25770,
  "ĠAgent": 16484,
  "ĠAggreg": 25771,
  "ĠAgnell": 19722,
  "ĠAgnelli": 20658,
  "ĠAgree": 16485,
  "ĠAgreement": 18546,
  "ĠAgric": 9884,
  "ĠAgricultural": 15671,
  "ĠAgriculture": 14599,
  "ĠAgroflora": 22224,
  "ĠAgu": 9267,
  "ĠAguas": 13687,
  "ĠAguilera": 14587,
  "ĠAhead": 24474,
  "ĠAhern": 24475,
  "ĠAhmed": 24483,
  "ĠAhold": 12477,
  "ĠAi": 29463,
  "ĠAid": 5193,
  "ĠAids": 8645,
  "ĠAin": 29464,
  "ĠAir": 2654,
  "ĠAirbus": 6847,
  "ĠAires": 13985,
  "ĠAirline": 22312,
  "ĠAirlines": 6978,
  "ĠAirport": 14351,
  "ĠAirways": 7867,
  "ĠAish": 21273,
  "ĠAitken": 21282,
  "ĠAiy": 19019,
  "ĠAiyar": 23422,
  "ĠAiz": 29468,
  "ĠAjax": 17342,
  "ĠAk": 11316,
  "ĠAkamai": 20333,
  "ĠAl": 1083,
  "ĠAlabama": 25358,
  "ĠAlain": 19517,
  "ĠAlan": 3021,
  "ĠAlastair": 8463,
  "ĠAlb": 19516,
  "ĠAlban": 11444,
  "ĠAlbania": 16877,
  "ĠAlbanian": 18388,
  "ĠAlbert": 13385,
  "ĠAlberto": 25356,
  "ĠAlbum": 25353,
  "ĠAlc": 17703,
  "ĠAlcatel": 27350,
  "ĠAlcohol": 21912,
  "ĠAlda": 19020,
  "ĠAle": 21272,
  "ĠAleg": 21276,
  "ĠAlegre": 23532,
  "ĠAlert": 25354,
  "ĠAlessandro": 19522,
  "ĠAlex": 3421,
  "ĠAlexand": 17988,
  "ĠAlexander": 6731,
  "ĠAlexandra": 27366,
  "ĠAlexandria": 27367,
  "ĠAlf": 8644,
  "ĠAlfa": 12917,
  "ĠAlfonso": 22918,
  "ĠAlfred": 22917,
  "ĠAlgeria": 19519,
  "ĠAli": 10091,
  "ĠAliadiere": 26858,
  "ĠAlice": 19518,
  "ĠAlicia": 7263,
  "ĠAlistair": 19521,
  "ĠAlitalia": 16346,
  "ĠAlive": 25351,
  "ĠAll": 2113,
  "ĠAllah": 22191,
  "ĠAllahgreen": 23594,
  "ĠAllan": 15326,
  "ĠAllard": 17866,
  "ĠAllardy": 22192,
  "ĠAllardyce": 23595,
  "ĠAllen": 11882,
  "ĠAlley": 25352,
  "ĠAlli": 25737,
  "ĠAlliance": 8292,
  "ĠAllianz": 25738,
  "ĠAllied": 17867,
  "ĠAlmost": 8714,
  "ĠAlmunia": 10963,
  "ĠAlong": 14211,
  "ĠAlonso": 21914,
  "ĠAloud": 25355,
  "ĠAlready": 12658,
  "ĠAlso": 5275,
  "ĠAlt": 15201,
  "ĠAlthough": 4125,
  "ĠAltogether": 21913,
  "ĠAltria": 16963,
  "ĠAlun": 25350,
  "ĠAlvarez": 25357,
  "ĠAlzheimer": 19520,
  "ĠAm": 2230,
  "ĠAmanda": 17886,
  "ĠAmaz": 7291,
  "ĠAmazon": 7708,
  "ĠAmban": 12716,
  "ĠAmbani": 12990,
  "ĠAmbev": 19725,
  "ĠAme": 19016,
  "ĠAmelie": 16488,
  "ĠAmeobi": 23421,
  "ĠAmeric": 1305,
  "ĠAmerica": 2844,
  "ĠAmerican": 1933,
  "ĠAmericans": 6449,
  "ĠAmericas": 25477,
  "ĠAmes": 29469,
  "ĠAmicus": 12127,
  "ĠAmiga": 25776,
  "ĠAmnesty": 15335,
  "ĠAmong": 5928,
  "ĠAmor": 22230,
  "ĠAmpas": 29476,
  "ĠAmro": 13486,
  "ĠAmsterdam": 11027,
  "ĠAmy": 22229,
  "ĠAn": 1218,
  "ĠAna": 25411,
  "ĠAnaly": 25413,
  "ĠAnalys": 17730,
  "ĠAnalysts": 4017,
  "ĠAnalysys": 23364,
  "ĠAnalytics": 27801,
  "ĠAnast": 12060,
  "ĠAnastacia": 23111,
  "ĠAnastasia": 15725,
  "ĠAnc": 8257,
  "ĠAncel": 25416,
  "ĠAncelotti": 27802,
  "ĠAncic": 18244,
  "ĠAncram": 9980,
  "ĠAnd": 853,
  "ĠAnder": 25226,
  "ĠAnders": 11429,
  "ĠAndersen": 14635,
  "ĠAnderson": 9824,
  "ĠAndhra": 21842,
  "ĠAndre": 4719,
  "ĠAndrea": 12218,
  "ĠAndreas": 8322,
  "ĠAndrei": 26238,
  "ĠAndrew": 3513,
  "ĠAndrews": 12777,
  "ĠAndy": 3087,
  "ĠAnelka": 12670,
  "ĠAnfield": 7122,
  "ĠAng": 2580,
  "ĠAngel": 3995,
  "ĠAngeles": 4415,
  "ĠAngelina": 26116,
  "ĠAngels": 6977,
  "ĠAngie": 22297,
  "ĠAnglia": 25856,
  "ĠAnglo": 16520,
  "ĠAngola": 12142,
  "ĠAngolan": 19763,
  "ĠAnil": 11454,
  "ĠAnita": 25414,
  "ĠAnn": 8469,
  "ĠAnna": 16366,
  "ĠAnnadale": 26710,
  "ĠAnne": 11455,
  "ĠAnnette": 19545,
  "ĠAnonymous": 25415,
  "ĠAnother": 5148,
  "ĠAnsel": 25412,
  "ĠAnselmo": 27800,
  "ĠAnt": 4147,
  "ĠAnthony": 9239,
  "ĠAnti": 6256,
  "ĠAnton": 9305,
  "ĠAntonio": 11168,
  "ĠAny": 6693,
  "ĠAnyone": 14525,
  "ĠAon": 29465,
  "ĠAp": 5967,
  "ĠApacs": 20079,
  "ĠApart": 17340,
  "ĠApollo": 26413,
  "ĠApp": 10842,
  "ĠAppe": 7699,
  "ĠAppeal": 9651,
  "ĠAppeals": 16776,
  "ĠAppl": 26912,
  "ĠApple": 2296,
  "ĠAppleton": 25793,
  "ĠApprentice": 23055,
  "ĠApr": 2908,
  "ĠApril": 2930,
  "ĠAqu": 24473,
  "ĠAr": 1016,
  "ĠArab": 7424,
  "ĠArabia": 11140,
  "ĠAraf": 29473,
  "ĠAragones": 9226,
  "ĠAram": 29466,
  "ĠArash": 16336,
  "ĠArbitration": 12047,
  "ĠArbor": 21893,
  "ĠArch": 8249,
  "ĠArchbishop": 15624,
  "ĠArcher": 12648,
  "ĠArchibald": 26685,
  "ĠArchos": 16797,
  "ĠArd": 25319,
  "ĠAre": 8392,
  "ĠArea": 18252,
  "ĠAren": 21274,
  "ĠArena": 23530,
  "ĠArese": 26700,
  "ĠAret": 29467,
  "ĠArgent": 3455,
  "ĠArgentina": 4966,
  "ĠArgentinas": 14399,
  "ĠArgentine": 6994,
  "ĠArgonaut": 10179,
  "ĠAri": 16041,
  "ĠAriel": 27255,
  "ĠArjan": 21894,
  "ĠArjen": 15187,
  "ĠArkansas": 21896,
  "ĠArm": 15186,
  "ĠArmed": 25321,
  "ĠArmes": 17692,
  "ĠArms": 16335,
  "ĠArmstrong": 23267,
  "ĠArmy": 9831,
  "ĠArna": 25320,
  "ĠArnaud": 27795,
  "ĠArnesen": 13380,
  "ĠArnold": 9832,
  "ĠAround": 16045,
  "ĠArrese": 19493,
  "ĠArsenal": 2693,
  "ĠArsene": 9833,
  "ĠArt": 9830,
  "ĠArteta": 26834,
  "ĠArthur": 12649,
  "ĠArtic": 25322,
  "ĠArtists": 26833,
  "ĠArts": 6689,
  "ĠArvind": 21895,
  "ĠAs": 891,
  "ĠAsante": 25251,
  "ĠAsh": 4827,
  "ĠAshburton": 26252,
  "ĠAshcroft": 15494,
  "ĠAshdown": 18084,
  "ĠAshfield": 22609,
  "ĠAshley": 9045,
  "ĠAshvin": 22610,
  "ĠAsia": 3486,
  "ĠAsian": 3800,
  "ĠAsians": 21858,
  "ĠAsimo": 12639,
  "ĠAsk": 4619,
  "ĠAsked": 7889,
  "ĠAss": 8960,
  "ĠAssault": 13679,
  "ĠAssembly": 8453,
  "ĠAsset": 17670,
  "ĠAssigned": 25252,
  "ĠAssistant": 20235,
  "ĠAssoci": 2510,
  "ĠAssociated": 9273,
  "ĠAssociation": 2765,
  "ĠAst": 14941,
  "ĠAster": 21275,
  "ĠAsteroid": 23531,
  "ĠAston": 8179,
  "ĠAt": 1424,
  "ĠAtari": 22022,
  "ĠAth": 16042,
  "ĠAthens": 3280,
  "ĠAthlet": 29472,
  "ĠAthlete": 20512,
  "ĠAthletics": 6776,
  "ĠAtlantic": 9858,
  "ĠAtlas": 22023,
  "ĠAtletico": 19591,
  "ĠAtom": 14254,
  "ĠAtomic": 16938,
  "ĠAtt": 6700,
  "ĠAttack": 26506,
  "ĠAttic": 17768,
  "ĠAtticus": 18593,
  "ĠAttorney": 9334,
  "ĠAtwood": 25520,
  "ĠAuck": 24476,
  "ĠAuckland": 27701,
  "ĠAuction": 24479,
  "ĠAud": 6299,
  "ĠAudit": 9952,
  "ĠAudrey": 15558,
  "ĠAug": 3446,
  "ĠAugust": 3499,
  "ĠAur": 14942,
  "ĠAure": 16044,
  "ĠAurelien": 16983,
  "ĠAurora": 16949,
  "ĠAusch": 16046,
  "ĠAuschwitz": 16984,
  "ĠAuss": 17339,
  "ĠAussie": 23345,
  "ĠAust": 1608,
  "ĠAustin": 25586,
  "ĠAustral": 1745,
  "ĠAustralia": 3006,
  "ĠAustralian": 2649,
  "ĠAustria": 10998,
  "ĠAustrian": 13434,
  "ĠAut": 4604,
  "ĠAuthor": 8096,
  "ĠAuthority": 8578,
  "ĠAuto": 9042,
  "ĠAutoLink": 18291,
  "ĠAutom": 16649,
  "ĠAutomotive": 18550,
  "ĠAuver": 29478,
  "ĠAux": 24478,
  "ĠAv": 7060,
  "ĠAval": 24477,
  "ĠAvenue": 29474,
  "ĠAvi": 3080,
  "ĠAviation": 15398,
  "ĠAviator": 3327,
  "ĠAviv": 9644,
  "ĠAvonex": 26552,
  "ĠAvril": 22809,
  "ĠAward": 5061,
  "ĠAwards": 3081,
  "ĠAway": 19017,
  "ĠAxa": 12479,
  "ĠAy": 21271,
  "ĠAyers": 29471,
  "ĠAyn": 21277,
  "ĠAynsley": 23533,
  "ĠAz": 10090,
  "ĠAzkab": 13701,
  "ĠAzkaban": 13776,
  "ĠAzmat": 26857,
  "ĠAzz": 21278,
  "ĠAzzurri": 27519,
  "ĠB": 324,
  "ĠBA": 9123,
  "ĠBAA": 11861,
  "ĠBBA": 21232,
  "ĠBBC": 863,
  "ĠBCC": 17320,
  "ĠBDO": 13174,
  "ĠBHP": 29327,
  "ĠBL": 17313,
  "ĠBLB": 23344,
  "ĠBM": 6294,
  "ĠBMG": 22746,
  "ĠBMW": 7328,
  "ĠBNP": 7754,
  "ĠBOA": 24415,
  "ĠBP": 13166,
  "ĠBPI": 11862,
  "ĠBR": 21220,
  "ĠBRC": 17322,
  "ĠBSA": 24410,
  "ĠBSE": 29312,
  "ĠBSL": 18975,
  "ĠBSky": 13173,
  "ĠBSkyB": 13765,
  "ĠBT": 2880,
  "ĠBU": 29292,
  "ĠBa": 2895,
  "ĠBaFin": 17946,
  "ĠBaa": 25916,
  "ĠBab": 12462,
  "ĠBabayaro": 20391,
  "ĠBabinet": 18974,
  "ĠBaby": 4513,
  "ĠBabys": 23125,
  "ĠBac": 29295,
  "ĠBach": 13171,
  "ĠBack": 8889,
  "ĠBackley": 26744,
  "ĠBacon": 29322,
  "ĠBad": 12461,
  "ĠBaez": 25917,
  "ĠBaf": 21227,
  "ĠBafana": 23523,
  "ĠBaft": 4847,
  "ĠBafta": 5614,
  "ĠBaftas": 12824,
  "ĠBag": 7753,
  "ĠBaghdad": 10699,
  "ĠBagle": 15608,
  "ĠBah": 24407,
  "ĠBahamas": 25918,
  "ĠBahoken": 27685,
  "ĠBaikal": 7656,
  "ĠBailey": 13521,
  "ĠBak": 13969,
  "ĠBaker": 17318,
  "ĠBakers": 29315,
  "ĠBakrie": 20440,
  "ĠBal": 4701,
  "ĠBalado": 22598,
  "ĠBalco": 7314,
  "ĠBald": 18972,
  "ĠBalfour": 22599,
  "ĠBalk": 21230,
  "ĠBall": 13169,
  "ĠBallard": 27080,
  "ĠBallet": 13581,
  "ĠBalls": 9419,
  "ĠBally": 21222,
  "ĠBallymena": 27514,
  "ĠBalshaw": 29332,
  "ĠBan": 16014,
  "ĠBanc": 24399,
  "ĠBand": 7538,
  "ĠBang": 7539,
  "ĠBangkok": 14541,
  "ĠBangl": 13650,
  "ĠBangladesh": 15757,
  "ĠBangor": 26605,
  "ĠBank": 1882,
  "ĠBankers": 19676,
  "ĠBanking": 22150,
  "ĠBanks": 16017,
  "ĠBann": 16016,
  "ĠBannatyne": 23298,
  "ĠBannister": 27251,
  "ĠBanque": 27250,
  "ĠBanton": 29324,
  "ĠBaoshan": 25919,
  "ĠBar": 1928,
  "ĠBarb": 8996,
  "ĠBarbara": 12301,
  "ĠBarbarians": 17848,
  "ĠBarber": 19683,
  "ĠBarbra": 20237,
  "ĠBarca": 22164,
  "ĠBarcelona": 5295,
  "ĠBarcl": 22163,
  "ĠBarclay": 23592,
  "ĠBarclays": 8284,
  "ĠBaretta": 29334,
  "ĠBarings": 25671,
  "ĠBark": 6645,
  "ĠBarker": 20128,
  "ĠBarkley": 7491,
  "ĠBarley": 25672,
  "ĠBarn": 17846,
  "ĠBarnard": 20585,
  "ĠBarnes": 25673,
  "ĠBarnet": 25675,
  "ĠBarney": 25674,
  "ĠBaron": 9873,
  "ĠBaroness": 11693,
  "ĠBaros": 12705,
  "ĠBarr": 19682,
  "ĠBarrie": 25676,
  "ĠBarroso": 17847,
  "ĠBarrow": 25670,
  "ĠBarry": 8283,
  "ĠBarrymore": 26687,
  "ĠBart": 12463,
  "ĠBartlett": 18412,
  "ĠBarton": 27034,
  "ĠBas": 11860,
  "ĠBase": 17317,
  "ĠBased": 21223,
  "ĠBash": 24402,
  "ĠBashir": 27682,
  "ĠBasing": 21229,
  "ĠBasingstoke": 23524,
  "ĠBasra": 26991,
  "ĠBat": 12460,
  "ĠBates": 9124,
  "ĠBath": 6080,
  "ĠBatt": 21224,
  "ĠBatter": 17319,
  "ĠBattle": 12466,
  "ĠBattlefront": 15731,
  "ĠBaume": 16554,
  "ĠBay": 5057,
  "ĠBayer": 16672,
  "ĠBayern": 13590,
  "ĠBe": 1726,
  "ĠBea": 16434,
  "ĠBeach": 14282,
  "ĠBean": 25622,
  "ĠBear": 10833,
  "ĠBeast": 12697,
  "ĠBeastie": 14670,
  "ĠBeat": 8489,
  "ĠBeatle": 18259,
  "ĠBeatles": 13668,
  "ĠBeattie": 11493,
  "ĠBeatty": 18260,
  "ĠBeautiful": 15292,
  "ĠBeauty": 19655,
  "ĠBeauv": 27291,
  "ĠBec": 4989,
  "ĠBecause": 10293,
  "ĠBeck": 7476,
  "ĠBeckham": 9648,
  "ĠBeckhams": 26603,
  "ĠBecky": 18092,
  "ĠBed": 9732,
  "ĠBedford": 22982,
  "ĠBedingfield": 18322,
  "ĠBedwellty": 26823,
  "ĠBee": 24403,
  "ĠBeeks": 29326,
  "ĠBeen": 19654,
  "ĠBeenie": 23458,
  "ĠBefore": 6966,
  "ĠBegg": 12698,
  "ĠBegins": 25623,
  "ĠBehind": 22127,
  "ĠBeijing": 6967,
  "ĠBeing": 15291,
  "ĠBeirut": 19657,
  "ĠBeith": 16435,
  "ĠBekele": 10583,
  "ĠBel": 3728,
  "ĠBelafonte": 22509,
  "ĠBelfast": 13555,
  "ĠBelg": 6478,
  "ĠBelgian": 9330,
  "ĠBelgium": 11621,
  "ĠBell": 3445,
  "ĠBellamy": 6137,
  "ĠBelle": 19879,
  "ĠBelmar": 22508,
  "ĠBelmarsh": 11561,
  "ĠBelow": 22507,
  "ĠBen": 3299,
  "ĠBenc": 29303,
  "ĠBend": 29298,
  "ĠBenin": 19841,
  "ĠBening": 10081,
  "ĠBenita": 22426,
  "ĠBenitez": 5935,
  "ĠBenjamin": 26000,
  "ĠBenn": 6296,
  "ĠBennett": 7900,
  "ĠBenny": 20102,
  "ĠBent": 21221,
  "ĠBenz": 22425,
  "ĠBer": 3679,
  "ĠBerg": 8171,
  "ĠBergamasco": 9977,
  "ĠBerger": 16602,
  "ĠBergkamp": 20207,
  "ĠBering": 29309,
  "ĠBerlin": 6252,
  "ĠBerlinale": 18156,
  "ĠBerlus": 15437,
  "ĠBerlusconi": 15788,
  "ĠBerman": 22499,
  "ĠBern": 4475,
  "ĠBernabe": 12202,
  "ĠBernabeu": 12347,
  "ĠBernal": 26199,
  "ĠBernard": 7472,
  "ĠBernath": 19947,
  "ĠBernie": 12201,
  "ĠBerry": 14922,
  "ĠBert": 16601,
  "ĠBerti": 22500,
  "ĠBest": 5965,
  "ĠBet": 4754,
  "ĠBetamax": 12818,
  "ĠBethnal": 18081,
  "ĠBets": 12464,
  "ĠBetsen": 12983,
  "ĠBetter": 19973,
  "ĠBetts": 19974,
  "ĠBetty": 26240,
  "ĠBetween": 12219,
  "ĠBever": 11303,
  "ĠBeverly": 12962,
  "ĠBew": 29296,
  "ĠBeyonce": 19656,
  "ĠBeyond": 17829,
  "ĠBez": 10582,
  "ĠBi": 13167,
  "ĠBiarritz": 17321,
  "ĠBible": 29304,
  "ĠBicester": 29314,
  "ĠBig": 5192,
  "ĠBigger": 26305,
  "ĠBill": 2746,
  "ĠBillboard": 12152,
  "ĠBillion": 24400,
  "ĠBillionaire": 27681,
  "ĠBilly": 11863,
  "ĠBin": 17314,
  "ĠBingham": 21231,
  "ĠBinks": 29311,
  "ĠBinoche": 27326,
  "ĠBiogen": 20420,
  "ĠBioware": 27079,
  "ĠBir": 10831,
  "ĠBird": 29306,
  "ĠBirk": 23052,
  "ĠBirkenhead": 23053,
  "ĠBirkett": 27612,
  "ĠBirmingham": 4106,
  "ĠBis": 29293,
  "ĠBisc": 24408,
  "ĠBish": 16015,
  "ĠBishop": 16981,
  "ĠBitTorrent": 5815,
  "ĠBiz": 21226,
  "ĠBj": 9731,
  "ĠBjorn": 10719,
  "ĠBl": 689,
  "ĠBlack": 2522,
  "ĠBlackadder": 25845,
  "ĠBlackber": 14340,
  "ĠBlackberries": 23226,
  "ĠBlackberry": 20454,
  "ĠBlackburn": 8061,
  "ĠBlackman": 25843,
  "ĠBlackpool": 8764,
  "ĠBlacks": 6579,
  "ĠBlackwatch": 25844,
  "ĠBlades": 21757,
  "ĠBlair": 1000,
  "ĠBlake": 10518,
  "ĠBlanche": 8949,
  "ĠBlanchett": 9068,
  "ĠBland": 29300,
  "ĠBlazin": 21759,
  "ĠBlears": 16019,
  "ĠBlind": 25128,
  "ĠBlinkx": 12009,
  "ĠBloc": 19385,
  "ĠBlog": 7102,
  "ĠBlogg": 13330,
  "ĠBlogger": 15587,
  "ĠBloggers": 20427,
  "ĠBloggies": 20428,
  "ĠBloglines": 11138,
  "ĠBlogs": 17618,
  "ĠBloom": 16271,
  "ĠBlu": 7101,
  "ĠBlue": 6096,
  "ĠBlues": 6803,
  "ĠBluetooth": 9814,
  "ĠBlume": 21758,
  "ĠBlunkett": 3248,
  "ĠBly": 29294,
  "ĠBnei": 29331,
  "ĠBo": 1988,
  "ĠBoE": 22174,
  "ĠBoard": 5844,
  "ĠBoateng": 11501,
  "ĠBob": 5466,
  "ĠBobby": 13601,
  "ĠBoca": 24411,
  "ĠBod": 17316,
  "ĠBody": 18970,
  "ĠBoeing": 5593,
  "ĠBoerse": 4233,
  "ĠBofra": 14307,
  "ĠBog": 10079,
  "ĠBogd": 11179,
  "ĠBogdanovic": 12331,
  "ĠBohemian": 25699,
  "ĠBoi": 25697,
  "ĠBoing": 25698,
  "ĠBol": 4798,
  "ĠBoll": 29301,
  "ĠBollywood": 8542,
  "ĠBolton": 7684,
  "ĠBolz": 26243,
  "ĠBomb": 7954,
  "ĠBombardier": 16785,
  "ĠBombay": 13659,
  "ĠBon": 7055,
  "ĠBond": 4988,
  "ĠBondaren": 22624,
  "ĠBondarenko": 23617,
  "ĠBondi": 19992,
  "ĠBonds": 22623,
  "ĠBones": 24401,
  "ĠBonnaire": 18192,
  "ĠBonnie": 26550,
  "ĠBono": 12885,
  "ĠBoo": 19689,
  "ĠBoogeyman": 27451,
  "ĠBook": 7375,
  "ĠBooked": 26593,
  "ĠBooker": 14536,
  "ĠBooking": 29318,
  "ĠBoot": 29307,
  "ĠBooth": 15315,
  "ĠBoothroyd": 18509,
  "ĠBoots": 24413,
  "ĠBor": 7056,
  "ĠBorder": 29319,
  "ĠBorders": 7057,
  "ĠBoris": 26551,
  "ĠBorn": 13172,
  "ĠBoro": 12886,
  "ĠBorrowing": 21233,
  "ĠBorth": 12465,
  "ĠBorthwick": 12984,
  "ĠBortolami": 10082,
  "ĠBorussia": 12887,
  "ĠBos": 10078,
  "ĠBosch": 20285,
  "ĠBoston": 8890,
  "ĠBosvelt": 18335,
  "ĠBosworth": 26856,
  "ĠBot": 13168,
  "ĠBoth": 4038,
  "ĠBotin": 16913,
  "ĠBots": 29310,
  "ĠBou": 12459,
  "ĠBoulevard": 18411,
  "ĠBoulton": 29328,
  "ĠBount": 29299,
  "ĠBour": 17315,
  "ĠBourgoin": 29323,
  "ĠBourn": 10834,
  "ĠBourne": 18570,
  "ĠBournemouth": 13718,
  "ĠBov": 21225,
  "ĠBovina": 23522,
  "ĠBow": 4354,
  "ĠBowden": 22563,
  "ĠBowe": 16636,
  "ĠBowen": 26177,
  "ĠBowers": 29313,
  "ĠBowie": 22562,
  "ĠBowl": 8318,
  "ĠBowles": 14431,
  "ĠBowyer": 15463,
  "ĠBox": 10080,
  "ĠBoxing": 12314,
  "ĠBoy": 6185,
  "ĠBoyd": 11612,
  "ĠBoyle": 22741,
  "ĠBoynton": 26440,
  "ĠBoys": 6403,
  "ĠBr": 2702,
  "ĠBra": 8888,
  "ĠBrad": 8299,
  "ĠBradshaw": 16798,
  "ĠBrady": 16527,
  "ĠBraff": 18285,
  "ĠBraille": 26743,
  "ĠBramble": 18976,
  "ĠBrando": 10246,
  "ĠBrankin": 22319,
  "ĠBranson": 19782,
  "ĠBrass": 25877,
  "ĠBratman": 29333,
  "ĠBravery": 13676,
  "ĠBrazil": 4145,
  "ĠBrazilian": 7002,
  "ĠBrazilians": 26143,
  "ĠBre": 6521,
  "ĠBreak": 8559,
  "ĠBreakfast": 9063,
  "ĠBreat": 29302,
  "ĠBrem": 24406,
  "ĠBrendan": 26478,
  "ĠBrennan": 24414,
  "ĠBrent": 8635,
  "ĠBrentford": 15637,
  "ĠBret": 18969,
  "ĠBrett": 23415,
  "ĠBrew": 21228,
  "ĠBri": 10832,
  "ĠBrian": 4251,
  "ĠBrid": 18971,
  "ĠBridge": 7216,
  "ĠBridgeHead": 22822,
  "ĠBridget": 23416,
  "ĠBrig": 15372,
  "ĠBright": 8172,
  "ĠBrighton": 9978,
  "ĠBrigitte": 20492,
  "ĠBringing": 24412,
  "ĠBris": 29308,
  "ĠBristol": 8636,
  "ĠBrit": 696,
  "ĠBritain": 1224,
  "ĠBritannia": 19387,
  "ĠBritish": 1077,
  "ĠBritney": 16273,
  "ĠBriton": 8699,
  "ĠBritons": 5574,
  "ĠBritpop": 21762,
  "ĠBrits": 8698,
  "ĠBrive": 29320,
  "ĠBrixton": 14617,
  "ĠBrizzel": 20314,
  "ĠBro": 2745,
  "ĠBroad": 4845,
  "ĠBroadband": 12223,
  "ĠBroadcast": 8099,
  "ĠBroadcasters": 26657,
  "ĠBroadcasting": 11153,
  "ĠBroadreach": 18086,
  "ĠBroadway": 13587,
  "ĠBroes": 22324,
  "ĠBroken": 25887,
  "ĠBrom": 11302,
  "ĠBrook": 14362,
  "ĠBrooks": 19788,
  "ĠBrookside": 23227,
  "ĠBros": 9733,
  "ĠBrosnan": 16838,
  "ĠBrother": 5360,
  "ĠBrothers": 11105,
  "ĠBrow": 13170,
  "ĠBrown": 1151,
  "ĠBrowne": 14675,
  "ĠBrownsw": 25389,
  "ĠBrownsword": 27799,
  "ĠBru": 6295,
  "ĠBruce": 7329,
  "ĠBrun": 9896,
  "ĠBrunini": 26839,
  "ĠBruno": 13698,
  "ĠBrunswick": 26840,
  "ĠBrussels": 7461,
  "ĠBruvik": 20101,
  "ĠBry": 8169,
  "ĠBryan": 15619,
  "ĠBryn": 26665,
  "ĠBryson": 18236,
  "ĠBu": 5548,
  "ĠBubb": 29330,
  "ĠBuc": 24405,
  "ĠBuccane": 18123,
  "ĠBuccaneers": 20592,
  "ĠBucharest": 27684,
  "ĠBuck": 11304,
  "ĠBuckingham": 20332,
  "ĠBud": 14921,
  "ĠBudd": 11305,
  "ĠBuddy": 26957,
  "ĠBudge": 29317,
  "ĠBudget": 4003,
  "ĠBuena": 26359,
  "ĠBuenos": 13603,
  "ĠBuffy": 29325,
  "ĠBuhecha": 15532,
  "ĠBuild": 29316,
  "ĠBuilding": 13175,
  "ĠBul": 8634,
  "ĠBulgar": 9661,
  "ĠBulgaria": 13692,
  "ĠBulgarian": 15665,
  "ĠBull": 9125,
  "ĠBullet": 26722,
  "ĠBulloch": 18298,
  "ĠBullock": 18297,
  "ĠBun": 24397,
  "ĠBund": 24398,
  "ĠBundesbank": 27680,
  "ĠBungie": 29329,
  "ĠBunt": 24409,
  "ĠBuntes": 27686,
  "ĠBup": 29297,
  "ĠBur": 5121,
  "ĠBurea": 16018,
  "ĠBureau": 16982,
  "ĠBurg": 22640,
  "ĠBurger": 13592,
  "ĠBurke": 15513,
  "ĠBurma": 18101,
  "ĠBurn": 8170,
  "ĠBurnley": 12908,
  "ĠBurns": 16791,
  "ĠBurren": 22641,
  "ĠBurt": 18973,
  "ĠBurton": 16673,
  "ĠBush": 2731,
  "ĠBusiness": 8891,
  "ĠBusinesses": 26745,
  "ĠBuss": 29305,
  "ĠBussell": 29321,
  "ĠBusted": 11306,
  "ĠBut": 605,
  "ĠButler": 7800,
  "ĠButrag": 17578,
  "ĠButragueno": 18590,
  "ĠButter": 21690,
  "ĠBuy": 26358,
  "ĠBwalya": 24416,
  "ĠBy": 3535,
  "ĠByr": 8080,
  "ĠByrds": 26655,
  "ĠByrne": 8836,
  "ĠBys": 24404,
  "ĠBysshe": 27683,
  "ĠC": 349,
  "ĠCA": 10443,
  "ĠCAO": 26881,
  "ĠCAS": 20297,
  "ĠCBBC": 29548,
  "ĠCBI": 10447,
  "ĠCBO": 29549,
  "ĠCBS": 10095,
  "ĠCCTV": 29559,
  "ĠCD": 5552,
  "ĠCDP": 29543,
  "ĠCDs": 14470,
  "ĠCE": 4759,
  "ĠCEA": 11090,
  "ĠCEC": 24517,
  "ĠCEO": 14440,
  "ĠCES": 7170,
  "ĠCF": 17348,
  "ĠCG": 29521,
  "ĠCGI": 19040,
  "ĠCIPS": 29558,
  "ĠCJ": 17349,
  "ĠCM": 17350,
  "ĠCML": 16066,
  "ĠCNP": 19038,
  "ĠCNPC": 20622,
  "ĠCPL": 19041,
  "ĠCPS": 21302,
  "ĠCSA": 10850,
  "ĠCSI": 9135,
  "ĠCSOs": 13204,
  "ĠCVs": 29560,
  "ĠCa": 29522,
  "ĠCab": 7062,
  "ĠCaballer": 18193,
  "ĠCaballeros": 18596,
  "ĠCabinet": 4067,
  "ĠCabir": 8822,
  "ĠCable": 7381,
  "ĠCache": 24520,
  "ĠCad": 9134,
  "ĠCadbury": 15645,
  "ĠCadill": 15644,
  "ĠCadillac": 18517,
  "ĠCaf": 19037,
  "ĠCage": 19035,
  "ĠCah": 24515,
  "ĠCair": 24509,
  "ĠCaire": 29547,
  "ĠCairn": 9136,
  "ĠCairns": 27705,
  "ĠCairo": 24522,
  "ĠCal": 4111,
  "ĠCalder": 17355,
  "ĠCaled": 29538,
  "ĠCaliforn": 4503,
  "ĠCalifornia": 4858,
  "ĠCalifornian": 18065,
  "ĠCall": 13992,
  "ĠCallaghan": 10097,
  "ĠCalled": 21299,
  "ĠCaller": 21303,
  "ĠCalleri": 23537,
  "ĠCalyon": 26140,
  "ĠCam": 5391,
  "ĠCamara": 15525,
  "ĠCamb": 7761,
  "ĠCambodia": 26621,
  "ĠCambridge": 9061,
  "ĠCamer": 9938,
  "ĠCamera": 16686,
  "ĠCameron": 15672,
  "ĠCameroon": 14601,
  "ĠCamilla": 26330,
  "ĠCamp": 2821,
  "ĠCampaign": 16542,
  "ĠCampbell": 3287,
  "ĠCampese": 16543,
  "ĠCamus": 18115,
  "ĠCan": 3121,
  "ĠCanad": 4587,
  "ĠCanada": 5859,
  "ĠCanadian": 9309,
  "ĠCanal": 17959,
  "ĠCanary": 25961,
  "ĠCand": 17352,
  "ĠCandela": 20564,
  "ĠCandy": 24521,
  "ĠCannes": 10260,
  "ĠCant": 12488,
  "ĠCanterbury": 17960,
  "ĠCantona": 16900,
  "ĠCap": 4519,
  "ĠCapacity": 22579,
  "ĠCape": 10446,
  "ĠCapella": 18353,
  "ĠCapgem": 19951,
  "ĠCapgemini": 20663,
  "ĠCapital": 7680,
  "ĠCapra": 18066,
  "ĠCapriati": 18067,
  "ĠCaprice": 26210,
  "ĠCaptain": 15474,
  "ĠCar": 1702,
  "ĠCard": 3592,
  "ĠCardiff": 4548,
  "ĠCardinal": 19866,
  "ĠCardwell": 22482,
  "ĠCare": 13993,
  "ĠCarey": 27141,
  "ĠCarib": 8037,
  "ĠCaribbean": 9657,
  "ĠCaribs": 26654,
  "ĠCarl": 5026,
  "ĠCarling": 8488,
  "ĠCarlisle": 22628,
  "ĠCarlo": 19650,
  "ĠCarlos": 7477,
  "ĠCarls": 18096,
  "ĠCarlsberg": 20591,
  "ĠCarlsen": 26277,
  "ĠCarmen": 22117,
  "ĠCarneg": 25618,
  "ĠCarnegie": 27813,
  "ĠCarnival": 13442,
  "ĠCarol": 7634,
  "ĠCarolina": 10325,
  "ĠCaroline": 18215,
  "ĠCarpenter": 10580,
  "ĠCarr": 13440,
  "ĠCarrag": 14279,
  "ĠCarragher": 14697,
  "ĠCarrey": 15284,
  "ĠCarroll": 8737,
  "ĠCarrow": 25616,
  "ĠCarry": 13441,
  "ĠCars": 24512,
  "ĠCarson": 15283,
  "ĠCarstairs": 22118,
  "ĠCart": 24507,
  "ĠCarta": 29550,
  "ĠCartagena": 27704,
  "ĠCarter": 11887,
  "ĠCarval": 25617,
  "ĠCarvalho": 27812,
  "ĠCas": 9741,
  "ĠCasalme": 22983,
  "ĠCase": 17353,
  "ĠCasey": 23346,
  "ĠCash": 13198,
  "ĠCasino": 20268,
  "ĠCaspian": 29555,
  "ĠCast": 6188,
  "ĠCastaignede": 16715,
  "ĠCastle": 12250,
  "ĠCastro": 26441,
  "ĠCastrogiov": 14502,
  "ĠCastrogiovanni": 14701,
  "ĠCat": 13196,
  "ĠCatal": 23162,
  "ĠCate": 10093,
  "ĠCates": 24511,
  "ĠCath": 6407,
  "ĠCatherine": 14000,
  "ĠCatholic": 8334,
  "ĠCatholics": 14510,
  "ĠCatt": 29535,
  "ĠCaud": 21301,
  "ĠCaudwell": 23536,
  "ĠCavan": 29556,
  "ĠCe": 10848,
  "ĠCeBit": 26913,
  "ĠCebit": 16067,
  "ĠCech": 13200,
  "ĠCedric": 19042,
  "ĠCel": 29525,
  "ĠCele": 7544,
  "ĠCelebrity": 8574,
  "ĠCell": 4804,
  "ĠCellery": 19979,
  "ĠCellnet": 22606,
  "ĠCelltick": 15488,
  "ĠCeltic": 5124,
  "ĠCement": 24518,
  "ĠCens": 24508,
  "ĠCent": 2562,
  "ĠCenter": 9574,
  "ĠCentral": 7650,
  "ĠCentre": 6126,
  "ĠCentury": 6845,
  "ĠCepes": 24523,
  "ĠCeplak": 16860,
  "ĠCer": 14947,
  "ĠCeri": 20473,
  "ĠCern": 29537,
  "ĠCes": 10444,
  "ĠCesar": 14610,
  "ĠCesc": 26882,
  "ĠCh": 734,
  "ĠCha": 1517,
  "ĠChabal": 25554,
  "ĠChairman": 12685,
  "ĠChak": 16412,
  "ĠChakrab": 23319,
  "ĠChakrabarti": 23623,
  "ĠChallenge": 19612,
  "ĠChalone": 25555,
  "ĠCham": 8648,
  "ĠChamber": 13423,
  "ĠChambers": 9065,
  "ĠChampion": 19611,
  "ĠChampions": 2262,
  "ĠChampionship": 3257,
  "ĠChampionships": 4411,
  "ĠChan": 3447,
  "ĠChancellor": 5166,
  "ĠChand": 17786,
  "ĠChang": 15257,
  "ĠChange": 29539,
  "ĠChanges": 27217,
  "ĠChangyu": 27218,
  "ĠChannel": 5937,
  "ĠChaplin": 22050,
  "ĠChapter": 8483,
  "ĠChar": 1649,
  "ĠCharact": 25553,
  "ĠCharity": 17814,
  "ĠCharl": 17813,
  "ĠCharles": 2431,
  "ĠCharlie": 6232,
  "ĠCharlize": 22094,
  "ĠCharlotte": 23371,
  "ĠCharlton": 8735,
  "ĠChart": 16428,
  "ĠCharter": 25596,
  "ĠChartered": 9865,
  "ĠCharts": 22093,
  "ĠCharvis": 17815,
  "ĠChase": 17787,
  "ĠChat": 19036,
  "ĠChateau": 27410,
  "ĠChavez": 11479,
  "ĠChe": 1798,
  "ĠChead": 16059,
  "ĠCheadle": 16986,
  "ĠChela": 19667,
  "ĠChelsea": 2235,
  "ĠChemical": 17838,
  "ĠChen": 16058,
  "ĠCheney": 25644,
  "ĠChennai": 20515,
  "ĠChepkemei": 9253,
  "ĠCher": 13197,
  "ĠCherie": 25646,
  "ĠCherkas": 18443,
  "ĠCherkasky": 20598,
  "ĠChern": 16062,
  "ĠChernin": 18534,
  "ĠChes": 21298,
  "ĠCheshire": 27523,
  "ĠChester": 15301,
  "ĠCheung": 25645,
  "ĠChev": 17837,
  "ĠChevrolet": 23372,
  "ĠChicago": 7103,
  "ĠChico": 19405,
  "ĠChicoine": 20651,
  "ĠChidamb": 12625,
  "ĠChidambaram": 12987,
  "ĠChief": 5832,
  "ĠChiefs": 22702,
  "ĠChild": 5907,
  "ĠChildren": 8809,
  "ĠChile": 10527,
  "ĠChilean": 15685,
  "ĠChin": 25163,
  "ĠChina": 1620,
  "ĠChinese": 3619,
  "ĠChip": 25165,
  "ĠChirac": 12017,
  "ĠChoice": 10528,
  "ĠChoir": 25166,
  "ĠChor": 10526,
  "ĠChorlton": 26890,
  "ĠChorus": 15684,
  "ĠChris": 4397,
  "ĠChrist": 1644,
  "ĠChristian": 5587,
  "ĠChristians": 25594,
  "ĠChristie": 15272,
  "ĠChristina": 22092,
  "ĠChristine": 22091,
  "ĠChristmas": 2375,
  "ĠChristop": 7842,
  "ĠChristophe": 14553,
  "ĠChristopher": 11147,
  "ĠChristos": 14274,
  "ĠChronic": 12016,
  "ĠChronicle": 14648,
  "ĠChronicles": 27006,
  "ĠChrysler": 17637,
  "ĠChum": 25164,
  "ĠChurch": 8231,
  "ĠChurchill": 22892,
  "ĠChuter": 25167,
  "ĠCiara": 24525,
  "ĠCicero": 11888,
  "ĠCinc": 29541,
  "ĠCinem": 11320,
  "ĠCinema": 12963,
  "ĠCingular": 29563,
  "ĠCirc": 13202,
  "ĠCircle": 23163,
  "ĠCircuit": 27083,
  "ĠCircuits": 27084,
  "ĠCisco": 21304,
  "ĠCisse": 29552,
  "ĠCit": 19032,
  "ĠCities": 29534,
  "ĠCitigroup": 8395,
  "ĠCitiz": 13999,
  "ĠCitizen": 27145,
  "ĠCitizens": 18468,
  "ĠCity": 3049,
  "ĠCivil": 13201,
  "ĠCl": 1266,
  "ĠCla": 8260,
  "ĠClaire": 21973,
  "ĠClapton": 19555,
  "ĠClara": 14233,
  "ĠClare": 14232,
  "ĠClark": 6561,
  "ĠClarke": 3458,
  "ĠClarkson": 12875,
  "ĠClass": 13397,
  "ĠClassic": 16918,
  "ĠClassification": 27101,
  "ĠClaud": 25440,
  "ĠClaude": 20214,
  "ĠClaudia": 27803,
  "ĠClaxton": 11661,
  "ĠClay": 21971,
  "ĠCle": 14948,
  "ĠClear": 9433,
  "ĠClearing": 27195,
  "ĠClearly": 22965,
  "ĠClears": 16065,
  "ĠClearstream": 15658,
  "ĠClearswift": 20516,
  "ĠClement": 16064,
  "ĠCliff": 16371,
  "ĠClijsters": 10852,
  "ĠClimax": 21974,
  "ĠClint": 6009,
  "ĠClinton": 11125,
  "ĠClithero": 25441,
  "ĠClitheroe": 27804,
  "ĠClive": 5281,
  "ĠClo": 14950,
  "ĠClooney": 16952,
  "ĠCloser": 9241,
  "ĠCloud": 21972,
  "ĠClub": 6696,
  "ĠClubs": 25439,
  "ĠCluley": 12064,
  "ĠClyde": 19039,
  "ĠCo": 2627,
  "ĠCoach": 15364,
  "ĠCoal": 13506,
  "ĠCoalition": 23178,
  "ĠCoast": 12145,
  "ĠCob": 12489,
[...]
